▁like	-4.16895
<s>	0
</s>	0
<unk>	0
▁wa	-4.17269
▁feel	-4.23057
▁anxiety	-4.62559
▁get	-4.6349
▁know	-4.65206
▁time	-4.83576
▁want	-4.85571
▁even	-4.88258
▁really	-4.96308
▁day	-4.98697
▁life	-5.00774
▁year	-5.05709
▁thing	-5.1131
▁people	-5.20951
▁ha	-5.26383
▁think	-5.28478
▁would	-5.2979
▁one	-5.32635
▁make	-5.33316
▁go	-5.36442
▁friend	-5.37327
▁help	-5.37506
▁going	-5.42626
▁much	-5.43758
▁something	-5.49418
▁feeling	-5.50224
▁thought	-5.54568
▁never	-5.55845
▁work	-5.56921
▁back	-5.62713
▁got	-5.67169
▁anyone	-5.67409
▁always	-5.6765
▁still	-5.70584
▁job	-5.71832
▁also	-5.75413
▁bad	-5.75674
▁could	-5.76198
▁anything	-5.76461
▁way	-5.77253
▁depression	-5.79942
▁good	-5.8159
▁take	-5.84684
▁someone	-5.87583
▁every	-5.88173
▁say	-5.88767
▁getting	-5.89065
▁month	-5.89663
▁since	-5.90568
▁week	-5.90568
▁_	-5.91482
▁need	-5.91482
▁last	-5.92403
▁better	-5.94273
▁started	-5.94273
▁everything	-5.96498
▁attack	-6.0178
▁school	-6.0246
▁lot	-6.03145
▁point	-6.03835
▁see	-6.09165
▁anxious	-6.09897
▁try	-6.10266
▁right	-6.10635
▁first	-6.11007
▁panic	-6.12505
▁else	-6.13643
▁family	-6.1596
▁person	-6.17535
▁felt	-6.18332
▁trying	-6.18332
▁anymore	-6.19135
▁nothing	-6.19539
▁well	-6.19539
▁ever	-6.19945
▁hard	-6.19945
▁around	-6.21172
▁long	-6.21998
▁talk	-6.22831
▁thinking	-6.23251
▁hate	-6.23672
▁tell	-6.24519
▁im	-6.2667
▁able	-6.27105
▁said	-6.29761
▁new	-6.3021
▁made	-6.30661
▁come	-6.3157
▁away	-6.32028
▁find	-6.32488
▁love	-6.33414
▁told	-6.33414
▁everyone	-6.3388
▁keep	-6.3388
▁start	-6.3388
▁worse	-6.34348
▁ago	-6.34819
▁stop	-6.36244
▁2	-6.37206
▁past	-6.39157
▁went	-6.40646
▁actually	-6.43178
▁end	-6.43178
▁give	-6.43178
▁doe	-6.44209
▁sleep	-6.4525
▁happy	-6.45775
▁sure	-6.45775
▁home	-6.46303
▁little	-6.46303
▁sometimes	-6.46303
▁alone	-6.47367
▁night	-6.47367
▁reason	-6.48442
▁though	-6.48442
▁scared	-6.49529
▁best	-6.50628
▁hour	-6.51182
▁live	-6.51182
▁parent	-6.51182
▁today	-6.51182
▁almost	-6.52299
▁tried	-6.53429
▁two	-6.53429
▁care	-6.53999
▁cry	-6.53999
▁look	-6.55149
▁health	-6.56311
▁many	-6.56311
▁maybe	-6.56898
▁mental	-6.57488
▁enough	-6.58678
▁fucking	-6.59279
▁doctor	-6.59883
▁pain	-6.59883
▁taking	-6.59883
▁body	-6.60491
▁fear	-6.60491
▁head	-6.60491
▁mind	-6.63587
▁without	-6.63587
▁done	-6.64853
▁problem	-6.65492
▁post	-6.66135
▁wanted	-6.66782
▁3	-6.67434
▁shit	-6.6875
▁tired	-6.6875
▁depressed	-6.69414
▁medication	-6.69414
▁another	-6.70083
▁making	-6.70083
▁self	-6.70083
▁therapy	-6.70756
▁wrong	-6.72804
▁relationship	-6.73496
▁issue	-6.74193
▁pretty	-6.74193
▁place	-6.75602
▁dont	-6.76313
▁advice	-6.7703
▁experience	-6.7703
▁let	-6.77752
▁put	-6.77752
▁hope	-6.7848
▁either	-6.79212
▁used	-6.79212
▁working	-6.79212
▁med	-6.7995
▁guy	-6.81443
▁left	-6.82958
▁lost	-6.82958
▁recently	-6.82958
▁next	-6.83724
▁normal	-6.83724
▁social	-6.84496
▁heart	-6.85275
▁probably	-6.85275
▁house	-6.86059
▁wish	-6.86059
▁talking	-6.86849
▁understand	-6.86849
▁please	-6.87646
▁already	-6.8845
▁symptom	-6.8845
▁high	-6.90076
▁kind	-6.90076
▁took	-6.90899
▁happened	-6.92565
▁part	-6.92565
▁amp	-6.93409
▁cause	-6.93409
▁living	-6.93409
▁might	-6.93409
▁whole	-6.93409
▁hurt	-6.9426
▁couple	-6.95119
▁old	-6.95119
▁world	-6.95119
▁bed	-6.95984
▁bit	-6.95984
▁etc	-6.96858
▁stay	-6.96858
▁seems	-6.97739
▁mean	-6.98628
▁side	-6.98628
▁call	-7.01343
▁constantly	-7.01343
▁looking	-7.02265
▁die	-7.03195
▁due	-7.03195
▁fine	-7.03195
▁real	-7.04134
▁sick	-7.04134
▁brain	-7.05082
▁finally	-7.05082
▁least	-7.05082
▁literally	-7.05082
▁situation	-7.05082
▁covid	-7.06039
▁sad	-7.06039
▁afraid	-7.07005
▁mom	-7.07005
▁room	-7.07005
▁found	-7.08966
▁honestly	-7.08966
▁everyday	-7.09961
▁therapist	-7.09961
▁came	-7.10966
▁guess	-7.10966
▁sorry	-7.10966
▁college	-7.11981
▁saying	-7.11981
▁different	-7.14043
▁leave	-7.14043
▁u	-7.14043
▁yet	-7.14043
▁stuff	-7.1509
▁change	-7.16148
▁happen	-7.16148
▁okay	-7.16148
▁worst	-7.16148
▁5	-7.17218
▁effect	-7.17218
▁ask	-7.18299
▁money	-7.18299
▁gonna	-7.19392
▁diagnosed	-7.20497
▁matter	-7.20497
▁minute	-7.20497
▁moment	-7.20497
▁eat	-7.21614
▁morning	-7.21614
▁4	-7.22744
▁others	-7.22744
▁struggling	-7.22744
▁weird	-7.22744
▁seem	-7.23887
▁worried	-7.23887
▁dad	-7.25043
▁fuck	-7.25043
▁read	-7.25043
▁basically	-7.26213
▁big	-7.26213
▁class	-7.26213
▁great	-7.26213
▁may	-7.26213
▁usually	-7.26213
▁grade	-7.27396
▁idea	-7.28594
▁question	-7.28594
▁asked	-7.29806
▁kid	-7.29806
▁needed	-7.29806
▁close	-7.31033
▁kill	-7.31033
▁second	-7.31033
▁completely	-7.32275
▁gotten	-7.32275
▁stupid	-7.32275
▁together	-7.32275
▁barely	-7.33533
▁future	-7.33533
▁stopped	-7.33533
▁stress	-7.33533
▁helped	-7.34807
▁remember	-7.34807
▁starting	-7.34807
▁wanna	-7.34807
▁become	-7.36097
▁hit	-7.36097
▁telling	-7.36097
▁1	-7.37404
▁later	-7.37404
▁phone	-7.37404
▁worry	-7.37404
▁10	-7.38729
▁face	-7.38729
▁thank	-7.38729
▁control	-7.40071
▁eating	-7.40071
▁support	-7.40071
▁thanks	-7.40071
▁game	-7.41432
▁gone	-7.41432
▁sense	-7.41432
▁cant	-7.42811
▁mother	-7.42811
▁suicidal	-7.42811
▁believe	-7.4421
▁energy	-7.4421
▁full	-7.4421
▁half	-7.4421
▁hand	-7.4421
▁idk	-7.4421
▁super	-7.4421
▁decided	-7.45628
▁test	-7.45628
▁break	-7.47067
▁coming	-7.47067
▁death	-7.47067
▁happens	-7.47067
▁called	-7.48527
▁ended	-7.48527
▁outside	-7.48527
▁pay	-7.48527
▁seeing	-7.48527
▁chest	-7.50008
▁conversation	-7.50008
▁fact	-7.50008
▁far	-7.50008
▁currently	-7.51512
▁deal	-7.51512
▁inside	-7.51512
▁move	-7.51512
▁online	-7.51512
▁reading	-7.51512
▁soon	-7.51512
▁stuck	-7.51512
▁x200b	-7.51512
▁especially	-7.53039
▁food	-7.53039
▁gave	-7.53039
▁hear	-7.53039
▁sound	-7.53039
▁terrible	-7.53039
▁turn	-7.53039
▁low	-7.54589
▁severe	-7.54589
▁use	-7.54589
▁crazy	-7.56164
▁disorder	-7.56164
▁eye	-7.56164
▁hell	-7.56164
▁open	-7.56164
▁wake	-7.56164
▁worked	-7.56164
▁calm	-7.57764
▁cut	-7.57764
▁emotion	-7.57764
▁focus	-7.57764
▁nice	-7.57764
▁often	-7.57764
▁psychiatrist	-7.57764
▁struggle	-7.57764
▁whenever	-7.57764
▁word	-7.57764
▁extremely	-7.5939
▁girlfriend	-7.5939
▁suck	-7.5939
▁tip	-7.5939
▁however	-7.61043
▁negative	-7.61043
▁suicide	-7.61043
▁watching	-7.61043
▁asking	-7.62724
▁daily	-7.64433
▁horrible	-7.64433
▁man	-7.64433
▁video	-7.64433
▁weight	-7.64433
▁car	-7.66173
▁instead	-7.66173
▁le	-7.66173
▁plan	-7.66173
▁show	-7.66173
▁course	-7.67943
▁hey	-7.67943
▁reddit	-7.67943
▁study	-7.67943
▁tomorrow	-7.67943
▁partner	-7.69744
▁quite	-7.69744
▁sister	-7.69744
▁age	-7.71579
▁breathing	-7.71579
▁fall	-7.71579
▁girl	-7.71579
▁noticed	-7.71579
▁pill	-7.71579
▁possible	-7.71579
▁single	-7.71579
▁small	-7.71579
▁state	-7.71579
▁walk	-7.71579
▁20	-7.73448
▁happening	-7.73448
▁lately	-7.73448
▁mentally	-7.73448
▁nervous	-7.73448
▁physical	-7.73448
▁seen	-7.73448
▁story	-7.73448
▁terrified	-7.73448
▁yesterday	-7.73448
▁awful	-7.75353
▁drive	-7.75353
▁hi	-7.75353
▁kinda	-7.75353
▁suffer	-7.75353
▁taken	-7.75353
▁answer	-7.77295
▁eventually	-7.77295
▁fast	-7.77295
▁given	-7.77295
▁healthy	-7.77295
▁longer	-7.77295
▁nobody	-7.77295
▁absolutely	-7.79275
▁appointment	-7.79275
▁difficult	-7.79275
▁fun	-7.79275
▁met	-7.79275
▁motivation	-7.79275
▁pandemic	-7.79275
▁prescribed	-7.79275
▁share	-7.79275
▁chance	-7.81296
▁group	-7.81296
▁lose	-7.81296
▁miss	-7.81296
▁suffering	-7.81296
▁trigger	-7.81296
▁water	-7.81296
▁whatever	-7.81296
▁wondering	-7.81296
▁anyway	-7.83358
▁boyfriend	-7.83358
▁fight	-7.83358
▁sit	-7.83358
▁wanting	-7.83358
▁writing	-7.83358
▁8	-7.85463
▁broke	-7.85463
▁deep	-7.85463
▁mood	-7.85463
▁similar	-7.85463
▁top	-7.85463
▁blood	-7.87614
▁constant	-7.87614
▁knew	-7.87614
▁late	-7.87614
▁quit	-7.87614
▁stomach	-7.87614
▁stressed	-7.87614
▁three	-7.87614
▁30	-7.89811
▁dose	-7.89811
▁entire	-7.89811
▁forward	-7.89811
▁human	-7.89811
▁ive	-7.89811
▁music	-7.89811
▁saw	-7.89811
▁brother	-7.92059
▁cannot	-7.92059
▁dead	-7.92059
▁dealing	-7.92059
▁early	-7.92059
▁hold	-7.92059
▁losing	-7.92059
▁oh	-7.92059
▁rather	-7.92059
▁write	-7.92059
▁child	-7.94358
▁giving	-7.94358
▁god	-7.94358
▁handle	-7.94358
▁kept	-7.94358
▁level	-7.94358
▁lonely	-7.94358
▁mostly	-7.94358
▁related	-7.94358
▁rest	-7.94358
▁sleeping	-7.94358
▁comfortable	-7.96711
▁definitely	-7.96711
▁empty	-7.96711
▁fix	-7.96711
▁free	-7.96711
▁helpful	-7.96711
▁ok	-7.96711
▁play	-7.96711
▁semester	-7.96711
▁sort	-7.96711
▁speak	-7.96711
▁truly	-7.96711
▁easy	-7.9912
▁emotional	-7.9912
▁episode	-7.9912
▁hello	-7.9912
▁physically	-7.9912
▁seemed	-7.9912
▁several	-7.9912
▁term	-7.9912
▁uncomfortable	-7.9912
▁although	-8.0159
▁antidepressant	-8.0159
▁behind	-8.0159
▁drink	-8.0159
▁driving	-8.0159
▁happiness	-8.0159
▁moved	-8.0159
▁moving	-8.0159
▁sitting	-8.0159
▁step	-8.0159
▁type	-8.0159
▁worth	-8.0159
▁caused	-8.04121
▁comment	-8.04121
▁company	-8.04121
▁despite	-8.04121
▁dream	-8.04121
▁explain	-8.04121
▁helping	-8.04121
▁illness	-8.04121
▁message	-8.04121
▁must	-8.04121
▁ocd	-8.04121
▁pressure	-8.04121
▁result	-8.04121
▁simple	-8.04121
▁talked	-8.04121
▁watch	-8.04121
▁angry	-8.06719
▁breathe	-8.06719
▁cope	-8.06719
▁country	-8.06719
▁drinking	-8.06719
▁drug	-8.06719
▁general	-8.06719
▁genuinely	-8.06719
▁hospital	-8.06719
▁knowing	-8.06719
▁passed	-8.06719
▁period	-8.06719
▁posting	-8.06719
▁random	-8.06719
▁realize	-8.06719
▁short	-8.06719
▁supposed	-8.06719
▁wait	-8.06719
▁case	-8.09386
▁door	-8.09386
▁enjoy	-8.09386
▁except	-8.09386
▁front	-8.09386
▁fucked	-8.09386
▁http	-8.09386
▁managed	-8.09386
▁realized	-8.09386
▁turned	-8.09386
▁upset	-8.09386
▁using	-8.09386
▁voice	-8.09386
▁whether	-8.09386
▁attempt	-8.12126
▁dying	-8.12126
▁example	-8.12126
▁experienced	-8.12126
▁father	-8.12126
▁heard	-8.12126
▁hole	-8.12126
▁husband	-8.12126
▁lack	-8.12126
▁lead	-8.12126
▁lol	-8.12126
▁loved	-8.12126
▁numb	-8.12126
▁pas	-8.12126
▁somehow	-8.12126
▁spend	-8.12126
▁suddenly	-8.12126
▁text	-8.12126
▁act	-8.14943
▁avoid	-8.14943
▁book	-8.14943
▁check	-8.14943
▁exercise	-8.14943
▁exhausted	-8.14943
▁forget	-8.14943
▁guilty	-8.14943
▁important	-8.14943
▁middle	-8.14943
▁option	-8.14943
▁positive	-8.14943
▁reality	-8.14943
▁seriously	-8.14943
▁shaking	-8.14943
▁simply	-8.14943
▁spent	-8.14943
▁straight	-8.14943
▁triggered	-8.14943
▁university	-8.14943
▁waiting	-8.14943
▁choice	-8.17842
▁cold	-8.17842
▁contact	-8.17842
▁damn	-8.17842
▁date	-8.17842
▁effort	-8.17842
▁event	-8.17842
▁forever	-8.17842
▁learn	-8.17842
▁mad	-8.17842
▁playing	-8.17842
▁student	-8.17842
▁towards	-8.17842
▁apart	-8.20827
▁bring	-8.20827
▁continue	-8.20827
▁dog	-8.20827
▁exactly	-8.20827
▁fit	-8.20827
▁huge	-8.20827
▁incredibly	-8.20827
▁joke	-8.20827
▁listen	-8.20827
▁manage	-8.20827
▁miserable	-8.20827
▁movie	-8.20827
▁notice	-8.20827
▁push	-8.20827
▁reach	-8.20827
▁sign	-8.20827
▁toxic	-8.20827
▁trust	-8.20827
▁yes	-8.20827
▁alive	-8.23904
▁area	-8.23904
▁became	-8.23904
▁birthday	-8.23904
▁breath	-8.23904
▁fault	-8.23904
▁fully	-8.23904
▁medical	-8.23904
▁none	-8.23904
▁space	-8.23904
▁worrying	-8.23904
▁zoloft	-8.23904
▁arm	-8.27079
▁attention	-8.27079
▁busy	-8.27079
▁certain	-8.27079
▁cycle	-8.27079
▁decision	-8.27079
▁form	-8.27079
▁hair	-8.27079
▁harder	-8.27079
▁looked	-8.27079
▁meet	-8.27079
▁older	-8.27079
▁present	-8.27079
▁response	-8.27079
▁skin	-8.27079
▁stressful	-8.27079
▁treat	-8.27079
▁vaccine	-8.27079
▁24	-8.30358
▁adhd	-8.30358
▁along	-8.30358
▁amazing	-8.30358
▁asleep	-8.30358
▁began	-8.30358
▁causing	-8.30358
▁detail	-8.30358
▁figure	-8.30358
▁finish	-8.30358
▁gad	-8.30358
▁hang	-8.30358
▁harm	-8.30358
▁hoping	-8.30358
▁listening	-8.30358
▁normally	-8.30358
▁office	-8.30358
▁run	-8.30358
▁running	-8.30358
▁safe	-8.30358
▁shitty	-8.30358
▁slowly	-8.30358
▁stand	-8.30358
▁strong	-8.30358
▁teacher	-8.30358
▁throughout	-8.30358
▁useless	-8.30358
▁within	-8.30358
▁alcohol	-8.33748
▁anybody	-8.33748
▁app	-8.33748
▁comfort	-8.33748
▁confidence	-8.33748
▁exist	-8.33748
▁finding	-8.33748
▁immediately	-8.33748
▁interest	-8.33748
▁interested	-8.33748
▁multiple	-8.33748
▁paranoid	-8.33748
▁personal	-8.33748
▁personality	-8.33748
▁relax	-8.33748
▁shut	-8.33748
▁task	-8.33748
▁teeth	-8.33748
▁tonight	-8.33748
▁true	-8.33748
▁twice	-8.33748
▁unfortunately	-8.33748
▁woke	-8.33748
▁18	-8.37257
▁adult	-8.37257
▁appreciate	-8.37257
▁bos	-8.37257
▁breakdown	-8.37257
▁burden	-8.37257
▁career	-8.37257
▁dark	-8.37257
▁describe	-8.37257
▁escape	-8.37257
▁failed	-8.37257
▁foot	-8.37257
▁function	-8.37257
▁hopefully	-8.37257
▁interview	-8.37257
▁leaving	-8.37257
▁lie	-8.37257
▁major	-8.37257
▁mistake	-8.37257
▁piece	-8.37257
▁process	-8.37257
▁sent	-8.37257
▁serious	-8.37257
▁slow	-8.37257
▁smile	-8.37257
▁tear	-8.37257
▁unable	-8.37257
▁walking	-8.37257
▁weekend	-8.37257
▁yeah	-8.37257
▁young	-8.37257
▁amount	-8.40894
▁appreciated	-8.40894
▁confused	-8.40894
▁cried	-8.40894
▁depressive	-8.40894
▁deserve	-8.40894
▁died	-8.40894
▁dumb	-8.40894
▁ex	-8.40894
▁extreme	-8.40894
▁fighting	-8.40894
▁force	-8.40894
▁ignore	-8.40894
▁imagine	-8.40894
▁killing	-8.40894
▁leg	-8.40894
▁meant	-8.40894
▁medicine	-8.40894
▁meeting	-8.40894
▁name	-8.40894
▁overwhelmed	-8.40894
▁quickly	-8.40894
▁sensation	-8.40894
▁summer	-8.40894
▁woman	-8.40894
▁wonder	-8.40894
▁across	-8.44668
▁anti	-8.44668
▁becoming	-8.44668
▁bother	-8.44668
▁degree	-8.44668
▁edit	-8.44668
▁emotionally	-8.44668
▁hobby	-8.44668
▁laugh	-8.44668
▁lexapro	-8.44668
▁mine	-8.44668
▁nausea	-8.44668
▁offer	-8.44668
▁psychologist	-8.44668
▁ready	-8.44668
▁skill	-8.44668
▁subreddit	-8.44668
▁understanding	-8.44668
▁15	-8.4859
▁anyways	-8.4859
▁apartment	-8.4859
▁badly	-8.4859
▁cat	-8.4859
▁complete	-8.4859
▁considering	-8.4859
▁dr	-8.4859
▁emptypost	-8.4859
▁exam	-8.4859
▁excited	-8.4859
▁excuse	-8.4859
▁guilt	-8.4859
▁gym	-8.4859
▁headache	-8.4859
▁internet	-8.4859
▁intrusive	-8.4859
▁lockdown	-8.4859
▁member	-8.4859
▁memory	-8.4859
▁missed	-8.4859
▁near	-8.4859
▁noise	-8.4859
▁obviously	-8.4859
▁order	-8.4859
▁overcome	-8.4859
▁professional	-8.4859
▁proud	-8.4859
▁putting	-8.4859
▁r	-8.4859
▁relate	-8.4859
▁title	-8.4859
▁trouble	-8.4859
▁weak	-8.4859
▁actual	-8.52672
▁affect	-8.52672
▁breaking	-8.52672
▁broken	-8.52672
▁calling	-8.52672
▁dealt	-8.52672
▁diagnosis	-8.52672
▁fake	-8.52672
▁final	-8.52672
▁forgot	-8.52672
▁freaking	-8.52672
▁goal	-8.52672
▁honest	-8.52672
▁ill	-8.52672
▁letting	-8.52672
▁light	-8.52672
▁loss	-8.52672
▁lower	-8.52672
▁overall	-8.52672
▁peace	-8.52672
▁perfect	-8.52672
▁selfish	-8.52672
▁set	-8.52672
▁ssri	-8.52672
▁struggled	-8.52672
▁studying	-8.52672
▁system	-8.52672
▁topic	-8.52672
▁truth	-8.52672
▁usual	-8.52672
▁2020	-8.56928
▁allowed	-8.56928
▁childhood	-8.56928
▁condition	-8.56928
▁confident	-8.56928
▁dread	-8.56928
▁easier	-8.56928
▁experiencing	-8.56928
▁known	-8.56928
▁likely	-8.56928
▁mess	-8.56928
▁overthinking	-8.56928
▁patient	-8.56928
▁racing	-8.56928
▁reaction	-8.56928
▁return	-8.56928
▁rough	-8.56928
▁session	-8.56928
▁specific	-8.56928
▁throat	-8.56928
▁treatment	-8.56928
▁waking	-8.56928
▁younger	-8.56928
▁21	-8.61373
▁50	-8.61373
▁aware	-8.61373
▁bunch	-8.61373
▁changed	-8.61373
▁city	-8.61373
▁clear	-8.61373
▁community	-8.61373
▁failure	-8.61373
▁fat	-8.61373
▁hurting	-8.61373
▁improve	-8.61373
▁including	-8.61373
▁keeping	-8.61373
▁lay	-8.61373
▁lazy	-8.61373
▁liked	-8.61373
▁mask	-8.61373
▁mouth	-8.61373
▁painful	-8.61373
▁per	-8.61373
▁pick	-8.61373
▁regret	-8.61373
▁scare	-8.61373
▁shower	-8.61373
▁somewhere	-8.61373
▁son	-8.61373
▁soul	-8.61373
▁speaking	-8.61373
▁suffered	-8.61373
▁throw	-8.61373
▁tough	-8.61373
▁unless	-8.61373
▁withdrawal	-8.61373
▁worthless	-8.61373
▁abusive	-8.66025
▁anger	-8.66025
▁argument	-8.66025
▁bc	-8.66025
▁begin	-8.66025
▁common	-8.66025
▁conscious	-8.66025
▁easily	-8.66025
▁email	-8.66025
▁everytime	-8.66025
▁fail	-8.66025
▁falling	-8.66025
▁information	-8.66025
▁luck	-8.66025
▁male	-8.66025
▁medium	-8.66025
▁nowhere	-8.66025
▁panicking	-8.66025
▁plus	-8.66025
▁possibly	-8.66025
▁progress	-8.66025
▁risk	-8.66025
▁scary	-8.66025
▁shake	-8.66025
▁shot	-8.66025
▁spiral	-8.66025
▁sub	-8.66025
▁thats	-8.66025
▁totally	-8.66025
▁urge	-8.66025
▁vent	-8.66025
▁waste	-8.66025
▁wife	-8.66025
▁ability	-8.70904
▁account	-8.70904
▁add	-8.70904
▁annoying	-8.70904
▁anywhere	-8.70904
▁apparently	-8.70904
▁cbt	-8.70904
▁com	-8.70904
▁consider	-8.70904
▁context	-8.70904
▁convinced	-8.70904
▁dating	-8.70904
▁desire	-8.70904
▁doubt	-8.70904
▁er	-8.70904
▁existence	-8.70904
▁expecting	-8.70904
▁field	-8.70904
▁four	-8.70904
▁freak	-8.70904
▁friendship	-8.70904
▁funny	-8.70904
▁generally	-8.70904
▁google	-8.70904
▁growing	-8.70904
▁hated	-8.70904
▁insane	-8.70904
▁intense	-8.70904
▁joy	-8.70904
▁loud	-8.70904
▁lying	-8.70904
▁main	-8.70904
▁manager	-8.70904
▁mum	-8.70904
▁numbness	-8.70904
▁passing	-8.70904
▁productive	-8.70904
▁purpose	-8.70904
▁quiet	-8.70904
▁tho	-8.70904
▁touch	-8.70904
▁trapped	-8.70904
▁25	-8.76034
▁accepted	-8.76034
▁advance	-8.76034
▁awkward	-8.76034
▁beginning	-8.76034
▁bill	-8.76034
▁blame	-8.76034
▁bottom	-8.76034
▁cancer	-8.76034
▁caught	-8.76034
▁clothes	-8.76034
▁considered	-8.76034
▁coping	-8.76034
▁difference	-8.76034
▁dizzy	-8.76034
▁doc	-8.76034
▁earlier	-8.76034
▁embarrassed	-8.76034
▁english	-8.76034
▁expect	-8.76034
▁finger	-8.76034
▁forced	-8.76034
▁greatly	-8.76034
▁habit	-8.76034
▁heavy	-8.76034
▁impossible	-8.76034
▁infection	-8.76034
▁judge	-8.76034
▁mention	-8.76034
▁messed	-8.76034
▁mid	-8.76034
▁nightmare	-8.76034
▁poor	-8.76034
▁potential	-8.76034
▁project	-8.76034
▁rarely	-8.76034
▁rate	-8.76034
▁relief	-8.76034
▁sadness	-8.76034
▁sibling	-8.76034
▁smoking	-8.76034
▁somewhat	-8.76034
▁staying	-8.76034
▁suggested	-8.76034
▁trauma	-8.76034
▁uni	-8.76034
▁visit	-8.76034
▁weed	-8.76034
▁23	-8.81441
▁accept	-8.81441
▁afford	-8.81441
▁assume	-8.81441
▁beat	-8.81441
▁besides	-8.81441
▁beyond	-8.81441
▁bottle	-8.81441
▁computer	-8.81441
▁crap	-8.81441
▁cutting	-8.81441
▁developed	-8.81441
▁dosage	-8.81441
▁ending	-8.81441
▁extra	-8.81441
▁following	-8.81441
▁functioning	-8.81441
▁insurance	-8.81441
▁line	-8.81441
▁ptsd	-8.81441
▁ran	-8.81441
▁rant	-8.81441
▁road	-8.81441
▁save	-8.81441
▁schedule	-8.81441
▁seek	-8.81441
▁sex	-8.81441
▁solution	-8.81441
▁stable	-8.81441
▁stayed	-8.81441
▁store	-8.81441
▁successful	-8.81441
▁surgery	-8.81441
▁till	-8.81441
▁view	-8.81441
▁wall	-8.81441
▁xanax	-8.81441
▁youtube	-8.81441
▁100	-8.87156
▁12	-8.87156
▁action	-8.87156
▁assignment	-8.87156
▁aunt	-8.87156
▁baby	-8.87156
▁battle	-8.87156
▁bf	-8.87156
▁bipolar	-8.87156
▁black	-8.87156
▁building	-8.87156
▁buy	-8.87156
▁catch	-8.87156
▁chronic	-8.87156
▁clean	-8.87156
▁clearly	-8.87156
▁commit	-8.87156
▁compared	-8.87156
▁courage	-8.87156
▁current	-8.87156
▁didnt	-8.87156
▁failing	-8.87156
▁hanging	-8.87156
▁history	-8.87156
▁hopeless	-8.87156
▁lived	-8.87156
▁mode	-8.87156
▁nauseous	-8.87156
▁nearly	-8.87156
▁nerve	-8.87156
▁note	-8.87156
▁paid	-8.87156
▁personally	-8.87156
▁pointless	-8.87156
▁pound	-8.87156
▁practice	-8.87156
▁prescription	-8.87156
▁reply	-8.87156
▁song	-8.87156
▁specifically	-8.87156
▁suggestion	-8.87156
▁supportive	-8.87156
▁wellbutrin	-8.87156
▁worker	-8.87156
▁wrote	-8.87156
▁0	-8.93219
▁22	-8.93219
▁abuse	-8.93219
▁acting	-8.93219
▁boring	-8.93219
▁brought	-8.93219
▁caffeine	-8.93219
▁card	-8.93219
▁changing	-8.93219
▁cuz	-8.93219
▁distract	-8.93219
▁dropped	-8.93219
▁ear	-8.93219
▁f	-8.93219
▁fell	-8.93219
▁filled	-8.93219
▁fresh	-8.93219
▁gain	-8.93219
▁grateful	-8.93219
▁grew	-8.93219
▁hardly	-8.93219
▁hide	-8.93219
▁hot	-8.93219
▁interaction	-8.93219
▁january	-8.93219
▁meaning	-8.93219
▁mentioned	-8.93219
▁mild	-8.93219
▁opportunity	-8.93219
▁opposite	-8.93219
▁overwhelming	-8.93219
▁reaching	-8.93219
▁routine	-8.93219
▁ruin	-8.93219
▁shift	-8.93219
▁smart	-8.93219
▁society	-8.93219
▁spot	-8.93219
▁stranger	-8.93219
▁success	-8.93219
▁tend	-8.93219
▁tested	-8.93219
▁throwing	-8.93219
▁tl	-8.93219
▁trip	-8.93219
▁vacation	-8.93219
▁value	-8.93219
▁wasting	-8.93219
▁wear	-8.93219
▁www	-8.93219
▁11	-8.99673
▁13	-8.99673
▁allow	-8.99673
▁ate	-8.99673
▁bathroom	-8.99673
▁bored	-8.99673
▁born	-8.99673
▁bought	-8.99673
▁closest	-8.99673
▁content	-8.99673
▁crippling	-8.99673
▁daughter	-8.99673
▁deeper	-8.99673
▁dinner	-8.99673
▁drained	-8.99673
▁explained	-8.99673
▁faith	-8.99673
▁fiance	-8.99673
▁fill	-8.99673
▁follow	-8.99673
▁gf	-8.99673
▁ghost	-8.99673
▁hearing	-8.99673
▁image	-8.99673
▁increase	-8.99673
▁list	-8.99673
▁method	-8.99673
▁missing	-8.99673
▁monday	-8.99673
▁non	-8.99673
▁opened	-8.99673
▁opening	-8.99673
▁previous	-8.99673
▁program	-8.99673
▁properly	-8.99673
▁pull	-8.99673
▁react	-8.99673
▁realised	-8.99673
▁regarding	-8.99673
▁rn	-8.99673
▁rude	-8.99673
▁sensitive	-8.99673
▁sexual	-8.99673
▁source	-8.99673
▁stick	-8.99673
▁strength	-8.99673
▁switched	-8.99673
▁ton	-8.99673
▁tv	-8.99673
▁ugly	-8.99673
▁walked	-8.99673
▁wearing	-8.99673
▁willing	-8.99673
▁addicted	-9.06572
▁admit	-9.06572
▁ahead	-9.06572
▁alright	-9.06572
▁application	-9.06572
▁art	-9.06572
▁aspect	-9.06572
▁based	-9.06572
▁benefit	-9.06572
▁bye	-9.06572
▁chore	-9.06572
▁closer	-9.06572
▁co	-9.06572
▁crush	-9.06572
▁dentist	-9.06572
▁depressant	-9.06572
▁disease	-9.06572
▁dry	-9.06572
▁e	-9.06572
▁embarrassing	-9.06572
▁express	-9.06572
▁fair	-9.06572
▁faking	-9.06572
▁flight	-9.06572
▁followed	-9.06572
▁frustrated	-9.06572
▁frustrating	-9.06572
▁haha	-9.06572
▁holding	-9.06572
▁insult	-9.06572
▁isolated	-9.06572
▁large	-9.06572
▁learned	-9.06572
▁learning	-9.06572
▁letter	-9.06572
▁loneliness	-9.06572
▁lucky	-9.06572
▁managing	-9.06572
▁march	-9.06572
▁massive	-9.06572
▁mg	-9.06572
▁neck	-9.06572
▁onto	-9.06572
▁pm	-9.06572
▁pushed	-9.06572
▁restaurant	-9.06572
▁roof	-9.06572
▁saving	-9.06572
▁scenario	-9.06572
▁silent	-9.06572
▁site	-9.06572
▁slightly	-9.06572
▁staring	-9.06572
▁sudden	-9.06572
▁survive	-9.06572
▁syndrome	-9.06572
▁toll	-9.06572
▁treated	-9.06572
▁triggering	-9.06572
▁various	-9.06572
▁14	-9.13983
▁2nd	-9.13983
▁accepting	-9.13983
▁access	-9.13983
▁accident	-9.13983
▁actively	-9.13983
▁affecting	-9.13983
▁apologize	-9.13983
▁appetite	-9.13983
▁april	-9.13983
▁b	-9.13983
▁background	-9.13983
▁behavior	-9.13983
▁bigger	-9.13983
▁bitch	-9.13983
▁brings	-9.13983
▁bullied	-9.13983
▁burn	-9.13983
▁chat	-9.13983
▁checked	-9.13983
▁concerned	-9.13983
▁connect	-9.13983
▁cousin	-9.13983
▁cover	-9.13983
▁curious	-9.13983
▁debt	-9.13983
▁depressing	-9.13983
▁destroyed	-9.13983
▁distance	-9.13983
▁edge	-9.13983
▁effective	-9.13983
▁everywhere	-9.13983
▁flat	-9.13983
▁focusing	-9.13983
▁grandma	-9.13983
▁hating	-9.13983
▁held	-9.13983
▁ignored	-9.13983
▁insecurity	-9.13983
▁laughing	-9.13983
▁law	-9.13983
▁loop	-9.13983
▁luckily	-9.13983
▁mainly	-9.13983
▁mile	-9.13983
▁nurse	-9.13983
▁odd	-9.13983
▁particularly	-9.13983
▁perfectly	-9.13983
▁planned	-9.13983
▁position	-9.13983
▁posted	-9.13983
▁pretend	-9.13983
▁public	-9.13983
▁randomly	-9.13983
▁recovery	-9.13983
▁religion	-9.13983
▁repeat	-9.13983
▁respect	-9.13983
▁responsible	-9.13983
▁rid	-9.13983
▁rock	-9.13983
▁roommate	-9.13983
▁rush	-9.13983
▁sat	-9.13983
▁scream	-9.13983
▁seeking	-9.13983
▁send	-9.13983
▁sentence	-9.13983
▁september	-9.13983
▁series	-9.13983
▁service	-9.13983
▁showing	-9.13983
▁shy	-9.13983
▁smoke	-9.13983
▁stressing	-9.13983
▁sweating	-9.13983
▁tense	-9.13983
▁violent	-9.13983
▁wasted	-9.13983
▁wonderful	-9.13983
▁zone	-9.13983
▁1st	-9.21987
▁air	-9.21987
▁animal	-9.21987
▁aside	-9.21987
▁assessment	-9.21987
▁asshole	-9.21987
▁august	-9.21987
▁beautiful	-9.21987
▁becomes	-9.21987
▁believing	-9.21987
▁bringing	-9.21987
▁brush	-9.21987
▁built	-9.21987
▁bullshit	-9.21987
▁c	-9.21987
▁camera	-9.21987
▁character	-9.21987
▁checking	-9.21987
▁crisis	-9.21987
▁danger	-9.21987
▁distraction	-9.21987
▁dressed	-9.21987
▁drop	-9.21987
▁drove	-9.21987
▁environment	-9.21987
▁everybody	-9.21987
▁false	-9.21987
▁fire	-9.21987
▁fired	-9.21987
▁focused	-9.21987
▁frequently	-9.21987
▁glad	-9.21987
▁grow	-9.21987
▁halfway	-9.21987
▁higher	-9.21987
▁idiot	-9.21987
▁irrational	-9.21987
▁kick	-9.21987
▁local	-9.21987
▁logic	-9.21987
▁loser	-9.21987
▁loving	-9.21987
▁majority	-9.21987
▁math	-9.21987
▁mechanism	-9.21987
▁monster	-9.21987
▁motivated	-9.21987
▁muscle	-9.21987
▁naturally	-9.21987
▁noticing	-9.21987
▁october	-9.21987
▁opinion	-9.21987
▁p	-9.21987
▁paper	-9.21987
▁party	-9.21987
▁passion	-9.21987
▁pathetic	-9.21987
▁pissed	-9.21987
▁power	-9.21987
▁relaxed	-9.21987
▁requires	-9.21987
▁respond	-9.21987
▁responsibility	-9.21987
▁shaky	-9.21987
▁shoulder	-9.21987
▁socially	-9.21987
▁sore	-9.21987
▁spiraling	-9.21987
▁surprise	-9.21987
▁surrounded	-9.21987
▁taper	-9.21987
▁thousand	-9.21987
▁tingling	-9.21987
▁town	-9.21987
▁travel	-9.21987
▁turning	-9.21987
▁typing	-9.21987
▁unemployed	-9.21987
▁vaccinated	-9.21987
▁watched	-9.21987
▁win	-9.21987
▁zero	-9.21987
▁00	-9.30688
▁absolute	-9.30688
▁active	-9.30688
▁activity	-9.30688
▁autism	-9.30688
▁autistic	-9.30688
▁available	-9.30688
▁average	-9.30688
▁believed	-9.30688
▁bothering	-9.30688
▁cared	-9.30688
▁caring	-9.30688
▁carry	-9.30688
▁communication	-9.30688
▁concentrate	-9.30688
▁concern	-9.30688
▁cost	-9.30688
▁counselor	-9.30688
▁coworkers	-9.30688
▁creative	-9.30688
▁customer	-9.30688
▁cute	-9.30688
▁debilitating	-9.30688
▁desperate	-9.30688
▁destroy	-9.30688
▁disappointed	-9.30688
▁drain	-9.30688
▁ease	-9.30688
▁endless	-9.30688
▁figured	-9.30688
▁finished	-9.30688
▁floor	-9.30688
▁fog	-9.30688
▁friday	-9.30688
▁gained	-9.30688
▁generalized	-9.30688
▁graduate	-9.30688
▁grandfather	-9.30688
▁hardest	-9.30688
▁heavily	-9.30688
▁homeless	-9.30688
▁hr	-9.30688
▁hungry	-9.30688
▁industry	-9.30688
▁irritated	-9.30688
▁isnt	-9.30688
▁married	-9.30688
▁nail	-9.30688
▁obsessing	-9.30688
▁obvious	-9.30688
▁overthink	-9.30688
▁picture	-9.30688
▁prove	-9.30688
▁psych	-9.30688
▁pushing	-9.30688
▁quick	-9.30688
▁reached	-9.30688
▁received	-9.30688
▁refuse	-9.30688
▁regard	-9.30688
▁research	-9.30688
▁rule	-9.30688
▁sale	-9.30688
▁screw	-9.30688
▁sh	-9.30688
▁shame	-9.30688
▁significant	-9.30688
▁silly	-9.30688
▁six	-9.30688
▁slept	-9.30688
▁somebody	-9.30688
▁stopping	-9.30688
▁strange	-9.30688
▁sun	-9.30688
▁texted	-9.30688
▁therefore	-9.30688
▁thread	-9.30688
▁tooth	-9.30688
▁track	-9.30688
▁understands	-9.30688
▁unhappy	-9.30688
▁universe	-9.30688
▁upon	-9.30688
▁wont	-9.30688
▁yell	-9.30688
▁yelled	-9.30688
▁40	-9.40219
▁5mg	-9.40219
▁abused	-9.40219
▁anytime	-9.40219
▁applying	-9.40219
▁attempted	-9.40219
▁ball	-9.40219
▁bear	-9.40219
▁beating	-9.40219
▁boy	-9.40219
▁build	-9.40219
▁connection	-9.40219
▁convince	-9.40219
▁correct	-9.40219
▁counseling	-9.40219
▁deeply	-9.40219
▁desperately	-9.40219
▁disappointment	-9.40219
▁dizziness	-9.40219
▁drowning	-9.40219
▁encouragement	-9.40219
▁esteem	-9.40219
▁exhausting	-9.40219
▁explaining	-9.40219
▁february	-9.40219
▁fever	-9.40219
▁five	-9.40219
▁folk	-9.40219
▁forcing	-9.40219
▁gabapentin	-9.40219
▁garbage	-9.40219
▁genuine	-9.40219
▁gift	-9.40219
▁gosh	-9.40219
▁graduated	-9.40219
▁heal	-9.40219
▁hiding	-9.40219
▁hug	-9.40219
▁id	-9.40219
▁ignoring	-9.40219
▁increasing	-9.40219
▁interesting	-9.40219
▁jake	-9.40219
▁june	-9.40219
▁kitchen	-9.40219
▁language	-9.40219
▁leading	-9.40219
▁lesson	-9.40219
▁limited	-9.40219
▁literal	-9.40219
▁meditation	-9.40219
▁min	-9.40219
▁minor	-9.40219
▁natural	-9.40219
▁number	-9.40219
▁paragraph	-9.40219
▁paying	-9.40219
▁perspective	-9.40219
▁phobia	-9.40219
▁planning	-9.40219
▁porn	-9.40219
▁proper	-9.40219
▁questioning	-9.40219
▁quitting	-9.40219
▁raised	-9.40219
▁rare	-9.40219
▁recent	-9.40219
▁regular	-9.40219
▁rely	-9.40219
▁ruined	-9.40219
▁screaming	-9.40219
▁screen	-9.40219
▁scrolling	-9.40219
▁se	-9.40219
▁severely	-9.40219
▁standing	-9.40219
▁statement	-9.40219
▁stroke	-9.40219
▁subject	-9.40219
▁sunday	-9.40219
▁suppose	-9.40219
▁taste	-9.40219
▁teen	-9.40219
▁ten	-9.40219
▁terribly	-9.40219
▁thankfully	-9.40219
▁tightness	-9.40219
▁tldr	-9.40219
▁toe	-9.40219
▁total	-9.40219
▁touching	-9.40219
▁tuesday	-9.40219
▁unbearable	-9.40219
▁unconscious	-9.40219
▁understood	-9.40219
▁verge	-9.40219
▁version	-9.40219
▁w	-9.40219
▁wave	-9.40219
▁wreck	-9.40219
▁yelling	-9.40219
▁adrenaline	-9.50755
▁af	-9.50755
▁affected	-9.50755
▁appeared	-9.50755
▁ashamed	-9.50755
▁attacked	-9.50755
▁attitude	-9.50755
▁attracted	-9.50755
▁avoiding	-9.50755
▁basic	-9.50755
▁bedroom	-9.50755
▁begging	-9.50755
▁bothered	-9.50755
▁brief	-9.50755
▁buying	-9.50755
▁capable	-9.50755
▁cheated	-9.50755
▁chemical	-9.50755
▁choose	-9.50755
▁circle	-9.50755
▁closed	-9.50755
▁clue	-9.50755
▁cognitive	-9.50755
▁combat	-9.50755
▁committed	-9.50755
▁complaint	-9.50755
▁concept	-9.50755
▁conflict	-9.50755
▁continued	-9.50755
▁cool	-9.50755
▁couch	-9.50755
▁counter	-9.50755
▁created	-9.50755
▁damage	-9.50755
▁deadline	-9.50755
▁decide	-9.50755
▁depend	-9.50755
▁derealization	-9.50755
▁difficulty	-9.50755
▁disappear	-9.50755
▁doom	-9.50755
▁dreading	-9.50755
▁existential	-9.50755
▁fallen	-9.50755
▁faster	-9.50755
▁fatigue	-9.50755
▁forgotten	-9.50755
▁gaming	-9.50755
▁gotta	-9.50755
▁graduation	-9.50755
▁grammar	-9.50755
▁grandmother	-9.50755
▁harming	-9.50755
▁hatred	-9.50755
▁hyper	-9.50755
▁incident	-9.50755
▁instantly	-9.50755
▁jealous	-9.50755
▁juli	-9.50755
▁knock	-9.50755
▁knowledge	-9.50755
▁laughed	-9.50755
▁lowest	-9.50755
▁machine	-9.50755
▁master	-9.50755
▁million	-9.50755
▁mirror	-9.50755
▁moderator	-9.50755
▁nasty	-9.50755
▁news	-9.50755
▁ob	-9.50755
▁occasion	-9.50755
▁otherwise	-9.50755
▁permanent	-9.50755
▁pet	-9.50755
▁photo	-9.50755
▁pity	-9.50755
▁pre	-9.50755
▁pregnant	-9.50755
▁private	-9.50755
▁procedure	-9.50755
▁pulled	-9.50755
▁pussy	-9.50755
▁quality	-9.50755
▁recommended	-9.50755
▁rejection	-9.50755
▁remark	-9.50755
▁ridiculous	-9.50755
▁root	-9.50755
▁ruining	-9.50755
▁science	-9.50755
▁sending	-9.50755
▁sharing	-9.50755
▁shattered	-9.50755
▁shout	-9.50755
▁significantly	-9.50755
▁silence	-9.50755
▁sober	-9.50755
▁socializing	-9.50755
▁solve	-9.50755
▁spending	-9.50755
▁stage	-9.50755
▁stronger	-9.50755
▁swear	-9.50755
▁sweet	-9.50755
▁tall	-9.50755
▁target	-9.50755
▁team	-9.50755
▁technique	-9.50755
▁temporary	-9.50755
▁tendency	-9.50755
▁tension	-9.50755
▁third	-9.50755
▁tight	-9.50755
▁uncle	-9.50755
▁unit	-9.50755
▁v	-9.50755
▁venting	-9.50755
▁vision	-9.50755
▁ward	-9.50755
▁wind	-9.50755
▁wound	-9.50755
▁x	-9.50755
▁accidentally	-9.62534
▁according	-9.62534
▁ache	-9.62534
▁acknowledge	-9.62534
▁acted	-9.62534
▁affirmation	-9.62534
▁afterwards	-9.62534
▁apologized	-9.62534
▁apology	-9.62534
▁appearance	-9.62534
▁asian	-9.62534
▁attractive	-9.62534
▁balance	-9.62534
▁bath	-9.62534
▁biggest	-9.62534
▁block	-9.62534
▁boost	-9.62534
▁burning	-9.62534
▁burst	-9.62534
▁business	-9.62534
▁cbd	-9.62534
▁celexa	-9.62534
▁center	-9.62534
▁chanel	-9.62534
▁cleaning	-9.62534
▁client	-9.62534
▁clinical	-9.62534
▁coffee	-9.62534
▁colleague	-9.62534
▁combination	-9.62534
▁communicate	-9.62534
▁complaining	-9.62534
▁complicated	-9.62534
▁conclusion	-9.62534
▁confusing	-9.62534
▁count	-9.62534
▁coworker	-9.62534
▁create	-9.62534
▁credit	-9.62534
▁decent	-9.62534
▁direction	-9.62534
▁directly	-9.62534
▁disability	-9.62534
▁disaster	-9.62534
▁discus	-9.62534
▁disgusting	-9.62534
▁distant	-9.62534
▁distracted	-9.62534
▁dos	-9.62534
▁dramatic	-9.62534
▁drunk	-9.62534
▁education	-9.62534
▁effexor	-9.62534
▁employee	-9.62534
▁enjoyed	-9.62534
▁enjoying	-9.62534
▁entirely	-9.62534
▁essentially	-9.62534
▁exact	-9.62534
▁existing	-9.62534
▁expectation	-9.62534
▁explains	-9.62534
▁fairly	-9.62534
▁fantasy	-9.62534
▁financial	-9.62534
▁freaked	-9.62534
▁freedom	-9.62534
▁friendly	-9.62534
▁functional	-9.62534
▁graduating	-9.62534
▁gt	-9.62534
▁gut	-9.62534
▁heat	-9.62534
▁highly	-9.62534
▁homework	-9.62534
▁ideation	-9.62534
▁impact	-9.62534
▁impacted	-9.62534
▁impending	-9.62534
▁increased	-9.62534
▁increasingly	-9.62534
▁internship	-9.62534
▁isolation	-9.62534
▁judged	-9.62534
▁kicked	-9.62534
▁klonopin	-9.62534
▁knee	-9.62534
▁laying	-9.62534
▁led	-9.62534
▁limit	-9.62534
▁logical	-9.62534
▁loose	-9.62534
▁mark	-9.62534
▁meal	-9.62534
▁meantime	-9.62534
▁mindset	-9.62534
▁misery	-9.62534
▁nature	-9.62534
▁necessary	-9.62534
▁needing	-9.62534
▁needle	-9.62534
▁november	-9.62534
▁overweight	-9.62534
▁palpitation	-9.62534
▁parking	-9.62534
▁particular	-9.62534
▁pcp	-9.62534
▁pfizer	-9.62534
▁played	-9.62534
▁pleasure	-9.62534
▁police	-9.62534
▁pop	-9.62534
▁provide	-9.62534
▁prozac	-9.62534
▁rambling	-9.62534
▁realizing	-9.62534
▁reassurance	-9.62534
▁receive	-9.62534
▁recommend	-9.62534
▁reduced	-9.62534
▁relatively	-9.62534
▁religious	-9.62534
▁rent	-9.62534
▁sample	-9.62534
▁scan	-9.62534
▁scholarship	-9.62534
▁screwed	-9.62534
▁seizure	-9.62534
▁setting	-9.62534
▁size	-9.62534
▁snap	-9.62534
▁sobbing	-9.62534
▁special	-9.62534
▁speed	-9.62534
▁spell	-9.62534
▁split	-9.62534
▁storm	-9.62534
▁street	-9.62534
▁surface	-9.62534
▁sweat	-9.62534
▁taught	-9.62534
▁terrifying	-9.62534
▁texting	-9.62534
▁thrown	-9.62534
▁thursday	-9.62534
▁toilet	-9.62534
▁touched	-9.62534
▁traumatic	-9.62534
▁treating	-9.62534
▁trick	-9.62534
▁twenty	-9.62534
▁twitch	-9.62534
▁undiagnosed	-9.62534
▁ups	-9.62534
▁ur	-9.62534
▁victim	-9.62534
▁vulnerable	-9.62534
▁warning	-9.62534
▁welcome	-9.62534
▁whats	-9.62534
▁whose	-9.62534
▁winter	-9.62534
▁workout	-9.62534
▁written	-9.62534
▁2021	-9.75887
▁3rd	-9.75887
▁45	-9.75887
▁80	-9.75887
▁academic	-9.75887
▁accomplish	-9.75887
▁adventure	-9.75887
▁alot	-9.75887
▁anime	-9.75887
▁annoyed	-9.75887
▁apps	-9.75887
▁article	-9.75887
▁assuming	-9.75887
▁awesome	-9.75887
▁bag	-9.75887
▁bare	-9.75887
▁basis	-9.75887
▁bearable	-9.75887
▁behaviour	-9.75887
▁belief	-9.75887
▁birth	-9.75887
▁blah	-9.75887
▁blind	-9.75887
▁blown	-9.75887
▁blue	-9.75887
▁bout	-9.75887
▁burnt	-9.75887
▁buspar	-9.75887
▁certainly	-9.75887
▁chill	-9.75887
▁citalopram	-9.75887
▁cleaned	-9.75887
▁commitment	-9.75887
▁complain	-9.75887
▁consistently	-9.75887
▁conspiracy	-9.75887
▁cooking	-9.75887
▁crawl	-9.75887
▁crushing	-9.75887
▁demon	-9.75887
▁described	-9.75887
▁destroying	-9.75887
▁diet	-9.75887
▁discord	-9.75887
▁downhill	-9.75887
▁downright	-9.75887
▁dozen	-9.75887
▁draining	-9.75887
▁drank	-9.75887
▁earth	-9.75887
▁emergency	-9.75887
▁emetophobia	-9.75887
▁enjoyment	-9.75887
▁enter	-9.75887
▁evening	-9.75887
▁excessive	-9.75887
▁existed	-9.75887
▁expensive	-9.75887
▁favorite	-9.75887
▁female	-9.75887
▁flu	-9.75887
▁frozen	-9.75887
▁gap	-9.75887
▁garden	-9.75887
▁glass	-9.75887
▁gp	-9.75887
▁green	-9.75887
▁grief	-9.75887
▁guessing	-9.75887
▁guidance	-9.75887
▁havent	-9.75887
▁helper	-9.75887
▁hitting	-9.75887
▁horribly	-9.75887
▁ice	-9.75887
▁ideal	-9.75887
▁imposter	-9.75887
▁improvement	-9.75887
▁include	-9.75887
▁info	-9.75887
▁insight	-9.75887
▁introvert	-9.75887
▁invited	-9.75887
▁irl	-9.75887
▁joined	-9.75887
▁journey	-9.75887
▁jump	-9.75887
▁killed	-9.75887
▁knot	-9.75887
▁lamictal	-9.75887
▁leaf	-9.75887
▁libido	-9.75887
▁load	-9.75887
▁logically	-9.75887
▁lunch	-9.75887
▁marriage	-9.75887
▁match	-9.75887
▁meaningless	-9.75887
▁midnight	-9.75887
▁minimum	-9.75887
▁mirtazapine	-9.75887
▁mixed	-9.75887
▁negativity	-9.75887
▁neighborhood	-9.75887
▁nose	-9.75887
▁nowadays	-9.75887
▁odor	-9.75887
▁offered	-9.75887
▁official	-9.75887
▁op	-9.75887
▁originally	-9.75887
▁oxygen	-9.75887
▁panicked	-9.75887
▁paranoia	-9.75887
▁phase	-9.75887
▁pile	-9.75887
▁piling	-9.75887
▁plate	-9.75887
▁possibility	-9.75887
▁prepared	-9.75887
▁pretending	-9.75887
▁primary	-9.75887
▁product	-9.75887
▁puppy	-9.75887
▁quote	-9.75887
▁race	-9.75887
▁rage	-9.75887
▁reasonable	-9.75887
▁receptionist	-9.75887
▁recognize	-9.75887
▁record	-9.75887
▁recovering	-9.75887
▁refill	-9.75887
▁refused	-9.75887
▁regardless	-9.75887
▁remind	-9.75887
▁replaying	-9.75887
▁rescue	-9.75887
▁role	-9.75887
▁searching	-9.75887
▁semi	-9.75887
▁server	-9.75887
▁sexually	-9.75887
▁shell	-9.75887
▁shock	-9.75887
▁shop	-9.75887
▁showed	-9.75887
▁sight	-9.75887
▁slowing	-9.75887
▁socialize	-9.75887
▁spare	-9.75887
▁spark	-9.75887
▁spread	-9.75887
▁succeed	-9.75887
▁supplement	-9.75887
▁surprised	-9.75887
▁survival	-9.75887
▁swing	-9.75887
▁switch	-9.75887
▁teach	-9.75887
▁threatened	-9.75887
▁threw	-9.75887
▁til	-9.75887
▁tinder	-9.75887
▁tissue	-9.75887
▁training	-9.75887
▁trash	-9.75887
▁turkey	-9.75887
▁twitching	-9.75887
▁ultimately	-9.75887
▁unhealthy	-9.75887
▁unsure	-9.75887
▁via	-9.75887
▁victory	-9.75887
▁void	-9.75887
▁vomit	-9.75887
▁wash	-9.75887
▁wedding	-9.75887
▁whatsoever	-9.75887
▁wise	-9.75887
▁wishing	-9.75887
▁yellow	-9.75887
▁000	-9.91302
▁10mg	-9.91302
▁15mg	-9.91302
▁25mg	-9.91302
▁acid	-9.91302
▁afternoon	-9.91302
▁aggressive	-9.91302
▁agree	-9.91302
▁allergic	-9.91302
▁allowing	-9.91302
▁alternative	-9.91302
▁ambition	-9.91302
▁ap	-9.91302
▁apathetic	-9.91302
▁apply	-9.91302
▁approach	-9.91302
▁asap	-9.91302
▁assumption	-9.91302
▁ativan	-9.91302
▁avoided	-9.91302
▁awake	-9.91302
▁awareness	-9.91302
▁awhile	-9.91302
▁benzo	-9.91302
▁bite	-9.91302
▁bitter	-9.91302
▁blank	-9.91302
▁blocked	-9.91302
▁blocking	-9.91302
▁boss	-9.91302
▁bpd	-9.91302
▁brave	-9.91302
▁breakfast	-9.91302
▁breakup	-9.91302
▁bright	-9.91302
▁browsing	-9.91302
▁btw	-9.91302
▁button	-9.91302
▁cancel	-9.91302
▁capacity	-9.91302
▁casual	-9.91302
▁celebration	-9.91302
▁chaos	-9.91302
▁cheer	-9.91302
▁click	-9.91302
▁clinic	-9.91302
▁consistent	-9.91302
▁continues	-9.91302
▁continuing	-9.91302
▁controlled	-9.91302
▁couldnt	-9.91302
▁coward	-9.91302
▁crack	-9.91302
▁cream	-9.91302
▁crushed	-9.91302
▁culture	-9.91302
▁cure	-9.91302
▁cymbalta	-9.91302
▁dance	-9.91302
▁darkness	-9.91302
▁december	-9.91302
▁deed	-9.91302
▁deleted	-9.91302
▁develop	-9.91302
▁differently	-9.91302
▁discussing	-9.91302
▁dismissed	-9.91302
▁divorced	-9.91302
▁doesnt	-9.91302
▁dollar	-9.91302
▁dropping	-9.91302
▁dude	-9.91302
▁dysfunctional	-9.91302
▁earn	-9.91302
▁employer	-9.91302
▁emptiness	-9.91302
▁evidence	-9.91302
▁exists	-9.91302
▁explanation	-9.91302
▁exposure	-9.91302
▁faced	-9.91302
▁factor	-9.91302
▁factory	-9.91302
▁feedback	-9.91302
▁film	-9.91302
▁flare	-9.91302
▁flaw	-9.91302
▁forgive	-9.91302
▁former	-9.91302
▁frankly	-9.91302
▁gas	-9.91302
▁gay	-9.91302
▁gle	-9.91302
▁goddamn	-9.91302
▁goodbye	-9.91302
▁grocery	-9.91302
▁grown	-9.91302
▁gun	-9.91302
▁hesitant	-9.91302
▁highschool	-9.91302
▁highway	-9.91302
▁hire	-9.91302
▁hiv	-9.91302
▁honor	-9.91302
▁horror	-9.91302
▁idek	-9.91302
▁identify	-9.91302
▁identity	-9.91302
▁ik	-9.91302
▁insomnia	-9.91302
▁instagram	-9.91302
▁investing	-9.91302
▁invite	-9.91302
▁involved	-9.91302
▁irrationally	-9.91302
▁itch	-9.91302
▁join	-9.91302
▁journal	-9.91302
▁jumped	-9.91302
▁jumping	-9.91302
▁junior	-9.91302
▁l	-9.91302
▁label	-9.91302
▁lasted	-9.91302
▁layer	-9.91302
▁link	-9.91302
▁lip	-9.91302
▁lock	-9.91302
▁locked	-9.91302
▁loudly	-9.91302
▁lu	-9.91302
▁meaningful	-9.91302
▁measure	-9.91302
▁medicated	-9.91302
▁messing	-9.91302
▁mindfulness	-9.91302
▁mri	-9.91302
▁necessarily	-9.91302
▁negatively	-9.91302
▁neither	-9.91302
▁notebook	-9.91302
▁numerous	-9.91302
▁obsessive	-9.91302
▁occasional	-9.91302
▁offmychest	-9.91302
▁org	-9.91302
▁outcome	-9.91302
▁overdose	-9.91302
▁overreacting	-9.91302
▁package	-9.91302
▁page	-9.91302
▁palm	-9.91302
▁pass	-9.91302
▁pattern	-9.91302
▁peaceful	-9.91302
▁peak	-9.91302
▁perhaps	-9.91302
▁picked	-9.91302
▁picking	-9.91302
▁planet	-9.91302
▁poop	-9.91302
▁practically	-9.91302
▁pray	-9.91302
▁preface	-9.91302
▁presentation	-9.91302
▁prior	-9.91302
▁prison	-9.91302
▁promise	-9.91302
▁promised	-9.91302
▁psychiatric	-9.91302
▁pursue	-9.91302
▁rabies	-9.91302
▁raise	-9.91302
▁realise	-9.91302
▁reflux	-9.91302
▁regularly	-9.91302
▁relapse	-9.91302
▁relieved	-9.91302
▁resource	-9.91302
▁respectful	-9.91302
▁rich	-9.91302
▁romantic	-9.91302
▁rose	-9.91302
▁round	-9.91302
▁route	-9.91302
▁rut	-9.91302
▁rv	-9.91302
▁safety	-9.91302
▁salary	-9.91302
▁saved	-9.91302
▁scene	-9.91302
▁secret	-9.91302
▁separate	-9.91302
▁sertraline	-9.91302
▁sigh	-9.91302
▁sinus	-9.91302
▁slight	-9.91302
▁snack	-9.91302
▁spam	-9.91302
▁spectrum	-9.91302
▁speech	-9.91302
▁spoken	-9.91302
▁stood	-9.91302
▁substance	-9.91302
▁sugar	-9.91302
▁survey	-9.91302
▁survived	-9.91302
▁talent	-9.91302
▁tax	-9.91302
▁tbh	-9.91302
▁tea	-9.91302
▁tech	-9.91302
▁temperature	-9.91302
▁terror	-9.91302
▁thriving	-9.91302
▁thus	-9.91302
▁tiny	-9.91302
▁tiring	-9.91302
▁tool	-9.91302
▁torture	-9.91302
▁train	-9.91302
▁trans	-9.91302
▁tremor	-9.91302
▁typical	-9.91302
▁typically	-9.91302
▁upper	-9.91302
▁vegetable	-9.91302
▁venlafaxine	-9.91302
▁vibe	-9.91302
▁virus	-9.91302
▁vomiting	-9.91302
▁waited	-9.91302
▁warm	-9.91302
▁wherever	-9.91302
▁white	-9.91302
▁willpower	-9.91302
▁window	-9.91302
▁wisdom	-9.91302
▁worn	-9.91302
▁worsened	-9.91302
▁wtf	-9.91302
▁zombie	-9.91302
▁4th	-10.0953
▁abandoned	-10.0953
▁abilify	-10.0953
▁accomplished	-10.0953
▁accomplishment	-10.0953
▁achieve	-10.0953
▁ad	-10.0953
▁addiction	-10.0953
▁adding	-10.0953
▁addition	-10.0953
▁additional	-10.0953
▁address	-10.0953
▁advantage	-10.0953
▁advise	-10.0953
▁agreed	-10.0953
▁annoys	-10.0953
▁answered	-10.0953
▁apparent	-10.0953
▁appear	-10.0953
▁appears	-10.0953
▁assistance	-10.0953
▁assumed	-10.0953
▁attached	-10.0953
▁attending	-10.0953
▁autopilot	-10.0953
▁balanced	-10.0953
▁bank	-10.0953
▁bat	-10.0953
▁begged	-10.0953
▁behavioral	-10.0953
▁belong	-10.0953
▁blamed	-10.0953
▁bleak	-10.0953
▁bomb	-10.0953
▁booked	-10.0953
▁boom	-10.0953
▁bound	-10.0953
▁box	-10.0953
▁brand	-10.0953
▁bridge	-10.0953
▁brilliant	-10.0953
▁brushing	-10.0953
▁bullet	-10.0953
▁bump	-10.0953
▁carrying	-10.0953
▁cashier	-10.0953
▁cautious	-10.0953
▁choking	-10.0953
▁chose	-10.0953
▁christmas	-10.0953
▁classmate	-10.0953
▁classroom	-10.0953
▁clock	-10.0953
▁compare	-10.0953
▁complex	-10.0953
▁confronted	-10.0953
▁connecting	-10.0953
▁consciousness	-10.0953
▁consuming	-10.0953
▁contribute	-10.0953
▁cook	-10.0953
▁core	-10.0953
▁corner	-10.0953
▁costume	-10.0953
▁counsellor	-10.0953
▁crawling	-10.0953
▁curl	-10.0953
▁dangerous	-10.0953
▁description	-10.0953
▁despise	-10.0953
▁determined	-10.0953
▁diagnose	-10.0953
▁dirty	-10.0953
▁discussion	-10.0953
▁document	-10.0953
▁doomed	-10.0953
▁dot	-10.0953
▁double	-10.0953
▁drama	-10.0953
▁dreadful	-10.0953
▁driver	-10.0953
▁duty	-10.0953
▁dy	-10.0953
▁eaten	-10.0953
▁elsewhere	-10.0953
▁enjoyable	-10.0953
▁error	-10.0953
▁ethic	-10.0953
▁excitement	-10.0953
▁exercising	-10.0953
▁experiment	-10.0953
▁expose	-10.0953
▁exposed	-10.0953
▁expressed	-10.0953
▁expressing	-10.0953
▁extent	-10.0953
▁facility	-10.0953
▁facing	-10.0953
▁familiar	-10.0953
▁famous	-10.0953
▁fantastic	-10.0953
▁fatigued	-10.0953
▁fellow	-10.0953
▁filling	-10.0953
▁finishing	-10.0953
▁flying	-10.0953
▁foggy	-10.0953
▁fortunately	-10.0953
▁fragile	-10.0953
▁freeze	-10.0953
▁froze	-10.0953
▁frustration	-10.0953
▁ghosted	-10.0953
▁gpa	-10.0953
▁gradually	-10.0953
▁gross	-10.0953
▁healing	-10.0953
▁heartbeat	-10.0953
▁helpless	-10.0953
▁hopeful	-10.0953
▁hormone	-10.0953
▁hospitalized	-10.0953
▁hotel	-10.0953
▁hotline	-10.0953
▁hydroxzine	-10.0953
▁identifying	-10.0953
▁imagining	-10.0953
▁immense	-10.0953
▁income	-10.0953
▁indeed	-10.0953
▁indifference	-10.0953
▁inflammation	-10.0953
▁injury	-10.0953
▁inner	-10.0953
▁insisted	-10.0953
▁intention	-10.0953
▁interact	-10.0953
▁irritable	-10.0953
▁isolating	-10.0953
▁jaw	-10.0953
▁jerk	-10.0953
▁joint	-10.0953
▁junk	-10.0953
▁key	-10.0953
▁knife	-10.0953
▁lady	-10.0953
▁laid	-10.0953
▁land	-10.0953
▁latter	-10.0953
▁lecture	-10.0953
▁legal	-10.0953
▁lightheaded	-10.0953
▁listened	-10.0953
▁loosing	-10.0953
▁lung	-10.0953
▁management	-10.0953
▁manifest	-10.0953
▁men	-10.0953
▁messaged	-10.0953
▁midst	-10.0953
▁midterm	-10.0953
▁migraine	-10.0953
▁military	-10.0953
▁misdiagnosed	-10.0953
▁mobile	-10.0953
▁movement	-10.0953
▁muster	-10.0953
▁neighbor	-10.0953
▁neurotypical	-10.0953
▁norm	-10.0953
▁nursing	-10.0953
▁objectively	-10.0953
▁obsession	-10.0953
▁occasionally	-10.0953
▁odds	-10.0953
▁optimistic	-10.0953
▁original	-10.0953
▁outfit	-10.0953
▁owe	-10.0953
▁pacing	-10.0953
▁pair	-10.0953
▁panicky	-10.0953
▁participate	-10.0953
▁passive	-10.0953
▁path	-10.0953
▁pause	-10.0953
▁pharmacy	-10.0953
▁pit	-10.0953
▁plenty	-10.0953
▁popular	-10.0953
▁potentially	-10.0953
▁pounding	-10.0953
▁prepare	-10.0953
▁prevent	-10.0953
▁previously	-10.0953
▁processing	-10.0953
▁promising	-10.0953
▁provided	-10.0953
▁pulling	-10.0953
▁pulse	-10.0953
▁pure	-10.0953
▁rabbit	-10.0953
▁ranting	-10.0953
▁reacting	-10.0953
▁reacts	-10.0953
▁recover	-10.0953
▁reducing	-10.0953
▁remaining	-10.0953
▁remedy	-10.0953
▁remembering	-10.0953
▁reminded	-10.0953
▁reminds	-10.0953
▁remote	-10.0953
▁remotely	-10.0953
▁remove	-10.0953
▁repeated	-10.0953
▁repeatedly	-10.0953
▁repeating	-10.0953
▁replied	-10.0953
▁reported	-10.0953
▁request	-10.0953
▁responded	-10.0953
▁retail	-10.0953
▁returned	-10.0953
▁returning	-10.0953
▁ride	-10.0953
▁ring	-10.0953
▁robot	-10.0953
▁ruminating	-10.0953
▁safer	-10.0953
▁sand	-10.0953
▁sarah	-10.0953
▁score	-10.0953
▁season	-10.0953
▁security	-10.0953
▁seemingly	-10.0953
▁shooting	-10.0953
▁shopping	-10.0953
▁shortness	-10.0953
▁showering	-10.0953
▁shuts	-10.0953
▁simplest	-10.0953
▁sinking	-10.0953
▁sleepy	-10.0953
▁slip	-10.0953
▁slipping	-10.0953
▁sooner	-10.0953
▁sounded	-10.0953
▁spin	-10.0953
▁spoiled	-10.0953
▁spoke	-10.0953
▁stab	-10.0953
▁stabbing	-10.0953
▁staff	-10.0953
▁stare	-10.0953
▁steal	-10.0953
▁subconsciously	-10.0953
▁subsided	-10.0953
▁sucked	-10.0953
▁sufferer	-10.0953
▁suffers	-10.0953
▁suggest	-10.0953
▁suicidewatch	-10.0953
▁suit	-10.0953
▁supervisor	-10.0953
▁surely	-10.0953
▁teenager	-10.0953
▁thin	-10.0953
▁thru	-10.0953
▁tone	-10.0953
▁tornado	-10.0953
▁trade	-10.0953
▁tw	-10.0953
▁uk	-10.0953
▁un	-10.0953
▁uncertainty	-10.0953
▁uncontrollably	-10.0953
▁unknown	-10.0953
▁unmotivated	-10.0953
▁unpleasant	-10.0953
▁useful	-10.0953
▁valid	-10.0953
▁validation	-10.0953
▁violence	-10.0953
▁virtual	-10.0953
▁vitamin	-10.0953
▁wage	-10.0953
▁weakness	-10.0953
▁website	-10.0953
▁wiki	-10.0953
▁wondered	-10.0953
▁wood	-10.0953
▁wrist	-10.0953
▁yawn	-10.0953
▁yep	-10.0953
▁150	-10.3185
▁150mg	-10.3185
▁180	-10.3185
▁1mg	-10.3185
▁2018	-10.3185
▁20mg	-10.3185
▁21f	-10.3185
▁28	-10.3185
▁30mg	-10.3185
▁40mg	-10.3185
▁8th	-10.3185
▁abt	-10.3185
▁acute	-10.3185
▁adam	-10.3185
▁added	-10.3185
▁adderall	-10.3185
▁adjusting	-10.3185
▁admitted	-10.3185
▁agitated	-10.3185
▁albeit	-10.3185
▁allows	-10.3185
▁amazon	-10.3185
▁ambulance	-10.3185
▁among	-10.3185
▁amt	-10.3185
▁answering	-10.3185
▁antibiotic	-10.3185
▁apple	-10.3185
▁applied	-10.3185
▁appropriate	-10.3185
▁asks	-10.3185
▁aspergers	-10.3185
▁aspiration	-10.3185
▁assure	-10.3185
▁asthma	-10.3185
▁atleast	-10.3185
▁atm	-10.3185
▁attachment	-10.3185
▁automatically	-10.3185
▁avail	-10.3185
▁band	-10.3185
▁bartender	-10.3185
▁beforehand	-10.3185
▁benzos	-10.3185
▁binge	-10.3185
▁blanket	-10.3185
▁blur	-10.3185
▁board	-10.3185
▁bond	-10.3185
▁bone	-10.3185
▁bowel	-10.3185
▁brat	-10.3185
▁brushed	-10.3185
▁bubble	-10.3185
▁buddy	-10.3185
▁bug	-10.3185
▁bumble	-10.3185
▁burned	-10.3185
▁butt	-10.3185
▁cardiologist	-10.3185
▁careful	-10.3185
▁caretaker	-10.3185
▁ceiling	-10.3185
▁challenge	-10.3185
▁charge	-10.3185
▁chart	-10.3185
▁cheese	-10.3185
▁chew	-10.3185
▁cigarette	-10.3185
▁ck	-10.3185
▁claim	-10.3185
▁cleared	-10.3185
▁clonazepam	-10.3185
▁clot	-10.3185
▁club	-10.3185
▁collapse	-10.3185
▁color	-10.3185
▁commented	-10.3185
▁communicating	-10.3185
▁comparison	-10.3185
▁comprehend	-10.3185
▁concentration	-10.3185
▁connected	-10.3185
▁consequence	-10.3185
▁consume	-10.3185
▁contemplating	-10.3185
▁continuously	-10.3185
▁convincing	-10.3185
▁correctly	-10.3185
▁crappy	-10.3185
▁crash	-10.3185
▁creating	-10.3185
▁creator	-10.3185
▁creep	-10.3185
▁creeping	-10.3185
▁critical	-10.3185
▁crohn	-10.3185
▁crypto	-10.3185
▁cured	-10.3185
▁damaged	-10.3185
▁dated	-10.3185
▁daytime	-10.3185
▁de	-10.3185
▁debating	-10.3185
▁decade	-10.3185
▁deciding	-10.3185
▁decline	-10.3185
▁deepest	-10.3185
▁delay	-10.3185
▁denial	-10.3185
▁dense	-10.3185
▁dependent	-10.3185
▁depression1	-10.3185
▁describing	-10.3185
▁detached	-10.3185
▁devastated	-10.3185
▁development	-10.3185
▁diary	-10.3185
▁differentiate	-10.3185
▁digging	-10.3185
▁director	-10.3185
▁disappeared	-10.3185
▁disappointing	-10.3185
▁disconnected	-10.3185
▁discovered	-10.3185
▁dismiss	-10.3185
▁dm	-10.3185
▁downstairs	-10.3185
▁downward	-10.3185
▁dropout	-10.3185
▁dull	-10.3185
▁dumped	-10.3185
▁dunno	-10.3185
▁dust	-10.3185
▁echocardiogram	-10.3185
▁ect	-10.3185
▁edible	-10.3185
▁ekg	-10.3185
▁elderly	-10.3185
▁elementary	-10.3185
▁emotionless	-10.3185
▁employment	-10.3185
▁enemy	-10.3185
▁entrance	-10.3185
▁established	-10.3185
▁evaluation	-10.3185
▁evrything	-10.3185
▁expects	-10.3185
▁external	-10.3185
▁eyelash	-10.3185
▁faint	-10.3185
▁fan	-10.3185
▁fee	-10.3185
▁feed	-10.3185
▁fixed	-10.3185
▁fixing	-10.3185
▁flash	-10.3185
▁flow	-10.3185
▁flower	-10.3185
▁flowing	-10.3185
▁fluoxetine	-10.3185
▁fly	-10.3185
▁fomo	-10.3185
▁fond	-10.3185
▁fool	-10.3185
▁forum	-10.3185
▁france	-10.3185
▁frequent	-10.3185
▁freshman	-10.3185
▁fruit	-10.3185
▁gaslighting	-10.3185
▁gentle	-10.3185
▁government	-10.3185
▁grad	-10.3185
▁grasp	-10.3185
▁greedy	-10.3185
▁grudge	-10.3185
▁guard	-10.3185
▁hangout	-10.3185
▁happier	-10.3185
▁happily	-10.3185
▁harmed	-10.3185
▁healthcare	-10.3185
▁heck	-10.3185
▁hero	-10.3185
▁hip	-10.3185
▁hopelessness	-10.3185
▁horrendous	-10.3185
▁household	-10.3185
▁humiliated	-10.3185
▁humor	-10.3185
▁hundred	-10.3185
▁hung	-10.3185
▁hurtful	-10.3185
▁hygiene	-10.3185
▁iam	-10.3185
▁improved	-10.3185
▁improving	-10.3185
▁impulse	-10.3185
▁inability	-10.3185
▁inappropriate	-10.3185
▁inbox	-10.3185
▁incapable	-10.3185
▁includes	-10.3185
▁inconvenience	-10.3185
▁independent	-10.3185
▁inevitable	-10.3185
▁infected	-10.3185
▁input	-10.3185
▁insecure	-10.3185
▁instance	-10.3185
▁instant	-10.3185
▁instinct	-10.3185
▁intake	-10.3185
▁intentionally	-10.3185
▁interviewed	-10.3185
▁invalidate	-10.3185
▁ish	-10.3185
▁itchy	-10.3185
▁j	-10.3185
▁jasmine	-10.3185
▁jealousy	-10.3185
▁joking	-10.3185
▁journaling	-10.3185
▁juice	-10.3185
▁july	-10.3185
▁ka	-10.3185
▁killer	-10.3185
▁landed	-10.3185
▁laptop	-10.3185
▁lastly	-10.3185
▁legitimately	-10.3185
▁license	-10.3185
▁lied	-10.3185
▁lifestyle	-10.3185
▁lighter	-10.3185
▁lil	-10.3185
▁loan	-10.3185
▁loathing	-10.3185
▁longest	-10.3185
▁lowered	-10.3185
▁lt	-10.3185
▁lurking	-10.3185
▁maintain	-10.3185
▁mall	-10.3185
▁manageable	-10.3185
▁manipulative	-10.3185
▁marfans	-10.3185
▁market	-10.3185
▁marketing	-10.3185
▁mate	-10.3185
▁material	-10.3185
▁max	-10.3185
▁meditate	-10.3185
▁mertazapine	-10.3185
▁messaging	-10.3185
▁minecraft	-10.3185
▁minimal	-10.3185
▁mix	-10.3185
▁murder	-10.3185
▁n	-10.3185
▁narcissistic	-10.3185
▁nighttime	-10.3185
▁nonetheless	-10.3185
▁noon	-10.3185
▁normalcy	-10.3185
▁notification	-10.3185
▁numbing	-10.3185
▁nut	-10.3185
▁obsessed	-10.3185
▁occupied	-10.3185
▁ofc	-10.3185
▁oil	-10.3185
▁outright	-10.3185
▁outta	-10.3185
▁owner	-10.3185
▁painting	-10.3185
▁pant	-10.3185
▁park	-10.3185
▁peer	-10.3185
▁perform	-10.3185
▁performance	-10.3185
▁petty	-10.3185
▁phd	-10.3185
▁philosophy	-10.3185
▁plastic	-10.3185
▁pleaded	-10.3185
▁policy	-10.3185
▁portal	-10.3185
▁praised	-10.3185
▁praying	-10.3185
▁prefer	-10.3185
▁pregnancy	-10.3185
▁preparing	-10.3185
▁pressuring	-10.3185
▁privately	-10.3185
▁privilege	-10.3185
▁procrastinate	-10.3185
▁prof	-10.3185
▁professor	-10.3185
▁psychiatry	-10.3185
▁psychological	-10.3185
▁psychotic	-10.3185
▁punch	-10.3185
▁purely	-10.3185
▁pursuing	-10.3185
▁qualified	-10.3185
▁ramble	-10.3185
▁raped	-10.3185
▁rationally	-10.3185
▁realistically	-10.3185
▁realization	-10.3185
▁reasoning	-10.3185
▁recommending	-10.3185
▁recurring	-10.3185
▁reduce	-10.3185
▁reference	-10.3185
▁referral	-10.3185
▁relaxing	-10.3185
▁release	-10.3185
▁remorse	-10.3185
▁report	-10.3185
▁repressed	-10.3185
▁required	-10.3185
▁reset	-10.3185
▁resolution	-10.3185
▁restart	-10.3185
▁resume	-10.3185
▁rib	-10.3185
▁ridiculously	-10.3185
▁ripped	-10.3185
▁rise	-10.3185
▁rolling	-10.3185
▁romantically	-10.3185
▁rotten	-10.3185
▁row	-10.3185
▁sake	-10.3185
▁scheduled	-10.3185
▁screamed	-10.3185
▁search	-10.3185
▁secondary	-10.3185
▁section	-10.3185
▁sell	-10.3185
▁selling	-10.3185
▁serotonin	-10.3185
▁serve	-10.3185
▁serving	-10.3185
▁settle	-10.3185
▁shared	-10.3185
▁sharp	-10.3185
▁shelf	-10.3185
▁shutting	-10.3185
▁sits	-10.3185
▁skipped	-10.3185
▁sky	-10.3185
▁slammed	-10.3185
▁slump	-10.3185
▁smell	-10.3185
▁snapped	-10.3185
▁snd	-10.3185
▁soft	-10.3185
▁software	-10.3185
▁sold	-10.3185
▁solid	-10.3185
▁someday	-10.3185
▁spaced	-10.3185
▁spite	-10.3185
▁sport	-10.3185
▁square	-10.3185
▁standard	-10.3185
▁star	-10.3185
▁starve	-10.3185
▁stated	-10.3185
▁stem	-10.3185
▁steroid	-10.3185
▁string	-10.3185
▁strongly	-10.3185
▁submitting	-10.3185
▁successfully	-10.3185
▁sum	-10.3185
▁surgeon	-10.3185
▁surprisingly	-10.3185
▁surrounding	-10.3185
▁sweaty	-10.3185
▁swelling	-10.3185
▁switching	-10.3185
▁swollen	-10.3185
▁table	-10.3185
▁tablet	-10.3185
▁tank	-10.3185
▁tapering	-10.3185
▁tearing	-10.3185
▁teenage	-10.3185
▁temporarily	-10.3185
▁thyroid	-10.3185
▁tie	-10.3185
▁tied	-10.3185
▁tiktok	-10.3185
▁tingly	-10.3185
▁tolerance	-10.3185
▁toward	-10.3185
▁trait	-10.3185
▁transferred	-10.3185
▁traumatized	-10.3185
▁tree	-10.3185
▁trivial	-10.3185
▁trusting	-10.3185
▁twisted	-10.3185
▁typed	-10.3185
▁typo	-10.3185
▁ugh	-10.3185
▁uh	-10.3185
▁ultrasound	-10.3185
▁underage	-10.3185
▁uneasy	-10.3185
▁ungrateful	-10.3185
▁unlike	-10.3185
▁unrealistic	-10.3185
▁unsafe	-10.3185
▁untill	-10.3185
▁untreated	-10.3185
▁user	-10.3185
▁valued	-10.3185
▁vanished	-10.3185
▁vertigo	-10.3185
▁vet	-10.3185
▁vicious	-10.3185
▁virgin	-10.3185
▁visited	-10.3185
▁weekly	-10.3185
▁welding	-10.3185
▁wfh	-10.3185
▁whereas	-10.3185
▁witnessed	-10.3185
▁worsening	-10.3185
▁worthwhile	-10.3185
▁wow	-10.3185
▁wrap	-10.3185
▁11pm	-10.6062
▁140	-10.6062
▁2000	-10.6062
▁24m	-10.6062
▁25f	-10.6062
▁300mg	-10.6062
▁31	-10.6062
▁34	-10.6062
▁35	-10.6062
▁500	-10.6062
▁5th	-10.6062
▁abaissement	-10.6062
▁abandonment	-10.6062
▁abdomen	-10.6062
▁absorbed	-10.6062
▁acceptable	-10.6062
▁accounting	-10.6062
▁accurate	-10.6062
▁achieved	-10.6062
▁achievement	-10.6062
▁adequate	-10.6062
▁admission	-10.6062
▁adopted	-10.6062
▁adulthood	-10.6062
▁advil	-10.6062
▁advised	-10.6062
▁agency	-10.6062
▁agoraphobia	-10.6062
▁aid	-10.6062
▁airport	-10.6062
▁aisle	-10.6062
▁ala	-10.6062
▁alcoholic	-10.6062
▁alert	-10.6062
▁alien	-10.6062
▁allergy	-10.6062
▁alleviate	-10.6062
▁amends	-10.6062
▁america	-10.6062
▁analyze	-10.6062
▁android	-10.6062
▁anonymously	-10.6062
▁anxiousness	-10.6062
▁anyresume	-10.6062
▁aorta	-10.6062
▁arguing	-10.6062
▁arise	-10.6062
▁arrive	-10.6062
▁arrived	-10.6062
▁arrogant	-10.6062
▁articulate	-10.6062
▁ass	-10.6062
▁assistant	-10.6062
▁assured	-10.6062
▁attend	-10.6062
▁award	-10.6062
▁backyard	-10.6062
▁bacteria	-10.6062
▁baking	-10.6062
▁balding	-10.6062
▁bar	-10.6062
▁barrier	-10.6062
▁basketball	-10.6062
▁bass	-10.6062
▁battled	-10.6062
▁battling	-10.6062
▁beauty	-10.6062
▁becouse	-10.6062
▁belly	-10.6062
▁belongs	-10.6062
▁benadryl	-10.6062
▁benzodiazepine	-10.6062
▁beta	-10.6062
▁bettering	-10.6062
▁bin	-10.6062
▁bio	-10.6062
▁biological	-10.6062
▁biology	-10.6062
▁bla	-10.6062
▁blacked	-10.6062
▁blocker	-10.6062
▁blueberry	-10.6062
▁booking	-10.6062
▁boredom	-10.6062
▁bounced	-10.6062
▁boundary	-10.6062
▁bowl	-10.6062
▁bpm	-10.6062
▁breast	-10.6062
▁breeze	-10.6062
▁brick	-10.6062
▁brighter	-10.6062
▁brink	-10.6062
▁bruh	-10.6062
▁bully	-10.6062
▁bumped	-10.6062
▁bupropion	-10.6062
▁burdening	-10.6062
▁burnout	-10.6062
▁bus	-10.6062
▁buspirone	-10.6062
▁cake	-10.6062
▁calmed	-10.6062
▁camp	-10.6062
▁canceled	-10.6062
▁cancelled	-10.6062
▁candle	-10.6062
▁candy	-10.6062
▁carried	-10.6062
▁cash	-10.6062
▁casually	-10.6062
▁celebrate	-10.6062
▁centered	-10.6062
▁certified	-10.6062
▁chain	-10.6062
▁challenging	-10.6062
▁chapter	-10.6062
▁characteristic	-10.6062
▁charged	-10.6062
▁charity	-10.6062
▁chase	-10.6062
▁chatter	-10.6062
▁chemistry	-10.6062
▁chilling	-10.6062
▁choosing	-10.6062
▁christ	-10.6062
▁christian	-10.6062
▁church	-10.6062
▁cipralex	-10.6062
▁claimed	-10.6062
▁clarify	-10.6062
▁clarity	-10.6062
▁clearing	-10.6062
▁clinging	-10.6062
▁closely	-10.6062
▁closure	-10.6062
▁cloud	-10.6062
▁coach	-10.6062
▁coincidence	-10.6062
▁comfy	-10.6062
▁comma	-10.6062
▁committing	-10.6062
▁communicated	-10.6062
▁comparing	-10.6062
▁compassion	-10.6062
▁compete	-10.6062
▁competitive	-10.6062
▁complication	-10.6062
▁concrete	-10.6062
▁condescending	-10.6062
▁confessed	-10.6062
▁confrontation	-10.6062
▁consciously	-10.6062
▁consultation	-10.6062
▁consumed	-10.6062
▁contained	-10.6062
▁convulsing	-10.6062
▁cooped	-10.6062
▁cop	-10.6062
▁cough	-10.6062
▁countless	-10.6062
▁cp	-10.6062
▁cptsd	-10.6062
▁crave	-10.6062
▁cringe	-10.6062
▁crippled	-10.6062
▁criticize	-10.6062
▁cross	-10.6062
▁crossed	-10.6062
▁cruel	-10.6062
▁ct	-10.6062
▁cuddle	-10.6062
▁curled	-10.6062
▁damned	-10.6062
▁dancing	-10.6062
▁dare	-10.6062
▁darkest	-10.6062
▁daunting	-10.6062
▁decaf	-10.6062
▁decency	-10.6062
▁declining	-10.6062
▁defense	-10.6062
▁delete	-10.6062
▁denied	-10.6062
▁deny	-10.6062
▁depending	-10.6062
▁depends	-10.6062
▁depth	-10.6062
▁deserves	-10.6062
▁destructive	-10.6062
▁determine	-10.6062
▁developing	-10.6062
▁diabetes	-10.6062
▁diarrhea	-10.6062
▁direct	-10.6062
▁directed	-10.6062
▁disabled	-10.6062
▁discouraged	-10.6062
▁discovery	-10.6062
▁disgust	-10.6062
▁disgusted	-10.6062
▁dish	-10.6062
▁disowned	-10.6062
▁disposable	-10.6062
▁dissociating	-10.6062
▁distorted	-10.6062
▁distress	-10.6062
▁district	-10.6062
▁ditched	-10.6062
▁divorce	-10.6062
▁dominant	-10.6062
▁dragging	-10.6062
▁drastically	-10.6062
▁draw	-10.6062
▁drawing	-10.6062
▁dress	-10.6062
▁driven	-10.6062
▁dug	-10.6062
▁dumbest	-10.6062
▁dwell	-10.6062
▁earning	-10.6062
▁ed	-10.6062
▁editing	-10.6062
▁effortless	-10.6062
▁eh	-10.6062
▁eight	-10.6062
▁emailed	-10.6062
▁embarrassment	-10.6062
▁emo	-10.6062
▁en	-10.6062
▁encouraged	-10.6062
▁encouraging	-10.6062
▁endure	-10.6062
▁endured	-10.6062
▁engage	-10.6062
▁engineer	-10.6062
▁entertaining	-10.6062
▁entertainment	-10.6062
▁errand	-10.6062
▁escitalopram	-10.6062
▁essay	-10.6062
▁evaluated	-10.6062
▁evaluating	-10.6062
▁evil	-10.6062
▁exaggerating	-10.6062
▁exceptionally	-10.6062
▁exciting	-10.6062
▁excruciating	-10.6062
▁existent	-10.6062
▁expected	-10.6062
▁explode	-10.6062
▁exploring	-10.6062
▁extended	-10.6062
▁extrovert	-10.6062
▁eyelid	-10.6062
▁facade	-10.6062
▁facebook	-10.6062
▁fade	-10.6062
▁fading	-10.6062
▁fate	-10.6062
▁fed	-10.6062
▁feeding	-10.6062
▁fidgeting	-10.6062
▁fifteen	-10.6062
▁finance	-10.6062
▁financially	-10.6062
▁fixated	-10.6062
▁flag	-10.6062
▁flair	-10.6062
▁flared	-10.6062
▁flew	-10.6062
▁flirt	-10.6062
▁forgetting	-10.6062
▁formal	-10.6062
▁formed	-10.6062
▁fraud	-10.6062
▁freeway	-10.6062
▁frightening	-10.6062
▁fuckin	-10.6062
▁fume	-10.6062
▁funk	-10.6062
▁g	-10.6062
▁gaining	-10.6062
▁gather	-10.6062
▁gentleness	-10.6062
▁globe	-10.6062
▁gloomy	-10.6062
▁goodnight	-10.6062
▁googling	-10.6062
▁grab	-10.6062
▁grabbed	-10.6062
▁grandparent	-10.6062
▁granted	-10.6062
▁greatest	-10.6062
▁grieving	-10.6062
▁grip	-10.6062
▁ground	-10.6062
▁growth	-10.6062
▁guideline	-10.6062
▁h	-10.6062
▁hallway	-10.6062
▁handful	-10.6062
▁hat	-10.6062
▁haunting	-10.6062
▁headed	-10.6062
▁headphone	-10.6062
▁headspace	-10.6062
▁healthier	-10.6062
▁healthily	-10.6062
▁heartbroken	-10.6062
▁heightened	-10.6062
▁hermit	-10.6062
▁highest	-10.6062
▁hike	-10.6062
▁hiking	-10.6062
▁hired	-10.6062
▁hive	-10.6062
▁holiday	-10.6062
▁hollow	-10.6062
▁honesty	-10.6062
▁hood	-10.6062
▁hoped	-10.6062
▁horrified	-10.6062
▁hospitalization	-10.6062
▁html	-10.6062
▁humanity	-10.6062
▁hydroxyzine	-10.6062
▁hypochondria	-10.6062
▁hypocrite	-10.6062
▁ibs	-10.6062
▁identified	-10.6062
▁ig	-10.6062
▁ignorant	-10.6062
▁imaginary	-10.6062
▁immensely	-10.6062
▁immersive	-10.6062
▁incompetent	-10.6062
▁incredible	-10.6062
▁individual	-10.6062
▁induced	-10.6062
▁inducing	-10.6062
▁influence	-10.6062
▁informed	-10.6062
▁ing	-10.6062
▁initially	-10.6062
▁innocent	-10.6062
▁inspiration	-10.6062
▁intelligent	-10.6062
▁intensity	-10.6062
▁intent	-10.6062
▁internal	-10.6062
▁introduce	-10.6062
▁introduction	-10.6062
▁introverted	-10.6062
▁inverse	-10.6062
▁invest	-10.6062
▁investigate	-10.6062
▁invisible	-10.6062
▁involve	-10.6062
▁iphones	-10.6062
▁ironic	-10.6062
▁ironically	-10.6062
▁item	-10.6062
▁iv	-10.6062
▁iyo	-10.6062
▁jittery	-10.6062
▁judgement	-10.6062
▁judging	-10.6062
▁judgment	-10.6062
▁judgmental	-10.6062
▁jumbled	-10.6062
▁jumpy	-10.6062
▁jung	-10.6062
▁ketamine	-10.6062
▁kicking	-10.6062
▁kidding	-10.6062
▁kindly	-10.6062
▁kindness	-10.6062
▁lane	-10.6062
▁lashed	-10.6062
▁lasting	-10.6062
▁laundry	-10.6062
▁laziness	-10.6062
▁lb	-10.6062
▁lessened	-10.6062
▁lethargic	-10.6062
▁leukemia	-10.6062
▁lifelong	-10.6062
▁lift	-10.6062
▁lightheadedness	-10.6062
▁limb	-10.6062
▁linked	-10.6062
▁listed	-10.6062
▁litteraly	-10.6062
▁lmao	-10.6062
▁loathe	-10.6062
▁lonlyness	-10.6062
▁loudness	-10.6062
▁lsd	-10.6062
▁lump	-10.6062
▁magic	-10.6062
▁magnus	-10.6062
▁mailto	-10.6062
▁maintained	-10.6062
▁mam	-10.6062
▁manifesting	-10.6062
▁manipulate	-10.6062
▁manner	-10.6062
▁marry	-10.6062
▁mdd	-10.6062
▁meat	-10.6062
▁mediocre	-10.6062
▁meltdown	-10.6062
▁meme	-10.6062
▁mere	-10.6062
▁mike	-10.6062
▁mindlessly	-10.6062
▁miracle	-10.6062
▁miserably	-10.6062
▁misunderstood	-10.6062
▁mobility	-10.6062
▁monitor	-10.6062
▁moon	-10.6062
▁motion	-10.6062
▁motivate	-10.6062
▁mundane	-10.6062
▁naked	-10.6062
▁narrative	-10.6062
▁nearby	-10.6062
▁nervousness	-10.6062
▁net	-10.6062
▁newly	-10.6062
▁nickname	-10.6062
▁nofap	-10.6062
▁nothingness	-10.6062
▁numbed	-10.6062
▁nyc	-10.6062
▁obese	-10.6062
▁observation	-10.6062
▁occurrence	-10.6062
▁ocean	-10.6062
▁omg	-10.6062
▁ongoing	-10.6062
▁onset	-10.6062
▁openly	-10.6062
▁ops	-10.6062
▁organise	-10.6062
▁outcast	-10.6062
▁outlet	-10.6062
▁overcame	-10.6062
▁overload	-10.6062
▁overly	-10.6062
▁overtime	-10.6062
▁panick	-10.6062
▁partially	-10.6062
▁partying	-10.6062
▁passionate	-10.6062
▁patience	-10.6062
▁paxil	-10.6062
▁paycheck	-10.6062
▁pb	-10.6062
▁pc	-10.6062
▁pee	-10.6062
▁perceive	-10.6062
▁perceived	-10.6062
▁perception	-10.6062
▁peripheral	-10.6062
▁persist	-10.6062
▁persistent	-10.6062
▁picnic	-10.6062
▁piss	-10.6062
▁placebo	-10.6062
▁plain	-10.6062
▁plane	-10.6062
▁platform	-10.6062
▁plea	-10.6062
▁pls	-10.6062
▁pocket	-10.6062
▁polite	-10.6062
▁political	-10.6062
▁poorly	-10.6062
▁portion	-10.6062
▁pot	-10.6062
▁powerful	-10.6062
▁ppl	-10.6062
▁precious	-10.6062
▁predicted	-10.6062
▁prescribing	-10.6062
▁presence	-10.6062
▁presume	-10.6062
▁prevented	-10.6062
▁preventing	-10.6062
▁primarily	-10.6062
▁priority	-10.6062
▁pristiq	-10.6062
▁privileged	-10.6062
▁problematic	-10.6062
▁procrastinating	-10.6062
▁produce	-10.6062
▁prolonged	-10.6062
▁prominent	-10.6062
▁propranolol	-10.6062
▁protect	-10.6062
▁proved	-10.6062
▁provider	-10.6062
▁psyche	-10.6062
▁psychologically	-10.6062
▁psychology	-10.6062
▁puberty	-10.6062
▁puke	-10.6062
▁punish	-10.6062
▁puppet	-10.6062
▁purchase	-10.6062
▁purple	-10.6062
▁qualification	-10.6062
▁quarantine	-10.6062
▁queasy	-10.6062
▁questionnaire	-10.6062
▁quiz	-10.6062
▁rapidly	-10.6062
▁rational	-10.6062
▁ray	-10.6062
▁realisation	-10.6062
▁recall	-10.6062
▁recognized	-10.6062
▁recommendation	-10.6062
▁recording	-10.6062
▁recovered	-10.6062
▁red	-10.6062
▁reflect	-10.6062
▁regain	-10.6062
▁register	-10.6062
▁regression	-10.6062
▁rejected	-10.6062
▁rejecting	-10.6062
▁relaxation	-10.6062
▁released	-10.6062
▁remain	-10.6062
▁remembered	-10.6062
▁reminder	-10.6062
▁replay	-10.6062
▁reschedule	-10.6062
▁resolve	-10.6062
▁resort	-10.6062
▁responder	-10.6062
▁restriction	-10.6062
▁resulting	-10.6062
▁retarded	-10.6062
▁retirement	-10.6062
▁revolves	-10.6062
▁ridden	-10.6062
▁ringing	-10.6062
▁rising	-10.6062
▁roll	-10.6062
▁rope	-10.6062
▁rot	-10.6062
▁roughly	-10.6062
▁rumor	-10.6062
▁rural	-10.6062
▁sabotage	-10.6062
▁sabotaging	-10.6062
▁salvage	-10.6062
▁san	-10.6062
▁sanity	-10.6062
▁satisfied	-10.6062
▁saturday	-10.6062
▁scar	-10.6062
▁scaring	-10.6062
▁schoolwork	-10.6062
▁scratch	-10.6062
▁seeker	-10.6062
▁seeming	-10.6062
▁senior	-10.6062
▁separated	-10.6062
▁separation	-10.6062
▁seroquel	-10.6062
▁setback	-10.6062
▁seven	-10.6062
▁sexuality	-10.6062
▁shallow	-10.6062
▁shameful	-10.6062
▁shape	-10.6062
▁sheet	-10.6062
▁shirt	-10.6062
▁shivering	-10.6062
▁shook	-10.6062
▁shorter	-10.6062
▁shortly	-10.6062
▁shouldnt	-10.6062
▁shouted	-10.6062
▁showered	-10.6062
▁shutdown	-10.6062
▁signed	-10.6062
▁simulation	-10.6062
▁sip	-10.6062
▁sitcom	-10.6062
▁skinny	-10.6062
▁skip	-10.6062
▁skyrocket	-10.6062
▁slave	-10.6062
▁slaving	-10.6062
▁slightest	-10.6062
▁slipped	-10.6062
▁smallest	-10.6062
▁smarter	-10.6062
▁smiled	-10.6062
▁smiling	-10.6062
▁smoked	-10.6062
▁sneeze	-10.6062
▁socialising	-10.6062
▁solved	-10.6062
▁sometime	-10.6062
▁sooooo	-10.6062
▁soothe	-10.6062
▁sorrow	-10.6062
▁south	-10.6062
▁southern	-10.6062
▁span	-10.6062
▁speaker	-10.6062
▁specialist	-10.6062
▁spends	-10.6062
▁spike	-10.6062
▁spinning	-10.6062
▁spit	-10.6062
▁spray	-10.6062
▁spring	-10.6062
▁squeeze	-10.6062
▁stability	-10.6062
▁stabilizer	-10.6062
▁stadium	-10.6062
▁status	-10.6062
▁sticking	-10.6062
▁stiff	-10.6062
▁stock	-10.6062
▁storage	-10.6062
▁strategy	-10.6062
▁stretch	-10.6062
▁strict	-10.6062
▁stricture	-10.6062
▁strike	-10.6062
▁strongest	-10.6062
▁studied	-10.6062
▁studio	-10.6062
▁style	-10.6062
▁submitted	-10.6062
▁suboxone	-10.6062
▁subsequently	-10.6062
▁sucking	-10.6062
▁suggests	-10.6062
▁supported	-10.6062
▁supporting	-10.6062
▁surviving	-10.6062
▁swallow	-10.6062
▁sway	-10.6062
▁sympathy	-10.6062
▁tab	-10.6062
▁tad	-10.6062
▁tattoo	-10.6062
▁ted	-10.6062
▁tender	-10.6062
▁tends	-10.6062
▁terrifies	-10.6062
▁thankful	-10.6062
▁theft	-10.6062
▁theme	-10.6062
▁theory	-10.6062
▁thick	-10.6062
▁thigh	-10.6062
▁threat	-10.6062
▁thrive	-10.6062
▁throwaway	-10.6062
▁tic	-10.6062
▁tightly	-10.6062
▁tire	-10.6062
▁tiredness	-10.6062
▁toxicity	-10.6062
▁tracker	-10.6062
▁traditional	-10.6062
▁traffic	-10.6062
▁trained	-10.6062
▁transition	-10.6062
▁transphobic	-10.6062
▁traveling	-10.6062
▁trazadone	-10.6062
▁treading	-10.6062
▁tremendously	-10.6062
▁trial	-10.6062
▁trichotillomania	-10.6062
▁truck	-10.6062
▁truthfully	-10.6062
▁ty	-10.6062
▁unbelievably	-10.6062
▁uncontrollable	-10.6062
▁underlying	-10.6062
▁undermine	-10.6062
▁unemployment	-10.6062
▁unfortunate	-10.6062
▁unlucky	-10.6062
▁unreasonable	-10.6062
▁unstable	-10.6062
▁upside	-10.6062
▁urgent	-10.6062
▁utter	-10.6062
▁vague	-10.6062
▁vanish	-10.6062
▁visa	-10.6062
▁wallet	-10.6062
▁war	-10.6062
▁warned	-10.6062
▁wasnt	-10.6062
▁weaker	-10.6062
▁weather	-10.6062
▁weigh	-10.6062
▁weirdly	-10.6062
▁wheel	-10.6062
▁whilst	-10.6062
▁whirlwind	-10.6062
▁whoever	-10.6062
▁wide	-10.6062
▁wierd	-10.6062
▁wikipedia	-10.6062
▁wild	-10.6062
▁witness	-10.6062
▁woozy	-10.6062
▁workplace	-10.6062
▁worsen	-10.6062
▁worthy	-10.6062
▁wrapped	-10.6062
▁writes	-10.6062
▁xvideos	-10.6062
▁yard	-10.6062
▁yawning	-10.6062
▁yay	-10.6062
▁yea	-10.6062
▁yearly	-10.6062
▁yoga	-10.6062
▁youngest	-10.6062
▁zoom	-10.6062
▁00am	-11.0116
▁10am	-11.0116
▁10pm	-11.0116
▁10th	-11.0116
▁130	-11.0116
▁13f	-11.0116
▁14f	-11.0116
▁18f	-11.0116
▁20kg	-11.0116
▁21st	-11.0116
▁23f	-11.0116
▁23m	-11.0116
▁2pm	-11.0116
▁30ish	-11.0116
▁33	-11.0116
▁3mg	-11.0116
▁3x	-11.0116
▁50mg	-11.0116
▁5am	-11.0116
▁80bpm	-11.0116
▁8pm	-11.0116
▁aa	-11.0116
▁aaaaaaa	-11.0116
▁abroad	-11.0116
▁abruptly	-11.0116
▁absent	-11.0116
▁abuser	-11.0116
▁abusing	-11.0116
▁abysmal	-11.0116
▁ac	-11.0116
▁acc	-11.0116
▁acceptance	-11.0116
▁accepts	-11.0116
▁accommodation	-11.0116
▁accompanied	-11.0116
▁accomplishing	-11.0116
▁accumulated	-11.0116
▁accused	-11.0116
▁accusing	-11.0116
▁accustomed	-11.0116
▁acne	-11.0116
▁acquaintance	-11.0116
▁adapting	-11.0116
▁adderal	-11.0116
▁administration	-11.0116
▁admiration	-11.0116
▁admittedly	-11.0116
▁advisor	-11.0116
▁affluent	-11.0116
▁affordable	-11.0116
▁afloat	-11.0116
▁afterlife	-11.0116
▁aftermath	-11.0116
▁aged	-11.0116
▁agriculture	-11.0116
▁aha	-11.0116
▁aim	-11.0116
▁aka	-11.0116
▁al	-11.0116
▁album	-11.0116
▁alienated	-11.0116
▁alley	-11.0116
▁allocate	-11.0116
▁allot	-11.0116
▁alongside	-11.0116
▁alternate	-11.0116
▁ambitious	-11.0116
▁amd	-11.0116
▁american	-11.0116
▁amitriptyline	-11.0116
▁amped	-11.0116
▁amplified	-11.0116
▁amplifies	-11.0116
▁amygdala	-11.0116
▁analyzing	-11.0116
▁anchor	-11.0116
▁angel	-11.0116
▁announced	-11.0116
▁antagonize	-11.0116
▁antonio	-11.0116
▁apologetic	-11.0116
▁appearing	-11.0116
▁appreciation	-11.0116
▁approached	-11.0116
▁approved	-11.0116
▁appt	-11.0116
▁arent	-11.0116
▁argue	-11.0116
▁arranged	-11.0116
▁arrested	-11.0116
▁artery	-11.0116
▁artist	-11.0116
▁asd	-11.0116
▁assigned	-11.0116
▁associated	-11.0116
▁ati	-11.0116
▁attach	-11.0116
▁attempting	-11.0116
▁aussie	-11.0116
▁authentic	-11.0116
▁availability	-11.0116
▁aversion	-11.0116
▁awe	-11.0116
▁ba	-11.0116
▁babbling	-11.0116
▁bachelor	-11.0116
▁backed	-11.0116
▁backpack	-11.0116
▁badass	-11.0116
▁baker	-11.0116
▁banned	-11.0116
▁barbie	-11.0116
▁baseline	-11.0116
▁basket	-11.0116
▁bcs	-11.0116
▁bean	-11.0116
▁bearing	-11.0116
▁becuase	-11.0116
▁beer	-11.0116
▁begun	-11.0116
▁behave	-11.0116
▁behavioural	-11.0116
▁betrayed	-11.0116
▁biased	-11.0116
▁billion	-11.0116
▁bird	-11.0116
▁biting	-11.0116
▁blackness	-11.0116
▁blaming	-11.0116
▁bleed	-11.0116
▁bleeding	-11.0116
▁blessed	-11.0116
▁blink	-11.0116
▁blinking	-11.0116
▁blow	-11.0116
▁blushing	-11.0116
▁bodyimage	-11.0116
▁bombarded	-11.0116
▁bonus	-11.0116
▁booze	-11.0116
▁bore	-11.0116
▁bottled	-11.0116
▁bp	-11.0116
▁breathed	-11.0116
▁breather	-11.0116
▁brew	-11.0116
▁brown	-11.0116
▁bubbly	-11.0116
▁bull	-11.0116
▁bullying	-11.0116
▁bum	-11.0116
▁burger	-11.0116
▁buried	-11.0116
▁butterfly	-11.0116
▁buzz	-11.0116
▁buzzing	-11.0116
▁cabinet	-11.0116
▁calf	-11.0116
▁california	-11.0116
▁caller	-11.0116
▁calmer	-11.0116
▁calmly	-11.0116
▁calorie	-11.0116
▁campus	-11.0116
▁canal	-11.0116
▁cannabis	-11.0116
▁capability	-11.0116
▁capitalism	-11.0116
▁carbon	-11.0116
▁castle	-11.0116
▁category	-11.0116
▁cater	-11.0116
▁cathartic	-11.0116
▁causality	-11.0116
▁cease	-11.0116
▁celebrating	-11.0116
▁cemented	-11.0116
▁central	-11.0116
▁challenged	-11.0116
▁chatty	-11.0116
▁cheaper	-11.0116
▁cheesy	-11.0116
▁chemo	-11.0116
▁cherry	-11.0116
▁chewbacca	-11.0116
▁chicken	-11.0116
▁chin	-11.0116
▁chocolate	-11.0116
▁chosen	-11.0116
▁churning	-11.0116
▁circled	-11.0116
▁civilized	-11.0116
▁clammy	-11.0116
▁clash	-11.0116
▁classic	-11.0116
▁clearer	-11.0116
▁clench	-11.0116
▁clerk	-11.0116
▁clever	-11.0116
▁cliche	-11.0116
▁clientele	-11.0116
▁cliff	-11.0116
▁clipper	-11.0116
▁clockwork	-11.0116
▁clothing	-11.0116
▁clown	-11.0116
▁coat	-11.0116
▁codependent	-11.0116
▁coding	-11.0116
▁cognition	-11.0116
▁cognitively	-11.0116
▁coherent	-11.0116
▁colitis	-11.0116
▁collect	-11.0116
▁colour	-11.0116
▁combined	-11.0116
▁comedian	-11.0116
▁commits	-11.0116
▁commonality	-11.0116
▁compensation	-11.0116
▁competition	-11.0116
▁completing	-11.0116
▁compose	-11.0116
▁comprehension	-11.0116
▁compulsion	-11.0116
▁compulsive	-11.0116
▁concentrating	-11.0116
▁concluded	-11.0116
▁concussion	-11.0116
▁conditional	-11.0116
▁conditioned	-11.0116
▁conducting	-11.0116
▁confidential	-11.0116
▁confirm	-11.0116
▁confusion	-11.0116
▁conquer	-11.0116
▁consideration	-11.0116
▁consist	-11.0116
▁consists	-11.0116
▁consulted	-11.0116
▁consumes	-11.0116
▁consumption	-11.0116
▁contacted	-11.0116
▁contacting	-11.0116
▁contemplated	-11.0116
▁contest	-11.0116
▁contract	-11.0116
▁contrary	-11.0116
▁contrast	-11.0116
▁contributing	-11.0116
▁copy	-11.0116
▁corsage	-11.0116
▁coughing	-11.0116
▁counting	-11.0116
▁county	-11.0116
▁covered	-11.0116
▁cowardice	-11.0116
▁coz	-11.0116
▁cramp	-11.0116
▁cramped	-11.0116
▁crashed	-11.0116
▁craving	-11.0116
▁creativity	-11.0116
▁crime	-11.0116
▁criminal	-11.0116
▁criticizing	-11.0116
▁crowded	-11.0116
▁crp	-11.0116
▁crumbled	-11.0116
▁crumbling	-11.0116
▁cu	-11.0116
▁cuddled	-11.0116
▁cue	-11.0116
▁cup	-11.0116
▁currency	-11.0116
▁cursed	-11.0116
▁cursor	-11.0116
▁custody	-11.0116
▁cw	-11.0116
▁da3225tu	-11.0116
▁dang	-11.0116
▁david	-11.0116
▁davis	-11.0116
▁daze	-11.0116
▁deadly	-11.0116
▁decrease	-11.0116
▁decreased	-11.0116
▁dedicate	-11.0116
▁defeated	-11.0116
▁defend	-11.0116
▁deferred	-11.0116
▁defies	-11.0116
▁deleting	-11.0116
▁deliver	-11.0116
▁delusion	-11.0116
▁demand	-11.0116
▁demanding	-11.0116
▁democrat	-11.0116
▁dental	-11.0116
▁depersonalization	-11.0116
▁deprecating	-11.0116
▁depreciating	-11.0116
▁depress	-11.0116
▁depresses	-11.0116
▁deserving	-11.0116
▁desirable	-11.0116
▁despair	-11.0116
▁destroys	-11.0116
▁detailed	-11.0116
▁deteriorating	-11.0116
▁detox	-11.0116
▁devastating	-11.0116
▁developer	-11.0116
▁device	-11.0116
▁devil	-11.0116
▁diabetic	-11.0116
▁dick	-11.0116
▁diego	-11.0116
▁digital	-11.0116
▁dip	-11.0116
▁dirt	-11.0116
▁disappoint	-11.0116
▁disclosed	-11.0116
▁disclosure	-11.0116
▁discovering	-11.0116
▁disgrace	-11.0116
▁dislike	-11.0116
▁disoriented	-11.0116
▁disregard	-11.0116
▁disregarded	-11.0116
▁dissociated	-11.0116
▁dissociation	-11.0116
▁distancing	-11.0116
▁distinguish	-11.0116
▁distressing	-11.0116
▁dive	-11.0116
▁dming	-11.0116
▁documentary	-11.0116
▁doens	-11.0116
▁doll	-11.0116
▁domestic	-11.0116
▁domino	-11.0116
▁donut	-11.0116
▁dorm	-11.0116
▁doubled	-11.0116
▁doubling	-11.0116
▁doubting	-11.0116
▁downer	-11.0116
▁downloaded	-11.0116
▁downvotes	-11.0116
▁draft	-11.0116
▁dragged	-11.0116
▁dreaming	-11.0116
▁dressing	-11.0116
▁drifted	-11.0116
▁drowsy	-11.0116
▁drum	-11.0116
▁du	-11.0116
▁dulled	-11.0116
▁dumbass	-11.0116
▁dumbed	-11.0116
▁dump	-11.0116
▁dwelling	-11.0116
▁dysfunction	-11.0116
▁earliest	-11.0116
▁earned	-11.0116
▁eased	-11.0116
▁easiest	-11.0116
▁easter	-11.0116
▁edu	-11.0116
▁educated	-11.0116
▁eerily	-11.0116
▁effecting	-11.0116
▁effexeor	-11.0116
▁eg	-11.0116
▁egg	-11.0116
▁eggshell	-11.0116
▁elbow	-11.0116
▁electric	-11.0116
▁electricity	-11.0116
▁elevated	-11.0116
▁empathy	-11.0116
▁encounter	-11.0116
▁encourage	-11.0116
▁energetic	-11.0116
▁engaged	-11.0116
▁engagement	-11.0116
▁engine	-11.0116
▁engineering	-11.0116
▁enroll	-11.0116
▁ent	-11.0116
▁entered	-11.0116
▁enthusiasm	-11.0116
▁entirety	-11.0116
▁entrusted	-11.0116
▁entry	-11.0116
▁envious	-11.0116
▁environmental	-11.0116
▁equipment	-11.0116
▁equipped	-11.0116
▁escalate	-11.0116
▁escrow	-11.0116
▁essence	-11.0116
▁everday	-11.0116
▁evicted	-11.0116
▁exacerbated	-11.0116
▁exceeding	-11.0116
▁exceedingly	-11.0116
▁excellent	-11.0116
▁exception	-11.0116
▁excess	-11.0116
▁excite	-11.0116
▁exhaustion	-11.0116
▁exited	-11.0116
▁expense	-11.0116
▁expire	-11.0116
▁exploded	-11.0116
▁ext	-11.0116
▁extension	-11.0116
▁eyed	-11.0116
▁eyeing	-11.0116
▁faded	-11.0116
▁fails	-11.0116
▁fashion	-11.0116
▁fathom	-11.0116
▁fatty	-11.0116
▁favor	-11.0116
▁fck	-11.0116
▁fdzw	-11.0116
▁fearing	-11.0116
▁feature	-11.0116
▁feminime	-11.0116
▁feminine	-11.0116
▁fetal	-11.0116
▁fetzima	-11.0116
▁fewer	-11.0116
▁fifth	-11.0116
▁figuring	-11.0116
▁filing	-11.0116
▁finn	-11.0116
▁firmly	-11.0116
▁fish	-11.0116
▁fishing	-11.0116
▁fist	-11.0116
▁fixate	-11.0116
▁flareups	-11.0116
▁flashing	-11.0116
▁fleeting	-11.0116
▁flirting	-11.0116
▁floater	-11.0116
▁flood	-11.0116
▁fluctuates	-11.0116
▁follower	-11.0116
▁football	-11.0116
▁forcefully	-11.0116
▁forearm	-11.0116
▁foreign	-11.0116
▁formally	-11.0116
▁forth	-11.0116
▁fortunate	-11.0116
▁fought	-11.0116
▁fountain	-11.0116
▁fourth	-11.0116
▁frame	-11.0116
▁freely	-11.0116
▁freshly	-11.0116
▁frickin	-11.0116
▁fridge	-11.0116
▁friendzoned	-11.0116
▁frightened	-11.0116
▁fuel	-11.0116
▁fueled	-11.0116
▁fulfilling	-11.0116
▁fuming	-11.0116
▁fund	-11.0116
▁funeral	-11.0116
▁furloughed	-11.0116
▁furniture	-11.0116
▁futile	-11.0116
▁fuzzy	-11.0116
▁fxxking	-11.0116
▁gag	-11.0116
▁gagging	-11.0116
▁gal	-11.0116
▁galaxy	-11.0116
▁gambler	-11.0116
▁gaping	-11.0116
▁garage	-11.0116
▁gasp	-11.0116
▁gastritis	-11.0116
▁generalised	-11.0116
▁generating	-11.0116
▁generous	-11.0116
▁genius	-11.0116
▁ghosting	-11.0116
▁gifted	-11.0116
▁gland	-11.0116
▁global	-11.0116
▁goodwill	-11.0116
▁gordon	-11.0116
▁gorgeous	-11.0116
▁grammatical	-11.0116
▁grand	-11.0116
▁grandpa	-11.0116
▁grant	-11.0116
▁gravitate	-11.0116
▁greeting	-11.0116
▁grey	-11.0116
▁grieve	-11.0116
▁grind	-11.0116
▁grinding	-11.0116
▁groggy	-11.0116
▁grounding	-11.0116
▁guaranteed	-11.0116
▁gum	-11.0116
▁gunna	-11.0116
▁gutter	-11.0116
▁hack	-11.0116
▁hail	-11.0116
▁haircut	-11.0116
▁hallucination	-11.0116
▁handed	-11.0116
▁handicapped	-11.0116
▁handling	-11.0116
▁happend	-11.0116
▁happiest	-11.0116
▁harrassed	-11.0116
▁harsh	-11.0116
▁harshly	-11.0116
▁hassle	-11.0116
▁haunt	-11.0116
▁hazy	-11.0116
▁heading	-11.0116
▁healed	-11.0116
▁heals	-11.0116
▁heaven	-11.0116
▁heavier	-11.0116
▁heaviness	-11.0116
▁heaving	-11.0116
▁hehe	-11.0116
▁hella	-11.0116
▁hemeopathy	-11.0116
▁hence	-11.0116
▁hierarchy	-11.0116
▁hill	-11.0116
▁hint	-11.0116
▁hiya	-11.0116
▁hmm	-11.0116
▁hoarse	-11.0116
▁hopping	-11.0116
▁horrid	-11.0116
▁horse	-11.0116
▁housing	-11.0116
▁humour	-11.0116
▁hurted	-11.0116
▁hybrid	-11.0116
▁hydrated	-11.0116
▁hyperventilate	-11.0116
▁hyperventilating	-11.0116
▁hypnotherapy	-11.0116
▁hypochondriac	-11.0116
▁hypocrisy	-11.0116
▁idealistic	-11.0116
▁ideally	-11.0116
▁identical	-11.0116
▁ignores	-11.0116
▁ijfnaupe	-11.0116
▁illogical	-11.0116
▁illusion	-11.0116
▁ilnesses	-11.0116
▁imagination	-11.0116
▁imagined	-11.0116
▁imaging	-11.0116
▁imbalance	-11.0116
▁immature	-11.0116
▁immediate	-11.0116
▁imo	-11.0116
▁impactful	-11.0116
▁implies	-11.0116
▁importantly	-11.0116
▁impression	-11.0116
▁impromptu	-11.0116
▁impulsive	-11.0116
▁inadequate	-11.0116
▁inauthentic	-11.0116
▁inch	-11.0116
▁incoherent	-11.0116
▁inconsolable	-11.0116
▁inconvenient	-11.0116
▁incorrectly	-11.0116
▁indecision	-11.0116
▁india	-11.0116
▁indicate	-11.0116
▁inexperienced	-11.0116
▁inferiority	-11.0116
▁infinite	-11.0116
▁inflation	-11.0116
▁inflict	-11.0116
▁influenced	-11.0116
▁inhale	-11.0116
▁inherently	-11.0116
▁inimical	-11.0116
▁initial	-11.0116
▁initiate	-11.0116
▁innate	-11.0116
▁innocence	-11.0116
▁insanely	-11.0116
▁insist	-11.0116
▁insists	-11.0116
▁inspection	-11.0116
▁inspire	-11.0116
▁insta	-11.0116
▁instructor	-11.0116
▁insulin	-11.0116
▁intellectual	-11.0116
▁intelligence	-11.0116
▁intended	-11.0116
▁intensely	-11.0116
▁interacting	-11.0116
▁interfering	-11.0116
▁intermittent	-11.0116
▁internally	-11.0116
▁international	-11.0116
▁interpretation	-11.0116
▁interruption	-11.0116
▁interviewer	-11.0116
▁intestine	-11.0116
▁intimate	-11.0116
▁intimidating	-11.0116
▁introversion	-11.0116
▁invitation	-11.0116
▁irritability	-11.0116
▁isolate	-11.0116
▁itching	-11.0116
▁jack	-11.0116
▁jacket	-11.0116
▁jaded	-11.0116
▁james	-11.0116
▁jean	-11.0116
▁jeopardy	-11.0116
▁jerking	-11.0116
▁jobless	-11.0116
▁johnson	-11.0116
▁joyless	-11.0116
▁justifiably	-11.0116
▁karma	-11.0116
▁keen	-11.0116
▁kindergarten	-11.0116
▁kit	-11.0116
▁knocked	-11.0116
▁kylo	-11.0116
▁labored	-11.0116
▁lagging	-11.0116
▁lame	-11.0116
▁lang	-11.0116
▁lap	-11.0116
▁larger	-11.0116
▁ldrs	-11.0116
▁leak	-11.0116
▁lean	-11.0116
▁learnt	-11.0116
▁lease	-11.0116
▁legit	-11.0116
▁legitimate	-11.0116
▁length	-11.0116
▁lexipro	-11.0116
▁lgbtq	-11.0116
▁lifted	-11.0116
▁linden	-11.0116
▁linear	-11.0116
▁lingering	-11.0116
▁lingers	-11.0116
▁lining	-11.0116
▁lipstick	-11.0116
▁liquid	-11.0116
▁listens	-11.0116
▁listing	-11.0116
▁liver	-11.0116
▁located	-11.0116
▁locking	-11.0116
▁logging	-11.0116
▁looming	-11.0116
▁lord	-11.0116
▁lottery	-11.0116
▁louder	-11.0116
▁mac	-11.0116
▁machado	-11.0116
▁magnesium	-11.0116
▁maintaining	-11.0116
▁makeup	-11.0116
▁mandatory	-11.0116
▁manga	-11.0116
▁manifestation	-11.0116
▁manifested	-11.0116
▁marceline	-11.0116
▁masculine	-11.0116
▁massively	-11.0116
▁masturbating	-11.0116
▁matching	-11.0116
▁mathematics	-11.0116
▁maxed	-11.0116
▁meaninglessness	-11.0116
▁medicating	-11.0116
▁meh	-11.0116
▁melatonin	-11.0116
▁menace	-11.0116
▁mentor	-11.0116
▁metally	-11.0116
▁mh	-11.0116
▁micro	-11.0116
▁mildly	-11.0116
▁milk	-11.0116
▁minded	-11.0116
▁mini	-11.0116
▁minus	-11.0116
▁mishap	-11.0116
▁misunderstand	-11.0116
▁misunderstanding	-11.0116
▁mo	-11.0116
▁mock	-11.0116
▁mod	-11.0116
▁model	-11.0116
▁moderately	-11.0116
▁modern	-11.0116
▁moisturising	-11.0116
▁monotone	-11.0116
▁moody	-11.0116
▁moreover	-11.0116
▁moreso	-11.0116
▁mortgage	-11.0116
▁motherly	-11.0116
▁mouthwash	-11.0116
▁mud	-11.0116
▁multiplayer	-11.0116
▁mute	-11.0116
▁na	-11.0116
▁nailed	-11.0116
▁nakakapagod	-11.0116
▁naman	-11.0116
▁named	-11.0116
▁narcissist	-11.0116
▁narcolepsy	-11.0116
▁national	-11.0116
▁native	-11.0116
▁nd	-11.0116
▁needlessly	-11.0116
▁needy	-11.0116
▁neglecting	-11.0116
▁netflix	-11.0116
▁network	-11.0116
▁neurological	-11.0116
▁neurologist	-11.0116
▁neurosis	-11.0116
▁neutral	-11.0116
▁nevada	-11.0116
▁newer	-11.0116
▁nicely	-11.0116
▁nicest	-11.0116
▁niece	-11.0116
▁nine	-11.0116
▁niveau	-11.0116
▁nodded	-11.0116
▁nonsense	-11.0116
▁nonstop	-11.0116
▁noone	-11.0116
▁noticeable	-11.0116
▁nutrient	-11.0116
▁object	-11.0116
▁obsessively	-11.0116
▁obstacle	-11.0116
▁obtain	-11.0116
▁obtained	-11.0116
▁occur	-11.0116
▁occurred	-11.0116
▁oddly	-11.0116
▁offering	-11.0116
▁officially	-11.0116
▁offline	-11.0116
▁oldest	-11.0116
▁operate	-11.0116
▁operation	-11.0116
▁opposed	-11.0116
▁optional	-11.0116
▁oral	-11.0116
▁ordered	-11.0116
▁ordinary	-11.0116
▁organ	-11.0116
▁organised	-11.0116
▁orgasm	-11.0116
▁outdoor	-11.0116
▁outgoing	-11.0116
▁outing	-11.0116
▁outsider	-11.0116
▁outweighs	-11.0116
▁overanalyzing	-11.0116
▁overcoming	-11.0116
▁overdosed	-11.0116
▁overdramatise	-11.0116
▁overnight	-11.0116
▁overwhelm	-11.0116
▁oxycodone	-11.0116
▁oxymeter	-11.0116
▁pace	-11.0116
▁paced	-11.0116
▁pack	-11.0116
▁packaging	-11.0116
▁packed	-11.0116
▁painkiller	-11.0116
▁painless	-11.0116
▁paint	-11.0116
▁painted	-11.0116
▁paired	-11.0116
▁pajama	-11.0116
▁pale	-11.0116
▁paperwork	-11.0116
▁parallel	-11.0116
▁paralyzed	-11.0116
▁parasite	-11.0116
▁parenting	-11.0116
▁parked	-11.0116
▁participant	-11.0116
▁patch	-11.0116
▁pcr	-11.0116
▁peep	-11.0116
▁penny	-11.0116
▁percentage	-11.0116
▁perceptive	-11.0116
▁perfectionism	-11.0116
▁performed	-11.0116
▁pericoronitis	-11.0116
▁persona	-11.0116
▁petal	-11.0116
▁phenomenon	-11.0116
▁phlegm	-11.0116
▁phoning	-11.0116
▁photograph	-11.0116
▁photography	-11.0116
▁phrase	-11.0116
▁phrasing	-11.0116
▁physician	-11.0116
▁picturing	-11.0116
▁pillow	-11.0116
▁pin	-11.0116
▁pinching	-11.0116
▁pink	-11.0116
▁pinworm	-11.0116
▁pitch	-11.0116
▁pizza	-11.0116
▁plaque	-11.0116
▁playlist	-11.0116
▁plot	-11.0116
▁pmo	-11.0116
▁podcasts	-11.0116
▁poem	-11.0116
▁pointed	-11.0116
▁pointing	-11.0116
▁poisoning	-11.0116
▁popped	-11.0116
▁population	-11.0116
▁pore	-11.0116
▁portfolio	-11.0116
▁portrays	-11.0116
▁positively	-11.0116
▁poster	-11.0116
▁pouch	-11.0116
▁poured	-11.0116
▁poverty	-11.0116
▁practical	-11.0116
▁predictable	-11.0116
▁press	-11.0116
▁pressured	-11.0116
▁prestigious	-11.0116
▁prevents	-11.0116
▁prisoner	-11.0116
▁pro	-11.0116
▁probation	-11.0116
▁proceeded	-11.0116
▁procrastination	-11.0116
▁produced	-11.0116
▁profession	-11.0116
▁professionally	-11.0116
▁professionnal	-11.0116
▁profile	-11.0116
▁profit	-11.0116
▁programmer	-11.0116
▁progressing	-11.0116
▁projecting	-11.0116
▁promoted	-11.0116
▁promotion	-11.0116
▁promptly	-11.0116
▁prone	-11.0116
▁propelling	-11.0116
▁property	-11.0116
▁proposed	-11.0116
▁prospect	-11.0116
▁prospective	-11.0116
▁protected	-11.0116
▁protracted	-11.0116
▁proven	-11.0116
▁provides	-11.0116
▁psychic	-11.0116
▁psychosomatic	-11.0116
▁publicly	-11.0116
▁publish	-11.0116
▁punched	-11.0116
▁punctuation	-11.0116
▁purposeful	-11.0116
▁purposely	-11.0116
▁purse	-11.0116
▁pursuit	-11.0116
▁pushy	-11.0116
▁quantity	-11.0116
▁quarter	-11.0116
▁queen	-11.0116
▁questionable	-11.0116
▁quetiapine	-11.0116
▁queue	-11.0116
▁rabid	-11.0116
▁racking	-11.0116
▁radio	-11.0116
▁rail	-11.0116
▁rain	-11.0116
▁raining	-11.0116
▁raising	-11.0116
▁ramblings	-11.0116
▁ramp	-11.0116
▁ramping	-11.0116
▁range	-11.0116
▁rapid	-11.0116
▁rat	-11.0116
▁realising	-11.0116
▁realy	-11.0116
▁reassuring	-11.0116
▁reciprocated	-11.0116
▁reckless	-11.0116
▁reconnected	-11.0116
▁reddish	-11.0116
▁redditor	-11.0116
▁redo	-11.0116
▁refer	-11.0116
▁reflecting	-11.0116
▁reflects	-11.0116
▁reflex	-11.0116
▁refreshed	-11.0116
▁refusing	-11.0116
▁regimen	-11.0116
▁registered	-11.0116
▁regretful	-11.0116
▁regretted	-11.0116
▁regretting	-11.0116
▁regulation	-11.0116
▁reinstated	-11.0116
▁reinstating	-11.0116
▁relapsing	-11.0116
▁relates	-11.0116
▁relation	-11.0116
▁relative	-11.0116
▁reliable	-11.0116
▁relieve	-11.0116
▁reliving	-11.0116
▁reluctant	-11.0116
▁remained	-11.0116
▁remission	-11.0116
▁removal	-11.0116
▁removed	-11.0116
▁removing	-11.0116
▁ren	-11.0116
▁repay	-11.0116
▁repetitive	-11.0116
▁replace	-11.0116
▁replaced	-11.0116
▁replying	-11.0116
▁reputation	-11.0116
▁researched	-11.0116
▁resent	-11.0116
▁resentment	-11.0116
▁residential	-11.0116
▁residual	-11.0116
▁resistance	-11.0116
▁resisting	-11.0116
▁respiratory	-11.0116
▁restlessness	-11.0116
▁restore	-11.0116
▁restricted	-11.0116
▁restroom	-11.0116
▁revert	-11.0116
▁review	-11.0116
▁revise	-11.0116
▁revolve	-11.0116
▁riddled	-11.0116
▁righteous	-11.0116
▁rip	-11.0116
▁rly	-11.0116
▁roadblock	-11.0116
▁robbery	-11.0116
▁robin	-11.0116
▁rolled	-11.0116
▁rollercoaster	-11.0116
▁romance	-11.0116
▁rooted	-11.0116
▁rota	-11.0116
▁rotting	-11.0116
▁rubber	-11.0116
▁rumour	-11.0116
▁runny	-11.0116
▁rushing	-11.0116
▁s8mwbi	-11.0116
▁sa	-11.0116
▁sacrifice	-11.0116
▁saddest	-11.0116
▁sadly	-11.0116
▁safely	-11.0116
▁saliva	-11.0116
▁salt	-11.0116
▁sarcasm	-11.0116
▁scalp	-11.0116
▁scarier	-11.0116
▁scariest	-11.0116
▁scheme	-11.0116
▁schizophrenia	-11.0116
▁scientifically	-11.0116
▁scooping	-11.0116
▁scraping	-11.0116
▁screwing	-11.0116
▁script	-11.0116
▁scripted	-11.0116
▁scroll	-11.0116
▁scrutiny	-11.0116
▁scum	-11.0116
▁secure	-11.0116
▁selfharm	-11.0116
▁seminar	-11.0116
▁semster	-11.0116
▁sensitivity	-11.0116
▁sensory	-11.0116
▁settled	-11.0116
▁settling	-11.0116
▁shadow	-11.0116
▁shamed	-11.0116
▁shatter	-11.0116
▁shaved	-11.0116
▁shaving	-11.0116
▁sheep	-11.0116
▁shelter	-11.0116
▁shiny	-11.0116
▁shitting	-11.0116
▁shoe	-11.0116
▁shortest	-11.0116
▁sickening	-11.0116
▁sicker	-11.0116
▁sickness	-11.0116
▁sideline	-11.0116
▁sighing	-11.0116
▁sin	-11.0116
▁sing	-11.0116
▁situational	-11.0116
▁sixteen	-11.0116
▁sketchy	-11.0116
▁skilled	-11.0116
▁skype	-11.0116
▁slack	-11.0116
▁slapped	-11.0116
▁slavery	-11.0116
▁sleepover	-11.0116
▁sliced	-11.0116
▁slim	-11.0116
▁slog	-11.0116
▁slower	-11.0116
▁slumber	-11.0116
▁smashing	-11.0116
▁smiley	-11.0116
▁snow	-11.0116
▁snris	-11.0116
▁soccer	-11.0116
▁socialise	-11.0116
▁sociopathic	-11.0116
▁soda	-11.0116
▁soften	-11.0116
▁soo	-11.0116
▁sooo	-11.0116
▁sophomore	-11.0116
▁sorta	-11.0116
▁sorting	-11.0116
▁sought	-11.0116
▁sour	-11.0116
▁specie	-11.0116
▁spilled	-11.0116
▁spiralling	-11.0116
▁spiritual	-11.0116
▁spontaneous	-11.0116
▁spotlight	-11.0116
▁spurt	-11.0116
▁squared	-11.0116
▁stake	-11.0116
▁stalking	-11.0116
▁stall	-11.0116
▁stamen	-11.0116
▁stared	-11.0116
▁startle	-11.0116
▁static	-11.0116
▁stating	-11.0116
▁stellar	-11.0116
▁stfu	-11.0116
▁stimulate	-11.0116
▁stimulation	-11.0116
▁stimulus	-11.0116
▁stoned	-11.0116
▁stool	-11.0116
▁straightened	-11.0116
▁strand	-11.0116
▁strangled	-11.0116
▁stray	-11.0116
▁strengthen	-11.0116
▁striving	-11.0116
▁struck	-11.0116
▁structure	-11.0116
▁strung	-11.0116
▁stubborn	-11.0116
▁stupidly	-11.0116
▁subconscious	-11.0116
▁subreddits	-11.0116
▁subside	-11.0116
▁substitute	-11.0116
▁subtly	-11.0116
▁subway	-11.0116
▁succeeded	-11.0116
▁succesful	-11.0116
▁sufficient	-11.0116
▁suggesting	-11.0116
▁summary	-11.0116
▁superior	-11.0116
▁suppress	-11.0116
▁suppressed	-11.0116
▁surpress	-11.0116
▁surroundings	-11.0116
▁survivingantidepressants	-11.0116
▁suspected	-11.0116
▁suspended	-11.0116
▁sustainable	-11.0116
▁sv	-11.0116
▁swab	-11.0116
▁swallowing	-11.0116
▁swimming	-11.0116
▁swore	-11.0116
▁tackle	-11.0116
▁taller	-11.0116
▁tangent	-11.0116
▁tapered	-11.0116
▁targeting	-11.0116
▁taxing	-11.0116
▁teary	-11.0116
▁technical	-11.0116
▁telephone	-11.0116
▁testosterone	-11.0116
▁textbook	-11.0116
▁tf	-11.0116
▁thanking	-11.0116
▁thc	-11.0116
▁theoretically	-11.0116
▁therapy_	-11.0116
▁thereby	-11.0116
▁thinning	-11.0116
▁thrash	-11.0116
▁threatening	-11.0116
▁thrilled	-11.0116
▁throbbing	-11.0116
▁thumbnail	-11.0116
▁ticket	-11.0116
▁tidy	-11.0116
▁tighten	-11.0116
▁tile	-11.0116
▁timer	-11.0116
▁timing	-11.0116
▁tinted	-11.0116
▁tm	-11.0116
▁toddler	-11.0116
▁toenail	-11.0116
▁tolerable	-11.0116
▁tolerate	-11.0116
▁toronto	-11.0116
▁torso	-11.0116
▁tortured	-11.0116
▁torwards	-11.0116
▁tossing	-11.0116
▁trading	-11.0116
▁transcranial	-11.0116
▁trashed	-11.0116
▁traumatize	-11.0116
▁traumatizing	-11.0116
▁travelling	-11.0116
▁trembly	-11.0116
▁trend	-11.0116
▁troubled	-11.0116
▁tryna	-11.0116
▁tumbler	-11.0116
▁tumblr	-11.0116
▁tummy	-11.0116
▁tunnel	-11.0116
▁twisting	-11.0116
▁twitter	-11.0116
▁tylenol	-11.0116
▁uc	-11.0116
▁ucsd	-11.0116
▁ultimate	-11.0116
▁unattractive	-11.0116
▁unaware	-11.0116
▁unconditionally	-11.0116
▁underweight	-11.0116
▁unfairness	-11.0116
▁unfamiliar	-11.0116
▁unfit	-11.0116
▁unfulfilled	-11.0116
▁unfulfilling	-11.0116
▁unhappiness	-11.0116
▁unheard	-11.0116
▁unhelpful	-11.0116
▁uninterested	-11.0116
▁unlikely	-11.0116
▁unmedicated	-11.0116
▁unmoved	-11.0116
▁unnecessarily	-11.0116
▁unpack	-11.0116
▁unproductive	-11.0116
▁unprofessional	-11.0116
▁unregulated	-11.0116
▁unrolled	-11.0116
▁untrue	-11.0116
▁unusual	-11.0116
▁unwell	-11.0116
▁unwilling	-11.0116
▁upcoming	-11.0116
▁uploading	-11.0116
▁upped	-11.0116
▁upping	-11.0116
▁upstairs	-11.0116
▁upward	-11.0116
▁urine	-11.0116
▁us	-11.0116
▁uti	-11.0116
▁utm_medium	-11.0116
▁utm_source	-11.0116
▁validate	-11.0116
▁valuable	-11.0116
▁vaping	-11.0116
▁variety	-11.0116
▁vegan	-11.0116
▁vehicle	-11.0116
▁veil	-11.0116
▁vein	-11.0116
▁verbal	-11.0116
▁verbally	-11.0116
▁verified	-11.0116
▁vibration	-11.0116
▁vic	-11.0116
▁viewing	-11.0116
▁virginity	-11.0116
▁visiting	-11.0116
▁vivid	-11.0116
▁voicemail	-11.0116
▁voted	-11.0116
▁vow	-11.0116
▁waist	-11.0116
▁wandering	-11.0116
▁wary	-11.0116
▁washed	-11.0116
▁washing	-11.0116
▁wealthy	-11.0116
▁weaning	-11.0116
▁webcam	-11.0116
▁weepy	-11.0116
▁weighed	-11.0116
▁weighs	-11.0116
▁weirdest	-11.0116
▁welp	-11.0116
▁wept	-11.0116
▁whack	-11.0116
▁whiny	-11.0116
▁wholeheartedly	-11.0116
▁wifi	-11.0116
▁williams	-11.0116
▁wine	-11.0116
▁wire	-11.0116
▁wished	-11.0116
▁witch	-11.0116
▁witchcraft	-11.0116
▁withdraw	-11.0116
▁withdrawing	-11.0116
▁withdrawls	-11.0116
▁withered	-11.0116
▁woken	-11.0116
▁worded	-11.0116
▁workbook	-11.0116
▁worsens	-11.0116
▁wrapping	-11.0116
▁wretched	-11.0116
▁xbox	-11.0116
▁yall	-11.0116
▁yan	-11.0116
▁yanked	-11.0116
▁ykw	-11.0116
▁yo	-11.0116
▁yoke	-11.0116
▁youre	-11.0116
▁youtu	-11.0116
▁yr	-11.0116
▁z	-11.0116
▁zap	-11.0116
▁02	-11.7048
▁03am	-11.7048
▁04	-11.7048
▁08	-11.7048
▁1000	-11.7048
▁10000	-11.7048
▁1000mph	-11.7048
▁100k	-11.7048
▁100th	-11.7048
▁10bpm	-11.7048
▁10ish	-11.7048
▁10kg	-11.7048
▁112	-11.7048
▁118kg	-11.7048
▁11am	-11.7048
▁11th	-11.7048
▁124p	-11.7048
▁125	-11.7048
▁12hr	-11.7048
▁12hrs	-11.7048
▁12ish	-11.7048
▁12mg	-11.7048
▁138	-11.7048
▁140mph	-11.7048
▁14th	-11.7048
▁1500	-11.7048
▁15m	-11.7048
▁15mins	-11.7048
▁18m	-11.7048
▁18th	-11.7048
▁1am	-11.7048
▁1mm	-11.7048
▁200	-11.7048
▁200mg	-11.7048
▁2011	-11.7048
▁2015	-11.7048
▁2022	-11.7048
▁20f	-11.7048
▁20x	-11.7048
▁21m	-11.7048
▁22m	-11.7048
▁22yo	-11.7048
▁24th	-11.7048
▁255	-11.7048
▁25_rule_	-11.7048
▁25unweighted	-11.7048
▁28f	-11.7048
▁28years	-11.7048
▁2am	-11.7048
▁2mg	-11.7048
▁300	-11.7048
▁30f	-11.7048
▁30pm	-11.7048
▁321	-11.7048
▁32m	-11.7048
▁32yo	-11.7048
▁330	-11.7048
▁38	-11.7048
▁38m	-11.7048
▁3am	-11.7048
▁3ish	-11.7048
▁3mgs	-11.7048
▁3months	-11.7048
▁44	-11.7048
▁4pm	-11.7048
▁4x	-11.7048
▁50am	-11.7048
▁51k	-11.7048
▁530am	-11.7048
▁5f	-11.7048
▁5hrs	-11.7048
▁5in	-11.7048
▁5ish	-11.7048
▁5k	-11.7048
▁5minutes	-11.7048
▁5pm	-11.7048
▁800	-11.7048
▁82	-11.7048
▁858	-11.7048
▁88	-11.7048
▁8yo	-11.7048
▁8yrs	-11.7048
▁_acceptance	-11.7048
▁_cognitive	-11.7048
▁_decaf_	-11.7048
▁_deep	-11.7048
▁_everything	-11.7048
▁_i	-11.7048
▁_magnetic	-11.7048
▁_meds_	-11.7048
▁_moyvi	-11.7048
▁_o	-11.7048
▁_stimulation	-11.7048
▁_this_	-11.7048
▁_tpost	-11.7048
▁_tposting	-11.7048
▁_xkma	-11.7048
▁_xkma_moyvi	-11.7048
▁aaaaaaaaa	-11.7048
▁aah	-11.7048
▁abc	-11.7048
▁abit	-11.7048
▁abnormal	-11.7048
▁abomination	-11.7048
▁aborted	-11.7048
▁abrupt	-11.7048
▁absorb	-11.7048
▁absorbing	-11.7048
▁abstinence	-11.7048
▁abstract	-11.7048
▁abundantly	-11.7048
▁abyss	-11.7048
▁acacia	-11.7048
▁academia	-11.7048
▁academically	-11.7048
▁accelerated	-11.7048
▁accented	-11.7048
▁accentuate	-11.7048
▁acceptancecommitment	-11.7048
▁accommodate	-11.7048
▁accompanies	-11.7048
▁accompany	-11.7048
▁accord	-11.7048
▁accumulate	-11.7048
▁accumulation	-11.7048
▁aced	-11.7048
▁ached	-11.7048
▁achieving	-11.7048
▁aching	-11.7048
▁achy	-11.7048
▁acidity	-11.7048
▁acknowledgement	-11.7048
▁acquire	-11.7048
▁acrosd	-11.7048
▁acrossthe	-11.7048
▁activated	-11.7048
▁activation	-11.7048
▁actor	-11.7048
▁actovities	-11.7048
▁acussing	-11.7048
▁adamant	-11.7048
▁adamantly	-11.7048
▁adapt	-11.7048
▁adaptive	-11.7048
▁adaptogens	-11.7048
▁addict	-11.7048
▁addicting	-11.7048
▁additionally	-11.7048
▁addressed	-11.7048
▁adequately	-11.7048
▁aderall	-11.7048
▁adjust	-11.7048
▁adjuster	-11.7048
▁adjustment	-11.7048
▁administer	-11.7048
▁admired	-11.7048
▁admitting	-11.7048
▁adopts	-11.7048
▁adorable	-11.7048
▁adore	-11.7048
▁adored	-11.7048
▁adores	-11.7048
▁adrenalin	-11.7048
▁adrift	-11.7048
▁advanced	-11.7048
▁adverse	-11.7048
▁advertising	-11.7048
▁affection	-11.7048
▁afflicts	-11.7048
▁aforementioned	-11.7048
▁afterward	-11.7048
▁againts	-11.7048
▁aggravate	-11.7048
▁aggressively	-11.7048
▁agitation	-11.7048
▁agony	-11.7048
▁agreeing	-11.7048
▁agreement	-11.7048
▁ah	-11.7048
▁ahah	-11.7048
▁ahold	-11.7048
▁ahsbxkxmskzhdjxbxbgd	-11.7048
▁aight	-11.7048
▁aimed	-11.7048
▁aiming	-11.7048
▁aimless	-11.7048
▁aimlessly	-11.7048
▁airbnbs	-11.7048
▁airplane	-11.7048
▁airpods	-11.7048
▁ak	-11.7048
▁alarm	-11.7048
▁alarmed	-11.7048
▁alarming	-11.7048
▁alcholism	-11.7048
▁alcoholism	-11.7048
▁alienating	-11.7048
▁allegedly	-11.7048
▁allll	-11.7048
▁allowance	-11.7048
▁aloneness	-11.7048
▁alphabet	-11.7048
▁alseep	-11.7048
▁alt	-11.7048
▁altered	-11.7048
▁altern	-11.7048
▁alternately	-11.7048
▁alternating	-11.7048
▁altho	-11.7048
▁altough	-11.7048
▁ambiental	-11.7048
▁amicable	-11.7048
▁amidst	-11.7048
▁amitryptaline	-11.7048
▁amongst	-11.7048
▁amphetamine	-11.7048
▁amusing	-11.7048
▁analogously	-11.7048
▁analogy	-11.7048
▁analysing	-11.7048
▁analysis	-11.7048
▁anaphylaxis	-11.7048
▁android_app	-11.7048
▁anecdotal	-11.7048
▁anecdotally	-11.7048
▁anemia	-11.7048
▁anesthesia	-11.7048
▁angeles	-11.7048
▁angle	-11.7048
▁angst	-11.7048
▁anniversary	-11.7048
▁annotated	-11.7048
▁announcement	-11.7048
▁annual	-11.7048
▁anonymous	-11.7048
▁antic	-11.7048
▁anticipation	-11.7048
▁anticipatory	-11.7048
▁antiepelectic	-11.7048
▁antihistamine	-11.7048
▁antipyschotic	-11.7048
▁antiseptic	-11.7048
▁antisocial	-11.7048
▁anxeties	-11.7048
▁anxiolytic	-11.7048
▁anxoius	-11.7048
▁anyresumes	-11.7048
▁apendicitis	-11.7048
▁apnea	-11.7048
▁apointment	-11.7048
▁apologizing	-11.7048
▁appeal	-11.7048
▁appealing	-11.7048
▁apperantly	-11.7048
▁appereance	-11.7048
▁applies	-11.7048
▁appreciates	-11.7048
▁appreciating	-11.7048
▁apprehended	-11.7048
▁apprehensive	-11.7048
▁apprentice	-11.7048
▁apprenticeship	-11.7048
▁approachable	-11.7048
▁appropriately	-11.7048
▁approximately	-11.7048
▁archive	-11.7048
▁arguably	-11.7048
▁argued	-11.7048
▁arises	-11.7048
▁arising	-11.7048
▁arkansas	-11.7048
▁armed	-11.7048
▁army	-11.7048
▁arogent	-11.7048
▁arranging	-11.7048
▁array	-11.7048
▁arrgh	-11.7048
▁arrival	-11.7048
▁arsed	-11.7048
▁arsenal	-11.7048
▁arte	-11.7048
▁artistic	-11.7048
▁artwork	-11.7048
▁ascendency	-11.7048
▁asf	-11.7048
▁ash	-11.7048
▁asmr	-11.7048
▁asn	-11.7048
▁aspire	-11.7048
▁assessor	-11.7048
▁assist	-11.7048
▁assisted	-11.7048
▁asst	-11.7048
▁assualt	-11.7048
▁assurance	-11.7048
▁assures	-11.7048
▁aswell	-11.7048
▁asylum	-11.7048
▁athlete	-11.7048
▁athletic	-11.7048
▁atleaset	-11.7048
▁atmosphere	-11.7048
▁atp	-11.7048
▁atrophy	-11.7048
▁attacking	-11.7048
▁attacs	-11.7048
▁attended	-11.7048
▁attentive	-11.7048
▁attract	-11.7048
▁attributed	-11.7048
▁atypical	-11.7048
▁audacity	-11.7048
▁audible	-11.7048
▁audit	-11.7048
▁auditory	-11.7048
▁authentically	-11.7048
▁author	-11.7048
▁authority	-11.7048
▁autocompassion	-11.7048
▁autoimmune	-11.7048
▁automated	-11.7048
▁automatic	-11.7048
▁autonomy	-11.7048
▁averaging	-11.7048
▁averse	-11.7048
▁avoidance	-11.7048
▁avoidant	-11.7048
▁await	-11.7048
▁awakens	-11.7048
▁aways	-11.7048
▁awfully	-11.7048
▁awkwardly	-11.7048
▁awkwardness	-11.7048
▁ay	-11.7048
▁ayahuasca	-11.7048
▁b12	-11.7048
▁babble	-11.7048
▁babyface	-11.7048
▁baccalaureate	-11.7048
▁backrub	-11.7048
▁backtracking	-11.7048
▁backup	-11.7048
▁backward	-11.7048
▁baclofen	-11.7048
▁badge	-11.7048
▁bahay	-11.7048
▁bail	-11.7048
▁bait	-11.7048
▁baked	-11.7048
▁bakery	-11.7048
▁bakit	-11.7048
▁bald	-11.7048
▁baldness	-11.7048
▁balloon	-11.7048
▁bam	-11.7048
▁banana	-11.7048
▁bandage	-11.7048
▁bandaid	-11.7048
▁bandcamp	-11.7048
▁bandersnatch	-11.7048
▁bang	-11.7048
▁banner	-11.7048
▁barbaric	-11.7048
▁barbecue	-11.7048
▁barber	-11.7048
▁barbiturate	-11.7048
▁barista	-11.7048
▁barium	-11.7048
▁bark	-11.7048
▁barked	-11.7048
▁barometric	-11.7048
▁base	-11.7048
▁baseball	-11.7048
▁basement	-11.7048
▁bashing	-11.7048
▁batch	-11.7048
▁batchmates	-11.7048
▁bathe	-11.7048
▁batshit	-11.7048
▁bawling	-11.7048
▁bay	-11.7048
▁bbq	-11.7048
▁bcst	-11.7048
▁bdd	-11.7048
▁beach	-11.7048
▁bead	-11.7048
▁beak	-11.7048
▁beard	-11.7048
▁beast	-11.7048
▁beaten	-11.7048
▁beautifully	-11.7048
▁becaause	-11.7048
▁bedding	-11.7048
▁bedrock	-11.7048
▁bedsheets	-11.7048
▁bedtime	-11.7048
▁beecause	-11.7048
▁beeing	-11.7048
▁befriend	-11.7048
▁befriended	-11.7048
▁befuddle	-11.7048
▁beg	-11.7048
▁beginner	-11.7048
▁behalf	-11.7048
▁behaving	-11.7048
▁beleive	-11.7048
▁believer	-11.7048
▁belittle	-11.7048
▁belittled	-11.7048
▁belive	-11.7048
▁belonged	-11.7048
▁belonging	-11.7048
▁beneficial	-11.7048
▁benificial	-11.7048
▁benjamin	-11.7048
▁bent	-11.7048
▁berated	-11.7048
▁bereable	-11.7048
▁bereavement	-11.7048
▁bested	-11.7048
▁bestfriend	-11.7048
▁bestie	-11.7048
▁bet	-11.7048
▁betray	-11.7048
▁bff	-11.7048
▁bias	-11.7048
▁bible	-11.7048
▁bicycle	-11.7048
▁bigoted	-11.7048
▁bile	-11.7048
▁billed	-11.7048
▁billionth	-11.7048
▁bings	-11.7048
▁bisexual	-11.7048
▁bispurone	-11.7048
▁bitten	-11.7048
▁bitterness	-11.7048
▁bizarre	-11.7048
▁blabbering	-11.7048
▁blackburn	-11.7048
▁bladder	-11.7048
▁blade	-11.7048
▁blandest	-11.7048
▁blanked	-11.7048
▁blanking	-11.7048
▁blaring	-11.7048
▁blast	-11.7048
▁bled	-11.7048
▁blend	-11.7048
▁blending	-11.7048
▁bless	-11.7048
▁blessing	-11.7048
▁blew	-11.7048
▁blister	-11.7048
▁bloating	-11.7048
▁blob	-11.7048
▁blockage	-11.7048
▁blog	-11.7048
▁blooded	-11.7048
▁bloody	-11.7048
▁bloom	-11.7048
▁blossom	-11.7048
▁blouse	-11.7048
▁blowjob	-11.7048
▁bluntly	-11.7048
▁blurry	-11.7048
▁bmi	-11.7048
▁bmo	-11.7048
▁boast	-11.7048
▁boat	-11.7048
▁bodied	-11.7048
▁bodily	-11.7048
▁bodyache	-11.7048
▁bojack	-11.7048
▁bollock	-11.7048
▁bolster	-11.7048
▁bombard	-11.7048
▁bombing	-11.7048
▁bonding	-11.7048
▁bookshelf	-11.7048
▁boosted	-11.7048
▁boot	-11.7048
▁borderline	-11.7048
▁bosse	-11.7048
▁botched	-11.7048
▁bothersome	-11.7048
▁bottemless	-11.7048
▁bottling	-11.7048
▁bottomless	-11.7048
▁boulder	-11.7048
▁bour	-11.7048
▁bow	-11.7048
▁bowtie	-11.7048
▁boxer	-11.7048
▁brad	-11.7048
▁brag	-11.7048
▁bragging	-11.7048
▁brainwash	-11.7048
▁brainwashed	-11.7048
▁braking	-11.7048
▁bratty	-11.7048
▁bread	-11.7048
▁breakthrough	-11.7048
▁breathes	-11.7048
▁breathing_	-11.7048
▁breathless	-11.7048
▁breathtaking	-11.7048
▁brian	-11.7048
▁brighten	-11.7048
▁brightest	-11.7048
▁brilliance	-11.7048
▁bro	-11.7048
▁broad	-11.7048
▁brooklyn	-11.7048
▁bros	-11.7048
▁bruise	-11.7048
▁bruising	-11.7048
▁brunt	-11.7048
▁brutal	-11.7048
▁bsed	-11.7048
▁btc	-11.7048
▁bu	-11.7048
▁bublineess	-11.7048
▁buck	-11.7048
▁budgeting	-11.7048
▁bugged	-11.7048
▁bugging	-11.7048
▁bulging	-11.7048
▁bulldog	-11.7048
▁bumbling	-11.7048
▁bummed	-11.7048
▁bummer	-11.7048
▁bumpy	-11.7048
▁burdened	-11.7048
▁burdensome	-11.7048
▁burial	-11.7048
▁bursting	-11.7048
▁bury	-11.7048
▁burying	-11.7048
▁bush	-11.7048
▁busier	-11.7048
▁busprione	-11.7048
▁bustling	-11.7048
▁buyin	-11.7048
▁buzzed	-11.7048
▁buzzfeed	-11.7048
▁bv	-11.7048
▁ca	-11.7048
▁cabin	-11.7048
▁cable	-11.7048
▁cage	-11.7048
▁calculate	-11.7048
▁calendar	-11.7048
▁calisthenics	-11.7048
▁calmers	-11.7048
▁calming	-11.7048
▁calmness	-11.7048
▁cam	-11.7048
▁campaign	-11.7048
▁camping	-11.7048
▁canada	-11.7048
▁canceling	-11.7048
▁cancelling	-11.7048
▁candidate	-11.7048
▁candidly	-11.7048
▁cannabinoid	-11.7048
▁canyon	-11.7048
▁capsule	-11.7048
▁captcha	-11.7048
▁carefully	-11.7048
▁caregiver	-11.7048
▁carl	-11.7048
▁carpal	-11.7048
▁carpe	-11.7048
▁carpentry	-11.7048
▁cartilage	-11.7048
▁cartoony	-11.7048
▁cascade	-11.7048
▁cassian	-11.7048
▁cast	-11.7048
▁casuing	-11.7048
▁cataloging	-11.7048
▁catastrophic	-11.7048
▁catastrophizing	-11.7048
▁catching	-11.7048
▁catfish	-11.7048
▁catfished	-11.7048
▁catharticism	-11.7048
▁cave	-11.7048
▁caved	-11.7048
▁cavity	-11.7048
▁ceased	-11.7048
▁celebrated	-11.7048
▁celiac	-11.7048
▁censentually	-11.7048
▁ceo	-11.7048
▁cereal	-11.7048
▁certainty	-11.7048
▁certificate	-11.7048
▁cf	-11.7048
▁chained	-11.7048
▁chameleon	-11.7048
▁changer	-11.7048
▁chapped	-11.7048
▁charcoal	-11.7048
▁charger	-11.7048
▁charisma	-11.7048
▁charismatic	-11.7048
▁chased	-11.7048
▁chasing	-11.7048
▁chastising	-11.7048
▁chatted	-11.7048
▁chattering	-11.7048
▁cheap	-11.7048
▁cheaply	-11.7048
▁cheat	-11.7048
▁cheating	-11.7048
▁cheek	-11.7048
▁chemically	-11.7048
▁cherished	-11.7048
▁chicago	-11.7048
▁chick	-11.7048
▁chickened	-11.7048
▁childish	-11.7048
▁childlike	-11.7048
▁chilled	-11.7048
▁chime	-11.7048
▁chinese	-11.7048
▁chipped	-11.7048
▁chirped	-11.7048
▁chirping	-11.7048
▁chlonazapam	-11.7048
▁chock	-11.7048
▁choke	-11.7048
▁chronically	-11.7048
▁chuck	-11.7048
▁chugging	-11.7048
▁chummy	-11.7048
▁cicada	-11.7048
▁cico	-11.7048
▁cidal	-11.7048
▁cinco	-11.7048
▁cinematography	-11.7048
▁circling	-11.7048
▁circulation	-11.7048
▁circumstance	-11.7048
▁circus	-11.7048
▁cited	-11.7048
▁citizenship	-11.7048
▁civic	-11.7048
▁cked	-11.7048
▁clad	-11.7048
▁clarifying	-11.7048
▁clasp	-11.7048
▁cleanliness	-11.7048
▁cleanup	-11.7048
▁clearance	-11.7048
▁cleft	-11.7048
▁clenched	-11.7048
▁clenching	-11.7048
▁clickbait	-11.7048
▁cling	-11.7048
▁clip	-11.7048
▁clonaxepam	-11.7048
▁clonidine	-11.7048
▁closet	-11.7048
▁closeted	-11.7048
▁closing	-11.7048
▁cloth	-11.7048
▁clotiazepam	-11.7048
▁cluster	-11.7048
▁clutter	-11.7048
▁cmon	-11.7048
▁cnn	-11.7048
▁coaching	-11.7048
▁coast	-11.7048
▁cocaine	-11.7048
▁cockatiel	-11.7048
▁codependency	-11.7048
▁cofe	-11.7048
▁cognizant	-11.7048
▁coherently	-11.7048
▁cohesive	-11.7048
▁cohort	-11.7048
▁coin	-11.7048
▁coincidentally	-11.7048
▁coke	-11.7048
▁cola	-11.7048
▁coldest	-11.7048
▁coleagues	-11.7048
▁collapsed	-11.7048
▁collected	-11.7048
▁collection	-11.7048
▁collective	-11.7048
▁coma	-11.7048
▁combo	-11.7048
▁comepete	-11.7048
▁comfortably	-11.7048
▁comforted	-11.7048
▁command	-11.7048
▁comming	-11.7048
▁commiseration	-11.7048
▁commission	-11.7048
▁commiting	-11.7048
▁commonly	-11.7048
▁communist	-11.7048
▁comorbid	-11.7048
▁companionship	-11.7048
▁compassionate	-11.7048
▁compatible	-11.7048
▁compelled	-11.7048
▁compensate	-11.7048
▁compensated	-11.7048
▁compensating	-11.7048
▁compile	-11.7048
▁complacent	-11.7048
▁complains	-11.7048
▁complement	-11.7048
▁complicating	-11.7048
▁compliment	-11.7048
▁complimented	-11.7048
▁component	-11.7048
▁composed	-11.7048
▁composure	-11.7048
▁compressed	-11.7048
▁compressing	-11.7048
▁comprises	-11.7048
▁compulsively	-11.7048
▁comrade	-11.7048
▁con	-11.7048
▁conceive	-11.7048
▁concepted	-11.7048
▁conceptually	-11.7048
▁concerning	-11.7048
▁conclude	-11.7048
▁concoction	-11.7048
▁concur	-11.7048
▁condo	-11.7048
▁conducive	-11.7048
▁conduct	-11.7048
▁confession	-11.7048
▁confided	-11.7048
▁confiding	-11.7048
▁confines	-11.7048
▁confirmation	-11.7048
▁confirmed	-11.7048
▁confirms	-11.7048
▁conformity	-11.7048
▁confounded	-11.7048
▁confront	-11.7048
▁confusa	-11.7048
▁confusedly	-11.7048
▁congratulate	-11.7048
▁congratulated	-11.7048
▁congratulating	-11.7048
▁conscience	-11.7048
▁consent	-11.7048
▁consequential	-11.7048
▁consequently	-11.7048
▁conservative	-11.7048
▁considerable	-11.7048
▁considerably	-11.7048
▁considerate	-11.7048
▁considers	-11.7048
▁consolation	-11.7048
▁consoling	-11.7048
▁constanlty	-11.7048
▁constipated	-11.7048
▁construction	-11.7048
▁consultant	-11.7048
▁consults	-11.7048
▁consumerism	-11.7048
▁containing	-11.7048
▁contains	-11.7048
▁contemplate	-11.7048
▁contemplation	-11.7048
▁contempt	-11.7048
▁contented	-11.7048
▁continent	-11.7048
▁continually	-11.7048
▁contraceptive	-11.7048
▁contracted	-11.7048
▁contributed	-11.7048
▁contributes	-11.7048
▁contribution	-11.7048
▁controll	-11.7048
▁controller	-11.7048
▁contuniue	-11.7048
▁conveniently	-11.7048
▁conversational	-11.7048
▁converse	-11.7048
▁conversion	-11.7048
▁converted	-11.7048
▁convinces	-11.7048
▁cooked	-11.7048
▁cooldown	-11.7048
▁coop	-11.7048
▁cooperate	-11.7048
▁cooperating	-11.7048
▁coordinator	-11.7048
▁copd	-11.7048
▁copious	-11.7048
▁corinne	-11.7048
▁corolla	-11.7048
▁corona	-11.7048
▁coronavirus	-11.7048
▁corralled	-11.7048
▁correlate	-11.7048
▁correlated	-11.7048
▁correlation	-11.7048
▁corresponding	-11.7048
▁corresponds	-11.7048
▁corsodyl	-11.7048
▁cortizone	-11.7048
▁cosmic	-11.7048
▁cosmos	-11.7048
▁costly	-11.7048
▁costochondritis	-11.7048
▁coughed	-11.7048
▁couldve	-11.7048
▁counselling	-11.7048
▁counsious	-11.7048
▁counted	-11.7048
▁counteract	-11.7048
▁countess	-11.7048
▁coupd	-11.7048
▁coupled	-11.7048
▁coursework	-11.7048
▁court	-11.7048
▁courtroom	-11.7048
▁cow	-11.7048
▁cozy	-11.7048
▁crackdown	-11.7048
▁cracked	-11.7048
▁cracker	-11.7048
▁crackpot	-11.7048
▁craigslist	-11.7048
▁cramping	-11.7048
▁crashing	-11.7048
▁crawled	-11.7048
▁creates	-11.7048
▁credibility	-11.7048
▁crept	-11.7048
▁cricket	-11.7048
▁cringing	-11.7048
▁cringy	-11.7048
▁criterion	-11.7048
▁criticism	-11.7048
▁criticized	-11.7048
▁crm	-11.7048
▁cruelest	-11.7048
▁cruelty	-11.7048
▁crumble	-11.7048
▁crumple	-11.7048
▁crutch	-11.7048
▁csgo	-11.7048
▁cte	-11.7048
▁culminated	-11.7048
▁culprit	-11.7048
▁cultivating	-11.7048
▁cummerbund	-11.7048
▁cunt	-11.7048
▁cupboard	-11.7048
▁cupid	-11.7048
▁curating	-11.7048
▁curdling	-11.7048
▁curse	-11.7048
▁cursing	-11.7048
▁curvier	-11.7048
▁cushion	-11.7048
▁cushy	-11.7048
▁custom	-11.7048
▁cutaneous	-11.7048
▁cutesy	-11.7048
▁cv	-11.7048
▁cyanide	-11.7048
▁cyclical	-11.7048
▁cyst	-11.7048
▁dab	-11.7048
▁dabbing	-11.7048
▁dae	-11.7048
▁damaging	-11.7048
▁damit	-11.7048
▁dana	-11.7048
▁danced	-11.7048
▁dancer	-11.7048
▁dangerously	-11.7048
▁darken	-11.7048
▁darknet	-11.7048
▁dawned	-11.7048
▁daycare	-11.7048
▁daydream	-11.7048
▁daydreaming	-11.7048
▁daylight	-11.7048
▁dazed	-11.7048
▁dea	-11.7048
▁deadlier	-11.7048
▁deafening	-11.7048
▁dealer	-11.7048
▁dealership	-11.7048
▁dear	-11.7048
▁dearly	-11.7048
▁deathbed	-11.7048
▁deathly	-11.7048
▁debbie	-11.7048
▁debilitated	-11.7048
▁debunk	-11.7048
▁deceitful	-11.7048
▁deceived	-11.7048
▁decently	-11.7048
▁deceptive	-11.7048
▁decipher	-11.7048
▁deconstruct	-11.7048
▁decor	-11.7048
▁dedepress	-11.7048
▁dedicated	-11.7048
▁dedicating	-11.7048
▁deems	-11.7048
▁defeat	-11.7048
▁defeating	-11.7048
▁defecating	-11.7048
▁defect	-11.7048
▁defective	-11.7048
▁defencesive	-11.7048
▁defended	-11.7048
▁defensive	-11.7048
▁defiantly	-11.7048
▁deficient	-11.7048
▁define	-11.7048
▁definetely	-11.7048
▁definite	-11.7048
▁definition	-11.7048
▁definitively	-11.7048
▁deflect	-11.7048
▁defo	-11.7048
▁defy	-11.7048
▁degenerate	-11.7048
▁degrade	-11.7048
▁dehumanizing	-11.7048
▁dehydrate	-11.7048
▁deja	-11.7048
▁delayed	-11.7048
▁deleterious	-11.7048
▁deliberately	-11.7048
▁delicate	-11.7048
▁delightful	-11.7048
▁delirious	-11.7048
▁delivered	-11.7048
▁delude	-11.7048
▁deluge	-11.7048
▁delve	-11.7048
▁delving	-11.7048
▁demanded	-11.7048
▁demeanor	-11.7048
▁democracy	-11.7048
▁demonstrate	-11.7048
▁demotivated	-11.7048
▁demotivating	-11.7048
▁dent	-11.7048
▁dented	-11.7048
▁dentistry	-11.7048
▁deodorant	-11.7048
▁department	-11.7048
▁dependency	-11.7048
▁depersonalisation	-11.7048
▁depersonalize	-11.7048
▁depersonalizing	-11.7048
▁depict	-11.7048
▁depiction	-11.7048
▁deploying	-11.7048
▁deposit	-11.7048
▁deppresion	-11.7048
▁depresion	-11.7048
▁depressents	-11.7048
▁deprivation	-11.7048
▁deprived	-11.7048
▁derailed	-11.7048
▁derealisation	-11.7048
▁dermatologist	-11.7048
▁descartes	-11.7048
▁descends	-11.7048
▁describes	-11.7048
▁design	-11.7048
▁desk	-11.7048
▁desperation	-11.7048
▁dessert	-11.7048
▁destination	-11.7048
▁destiny	-11.7048
▁destruction	-11.7048
▁desvenlafaxine	-11.7048
▁detailing	-11.7048
▁detect	-11.7048
▁detected	-11.7048
▁deteriorates	-11.7048
▁determination	-11.7048
▁deterring	-11.7048
▁detoxing	-11.7048
▁detriment	-11.7048
▁detrimental	-11.7048
▁detritus	-11.7048
▁devastate	-11.7048
▁developper	-11.7048
▁devolved	-11.7048
▁devote	-11.7048
▁devout	-11.7048
▁dexterous	-11.7048
▁diabolical	-11.7048
▁diagnosing	-11.7048
▁diagnostic	-11.7048
▁diagnostics	-11.7048
▁diaphragm	-11.7048
▁diaphragmatic	-11.7048
▁diazepam	-11.7048
▁dice	-11.7048
▁dicey	-11.7048
▁dickhead	-11.7048
▁dieing	-11.7048
▁diem	-11.7048
▁dieted	-11.7048
▁differ	-11.7048
▁dificult	-11.7048
▁dig	-11.7048
▁digestion	-11.7048
▁digit	-11.7048
▁dignity	-11.7048
▁dilaudid	-11.7048
▁dilemma	-11.7048
▁diminish	-11.7048
▁diminished	-11.7048
▁ding	-11.7048
▁dioxide	-11.7048
▁diploma	-11.7048
▁dir	-11.7048
▁disabling	-11.7048
▁disagreement	-11.7048
▁disappearing	-11.7048
▁disappears	-11.7048
▁disbelief	-11.7048
▁disc	-11.7048
▁discharge	-11.7048
▁discharged	-11.7048
▁discipline	-11.7048
▁disciplined	-11.7048
▁disconnecting	-11.7048
▁discontinuation	-11.7048
▁discontinued	-11.7048
▁discouragement	-11.7048
▁discourages	-11.7048
▁discouraging	-11.7048
▁discover	-11.7048
▁discrediting	-11.7048
▁diseased	-11.7048
▁disengaged	-11.7048
▁disfunctional	-11.7048
▁disguise	-11.7048
▁disheartening	-11.7048
▁dishwasher	-11.7048
▁disjointed	-11.7048
▁disliked	-11.7048
▁disliking	-11.7048
▁dismissal	-11.7048
▁dismissing	-11.7048
▁dismissive	-11.7048
▁disobedient	-11.7048
▁disordered	-11.7048
▁disorganized	-11.7048
▁disorientation	-11.7048
▁disparaging	-11.7048
▁dispense	-11.7048
▁displayed	-11.7048
▁displeasure	-11.7048
▁disproportionately	-11.7048
▁disrespected	-11.7048
▁disrespectful	-11.7048
▁disrupts	-11.7048
▁dissability	-11.7048
▁dissapoints	-11.7048
▁dissappear	-11.7048
▁dissappeared	-11.7048
▁dissection	-11.7048
▁dissipate	-11.7048
▁dissipated	-11.7048
▁dissociate	-11.7048
▁dissolve	-11.7048
▁dissonance	-11.7048
▁distinct	-11.7048
▁distinction	-11.7048
▁distraught	-11.7048
▁distressed	-11.7048
▁distrust	-11.7048
▁disturbance	-11.7048
▁disturbed	-11.7048
▁disturbing	-11.7048
▁disturbs	-11.7048
▁ditch	-11.7048
▁ditching	-11.7048
▁diva	-11.7048
▁diver	-11.7048
▁divide	-11.7048
▁divine	-11.7048
▁diving	-11.7048
▁division	-11.7048
▁dizzyness	-11.7048
▁dj	-11.7048
▁dlc	-11.7048
▁documented	-11.7048
▁dodged	-11.7048
▁dodging	-11.7048
▁dodgy	-11.7048
▁dogecoin	-11.7048
▁dogshit	-11.7048
▁doi	-11.7048
▁dominated	-11.7048
▁dominating	-11.7048
▁donate	-11.7048
▁donated	-11.7048
▁donating	-11.7048
▁doomscroll	-11.7048
▁doomsday	-11.7048
▁doorknob	-11.7048
▁doorway	-11.7048
▁dopamine	-11.7048
▁doped	-11.7048
▁dopey	-11.7048
▁dorky	-11.7048
▁dosent	-11.7048
▁doublechecking	-11.7048
▁downgrade	-11.7048
▁download	-11.7048
▁downplay	-11.7048
▁downplaying	-11.7048
▁downside	-11.7048
▁dragon	-11.7048
▁dramamine	-11.7048
▁dramatically	-11.7048
▁drawer	-11.7048
▁drawl	-11.7048
▁drawn	-11.7048
▁dreamt	-11.7048
▁dredging	-11.7048
▁drenched	-11.7048
▁drew	-11.7048
▁drift	-11.7048
▁drifting	-11.7048
▁drill	-11.7048
▁drilled	-11.7048
▁drilling	-11.7048
▁driveway	-11.7048
▁drone	-11.7048
▁drool	-11.7048
▁drooping	-11.7048
▁drowned	-11.7048
▁drowns	-11.7048
▁drs	-11.7048
▁drugstore	-11.7048
▁dsm	-11.7048
▁duct	-11.7048
▁duh	-11.7048
▁dumbells	-11.7048
▁dumber	-11.7048
▁dumbfounded	-11.7048
▁dumping	-11.7048
▁dumpster	-11.7048
▁dunkin	-11.7048
▁duo	-11.7048
▁dwindling	-11.7048
▁dx	-11.7048
▁dyeing	-11.7048
▁dyslexic	-11.7048
▁dysmorphia	-11.7048
▁dyspnea	-11.7048
▁dysthimia	-11.7048
▁dysthymia	-11.7048
▁eachother	-11.7048
▁eager	-11.7048
▁eagled	-11.7048
▁eardrum	-11.7048
▁earnestly	-11.7048
▁earnings	-11.7048
▁eats	-11.7048
▁ebb	-11.7048
▁ecc	-11.7048
▁economical	-11.7048
▁economy	-11.7048
▁eczema	-11.7048
▁edgy	-11.7048
▁educate	-11.7048
▁eff	-11.7048
▁effectively	-11.7048
▁effeminate	-11.7048
▁efffects	-11.7048
▁efilism	-11.7048
▁eggar	-11.7048
▁egk	-11.7048
▁eglonyl	-11.7048
▁egocentric	-11.7048
▁eighth	-11.7048
▁ejaculating	-11.7048
▁el	-11.7048
▁electrical	-11.7048
▁electroconvulsive	-11.7048
▁electronic	-11.7048
▁electronics	-11.7048
▁element	-11.7048
▁elephant	-11.7048
▁elicits	-11.7048
▁eligible	-11.7048
▁eliminate	-11.7048
▁elliot	-11.7048
▁em	-11.7048
▁embarass	-11.7048
▁embarassed	-11.7048
▁embarisning	-11.7048
▁embarssing	-11.7048
▁embedded	-11.7048
▁embrace	-11.7048
▁emdr	-11.7048
▁emoji	-11.7048
▁emojis	-11.7048
▁empanadas	-11.7048
▁empathetic	-11.7048
▁emphasise	-11.7048
▁emphasize	-11.7048
▁empirical	-11.7048
▁employed	-11.7048
▁empowered	-11.7048
▁emptied	-11.7048
▁emptyness	-11.7048
▁enabled	-11.7048
▁enagie	-11.7048
▁enclose	-11.7048
▁endangering	-11.7048
▁endodontist	-11.7048
▁endometriosis	-11.7048
▁endopsychic	-11.7048
▁endorphin	-11.7048
▁endorse	-11.7048
▁enduring	-11.7048
▁enegy	-11.7048
▁energized	-11.7048
▁enforce	-11.7048
▁eng	-11.7048
▁england	-11.7048
▁engrained	-11.7048
▁engraved	-11.7048
▁enhanced	-11.7048
▁enlighten	-11.7048
▁enlightened	-11.7048
▁enlightenment	-11.7048
▁enormously	-11.7048
▁enquired	-11.7048
▁enrichment	-11.7048
▁enrolled	-11.7048
▁ensued	-11.7048
▁entail	-11.7048
▁entering	-11.7048
▁enters	-11.7048
▁entitled	-11.7048
▁entrepreneur	-11.7048
▁enunciated	-11.7048
▁envy	-11.7048
▁envying	-11.7048
▁epidemic	-11.7048
▁epilepsy	-11.7048
▁equal	-11.7048
▁equate	-11.7048
▁era	-11.7048
▁erase	-11.7048
▁erectile	-11.7048
▁erosion	-11.7048
▁erupt	-11.7048
▁erupting	-11.7048
▁escalated	-11.7048
▁escalating	-11.7048
▁escaped	-11.7048
▁escaping	-11.7048
▁escapism	-11.7048
▁essentaily	-11.7048
▁essentia	-11.7048
▁essential	-11.7048
▁estranged	-11.7048
▁et	-11.7048
▁etcetera	-11.7048
▁eternally	-11.7048
▁eternity	-11.7048
▁ethical	-11.7048
▁etsy	-11.7048
▁euphoric	-11.7048
▁europe	-11.7048
▁evaluate	-11.7048
▁evangelical	-11.7048
▁evaporating	-11.7048
▁eve	-11.7048
▁eventuality	-11.7048
▁everydays	-11.7048
▁everyones	-11.7048
▁everythings	-11.7048
▁evey	-11.7048
▁eveyones	-11.7048
▁eveything	-11.7048
▁eviction	-11.7048
▁evidenced	-11.7048
▁evident	-11.7048
▁evolution	-11.7048
▁evolve	-11.7048
▁eww	-11.7048
▁exagerated	-11.7048
▁exaggeration	-11.7048
▁examen	-11.7048
▁excel	-11.7048
▁excessively	-11.7048
▁excites	-11.7048
▁excluded	-11.7048
▁exclusively	-11.7048
▁exemplary	-11.7048
▁exemple	-11.7048
▁exercised	-11.7048
▁exert	-11.7048
▁exhale	-11.7048
▁exhaustive	-11.7048
▁exhuasted	-11.7048
▁exiled	-11.7048
▁existance	-11.7048
▁existentialism	-11.7048
▁exit	-11.7048
▁expained	-11.7048
▁expand	-11.7048
▁expanding	-11.7048
▁expeditiously	-11.7048
▁experienc	-11.7048
▁experimenting	-11.7048
▁expert	-11.7048
▁expired	-11.7048
▁explicitly	-11.7048
▁exploding	-11.7048
▁exploit	-11.7048
▁exploited	-11.7048
▁explore	-11.7048
▁exponentially	-11.7048
▁extends	-11.7048
▁externally	-11.7048
▁extinct	-11.7048
▁extracted	-11.7048
▁extraction	-11.7048
▁extraordinarily	-11.7048
▁extraterrestrial	-11.7048
▁extroversion	-11.7048
▁exuberance	-11.7048
▁eyebrow	-11.7048
▁fabricate	-11.7048
▁faceless	-11.7048
▁facet	-11.7048
▁facial	-11.7048
▁faction	-11.7048
▁faining	-11.7048
▁fairness	-11.7048
▁fairy	-11.7048
▁faithfully	-11.7048
▁fallout	-11.7048
▁falsely	-11.7048
▁familiy	-11.7048
▁fancy	-11.7048
▁fantasizing	-11.7048
▁fascinates	-11.7048
▁fasting	-11.7048
▁fastworward	-11.7048
▁favour	-11.7048
▁favourite	-11.7048
▁fb	-11.7048
▁fbs	-11.7048
▁feared	-11.7048
▁fearful	-11.7048
▁feasible	-11.7048
▁feb	-11.7048
▁federal	-11.7048
▁feeble	-11.7048
▁feelingd	-11.7048
▁feign	-11.7048
▁feld	-11.7048
▁felony	-11.7048
▁fent	-11.7048
▁fermented	-11.7048
▁fester	-11.7048
▁fetish	-11.7048
▁feverish	-11.7048
▁ffs	-11.7048
▁fi	-11.7048
▁fiancee	-11.7048
▁fib	-11.7048
▁fiber	-11.7048
▁fictional	-11.7048
▁fidget	-11.7048
▁fiercely	-11.7048
▁fighter	-11.7048
▁file	-11.7048
▁filed	-11.7048
▁filmed	-11.7048
▁filter	-11.7048
▁filthy	-11.7048
▁finacial	-11.7048
▁finality	-11.7048
▁finasteride	-11.7048
▁firing	-11.7048
▁firm	-11.7048
▁firstly	-11.7048
▁fischer	-11.7048
▁fistula	-11.7048
▁fitbit	-11.7048
▁fitness	-11.7048
▁fitted	-11.7048
▁fixable	-11.7048
▁fk	-11.7048
▁fl	-11.7048
▁flaired	-11.7048
▁flaked	-11.7048
▁flashy	-11.7048
▁flatters	-11.7048
▁flawed	-11.7048
▁flexibility	-11.7048
▁flick	-11.7048
▁flipped	-11.7048
▁flirted	-11.7048
▁flirty	-11.7048
▁float	-11.7048
▁floating	-11.7048
▁flooded	-11.7048
▁flooding	-11.7048
▁floral	-11.7048
▁florida	-11.7048
▁flossing	-11.7048
▁fluanxol	-11.7048
▁fluctuate	-11.7048
▁fluent	-11.7048
▁fluid	-11.7048
▁flush	-11.7048
▁flushing	-11.7048
▁flutter	-11.7048
▁fluttering	-11.7048
▁fo	-11.7048
▁fogged	-11.7048
▁foliage	-11.7048
▁followup	-11.7048
▁font	-11.7048
▁fooled	-11.7048
▁footstep	-11.7048
▁forbid	-11.7048
▁forceful	-11.7048
▁fore	-11.7048
▁forehead	-11.7048
▁forensic	-11.7048
▁forest	-11.7048
▁forested	-11.7048
▁foreveralone	-11.7048
▁forgave	-11.7048
▁forgetful	-11.7048
▁forgetfulness	-11.7048
▁forgets	-11.7048
▁forgiveable	-11.7048
▁forgiven	-11.7048
▁forgiveness	-11.7048
▁forgivness	-11.7048
▁format	-11.7048
▁formatted	-11.7048
▁formatting	-11.7048
▁formulate	-11.7048
▁forreal	-11.7048
▁fortnight	-11.7048
▁fose	-11.7048
▁fostering	-11.7048
▁foward	-11.7048
▁fr	-11.7048
▁fraction	-11.7048
▁fracture	-11.7048
▁fractured	-11.7048
▁fraid	-11.7048
▁franchise	-11.7048
▁francisco	-11.7048
▁frantically	-11.7048
▁freelance	-11.7048
▁freezer	-11.7048
▁freezing	-11.7048
▁freind	-11.7048
▁freinds	-11.7048
▁fretting	-11.7048
▁friggin	-11.7048
▁fron	-11.7048
▁frowing	-11.7048
▁frowned	-11.7048
▁frugal	-11.7048
▁fruitful	-11.7048
▁frumpy	-11.7048
▁frustratingly	-11.7048
▁fryer	-11.7048
▁fucin	-11.7048
▁fucker	-11.7048
▁fuckinv	-11.7048
▁fuckkkk	-11.7048
▁fuelled	-11.7048
▁fukin	-11.7048
▁fulfill	-11.7048
▁fulfilled	-11.7048
▁fulfillment	-11.7048
▁functionally	-11.7048
▁fundamental	-11.7048
▁fundraising	-11.7048
▁funniest	-11.7048
▁fur	-11.7048
▁furthering	-11.7048
▁futility	-11.7048
▁fuuuuuuuuuuuuuuuuuuuuuuuuuuuuuuuuuuuuuuuuuuuuuuuuuuuuuuuuuuuuuuuuuuuuuuuuuuuuuuuuuuuuuuuuuuuuuuuuuuuuuuuuuuuuuuuuuuuuuuuuuuuuuuuuuuuuuuuuuuuuuuuuuuuuuuuuuuuuuuuuuuuuuuuuuuuuuuuuuuuuuuuuuuuk	-11.7048
▁fwb	-11.7048
▁fx	-11.7048
▁fyi	-11.7048
▁gaba	-11.7048
▁gamble	-11.7048
▁gamers	-11.7048
▁gardening	-11.7048
▁gaslight	-11.7048
▁gate	-11.7048
▁gateway	-11.7048
▁gathering	-11.7048
▁gawd	-11.7048
▁gazillion	-11.7048
▁gd	-11.7048
▁gear	-11.7048
▁gel	-11.7048
▁gen	-11.7048
▁gender	-11.7048
▁generation	-11.7048
▁generosity	-11.7048
▁generously	-11.7048
▁genetic	-11.7048
▁genetics	-11.7048
▁geniunely	-11.7048
▁genshin	-11.7048
▁gentleman	-11.7048
▁gently	-11.7048
▁geographically	-11.7048
▁georgia	-11.7048
▁gerd	-11.7048
▁germ	-11.7048
▁german	-11.7048
▁gesture	-11.7048
▁gettinf	-11.7048
▁getup	-11.7048
▁ghb	-11.7048
▁giant	-11.7048
▁gibberish	-11.7048
▁gice	-11.7048
▁giddiness	-11.7048
▁giddy	-11.7048
▁giftcard	-11.7048
▁gig	-11.7048
▁gigantic	-11.7048
▁giggling	-11.7048
▁gingivitis	-11.7048
▁girlfirend	-11.7048
▁gladly	-11.7048
▁glam	-11.7048
▁glamour	-11.7048
▁glance	-11.7048
▁glancing	-11.7048
▁glare	-11.7048
▁glimpse	-11.7048
▁globus	-11.7048
▁gloomiest	-11.7048
▁glorious	-11.7048
▁glove	-11.7048
▁glued	-11.7048
▁gnaw	-11.7048
▁gnawing	-11.7048
▁goddamnit	-11.7048
▁gold	-11.7048
▁goner	-11.7048
▁goodness	-11.7048
▁goof	-11.7048
▁goofed	-11.7048
▁googled	-11.7048
▁gop	-11.7048
▁gossip	-11.7048
▁gov	-11.7048
▁grabbing	-11.7048
▁grace	-11.7048
▁grain	-11.7048
▁gramatical	-11.7048
▁grandchild	-11.7048
▁graph	-11.7048
▁grapple	-11.7048
▁grasping	-11.7048
▁gratitude	-11.7048
▁grave	-11.7048
▁gravely	-11.7048
▁gravity	-11.7048
▁gravy	-11.7048
▁gray	-11.7048
▁greasy	-11.7048
▁greece	-11.7048
▁greediness	-11.7048
▁greet	-11.7048
▁greeted	-11.7048
▁grim	-11.7048
▁grimaced	-11.7048
▁grinded	-11.7048
▁grit	-11.7048
▁grossly	-11.7048
▁grounded	-11.7048
▁grumpy	-11.7048
▁guarantee	-11.7048
▁guessed	-11.7048
▁guide	-11.7048
▁guitar	-11.7048
▁gull	-11.7048
▁gummies	-11.7048
▁gurgling	-11.7048
▁gust	-11.7048
▁guus	-11.7048
▁hahaha	-11.7048
▁hahahahahaha	-11.7048
▁hahahahahahahahahahahahaha	-11.7048
▁hairdresser	-11.7048
▁hairline	-11.7048
▁hall	-11.7048
▁halloween	-11.7048
▁hallucinate	-11.7048
▁halve	-11.7048
▁halved	-11.7048
▁hammer	-11.7048
▁hamster	-11.7048
▁handicap	-11.7048
▁handing	-11.7048
▁handled	-11.7048
▁handshake	-11.7048
▁handsome	-11.7048
▁hangnail	-11.7048
▁hangover	-11.7048
▁harass	-11.7048
▁harasses	-11.7048
▁harassment	-11.7048
▁harbor	-11.7048
▁harbour	-11.7048
▁hardcore	-11.7048
▁hardened	-11.7048
▁hardship	-11.7048
▁hardware	-11.7048
▁harlequin	-11.7048
▁harmful	-11.7048
▁harmfulness	-11.7048
▁harry	-11.7048
▁hatefully	-11.7048
▁hauler	-11.7048
▁havers	-11.7048
▁havnt	-11.7048
▁havoc	-11.7048
▁headeache	-11.7048
▁healthiest	-11.7048
▁heap	-11.7048
▁hearning	-11.7048
▁hears	-11.7048
▁heartbreak	-11.7048
▁heartbreaking	-11.7048
▁heartburn	-11.7048
▁heartless	-11.7048
▁heated	-11.7048
▁height	-11.7048
▁heist	-11.7048
▁helath	-11.7048
▁hellbent	-11.7048
▁hellish	-11.7048
▁hellopoetry	-11.7048
▁help_me_pick_please	-11.7048
▁helplessness	-11.7048
▁hemorrhagic	-11.7048
▁hemorrhoid	-11.7048
▁herbal	-11.7048
▁hereditary	-11.7048
▁herniated	-11.7048
▁heroic	-11.7048
▁hesistating	-11.7048
▁heuristic	-11.7048
▁heve	-11.7048
▁heyy	-11.7048
▁hid	-11.7048
▁hidden	-11.7048
▁highlight	-11.7048
▁highlighted	-11.7048
▁highschooling	-11.7048
▁hii	-11.7048
▁hijack	-11.7048
▁hiked	-11.7048
▁hilarious	-11.7048
▁himym	-11.7048
▁hinder	-11.7048
▁hindering	-11.7048
▁hindsight	-11.7048
▁hipster	-11.7048
▁hiring	-11.7048
▁hirsutism	-11.7048
▁hitman	-11.7048
▁hl	-11.7048
▁hm	-11.7048
▁hoff	-11.7048
▁holder	-11.7048
▁holed	-11.7048
▁holler	-11.7048
▁holy	-11.7048
▁holyyyyy	-11.7048
▁homebody	-11.7048
▁homelessness	-11.7048
▁homely	-11.7048
▁homeopathy	-11.7048
▁homeschooled	-11.7048
▁homesickness	-11.7048
▁hometown	-11.7048
▁hominid	-11.7048
▁homophobe	-11.7048
▁honda	-11.7048
▁honey	-11.7048
▁hoody	-11.7048
▁hooking	-11.7048
▁hormonal	-11.7048
▁horny	-11.7048
▁horoscope	-11.7048
▁horrific	-11.7048
▁hospice	-11.7048
▁hospitalised	-11.7048
▁hospitalize	-11.7048
▁host	-11.7048
▁hostility	-11.7048
▁hotlines	-11.7048
▁hourglass	-11.7048
▁hourly	-11.7048
▁hovered	-11.7048
▁hovering	-11.7048
▁hovers	-11.7048
▁hpv	-11.7048
▁hugged	-11.7048
▁huh	-11.7048
▁humanly	-11.7048
▁humble	-11.7048
▁humbly	-11.7048
▁humidifier	-11.7048
▁humidity	-11.7048
▁humiliating	-11.7048
▁humiliation	-11.7048
▁hun	-11.7048
▁hunger	-11.7048
▁hungover	-11.7048
▁hungrier	-11.7048
▁hunt	-11.7048
▁hurhur	-11.7048
▁hurricane	-11.7048
▁hvac	-11.7048
▁hw	-11.7048
▁hydrochloride	-11.7048
▁hydroxezine	-11.7048
▁hydroxyzene	-11.7048
▁hygienist	-11.7048
▁hyped	-11.7048
▁hyperarousal	-11.7048
▁hyperemesis	-11.7048
▁hyperfixated	-11.7048
▁hypersensitivity	-11.7048
▁hypersomnia	-11.7048
▁hyperventilated	-11.7048
▁hypervigilant	-11.7048
▁hysterectomy	-11.7048
▁ib	-11.7048
▁ibuprofen	-11.7048
▁ic	-11.7048
▁iced	-11.7048
▁icu	-11.7048
▁icy	-11.7048
▁idec	-11.7048
▁idky	-11.7048
▁idol	-11.7048
▁idontwanttogoooooo	-11.7048
▁iffy	-11.7048
▁ignorance	-11.7048
▁ileostomy	-11.7048
▁illegal	-11.7048
▁illuminated	-11.7048
▁imbalanced	-11.7048
▁imessages	-11.7048
▁imitate	-11.7048
▁imma	-11.7048
▁immedietly	-11.7048
▁immerse	-11.7048
▁immigrant	-11.7048
▁immune	-11.7048
▁immunity	-11.7048
▁immunocompromised	-11.7048
▁impacting	-11.7048
▁impaired	-11.7048
▁impatient	-11.7048
▁imperfect	-11.7048
▁imperfection	-11.7048
▁implied	-11.7048
▁imply	-11.7048
▁implying	-11.7048
▁imposed	-11.7048
▁impostor	-11.7048
▁impotent	-11.7048
▁impressed	-11.7048
▁improves	-11.7048
▁impulsively	-11.7048
▁impurity	-11.7048
▁inaction	-11.7048
▁inattention	-11.7048
▁inattentive	-11.7048
▁inbetween	-11.7048
▁incapacitated	-11.7048
▁incarcerated	-11.7048
▁incase	-11.7048
▁incentive	-11.7048
▁incessantly	-11.7048
▁inching	-11.7048
▁incision	-11.7048
▁included	-11.7048
▁incoming	-11.7048
▁inconsiderate	-11.7048
▁inconsistent	-11.7048
▁incorrect	-11.7048
▁incurable	-11.7048
▁indeffinite	-11.7048
▁indefinite	-11.7048
▁indefinitely	-11.7048
▁independence	-11.7048
▁independently	-11.7048
▁indescribable	-11.7048
▁indicated	-11.7048
▁indicator	-11.7048
▁indigestion	-11.7048
▁individualist	-11.7048
▁indulging	-11.7048
▁ineffective	-11.7048
▁inescapable	-11.7048
▁inexcusable	-11.7048
▁inexistant	-11.7048
▁inexplicably	-11.7048
▁infact	-11.7048
▁infinitely	-11.7048
▁infinity	-11.7048
▁inflamations	-11.7048
▁inflamed	-11.7048
▁inflicted	-11.7048
▁inflicting	-11.7048
▁influx	-11.7048
▁inform	-11.7048
▁informal	-11.7048
▁informative	-11.7048
▁infrequent	-11.7048
▁infront	-11.7048
▁infusion	-11.7048
▁ingesting	-11.7048
▁ingrained	-11.7048
▁ingredient	-11.7048
▁inhaling	-11.7048
▁inherit	-11.7048
▁inhertitance	-11.7048
▁inhuman	-11.7048
▁initiated	-11.7048
▁initiating	-11.7048
▁injected	-11.7048
▁injured	-11.7048
▁inlove	-11.7048
▁inpatient	-11.7048
▁inquiring	-11.7048
▁inquiry	-11.7048
▁inquisition	-11.7048
▁insanity	-11.7048
▁insensitive	-11.7048
▁insert	-11.7048
▁insightful	-11.7048
▁insignificant	-11.7048
▁insole	-11.7048
▁inspector	-11.7048
▁inspired	-11.7048
▁instability	-11.7048
▁instagrams	-11.7048
▁instructed	-11.7048
▁instruction	-11.7048
▁instrument	-11.7048
▁insulted	-11.7048
▁insulting	-11.7048
▁insurmountable	-11.7048
▁integrated	-11.7048
▁integrating	-11.7048
▁intellectually	-11.7048
▁intend	-11.7048
▁intensified	-11.7048
▁intensifying	-11.7048
▁interactivity	-11.7048
▁interbound	-11.7048
▁interferes	-11.7048
▁internalising	-11.7048
▁internet_culture	-11.7048
▁interpret	-11.7048
▁interpreted	-11.7048
▁interrupted	-11.7048
▁intersect	-11.7048
▁intervention	-11.7048
▁interviewing	-11.7048
▁intimacy	-11.7048
▁intolerable	-11.7048
▁intoxicated	-11.7048
▁intricacy	-11.7048
▁intrigued	-11.7048
▁intriguing	-11.7048
▁introduced	-11.7048
▁introducing	-11.7048
▁intruding	-11.7048
▁invalidating	-11.7048
▁invasion	-11.7048
▁invent	-11.7048
▁invested	-11.7048
▁invident	-11.7048
▁involed	-11.7048
▁involuntary	-11.7048
▁involves	-11.7048
▁invovled	-11.7048
▁ios_app	-11.7048
▁iossmf	-11.7048
▁iq	-11.7048
▁ir	-11.7048
▁irb	-11.7048
▁irony	-11.7048
▁irregular	-11.7048
▁irrelevant	-11.7048
▁irresponsible	-11.7048
▁irretrievably	-11.7048
▁irreversible	-11.7048
▁irrevocably	-11.7048
▁irritate	-11.7048
▁irritates	-11.7048
▁irritating	-11.7048
▁isip	-11.7048
▁isolationism	-11.7048
▁italian	-11.7048
▁ite	-11.7048
▁jab	-11.7048
▁jackass	-11.7048
▁jacking	-11.7048
▁jail	-11.7048
▁jakes	-11.7048
▁jammed	-11.7048
▁jan	-11.7048
▁janet	-11.7048
▁jarring	-11.7048
▁jaycon	-11.7048
▁jehovas	-11.7048
▁jelly	-11.7048
▁jeopardised	-11.7048
▁jesus	-11.7048
▁jitter	-11.7048
▁jitteriness	-11.7048
▁jogged	-11.7048
▁joked	-11.7048
▁jokingly	-11.7048
▁jolt	-11.7048
▁journaled	-11.7048
▁joyful	-11.7048
▁jumper	-11.7048
▁jungle	-11.7048
▁jury	-11.7048
▁justified	-11.7048
▁juvie	-11.7048
▁kale	-11.7048
▁keenly	-11.7048
▁keeo	-11.7048
▁keepsake	-11.7048
▁kennel	-11.7048
▁keyboard	-11.7048
▁keyword	-11.7048
▁kickass	-11.7048
▁kicker	-11.7048
▁kidnap	-11.7048
▁kin	-11.7048
▁kinakain	-11.7048
▁kinder	-11.7048
▁kindve	-11.7048
▁kingdom	-11.7048
▁kiss	-11.7048
▁kitten	-11.7048
▁klonapin	-11.7048
▁km	-11.7048
▁kneejerk	-11.7048
▁knifing	-11.7048
▁knoe	-11.7048
▁know_	-11.7048
▁knowingly	-11.7048
▁knowledgeable	-11.7048
▁kpi	-11.7048
▁labeled	-11.7048
▁labixten	-11.7048
▁labor	-11.7048
▁labyrinthitis	-11.7048
▁lake	-11.7048
▁lamotrigine	-11.7048
▁lancashire	-11.7048
▁landlady	-11.7048
▁landlord	-11.7048
▁landscaping	-11.7048
▁langage	-11.7048
▁lapse	-11.7048
▁largely	-11.7048
▁latch	-11.7048
▁latching	-11.7048
▁latest	-11.7048
▁laughter	-11.7048
▁layed	-11.7048
▁ldr	-11.7048
▁leaded	-11.7048
▁leadership	-11.7048
▁leaning	-11.7048
▁leap	-11.7048
▁leaped	-11.7048
▁leash	-11.7048
▁lecturer	-11.7048
▁ledge	-11.7048
▁leech	-11.7048
▁leeching	-11.7048
▁leeway	-11.7048
▁legally	-11.7048
▁legging	-11.7048
▁legitimacy	-11.7048
▁lemme	-11.7048
▁lend	-11.7048
▁lengthy	-11.7048
▁lens	-11.7048
▁lent	-11.7048
▁lesbian	-11.7048
▁lessen	-11.7048
▁lethal	-11.7048
▁leveling	-11.7048
▁lewd	-11.7048
▁lexepro	-11.7048
▁lf	-11.7048
▁liberal	-11.7048
▁library	-11.7048
▁librium	-11.7048
▁licensed	-11.7048
▁licked	-11.7048
▁lifeless	-11.7048
▁lifeline	-11.7048
▁lifespan	-11.7048
▁lifetime	-11.7048
▁lightest	-11.7048
▁lighting	-11.7048
▁lightly	-11.7048
▁lightning	-11.7048
▁lightsaber	-11.7048
▁liking	-11.7048
▁limbo	-11.7048
▁limitation	-11.7048
▁lind	-11.7048
▁lined	-11.7048
▁linger	-11.7048
▁liquidy	-11.7048
▁lisiniprol	-11.7048
▁listener	-11.7048
▁listlessness	-11.7048
▁lit	-11.7048
▁litany	-11.7048
▁litrally	-11.7048
▁littlest	-11.7048
▁lively	-11.7048
▁lll	-11.7048
▁lmaooo	-11.7048
▁lmfao	-11.7048
▁loaded	-11.7048
▁location	-11.7048
▁locjers	-11.7048
▁locker	-11.7048
▁log	-11.7048
▁loke	-11.7048
▁london	-11.7048
▁lonelier	-11.7048
▁lonley	-11.7048
▁lonleyness	-11.7048
▁lonlinees	-11.7048
▁lonliness	-11.7048
▁loon	-11.7048
▁looots	-11.7048
▁loophole	-11.7048
▁lorazepam	-11.7048
▁los	-11.7048
▁loses	-11.7048
▁lotion	-11.7048
▁lousy	-11.7048
▁loveless	-11.7048
▁lovelife	-11.7048
▁lowe	-11.7048
▁lowering	-11.7048
▁lowtide	-11.7048
▁lr	-11.7048
▁lucid	-11.7048
▁lug	-11.7048
▁lumbar	-11.7048
▁lunatic	-11.7048
▁lund	-11.7048
▁lurker	-11.7048
▁lymph	-11.7048
▁lynch	-11.7048
▁lyrica	-11.7048
▁m23	-11.7048
▁maddening	-11.7048
▁madman	-11.7048
▁magazine	-11.7048
▁magical	-11.7048
▁magically	-11.7048
▁magnet	-11.7048
▁magnetic	-11.7048
▁magnificent	-11.7048
▁maid	-11.7048
▁maintenance	-11.7048
▁majorly	-11.7048
▁maker	-11.7048
▁malfunction	-11.7048
▁malfunctioning	-11.7048
▁malintent	-11.7048
▁manages	-11.7048
▁manbaby	-11.7048
▁manic	-11.7048
▁manifestly	-11.7048
▁manipulated	-11.7048
▁manipulation	-11.7048
▁mantain	-11.7048
▁manteinance	-11.7048
▁manually	-11.7048
▁manufacture	-11.7048
▁manufacturing	-11.7048
▁maoi	-11.7048
▁mapansin	-11.7048
▁mapping	-11.7048
▁marathon	-11.7048
▁marijn	-11.7048
▁marine	-11.7048
▁marked	-11.7048
▁mary	-11.7048
▁mason	-11.7048
▁mass	-11.7048
▁massage	-11.7048
▁mastered	-11.7048
▁mastery	-11.7048
▁masturbate	-11.7048
▁masturbation	-11.7048
▁mattered	-11.7048
▁mattress	-11.7048
▁mature	-11.7048
▁maxer	-11.7048
▁maximum	-11.7048
▁mayo	-11.7048
▁mcdonagh	-11.7048
▁mcyt	-11.7048
▁md	-11.7048
▁mdma	-11.7048
▁meamwhile	-11.7048
▁meanest	-11.7048
▁meaningfulness	-11.7048
▁meanwhile	-11.7048
▁mechanic	-11.7048
▁medcu	-11.7048
▁mediate	-11.7048
▁mediating	-11.7048
▁mediator	-11.7048
▁medicament	-11.7048
▁medicate	-11.7048
▁medieval	-11.7048
▁mega	-11.7048
▁melbourne	-11.7048
▁melenials	-11.7048
▁melt	-11.7048
▁melty	-11.7048
▁memo	-11.7048
▁memorable	-11.7048
▁mentality	-11.7048
▁merciless	-11.7048
▁mercy	-11.7048
▁merely	-11.7048
▁merit	-11.7048
▁messenger	-11.7048
▁messin	-11.7048
▁messy	-11.7048
▁metacognition	-11.7048
▁metallic	-11.7048
▁metaphor	-11.7048
▁meter	-11.7048
▁mexican	-11.7048
▁mgr	-11.7048
▁mi	-11.7048
▁microbiology	-11.7048
▁microphone	-11.7048
▁middleschool	-11.7048
▁midodrine	-11.7048
▁midway	-11.7048
▁midwest	-11.7048
▁mighty	-11.7048
▁milder	-11.7048
▁mill	-11.7048
▁millionth	-11.7048
▁mimicking	-11.7048
▁mindful	-11.7048
▁mindwork	-11.7048
▁minority	-11.7048
▁mire	-11.7048
▁misar	-11.7048
▁misbehaving	-11.7048
▁miscarriage	-11.7048
▁misdiagnose	-11.7048
▁misdirect	-11.7048
▁misfiring	-11.7048
▁misfortune	-11.7048
▁misinterpreted	-11.7048
▁mislead	-11.7048
▁misleading	-11.7048
▁mismanagement	-11.7048
▁misplace	-11.7048
▁misplaced	-11.7048
▁misread	-11.7048
▁mission	-11.7048
▁misstep	-11.7048
▁mistook	-11.7048
▁mitigates	-11.7048
▁mnghgnmngh	-11.7048
▁moan	-11.7048
▁moaning	-11.7048
▁mob	-11.7048
▁mocked	-11.7048
▁mocking	-11.7048
▁modeling	-11.7048
▁moderate	-11.7048
▁moderation	-11.7048
▁moderna	-11.7048
▁modmail	-11.7048
▁modqueue	-11.7048
▁mogul	-11.7048
▁mojar	-11.7048
▁molasses	-11.7048
▁mome	-11.7048
▁momentum	-11.7048
▁mommy	-11.7048
▁mon	-11.7048
▁mondo	-11.7048
▁monitored	-11.7048
▁monke	-11.7048
▁monotonous	-11.7048
▁monotony	-11.7048
▁monoxide	-11.7048
▁monter	-11.7048
▁monthly	-11.7048
▁monumental	-11.7048
▁moral	-11.7048
▁morale	-11.7048
▁morality	-11.7048
▁morally	-11.7048
▁morbid	-11.7048
▁morbidity	-11.7048
▁morbidly	-11.7048
▁moroseness	-11.7048
▁morphine	-11.7048
▁mortally	-11.7048
▁motel	-11.7048
▁moth	-11.7048
▁motivates	-11.7048
▁motivating	-11.7048
▁motivational	-11.7048
▁motive	-11.7048
▁motorcycle	-11.7048
▁motto	-11.7048
▁mouldy	-11.7048
▁mountain	-11.7048
▁mra	-11.7048
▁msg	-11.7048
▁mt	-11.7048
▁mu	-11.7048
▁mucus	-11.7048
▁multilane	-11.7048
▁multitask	-11.7048
▁multitasking	-11.7048
▁multivitamin	-11.7048
▁mumbling	-11.7048
▁murderous	-11.7048
▁murmur	-11.7048
▁museum	-11.7048
▁musical	-11.7048
▁musician	-11.7048
▁mustache	-11.7048
▁mustve	-11.7048
▁mutated	-11.7048
▁mutism	-11.7048
▁mutual	-11.7048
▁mutuals	-11.7048
▁mydayis	-11.7048
▁mysekf	-11.7048
▁mysterious	-11.7048
▁myth	-11.7048
▁n0y1us	-11.7048
▁n4hpcb	-11.7048
▁nag	-11.7048
▁nagging	-11.7048
▁naive	-11.7048
▁naively	-11.7048
▁nanny	-11.7048
▁nap	-11.7048
▁naproxen	-11.7048
▁nasa	-11.7048
▁nastier	-11.7048
▁nausous	-11.7048
▁navigate	-11.7048
▁nay	-11.7048
▁nazi	-11.7048
▁nbsp	-11.7048
▁nearer	-11.7048
▁nearest	-11.7048
▁neat	-11.7048
▁necessity	-11.7048
▁neglect	-11.7048
▁neglected	-11.7048
▁neglectful	-11.7048
▁neighborly	-11.7048
▁nelly	-11.7048
▁neo	-11.7048
▁nerd	-11.7048
▁networking	-11.7048
▁neural	-11.7048
▁neurodegenerative	-11.7048
▁neurofeedback	-11.7048
▁neurology	-11.7048
▁neuronally	-11.7048
▁neuropsychological	-11.7048
▁neurotypic	-11.7048
▁neurpsychologist	-11.7048
▁neutrality	-11.7048
▁newbie	-11.7048
▁nf	-11.7048
▁ngl	-11.7048
▁nh	-11.7048
▁nibble	-11.7048
▁nicked	-11.7048
▁nicotine	-11.7048
▁nightine	-11.7048
▁nightly	-11.7048
▁nightshifts	-11.7048
▁nightstand	-11.7048
▁nihilistic	-11.7048
▁nod	-11.7048
▁node	-11.7048
▁noggin	-11.7048
▁noisy	-11.7048
▁nomore	-11.7048
▁nonexistence	-11.7048
▁nonsensical	-11.7048
▁noose	-11.7048
▁nootropics	-11.7048
▁nope	-11.7048
▁noramally	-11.7048
▁normalise	-11.7048
▁normality	-11.7048
▁north	-11.7048
▁nostalgia	-11.7048
▁notably	-11.7048
▁noted	-11.7048
▁notion	-11.7048
▁nots	-11.7048
▁nourishes	-11.7048
▁novel	-11.7048
▁novice	-11.7048
▁noving	-11.7048
▁np	-11.7048
▁nsfw	-11.7048
▁nth	-11.7048
▁nugget	-11.7048
▁numbs	-11.7048
▁nurturing	-11.7048
▁nutrition	-11.7048
▁nutritionist	-11.7048
▁obesity	-11.7048
▁objectifying	-11.7048
▁objective	-11.7048
▁objectivity	-11.7048
▁obligated	-11.7048
▁obliged	-11.7048
▁obliteration	-11.7048
▁oblivion	-11.7048
▁obscure	-11.7048
▁observing	-11.7048
▁obsessional	-11.7048
▁obtainable	-11.7048
▁occupational	-11.7048
▁occupy	-11.7048
▁occupying	-11.7048
▁ocpd	-11.7048
▁odn	-11.7048
▁offence	-11.7048
▁offend	-11.7048
▁offended	-11.7048
▁officer	-11.7048
▁offsite	-11.7048
▁ohh	-11.7048
▁ohhh	-11.7048
▁okayish	-11.7048
▁okey	-11.7048
▁ol	-11.7048
▁olanzapine	-11.7048
▁omfg	-11.7048
▁oncoming	-11.7048
▁oneself	-11.7048
▁ontario	-11.7048
▁ontological	-11.7048
▁onward	-11.7048
▁ooze	-11.7048
▁openner	-11.7048
▁operates	-11.7048
▁opiate	-11.7048
▁opted	-11.7048
▁opthalmologist	-11.7048
▁optimal	-11.7048
▁optimisim	-11.7048
▁optimism	-11.7048
▁optmistic	-11.7048
▁optometrist	-11.7048
▁ordeal	-11.7048
▁ordering	-11.7048
▁oregon	-11.7048
▁orfidal	-11.7048
▁organization	-11.7048
▁organized	-11.7048
▁orientation	-11.7048
▁oriented	-11.7048
▁origin	-11.7048
▁orphan	-11.7048
▁orthodox	-11.7048
▁orthopedic	-11.7048
▁osteopathic	-11.7048
▁otherwse	-11.7048
▁ou	-11.7048
▁ourself	-11.7048
▁ourselfs	-11.7048
▁outburst	-11.7048
▁outburts	-11.7048
▁outdated	-11.7048
▁outdoors	-11.7048
▁outed	-11.7048
▁outlandish	-11.7048
▁outputted	-11.7048
▁outset	-11.7048
▁outsourced	-11.7048
▁ovary	-11.7048
▁overactive	-11.7048
▁overanalyze	-11.7048
▁overanalyzed	-11.7048
▁overarching	-11.7048
▁overbearing	-11.7048
▁overcommitted	-11.7048
▁overcorrected	-11.7048
▁overdid	-11.7048
▁overdoes	-11.7048
▁overdrive	-11.7048
▁overdue	-11.7048
▁overeacting	-11.7048
▁overeating	-11.7048
▁overestimated	-11.7048
▁overheard	-11.7048
▁overhyped	-11.7048
▁overlapping	-11.7048
▁overnights	-11.7048
▁overpass	-11.7048
▁overpowering	-11.7048
▁overprescribed	-11.7048
▁overqualified	-11.7048
▁overseas	-11.7048
▁overshadows	-11.7048
▁oversleep	-11.7048
▁overslept	-11.7048
▁overstimulated	-11.7048
▁overtaken	-11.7048
▁overused	-11.7048
▁overweighs	-11.7048
▁overwelm	-11.7048
▁overwhelms	-11.7048
▁overworked	-11.7048
▁owed	-11.7048
▁ownership	-11.7048
▁owning	-11.7048
▁oxford	-11.7048
▁packing	-11.7048
▁padlock	-11.7048
▁painfully	-11.7048
▁painstakingly	-11.7048
▁pal	-11.7048
▁palpatations	-11.7048
▁pander	-11.7048
▁pap	-11.7048
▁para	-11.7048
▁parade	-11.7048
▁paradise	-11.7048
▁paralized	-11.7048
▁paralyzing	-11.7048
▁paraphernalia	-11.7048
▁paraphrasing	-11.7048
▁parasympathetic	-11.7048
▁parental	-11.7048
▁parkinson	-11.7048
▁paroxetine	-11.7048
▁partake	-11.7048
▁particals	-11.7048
▁participation	-11.7048
▁partly	-11.7048
▁passenger	-11.7048
▁paste	-11.7048
▁pat	-11.7048
▁patched	-11.7048
▁pathologist	-11.7048
▁payed	-11.7048
▁payment	-11.7048
▁paypal	-11.7048
▁pcod	-11.7048
▁pcos	-11.7048
▁pdf	-11.7048
▁peacefully	-11.7048
▁peaked	-11.7048
▁pedophile	-11.7048
▁peek	-11.7048
▁peel	-11.7048
▁peering	-11.7048
▁peeve	-11.7048
▁pen	-11.7048
▁penis	-11.7048
▁pep	-11.7048
▁pepper	-11.7048
▁pepsi	-11.7048
▁pepto	-11.7048
▁percent	-11.7048
▁perceptual	-11.7048
▁perfectionist	-11.7048
▁performer	-11.7048
▁performing	-11.7048
▁permabanned	-11.7048
▁permanently	-11.7048
▁permeating	-11.7048
▁permision	-11.7048
▁permission	-11.7048
▁permit	-11.7048
▁perpetual	-11.7048
▁perse	-11.7048
▁persisted	-11.7048
▁personsl	-11.7048
▁perspire	-11.7048
▁persuade	-11.7048
▁pervasive	-11.7048
▁peticularily	-11.7048
▁petrifies	-11.7048
▁petrol	-11.7048
▁petted	-11.7048
▁pf	-11.7048
▁phantom	-11.7048
▁pharma	-11.7048
▁pharmacist	-11.7048
▁phased	-11.7048
▁philosopher	-11.7048
▁philosophical	-11.7048
▁phoenix	-11.7048
▁phoniness	-11.7048
▁phony	-11.7048
▁photographer	-11.7048
▁photographing	-11.7048
▁phsycially	-11.7048
▁phycologists	-11.7048
▁physic	-11.7048
▁physicality	-11.7048
▁piano	-11.7048
▁pieced	-11.7048
▁piecing	-11.7048
▁pigeon	-11.7048
▁pigeonholed	-11.7048
▁piggybacking	-11.7048
▁piglet	-11.7048
▁piled	-11.7048
▁pinkish	-11.7048
▁pinpoint	-11.7048
▁pinterest	-11.7048
▁pitched	-11.7048
▁pitying	-11.7048
▁pixie	-11.7048
▁placate	-11.7048
▁placed	-11.7048
▁plague	-11.7048
▁plagued	-11.7048
▁plalstic	-11.7048
▁plank	-11.7048
▁plannin	-11.7048
▁plastered	-11.7048
▁platonic	-11.7048
▁plausible	-11.7048
▁plausibly	-11.7048
▁player	-11.7048
▁plaything	-11.7048
▁pleads	-11.7048
▁pleasant	-11.7048
▁pleaser	-11.7048
▁pleasing	-11.7048
▁pleasw	-11.7048
▁plotting	-11.7048
▁plugged	-11.7048
▁plywood	-11.7048
▁pmdd	-11.7048
▁pnemonia	-11.7048
▁pocd	-11.7048
▁podcast	-11.7048
▁podcaster	-11.7048
▁pointer	-11.7048
▁poke	-11.7048
▁poked	-11.7048
▁poking	-11.7048
▁policing	-11.7048
▁politely	-11.7048
▁politics	-11.7048
▁poll	-11.7048
▁pollen	-11.7048
▁polution	-11.7048
▁pond	-11.7048
▁poo	-11.7048
▁poochy	-11.7048
▁pool	-11.7048
▁poorer	-11.7048
▁popcorn	-11.7048
▁popping	-11.7048
▁populated	-11.7048
▁porcelain	-11.7048
▁porch	-11.7048
▁porg	-11.7048
▁portrait	-11.7048
▁portrayed	-11.7048
▁pose	-11.7048
▁posh	-11.7048
▁positioned	-11.7048
▁positivity	-11.7048
▁posse	-11.7048
▁possession	-11.7048
▁possessive	-11.7048
▁postgrad	-11.7048
▁postpartum	-11.7048
▁postural	-11.7048
▁potato	-11.7048
▁potatoe	-11.7048
▁potency	-11.7048
▁potent	-11.7048
▁potter	-11.7048
▁pour	-11.7048
▁pov	-11.7048
▁powder	-11.7048
▁powerless	-11.7048
▁ppls	-11.7048
▁practitioner	-11.7048
▁praise	-11.7048
▁prayed	-11.7048
▁prayer	-11.7048
▁precaution	-11.7048
▁precieve	-11.7048
▁precipice	-11.7048
▁precise	-11.7048
▁precursor	-11.7048
▁predicament	-11.7048
▁prednisone	-11.7048
▁preety	-11.7048
▁prefaced	-11.7048
▁preferred	-11.7048
▁pregabalin	-11.7048
▁prematurely	-11.7048
▁premise	-11.7048
▁prentedn	-11.7048
▁prepares	-11.7048
▁prerequisite	-11.7048
▁presaging	-11.7048
▁preschool	-11.7048
▁prescribe	-11.7048
▁presently	-11.7048
▁preserve	-11.7048
▁pressed	-11.7048
▁pressing	-11.7048
▁presssure	-11.7048
▁presumed	-11.7048
▁pretended	-11.7048
▁pretense	-11.7048
▁pretentious	-11.7048
▁preventable	-11.7048
▁preventative	-11.7048
▁prevention	-11.7048
▁prework	-11.7048
▁price	-11.7048
▁pricier	-11.7048
▁prick	-11.7048
▁pricking	-11.7048
▁prickly	-11.7048
▁pride	-11.7048
▁prime	-11.7048
▁primed	-11.7048
▁priming	-11.7048
▁primitive	-11.7048
▁prince	-11.7048
▁princess	-11.7048
▁principal	-11.7048
▁pristq	-11.7048
▁privacy	-11.7048
▁private_contact	-11.7048
▁priveleged	-11.7048
▁privilaged	-11.7048
▁prize	-11.7048
▁probability	-11.7048
▁probaply	-11.7048
▁proceded	-11.7048
▁proceeding	-11.7048
▁proceeds	-11.7048
▁processed	-11.7048
▁prochlorperazine	-11.7048
▁procrastinator	-11.7048
▁procreating	-11.7048
▁prod	-11.7048
▁prodded	-11.7048
▁production	-11.7048
▁productively	-11.7048
▁proffessional	-11.7048
▁profiting	-11.7048
▁profound	-11.7048
▁prognosis	-11.7048
▁programmed	-11.7048
▁programming	-11.7048
▁progressed	-11.7048
▁progressively	-11.7048
▁promo	-11.7048
▁promote	-11.7048
▁promotes	-11.7048
▁proof	-11.7048
▁proofreading	-11.7048
▁propanolol	-11.7048
▁prostitute	-11.7048
▁protecting	-11.7048
▁protein	-11.7048
▁proudest	-11.7048
▁providing	-11.7048
▁proving	-11.7048
▁pseudo	-11.7048
▁psy	-11.7048
▁psyanin	-11.7048
▁psychanalist	-11.7048
▁psychatric	-11.7048
▁psychiatrictimes	-11.7048
▁psychoanalyst	-11.7048
▁psychogenic	-11.7048
▁psychologied	-11.7048
▁psychopath	-11.7048
▁psychopharmaca	-11.7048
▁psychosis	-11.7048
▁psychotropic	-11.7048
▁pt	-11.7048
▁pubes	-11.7048
▁publishing	-11.7048
▁puff	-11.7048
▁puked	-11.7048
▁pulmonologists	-11.7048
▁pulsating	-11.7048
▁pump	-11.7048
▁punching	-11.7048
▁punctual	-11.7048
▁puncture	-11.7048
▁punished	-11.7048
▁pupil	-11.7048
▁purchased	-11.7048
▁purge	-11.7048
▁purist	-11.7048
▁pursing	-11.7048
▁pwease	-11.7048
▁q	-11.7048
▁qualifies	-11.7048
▁quantify	-11.7048
▁quentin	-11.7048
▁quest	-11.7048
▁questioned	-11.7048
▁quickbooks	-11.7048
▁quicly	-11.7048
▁quieted	-11.7048
▁quinoa	-11.7048
▁quiting	-11.7048
▁quits	-11.7048
▁quo	-11.7048
▁racist	-11.7048
▁radar	-11.7048
▁radiologist	-11.7048
▁radius	-11.7048
▁rainbow	-11.7048
▁rainy	-11.7048
▁rambly	-11.7048
▁ramsey	-11.7048
▁rando	-11.7048
▁rang	-11.7048
▁ranged	-11.7048
▁rank	-11.7048
▁ranking	-11.7048
▁ranty	-11.7048
▁rap	-11.7048
▁rape	-11.7048
▁rapist	-11.7048
▁rapport	-11.7048
▁rarer	-11.7048
▁rash	-11.7048
▁ration	-11.7048
▁rationalised	-11.7048
▁rationality	-11.7048
▁ravaging	-11.7048
▁raw	-11.7048
▁razor	-11.7048
▁reacted	-11.7048
▁reader	-11.7048
▁realistic	-11.7048
▁realizes	-11.7048
▁realm	-11.7048
▁rear	-11.7048
▁rearing	-11.7048
▁reasonably	-11.7048
▁reassess	-11.7048
▁reassure	-11.7048
▁rebirth	-11.7048
▁reborn	-11.7048
▁rebounded	-11.7048
▁rebutted	-11.7048
▁recap	-11.7048
▁receipt	-11.7048
▁receiving	-11.7048
▁recenntly	-11.7048
▁recieve	-11.7048
▁recipe	-11.7048
▁reciting	-11.7048
▁recive	-11.7048
▁recluse	-11.7048
▁recognise	-11.7048
▁recognised	-11.7048
▁recognising	-11.7048
▁recognition	-11.7048
▁recoil	-11.7048
▁recollection	-11.7048
▁reconcile	-11.7048
▁reconsider	-11.7048
▁recreate	-11.7048
▁recreationally	-11.7048
▁recruiting	-11.7048
▁redeem	-11.7048
▁redeemable	-11.7048
▁redirect	-11.7048
▁reduces	-11.7048
▁reduction	-11.7048
▁reek	-11.7048
▁referred	-11.7048
▁referring	-11.7048
▁refers	-11.7048
▁reflected	-11.7048
▁reflection	-11.7048
▁reframing	-11.7048
▁refreshing	-11.7048
▁regaining	-11.7048
▁regal	-11.7048
▁regarded	-11.7048
▁registrar	-11.7048
▁registration	-11.7048
▁regressing	-11.7048
▁reground	-11.7048
▁regularity	-11.7048
▁regulating	-11.7048
▁rehabilitation	-11.7048
▁reherniated	-11.7048
▁reherniation	-11.7048
▁reincarnation	-11.7048
▁reinforced	-11.7048
▁reinforcement	-11.7048
▁reiterate	-11.7048
▁rejoined	-11.7048
▁rejuvenate	-11.7048
▁relatable	-11.7048
▁relaxes	-11.7048
▁relay	-11.7048
▁relearning	-11.7048
▁releasing	-11.7048
▁relentless	-11.7048
▁relevant	-11.7048
▁reliably	-11.7048
▁relies	-11.7048
▁relocate	-11.7048
▁reluctance	-11.7048
▁relying	-11.7048
▁remains	-11.7048
▁remarried	-11.7048
▁remedial	-11.7048
▁remeron	-11.7048
▁reminding	-11.7048
▁reminisce	-11.7048
▁reminiscing	-11.7048
▁rendered	-11.7048
▁rene	-11.7048
▁renewed	-11.7048
▁renovation	-11.7048
▁rental	-11.7048
▁renting	-11.7048
▁reoccurring	-11.7048
▁repaired	-11.7048
▁repaying	-11.7048
▁repercussion	-11.7048
▁repetitively	-11.7048
▁rephrase	-11.7048
▁replacement	-11.7048
▁repost	-11.7048
▁represent	-11.7048
▁repression	-11.7048
▁reproduction	-11.7048
▁repulsive	-11.7048
▁require	-11.7048
▁requisite	-11.7048
▁reread	-11.7048
▁researcher	-11.7048
▁researching	-11.7048
▁resentful	-11.7048
▁reserve	-11.7048
▁reserved	-11.7048
▁reshape	-11.7048
▁residence	-11.7048
▁resigned	-11.7048
▁resilient	-11.7048
▁resistant	-11.7048
▁resisted	-11.7048
▁resolved	-11.7048
▁respectable	-11.7048
▁respekt	-11.7048
▁respite	-11.7048
▁respondin	-11.7048
▁responding	-11.7048
▁responds	-11.7048
▁responsability	-11.7048
▁resting	-11.7048
▁restraint	-11.7048
▁restrictive	-11.7048
▁resubmitt	-11.7048
▁resulted	-11.7048
▁retain	-11.7048
▁retained	-11.7048
▁retaining	-11.7048
▁retake	-11.7048
▁retaking	-11.7048
▁retard	-11.7048
▁retested	-11.7048
▁rethink	-11.7048
▁retraced	-11.7048
▁retrained	-11.7048
▁retreated	-11.7048
▁reunion	-11.7048
▁reunite	-11.7048
▁reunited	-11.7048
▁revealed	-11.7048
▁revered	-11.7048
▁reverse	-11.7048
▁reversed	-11.7048
▁reversible	-11.7048
▁reviewing	-11.7048
▁reviles	-11.7048
▁revolt	-11.7048
▁rewind	-11.7048
▁rework	-11.7048
▁ribbon	-11.7048
▁richer	-11.7048
▁ridiculed	-11.7048
▁riding	-11.7048
▁righthand	-11.7048
▁ringtone	-11.7048
▁rinse	-11.7048
▁risen	-11.7048
▁risking	-11.7048
▁ritalin	-11.7048
▁river	-11.7048
▁rlly	-11.7048
▁rm	-11.7048
▁roamed	-11.7048
▁roaming	-11.7048
▁robbed	-11.7048
▁robbin	-11.7048
▁robbing	-11.7048
▁robotic	-11.7048
▁robs	-11.7048
▁robust	-11.7048
▁rocketed	-11.7048
▁rodeo	-11.7048
▁rogaine	-11.7048
▁roleplay	-11.7048
▁roller	-11.7048
▁romanticizes	-11.7048
▁roofing	-11.7048
▁roomie	-11.7048
▁rooting	-11.7048
▁roughest	-11.7048
▁royally	-11.7048
▁rpm	-11.7048
▁rt	-11.7048
▁rub	-11.7048
▁rubbed	-11.7048
▁rubbing	-11.7048
▁rudely	-11.7048
▁rue	-11.7048
▁ruling	-11.7048
▁ruminate	-11.7048
▁rumination	-11.7048
▁runt	-11.7048
▁rushed	-11.7048
▁rustled	-11.7048
▁ruthless	-11.7048
▁ruyle	-11.7048
▁rx	-11.7048
▁rythm	-11.7048
▁sacrificed	-11.7048
▁sadden	-11.7048
▁saddening	-11.7048
▁sadder	-11.7048
▁saga	-11.7048
▁salad	-11.7048
▁salesperson	-11.7048
▁sandwich	-11.7048
▁sane	-11.7048
▁sang	-11.7048
▁sank	-11.7048
▁sap	-11.7048
▁sarted	-11.7048
▁satan	-11.7048
▁satisfaction	-11.7048
▁savage	-11.7048
▁savescumming	-11.7048
▁savior	-11.7048
▁sayin	-11.7048
▁scanning	-11.7048
▁scape	-11.7048
▁scarce	-11.7048
▁scarred	-11.7048
▁scented	-11.7048
▁scheduling	-11.7048
▁scheming	-11.7048
▁schizo	-11.7048
▁scholar	-11.7048
▁schooled	-11.7048
▁schooler	-11.7048
▁schooling	-11.7048
▁sci	-11.7048
▁sciatica	-11.7048
▁scientist	-11.7048
▁scissors	-11.7048
▁scolarships	-11.7048
▁scold	-11.7048
▁scolded	-11.7048
▁scoop	-11.7048
▁scout	-11.7048
▁scramble	-11.7048
▁scrap	-11.7048
▁screening	-11.7048
▁scrolled	-11.7048
▁scrub	-11.7048
▁scrutinising	-11.7048
▁scrutinize	-11.7048
▁seam	-11.7048
▁searched	-11.7048
▁seasonal	-11.7048
▁seat	-11.7048
▁sec	-11.7048
▁secluding	-11.7048
▁secretly	-11.7048
▁securely	-11.7048
▁seed	-11.7048
▁seeked	-11.7048
▁seeping	-11.7048
▁segz	-11.7048
▁seize	-11.7048
▁selection	-11.7048
▁selective	-11.7048
▁selfie	-11.7048
▁selfishness	-11.7048
▁selfriges	-11.7048
▁selled	-11.7048
▁semblance	-11.7048
▁semen	-11.7048
▁sen	-11.7048
▁sends	-11.7048
▁sensibility	-11.7048
▁sentient	-11.7048
▁separately	-11.7048
▁separating	-11.7048
▁seperated	-11.7048
▁sequence	-11.7048
▁seratonergic	-11.7048
▁serf	-11.7048
▁serial	-11.7048
▁seriousness	-11.7048
▁serodeps	-11.7048
▁sertaline	-11.7048
▁sertralin	-11.7048
▁served	-11.7048
▁servely	-11.7048
▁sesh	-11.7048
▁seventy	-11.7048
▁severity	-11.7048
▁shabby	-11.7048
▁shade	-11.7048
▁shaken	-11.7048
▁shakiness	-11.7048
▁shall	-11.7048
▁shallowest	-11.7048
▁shaman	-11.7048
▁shamble	-11.7048
▁sharpens	-11.7048
▁shattering	-11.7048
▁sheeesh	-11.7048
▁sheltered	-11.7048
▁sheltering	-11.7048
▁shepherd	-11.7048
▁shes	-11.7048
▁shi	-11.7048
▁shield	-11.7048
▁shiftrunner	-11.7048
▁shiftwork	-11.7048
▁shimmering	-11.7048
▁shine	-11.7048
▁shining	-11.7048
▁shitbags	-11.7048
▁shite	-11.7048
▁shitfaced	-11.7048
▁shitpost	-11.7048
▁shitshow	-11.7048
▁shitted	-11.7048
▁shocked	-11.7048
▁shocking	-11.7048
▁shoddy	-11.7048
▁shoeing	-11.7048
▁shoot	-11.7048
▁shoplifting	-11.7048
▁shortage	-11.7048
▁shortcoming	-11.7048
▁shouting	-11.7048
▁shove	-11.7048
▁shoved	-11.7048
▁shrink	-11.7048
▁shrug	-11.7048
▁shrugging	-11.7048
▁shtposting	-11.7048
▁shuteye	-11.7048
▁si	-11.7048
▁sided	-11.7048
▁sideeffects	-11.7048
▁sidestep	-11.7048
▁sidewalk	-11.7048
▁sighed	-11.7048
▁sightline	-11.7048
▁signalling	-11.7048
▁silhouette	-11.7048
▁silver	-11.7048
▁sim	-11.7048
▁similair	-11.7048
▁similarly	-11.7048
▁simpler	-11.7048
▁simplistically	-11.7048
▁simultaneous	-11.7048
▁singing	-11.7048
▁sink	-11.7048
▁sisyphus	-11.7048
▁sitrust	-11.7048
▁sitter	-11.7048
▁skate	-11.7048
▁skeptical	-11.7048
▁sketch	-11.7048
▁skimmed	-11.7048
▁skirt	-11.7048
▁skull	-11.7048
▁slacked	-11.7048
▁slackening	-11.7048
▁slam	-11.7048
▁slamming	-11.7048
▁slap	-11.7048
▁slapping	-11.7048
▁slash	-11.7048
▁sleeo	-11.7048
▁sleepless	-11.7048
▁sleeplessness	-11.7048
▁slicing	-11.7048
▁slot	-11.7048
▁slowed	-11.7048
▁slows	-11.7048
▁slung	-11.7048
▁slurred	-11.7048
▁slut	-11.7048
▁sm	-11.7048
▁smack	-11.7048
▁smaller	-11.7048
▁smartphone	-11.7048
▁smear	-11.7048
▁smelling	-11.7048
▁smh	-11.7048
▁smith	-11.7048
▁smoker	-11.7048
▁smokin	-11.7048
▁smoldering	-11.7048
▁smooth	-11.7048
▁smoothy	-11.7048
▁smth	-11.7048
▁smug	-11.7048
▁snapchat	-11.7048
▁snatched	-11.7048
▁sneezed	-11.7048
▁sneezing	-11.7048
▁snide	-11.7048
▁snitch	-11.7048
▁snl	-11.7048
▁snow_selmon	-11.7048
▁snowballed	-11.7048
▁snowflake	-11.7048
▁snri	-11.7048
▁snuck	-11.7048
▁snuffed	-11.7048
▁snuggle	-11.7048
▁soak	-11.7048
▁sob	-11.7048
▁sociability	-11.7048
▁sociable	-11.7048
▁socialanxiety	-11.7048
▁socket	-11.7048
▁sodium	-11.7048
▁solace	-11.7048
▁sole	-11.7048
▁solely	-11.7048
▁solidarity	-11.7048
▁solidity	-11.7048
▁solo	-11.7048
▁solver	-11.7048
▁solves	-11.7048
▁somatic	-11.7048
▁somedays	-11.7048
▁somethings	-11.7048
▁somthing	-11.7048
▁somtimes	-11.7048
▁somwhat	-11.7048
▁songwriting	-11.7048
▁soonest	-11.7048
▁soooo	-11.7048
▁soot	-11.7048
▁soothing	-11.7048
▁sopped	-11.7048
▁sorted	-11.7048
▁soulmate	-11.7048
▁spa	-11.7048
▁spacing	-11.7048
▁spamming	-11.7048
▁spared	-11.7048
▁sparkly	-11.7048
▁spasm	-11.7048
▁spawn	-11.7048
▁speach	-11.7048
▁speaks	-11.7048
▁specialization	-11.7048
▁specially	-11.7048
▁specify	-11.7048
▁speck	-11.7048
▁speeding	-11.7048
▁spelled	-11.7048
▁spelling	-11.7048
▁spelt	-11.7048
▁spended	-11.7048
▁spews	-11.7048
▁spider	-11.7048
▁spill	-11.7048
▁spineless	-11.7048
▁spiralled	-11.7048
▁spirit	-11.7048
▁spoiler	-11.7048
▁spoilt	-11.7048
▁spotting	-11.7048
▁spreading	-11.7048
▁spree	-11.7048
▁squad	-11.7048
▁squirming	-11.7048
▁squished	-11.7048
▁srry	-11.7048
▁sry	-11.7048
▁stabber	-11.7048
▁stabilised	-11.7048
▁stabilized	-11.7048
▁stabilizing	-11.7048
▁stain	-11.7048
▁stair	-11.7048
▁stalk	-11.7048
▁stalker	-11.7048
▁stammer	-11.7048
▁stammering	-11.7048
▁stance	-11.7048
▁stardom	-11.7048
▁starter	-11.7048
▁startling	-11.7048
▁statistic	-11.7048
▁stbxw	-11.7048
▁std	-11.7048
▁steadily	-11.7048
▁stealing	-11.7048
▁steam	-11.7048
▁steep	-11.7048
▁stemmed	-11.7048
▁stepped	-11.7048
▁stepping	-11.7048
▁stereo	-11.7048
▁stereotype	-11.7048
▁stiffen	-11.7048
▁stiffness	-11.7048
▁stigma	-11.7048
▁stimulant	-11.7048
▁stimulated	-11.7048
▁sting	-11.7048
▁stipend	-11.7048
▁stir	-11.7048
▁stole	-11.7048
▁stolen	-11.7048
▁stomped	-11.7048
▁stoner	-11.7048
▁stopgap	-11.7048
▁stopp	-11.7048
▁stored	-11.7048
▁storming	-11.7048
▁storyline	-11.7048
▁strain	-11.7048
▁strained	-11.7048
▁stranded	-11.7048
▁strangely	-11.7048
▁strap	-11.7048
▁strawberry	-11.7048
▁stream	-11.7048
▁streaming	-11.7048
▁streesd	-11.7048
▁streetlight	-11.7048
▁strengthens	-11.7048
▁stretched	-11.7048
▁stretching	-11.7048
▁strictly	-11.7048
▁striker	-11.7048
▁stringy	-11.7048
▁stripped	-11.7048
▁stripping	-11.7048
▁strive	-11.7048
▁stroll	-11.7048
▁strolling	-11.7048
▁stufd	-11.7048
▁stuffed	-11.7048
▁stuffy	-11.7048
▁stuggle	-11.7048
▁stumble	-11.7048
▁stumbled	-11.7048
▁stumbling	-11.7048
▁stunted	-11.7048
▁stutter	-11.7048
▁stuttered	-11.7048
▁styling	-11.7048
▁su	-11.7048
▁su1c1de	-11.7048
▁subjective	-11.7048
▁subjectively	-11.7048
▁sublime	-11.7048
▁submission	-11.7048
▁submit	-11.7048
▁subscribe	-11.7048
▁subsides	-11.7048
▁substantial	-11.7048
▁subtle	-11.7048
▁suburb	-11.7048
▁subwoofer	-11.7048
▁succes	-11.7048
▁succumbing	-11.7048
▁suceeded	-11.7048
▁sucide	-11.7048
▁sucker	-11.7048
▁sucky	-11.7048
▁sued	-11.7048
▁sufder	-11.7048
▁suffocates	-11.7048
▁suffocating	-11.7048
▁suicidality	-11.7048
▁sulfuric	-11.7048
▁sulpiride	-11.7048
▁summarize	-11.7048
▁summit	-11.7048
▁sunglass	-11.7048
▁sunk	-11.7048
▁sunken	-11.7048
▁sunlight	-11.7048
▁sunny	-11.7048
▁sunod	-11.7048
▁sunset	-11.7048
▁sunshine	-11.7048
▁superficial	-11.7048
▁supersonic	-11.7048
▁supervision	-11.7048
▁supply	-11.7048
▁supportively	-11.7048
▁suppressing	-11.7048
▁surf	-11.7048
▁surficial	-11.7048
▁surge	-11.7048
▁surgieries	-11.7048
▁surreal	-11.7048
▁surrender	-11.7048
▁surround	-11.7048
▁sus	-11.7048
▁susceptible	-11.7048
▁suspect	-11.7048
▁suspension	-11.7048
▁suspicion	-11.7048
▁suspicious	-11.7048
▁sustain	-11.7048
▁sustained	-11.7048
▁sustaining	-11.7048
▁swam	-11.7048
▁swap	-11.7048
▁swapped	-11.7048
▁swaying	-11.7048
▁sweared	-11.7048
▁swept	-11.7048
▁swinging	-11.7048
▁swipe	-11.7048
▁swirl	-11.7048
▁swirlies	-11.7048
▁swirling	-11.7048
▁swiss	-11.7048
▁swung	-11.7048
▁symotoms	-11.7048
▁sympathize	-11.7048
▁sync	-11.7048
▁syrian	-11.7048
▁syringe	-11.7048
▁syrup	-11.7048
▁systematically	-11.7048
▁t1	-11.7048
▁taboo	-11.7048
▁tachycardia	-11.7048
▁tactfully	-11.7048
▁tactic	-11.7048
▁taked	-11.7048
▁tale	-11.7048
▁talentless	-11.7048
▁talikg	-11.7048
▁talkative	-11.7048
▁talkativeness	-11.7048
▁tantrum	-11.7048
▁tap	-11.7048
▁tape	-11.7048
▁tarantino	-11.7048
▁targeted	-11.7048
▁tarnished	-11.7048
▁tat	-11.7048
▁taunted	-11.7048
▁taunting	-11.7048
▁tca	-11.7048
▁tcas	-11.7048
▁td	-11.7048
▁teariness	-11.7048
▁teased	-11.7048
▁teasing	-11.7048
▁technically	-11.7048
▁teeter	-11.7048
▁telehealth	-11.7048
▁teleport	-11.7048
▁teleworking	-11.7048
▁temesta	-11.7048
▁temp	-11.7048
▁temper	-11.7048
▁temple	-11.7048
▁temptation	-11.7048
▁tenant	-11.7048
▁tendances	-11.7048
▁tenderness	-11.7048
▁tending	-11.7048
▁tennis	-11.7048
▁tensing	-11.7048
▁tensity	-11.7048
▁tenuously	-11.7048
▁tenured	-11.7048
▁terapist	-11.7048
▁terrain	-11.7048
▁terrific	-11.7048
▁terrrifying	-11.7048
▁testify	-11.7048
▁testing	-11.7048
▁tetanus	-11.7048
▁tether	-11.7048
▁tethered	-11.7048
▁thanked	-11.7048
▁thankyou	-11.7048
▁thati	-11.7048
▁thd	-11.7048
▁theater	-11.7048
▁theet	-11.7048
▁theirkids	-11.7048
▁themself	-11.7048
▁theorising	-11.7048
▁theorist	-11.7048
▁theorize	-11.7048
▁therapeutic	-11.7048
▁thers	-11.7048
▁thesis	-11.7048
▁theyre	-11.7048
▁thickest	-11.7048
▁thief	-11.7048
▁thinker	-11.7048
▁thinner	-11.7048
▁thomas	-11.7048
▁thoroughly	-11.7048
▁thorugh	-11.7048
▁thoughtful	-11.7048
▁thoughtfully	-11.7048
▁thoughtfulness	-11.7048
▁threatining	-11.7048
▁threatment	-11.7048
▁thrifting	-11.7048
▁thrill	-11.7048
▁throb	-11.7048
▁thrombosis	-11.7048
▁tht	-11.7048
▁thud	-11.7048
▁thumb	-11.7048
▁thunderstorm	-11.7048
▁thwarted	-11.7048
▁tia	-11.7048
▁tick	-11.7048
▁ticked	-11.7048
▁ticking	-11.7048
▁tidying	-11.7048
▁tiffany	-11.7048
▁tightening	-11.7048
▁tighter	-11.7048
▁tik	-11.7048
▁tiktoks	-11.7048
▁timed	-11.7048
▁timely	-11.7048
▁timetable	-11.7048
▁tincture	-11.7048
▁tingle	-11.7048
▁tiniest	-11.7048
▁tinnitus	-11.7048
▁tmi	-11.7048
▁tmr	-11.7048
▁toaster	-11.7048
▁toks	-11.7048
▁tolerated	-11.7048
▁tolerating	-11.7048
▁tolstoy	-11.7048
▁tommorow	-11.7048
▁tommy	-11.7048
▁toned	-11.7048
▁tonsil	-11.7048
▁tonus	-11.7048
▁toothpaste	-11.7048
▁topamax	-11.7048
▁topical	-11.7048
▁tore	-11.7048
▁torment	-11.7048
▁torn	-11.7048
▁torturer	-11.7048
▁toss	-11.7048
▁tossed	-11.7048
▁totalled	-11.7048
▁totter	-11.7048
▁toughen	-11.7048
▁tougher	-11.7048
▁toughness	-11.7048
▁toughst	-11.7048
▁towed	-11.7048
▁toy	-11.7048
▁toyota	-11.7048
▁trace	-11.7048
▁tracing	-11.7048
▁tracked	-11.7048
▁tracking	-11.7048
▁traction	-11.7048
▁tradesman	-11.7048
▁tragedy	-11.7048
▁tragic	-11.7048
▁trainee	-11.7048
▁trainwreck	-11.7048
▁trajectory	-11.7048
▁tranquility	-11.7048
▁transcranial_magnetic_stimulation	-11.7048
▁transexuality	-11.7048
▁transfer	-11.7048
▁transfered	-11.7048
▁transitioned	-11.7048
▁transitioning	-11.7048
▁translated	-11.7048
▁translates	-11.7048
▁translating	-11.7048
▁transparency	-11.7048
▁transparently	-11.7048
▁transport	-11.7048
▁transportation	-11.7048
▁trap	-11.7048
▁traumatised	-11.7048
▁traveled	-11.7048
▁travelled	-11.7048
▁traying	-11.7048
▁trek	-11.7048
▁tremble	-11.7048
▁trickling	-11.7048
▁tricky	-11.7048
▁tricyclic	-11.7048
▁trintellix	-11.7048
▁triple	-11.7048
▁tripled	-11.7048
▁tripping	-11.7048
▁trite	-11.7048
▁trooper	-11.7048
▁tropic	-11.7048
▁trotted	-11.7048
▁trough	-11.7048
▁trudge	-11.7048
▁trumatized	-11.7048
▁trump	-11.7048
▁trumpism	-11.7048
▁trusted	-11.7048
▁trustworthy	-11.7048
▁tucking	-11.7048
▁tuff	-11.7048
▁tugged	-11.7048
▁tuition	-11.7048
▁tulsi	-11.7048
▁tumor	-11.7048
▁tuned	-11.7048
▁twain	-11.7048
▁tweaked	-11.7048
▁tweaky	-11.7048
▁twelve	-11.7048
▁twink	-11.7048
▁twitchy	-11.7048
▁uck	-11.7048
▁ughh	-11.7048
▁uhs	-11.7048
▁uke	-11.7048
▁um	-11.7048
▁ummm	-11.7048
▁ums	-11.7048
▁unacceptable	-11.7048
▁unadulterated	-11.7048
▁unashamedly	-11.7048
▁unassailable	-11.7048
▁unavailable	-11.7048
▁unbalanced	-11.7048
▁unbeatable	-11.7048
▁unbeknownst	-11.7048
▁unbiased	-11.7048
▁unbound	-11.7048
▁uncalled	-11.7048
▁uncertain	-11.7048
▁unconcern	-11.7048
▁unconcerned	-11.7048
▁unconsciously	-11.7048
▁uncontrolled	-11.7048
▁underachievement	-11.7048
▁underaged	-11.7048
▁underestimated	-11.7048
▁undergrad	-11.7048
▁undergraduate	-11.7048
▁underneath	-11.7048
▁understatement	-11.7048
▁underwater	-11.7048
▁undesirable	-11.7048
▁undo	-11.7048
▁unduly	-11.7048
▁uneducated	-11.7048
▁unequivocally	-11.7048
▁unexpected	-11.7048
▁unexpectedly	-11.7048
▁unexplainably	-11.7048
▁unexplained	-11.7048
▁unfair	-11.7048
▁unfiltered	-11.7048
▁unflattering	-11.7048
▁unfollowed	-11.7048
▁unfunny	-11.7048
▁uniform	-11.7048
▁unimportant	-11.7048
▁uninspiring	-11.7048
▁uninstalling	-11.7048
▁unintentionally	-11.7048
▁united	-11.7048
▁unity	-11.7048
▁universally	-11.7048
▁uniwersity	-11.7048
▁unkind	-11.7048
▁unknowingly	-11.7048
▁unkown	-11.7048
▁unleashed	-11.7048
▁unlikable	-11.7048
▁unlocked	-11.7048
▁unloveable	-11.7048
▁unloved	-11.7048
▁unloyal	-11.7048
▁unmade	-11.7048
▁unnecessary	-11.7048
▁unorganised	-11.7048
▁unprepared	-11.7048
▁unreal	-11.7048
▁unrelated	-11.7048
▁unremarkable	-11.7048
▁unremitting	-11.7048
▁unresponsive	-11.7048
▁unromantic	-11.7048
▁unsatisfying	-11.7048
▁unshakable	-11.7048
▁unstoppable	-11.7048
▁unstressed	-11.7048
▁unsuccessful	-11.7048
▁untenable	-11.7048
▁untested	-11.7048
▁unto	-11.7048
▁untouch	-11.7048
▁unwanted	-11.7048
▁unwise	-11.7048
▁unworthiness	-11.7048
▁upbeat	-11.7048
▁update	-11.7048
▁updated	-11.7048
▁uphill	-11.7048
▁uplifting	-11.7048
▁uploaded	-11.7048
▁upsetting	-11.7048
▁upstate	-11.7048
▁ure	-11.7048
▁urgency	-11.7048
▁usa	-11.7048
▁usage	-11.7048
▁username	-11.7048
▁uso	-11.7048
▁usseles	-11.7048
▁utility	-11.7048
▁utm_name	-11.7048
▁utterly	-11.7048
▁uve	-11.7048
▁vaca	-11.7048
▁vacuum	-11.7048
▁vacuumed	-11.7048
▁vagrant	-11.7048
▁vain	-11.7048
▁valdoxan	-11.7048
▁valerian	-11.7048
▁vampire	-11.7048
▁van	-11.7048
▁vape	-11.7048
▁vast	-11.7048
▁vastly	-11.7048
▁veen	-11.7048
▁veggie	-11.7048
▁vehemently	-11.7048
▁venmo	-11.7048
▁vented	-11.7048
▁ventilated	-11.7048
▁verdant	-11.7048
▁verify	-11.7048
▁vestige	-11.7048
▁veteran	-11.7048
▁viable	-11.7048
▁vibrant	-11.7048
▁victimizing	-11.7048
▁videogame	-11.7048
▁videogamer	-11.7048
▁videogaming	-11.7048
▁videographer	-11.7048
▁viewed	-11.7048
▁vigilant	-11.7048
▁vintage	-11.7048
▁viola	-11.7048
▁violently	-11.7048
▁violin	-11.7048
▁vip	-11.7048
▁virtually	-11.7048
▁viscous	-11.7048
▁visual	-11.7048
▁visualizing	-11.7048
▁vital	-11.7048
▁vitals	-11.7048
▁vividly	-11.7048
▁vocabulary	-11.7048
▁vocational	-11.7048
▁voicing	-11.7048
▁volcanic	-11.7048
▁volcano	-11.7048
▁voltage	-11.7048
▁volume	-11.7048
▁volunteer	-11.7048
▁volunteered	-11.7048
▁vortex	-11.7048
▁vortioxetine	-11.7048
▁vu	-11.7048
▁vulnerably	-11.7048
▁vyvanse	-11.7048
▁waaaaay	-11.7048
▁wageslave	-11.7048
▁wail	-11.7048
▁waistband	-11.7048
▁waisted	-11.7048
▁wajt	-11.7048
▁wakeup	-11.7048
▁wallow	-11.7048
▁waltz	-11.7048
▁wander	-11.7048
▁wanders	-11.7048
▁wane	-11.7048
▁waned	-11.7048
▁wanne	-11.7048
▁warden	-11.7048
▁wardrobe	-11.7048
▁warms	-11.7048
▁warn	-11.7048
▁washer	-11.7048
▁wasteful	-11.7048
▁waster	-11.7048
▁watered	-11.7048
▁watery	-11.7048
▁wathever	-11.7048
▁wavered	-11.7048
▁waxed	-11.7048
▁wazoo	-11.7048
▁wbc	-11.7048
▁weakened	-11.7048
▁weakens	-11.7048
▁wealth	-11.7048
▁wean	-11.7048
▁weaned	-11.7048
▁weapon	-11.7048
▁weary	-11.7048
▁web	-11.7048
▁wedge	-11.7048
▁wednesday	-11.7048
▁ween	-11.7048
▁weighing	-11.7048
▁weighted	-11.7048
▁weightless	-11.7048
▁weightlifting	-11.7048
▁weirder	-11.7048
▁weirdo	-11.7048
▁wel	-11.7048
▁welbutrin	-11.7048
▁welcoming	-11.7048
▁welfare	-11.7048
▁wellbeing	-11.7048
▁welling	-11.7048
▁wellness	-11.7048
▁wet	-11.7048
▁whatnot	-11.7048
▁whatsapp	-11.7048
▁wheezy	-11.7048
▁whence	-11.7048
▁whereby	-11.7048
▁whim	-11.7048
▁whimpered	-11.7048
▁whine	-11.7048
▁whining	-11.7048
▁whipping	-11.7048
▁whiskey	-11.7048
▁whisper	-11.7048
▁whispered	-11.7048
