▁like	-4.13044
<s>	0
</s>	0
<unk>	0
▁wa	-4.21362
▁feel	-4.21874
▁anxiety	-4.60809
▁get	-4.61909
▁know	-4.67595
▁time	-4.75456
▁want	-4.81891
▁even	-4.89214
▁life	-4.94962
▁day	-4.96874
▁really	-5.00685
▁thing	-5.09318
▁year	-5.10417
▁people	-5.16687
▁think	-5.27714
▁one	-5.28373
▁go	-5.31564
▁ha	-5.32766
▁make	-5.35746
▁would	-5.38269
▁much	-5.4011
▁help	-5.41044
▁going	-5.4142
▁friend	-5.43129
▁something	-5.51726
▁feeling	-5.52144
▁never	-5.52144
▁thought	-5.54049
▁work	-5.54692
▁back	-5.59089
▁anyone	-5.60219
▁_	-5.61362
▁got	-5.67037
▁always	-5.70755
▁job	-5.70755
▁still	-5.71261
▁anything	-5.72538
▁bad	-5.75407
▁way	-5.7836
▁also	-5.79456
▁good	-5.79456
▁could	-5.81966
▁take	-5.83676
▁getting	-5.83964
▁since	-5.84542
▁every	-5.85708
▁depression	-5.86888
▁need	-5.89595
▁someone	-5.899
▁better	-5.90514
▁month	-5.91441
▁everything	-5.92064
▁week	-5.92064
▁school	-5.95886
▁started	-5.96865
▁last	-5.97193
▁say	-5.98518
▁lot	-6.03647
▁else	-6.06856
▁attack	-6.07219
▁try	-6.08684
▁see	-6.09425
▁point	-6.10546
▁hate	-6.11681
▁anxious	-6.12062
▁family	-6.12828
▁first	-6.13213
▁panic	-6.1477
▁anymore	-6.16351
▁nothing	-6.16351
▁right	-6.1675
▁around	-6.18363
▁person	-6.19179
▁everyone	-6.20002
▁long	-6.2209
▁talk	-6.2209
▁tell	-6.23792
▁felt	-6.24222
▁thinking	-6.24654
▁trying	-6.24654
▁im	-6.25524
▁keep	-6.25524
▁well	-6.25962
▁ever	-6.28179
▁hard	-6.28179
▁away	-6.29533
▁new	-6.29989
▁made	-6.30447
▁start	-6.31832
▁stop	-6.31832
▁said	-6.32767
▁worse	-6.32767
▁end	-6.33237
▁able	-6.34663
▁come	-6.37084
▁maybe	-6.38069
▁2	-6.38566
▁doe	-6.40069
▁ago	-6.40576
▁past	-6.40576
▁find	-6.41085
▁told	-6.4211
▁happy	-6.43669
▁though	-6.43669
▁alone	-6.44721
▁sure	-6.44721
▁home	-6.45252
▁live	-6.45252
▁love	-6.45785
▁give	-6.47403
▁little	-6.47403
▁problem	-6.47403
▁sometimes	-6.47403
▁went	-6.47948
▁actually	-6.48495
▁sleep	-6.48495
▁almost	-6.49046
▁care	-6.50157
▁scared	-6.50157
▁hour	-6.50718
▁pain	-6.51281
▁look	-6.51848
▁health	-6.52418
▁many	-6.52418
▁parent	-6.52418
▁today	-6.52418
▁enough	-6.5473
▁night	-6.5473
▁fucking	-6.55906
▁head	-6.55906
▁tried	-6.57097
▁mind	-6.58302
▁reason	-6.58302
▁shit	-6.58302
▁wanted	-6.58302
▁best	-6.61379
▁self	-6.61379
▁depressed	-6.62637
▁therapy	-6.62637
▁body	-6.63272
▁cry	-6.63272
▁without	-6.63272
▁post	-6.6391
▁done	-6.64554
▁two	-6.65852
▁medication	-6.66508
▁place	-6.66508
▁wish	-6.66508
▁tired	-6.67168
▁3	-6.67833
▁mental	-6.67833
▁taking	-6.67833
▁fear	-6.69175
▁normal	-6.69175
▁experience	-6.69853
▁making	-6.70535
▁let	-6.7402
▁doctor	-6.74732
▁hope	-6.74732
▁used	-6.74732
▁dont	-6.75449
▁issue	-6.75449
▁wrong	-6.75449
▁another	-6.76171
▁pretty	-6.76171
▁relationship	-6.78369
▁social	-6.78369
▁house	-6.79112
▁working	-6.79112
▁guy	-6.79861
▁living	-6.80616
▁understand	-6.82143
▁part	-6.82915
▁bed	-6.83693
▁heart	-6.84477
▁left	-6.84477
▁cause	-6.85268
▁put	-6.85268
▁advice	-6.86868
▁either	-6.88494
▁med	-6.88494
▁hurt	-6.89317
▁next	-6.89317
▁couple	-6.90147
▁recently	-6.90147
▁whole	-6.90147
▁symptom	-6.90984
▁talking	-6.90984
▁world	-6.90984
▁lost	-6.91828
▁amp	-6.92679
▁etc	-6.92679
▁happened	-6.92679
▁please	-6.92679
▁sick	-6.92679
▁already	-6.93537
▁die	-6.96157
▁kind	-6.96157
▁probably	-6.96157
▁might	-6.97046
▁seems	-6.97943
▁moment	-6.98848
▁real	-6.98848
▁covid	-6.99761
▁finally	-6.99761
▁high	-6.99761
▁side	-6.99761
▁old	-7.00683
▁therapist	-7.00683
▁stay	-7.01613
▁bit	-7.02552
▁situation	-7.02552
▁brain	-7.035
▁least	-7.035
▁sorry	-7.035
▁4	-7.04457
▁due	-7.04457
▁mom	-7.05423
▁sad	-7.05423
▁took	-7.05423
▁fine	-7.06399
▁different	-7.08379
▁honestly	-7.08379
▁literally	-7.09384
▁mean	-7.09384
▁completely	-7.10399
▁leave	-7.10399
▁room	-7.10399
▁stuff	-7.10399
▁college	-7.11425
▁constantly	-7.12461
▁remember	-7.12461
▁afraid	-7.13508
▁money	-7.13508
▁yet	-7.14567
▁call	-7.15636
▁change	-7.15636
▁happen	-7.15636
▁looking	-7.15636
▁seem	-7.15636
▁5	-7.16717
▁starting	-7.16717
▁effect	-7.1781
▁worst	-7.18915
▁came	-7.20032
▁found	-7.20032
▁matter	-7.20032
▁usually	-7.20032
▁class	-7.21162
▁gonna	-7.21162
▁stupid	-7.21162
▁minute	-7.22305
▁read	-7.22305
▁saying	-7.22305
▁great	-7.23461
▁diagnosed	-7.24631
▁everyday	-7.24631
▁others	-7.24631
▁u	-7.24631
▁weird	-7.24631
▁worry	-7.24631
▁1	-7.25814
▁basically	-7.25814
▁cant	-7.25814
▁close	-7.25814
▁eat	-7.25814
▁gone	-7.25814
▁gotten	-7.25814
▁okay	-7.25814
▁telling	-7.25814
▁ask	-7.27012
▁deal	-7.27012
▁idk	-7.27012
▁may	-7.27012
▁morning	-7.27012
▁question	-7.27012
▁idea	-7.28224
▁second	-7.28224
▁together	-7.28224
▁fuck	-7.29451
▁kid	-7.29451
▁break	-7.30693
▁guess	-7.30693
▁stress	-7.30693
▁full	-7.33225
▁hit	-7.33225
▁struggling	-7.33225
▁10	-7.34516
▁become	-7.34516
▁kill	-7.34516
▁sound	-7.34516
▁worried	-7.34516
▁big	-7.35823
▁future	-7.35823
▁helped	-7.35823
▁control	-7.37147
▁mother	-7.37147
▁dad	-7.3849
▁thank	-7.3849
▁barely	-7.3985
▁far	-7.3985
▁grade	-7.3985
▁coming	-7.41229
▁currently	-7.41229
▁face	-7.41229
▁soon	-7.41229
▁suicidal	-7.42628
▁wanna	-7.42628
▁chest	-7.44047
▁especially	-7.44047
▁game	-7.44047
▁wake	-7.44047
▁asked	-7.46945
▁calm	-7.46945
▁death	-7.46945
▁eating	-7.46945
▁half	-7.46945
▁needed	-7.46945
▁super	-7.46945
▁girl	-7.48427
▁negative	-7.48427
▁severe	-7.48427
▁decided	-7.49931
▁nice	-7.49931
▁open	-7.49931
▁stuck	-7.49931
▁food	-7.51457
▁online	-7.51457
▁psychiatrist	-7.51457
▁word	-7.51457
▁cut	-7.53008
▁ended	-7.53008
▁fact	-7.53008
▁later	-7.53008
▁phone	-7.53008
▁state	-7.53008
▁stopped	-7.53008
▁test	-7.53008
▁x200b	-7.53008
▁called	-7.54583
▁gave	-7.54583
▁low	-7.54583
▁thanks	-7.54583
▁use	-7.54583
▁disorder	-7.56183
▁hear	-7.56183
▁hi	-7.56183
▁le	-7.56183
▁outside	-7.56183
▁sense	-7.56183
▁support	-7.56183
▁believe	-7.57809
▁extremely	-7.57809
▁girlfriend	-7.57809
▁hand	-7.57809
▁happens	-7.57809
▁dead	-7.59462
▁dealing	-7.59462
▁kinda	-7.59462
▁move	-7.59462
▁share	-7.59462
▁suck	-7.59462
▁tip	-7.59462
▁6	-7.61142
▁crazy	-7.61142
▁energy	-7.61142
▁group	-7.61142
▁plan	-7.61142
▁seeing	-7.61142
▁small	-7.61142
▁struggle	-7.61142
▁worked	-7.61142
▁daily	-7.62852
▁focus	-7.62852
▁hell	-7.62852
▁inside	-7.62852
▁instead	-7.62852
▁reading	-7.62852
▁age	-7.64591
▁car	-7.64591
▁horrible	-7.64591
▁often	-7.64591
▁walk	-7.64591
▁conversation	-7.66361
▁course	-7.66361
▁emotion	-7.66361
▁eye	-7.66361
▁reddit	-7.66361
▁turn	-7.66361
▁single	-7.68163
▁stomach	-7.68163
▁terrified	-7.68163
▁video	-7.68163
▁watching	-7.68163
▁absolutely	-7.69998
▁awful	-7.69998
▁fight	-7.69998
▁free	-7.69998
▁ive	-7.69998
▁miss	-7.69998
▁partner	-7.69998
▁pay	-7.69998
▁quite	-7.69998
▁study	-7.69998
▁child	-7.71867
▁fun	-7.71867
▁longer	-7.71867
▁pandemic	-7.71867
▁show	-7.71867
▁suicide	-7.71867
▁trigger	-7.71867
▁20	-7.73772
▁asking	-7.73772
▁fall	-7.73772
▁motivation	-7.73772
▁noticed	-7.73772
▁ok	-7.73772
▁sister	-7.73772
▁terrible	-7.73772
▁weight	-7.73772
▁30	-7.75714
▁chance	-7.75714
▁constant	-7.75714
▁episode	-7.75714
▁man	-7.75714
▁nervous	-7.75714
▁nobody	-7.75714
▁physical	-7.75714
▁sit	-7.75714
▁suffer	-7.75714
▁appointment	-7.77694
▁boyfriend	-7.77694
▁yesterday	-7.77694
▁blood	-7.79714
▁brother	-7.79714
▁entire	-7.79714
▁giving	-7.79714
▁hey	-7.79714
▁hold	-7.79714
▁saw	-7.79714
▁wanting	-7.79714
▁whenever	-7.79714
▁breathing	-7.81776
▁early	-7.81776
▁empty	-7.81776
▁happening	-7.81776
▁late	-7.81776
▁lose	-7.81776
▁mentally	-7.81776
▁seen	-7.81776
▁stressed	-7.81776
▁three	-7.81776
▁tomorrow	-7.81776
▁truly	-7.81776
▁however	-7.83881
▁suffering	-7.83881
▁wondering	-7.83881
▁writing	-7.83881
▁comfortable	-7.86032
▁enjoy	-7.86032
▁eventually	-7.86032
▁fast	-7.86032
▁fix	-7.86032
▁knew	-7.86032
▁pill	-7.86032
▁possible	-7.86032
▁rather	-7.86032
▁sort	-7.86032
▁supposed	-7.86032
▁whatever	-7.86032
▁write	-7.86032
▁cannot	-7.8823
▁deep	-7.8823
▁dose	-7.8823
▁forward	-7.8823
▁given	-7.8823
▁play	-7.8823
▁prescribed	-7.8823
▁spend	-7.8823
▁story	-7.8823
▁worth	-7.8823
▁8	-7.90477
▁answer	-7.90477
▁dog	-7.90477
▁lately	-7.90477
▁rest	-7.90477
▁taken	-7.90477
▁water	-7.90477
▁anyway	-7.92776
▁difficult	-7.92776
▁exercise	-7.92776
▁helpful	-7.92776
▁kept	-7.92776
▁ocd	-7.92776
▁playing	-7.92776
▁sitting	-7.92776
▁watch	-7.92776
▁breath	-7.95129
▁broke	-7.95129
▁date	-7.95129
▁dream	-7.95129
▁drink	-7.95129
▁handle	-7.95129
▁hospital	-7.95129
▁lonely	-7.95129
▁losing	-7.95129
▁moved	-7.95129
▁posting	-7.95129
▁related	-7.95129
▁run	-7.95129
▁semester	-7.95129
▁similar	-7.95129
▁spent	-7.95129
▁step	-7.95129
▁uncomfortable	-7.95129
▁angry	-7.97539
▁example	-7.97539
▁happiness	-7.97539
▁healthy	-7.97539
▁hello	-7.97539
▁option	-7.97539
▁term	-7.97539
▁antidepressant	-8.00008
▁attention	-8.00008
▁country	-8.00008
▁fucked	-8.00008
▁physically	-8.00008
▁sleeping	-8.00008
▁top	-8.00008
▁behind	-8.0254
▁comment	-8.0254
▁knowing	-8.0254
▁meet	-8.0254
▁mistake	-8.0254
▁notice	-8.0254
▁safe	-8.0254
▁short	-8.0254
▁vaccine	-8.0254
▁company	-8.05137
▁door	-8.05137
▁easy	-8.05137
▁human	-8.05137
▁level	-8.05137
▁met	-8.05137
▁quit	-8.05137
▁seriously	-8.05137
▁several	-8.05137
▁alive	-8.07804
▁drive	-8.07804
▁experienced	-8.07804
▁explain	-8.07804
▁http	-8.07804
▁loved	-8.07804
▁mine	-8.07804
▁mostly	-8.07804
▁music	-8.07804
▁random	-8.07804
▁trust	-8.07804
▁act	-8.10544
▁became	-8.10544
▁birthday	-8.10544
▁bring	-8.10544
▁case	-8.10544
▁god	-8.10544
▁helping	-8.10544
▁lack	-8.10544
▁mad	-8.10544
▁message	-8.10544
▁oh	-8.10544
▁pas	-8.10544
▁speak	-8.10544
▁student	-8.10544
▁university	-8.10544
▁voice	-8.10544
▁waiting	-8.10544
▁worrying	-8.10544
▁attempt	-8.13361
▁avoid	-8.13361
▁check	-8.13361
▁cold	-8.13361
▁dying	-8.13361
▁father	-8.13361
▁forever	-8.13361
▁front	-8.13361
▁general	-8.13361
▁huge	-8.13361
▁illness	-8.13361
▁important	-8.13361
▁leg	-8.13361
▁mess	-8.13361
▁movie	-8.13361
▁realize	-8.13361
▁strong	-8.13361
▁suddenly	-8.13361
▁whether	-8.13361
▁yes	-8.13361
▁15	-8.1626
▁breathe	-8.1626
▁contact	-8.1626
▁except	-8.1626
▁forget	-8.1626
▁heard	-8.1626
▁hole	-8.1626
▁lie	-8.1626
▁managed	-8.1626
▁mood	-8.1626
▁period	-8.1626
▁reality	-8.1626
▁realized	-8.1626
▁sent	-8.1626
▁shaking	-8.1626
▁towards	-8.1626
▁useless	-8.1626
▁wait	-8.1626
▁young	-8.1626
▁along	-8.19245
▁anybody	-8.19245
▁apart	-8.19245
▁asleep	-8.19245
▁definitely	-8.19245
▁deserve	-8.19245
▁drug	-8.19245
▁experiencing	-8.19245
▁fit	-8.19245
▁interest	-8.19245
▁joke	-8.19245
▁miserable	-8.19245
▁personal	-8.19245
▁reach	-8.19245
▁running	-8.19245
▁simple	-8.19245
▁somehow	-8.19245
▁talked	-8.19245
▁woke	-8.19245
▁although	-8.22322
▁amount	-8.22322
▁aware	-8.22322
▁continue	-8.22322
▁cope	-8.22322
▁effort	-8.22322
▁escape	-8.22322
▁exhausted	-8.22322
▁finding	-8.22322
▁learn	-8.22322
▁leaving	-8.22322
▁memory	-8.22322
▁middle	-8.22322
▁near	-8.22322
▁pressure	-8.22322
▁seemed	-8.22322
▁serious	-8.22322
▁simply	-8.22322
▁throughout	-8.22322
▁tough	-8.22322
▁turned	-8.22322
▁using	-8.22322
▁becoming	-8.25497
▁burden	-8.25497
▁career	-8.25497
▁certain	-8.25497
▁choice	-8.25497
▁dark	-8.25497
▁er	-8.25497
▁exam	-8.25497
▁fault	-8.25497
▁gad	-8.25497
▁guilty	-8.25497
▁listen	-8.25497
▁moving	-8.25497
▁numb	-8.25497
▁shitty	-8.25497
▁sign	-8.25497
▁stand	-8.25497
▁summer	-8.25497
▁tear	-8.25497
▁type	-8.25497
▁adult	-8.28776
▁appreciated	-8.28776
▁began	-8.28776
▁book	-8.28776
▁caused	-8.28776
▁despite	-8.28776
▁drinking	-8.28776
▁emotional	-8.28776
▁excited	-8.28776
▁harm	-8.28776
▁imagine	-8.28776
▁immediately	-8.28776
▁killing	-8.28776
▁listening	-8.28776
▁lol	-8.28776
▁manage	-8.28776
▁multiple	-8.28776
▁older	-8.28776
▁paranoid	-8.28776
▁positive	-8.28776
▁proud	-8.28776
▁relate	-8.28776
▁relax	-8.28776
▁triggered	-8.28776
▁twice	-8.28776
▁within	-8.28776
▁busy	-8.32166
▁cycle	-8.32166
▁dumb	-8.32166
▁event	-8.32166
▁exactly	-8.32166
▁figure	-8.32166
▁force	-8.32166
▁form	-8.32166
▁genuinely	-8.32166
▁ill	-8.32166
▁lazy	-8.32166
▁none	-8.32166
▁passed	-8.32166
▁push	-8.32166
▁result	-8.32166
▁shower	-8.32166
▁slowly	-8.32166
▁space	-8.32166
▁teacher	-8.32166
▁text	-8.32166
▁unfortunately	-8.32166
▁wife	-8.32166
▁18	-8.35676
▁amazing	-8.35676
▁app	-8.35676
▁area	-8.35676
▁changed	-8.35676
▁died	-8.35676
▁harder	-8.35676
▁hoping	-8.35676
▁major	-8.35676
▁must	-8.35676
▁peace	-8.35676
▁present	-8.35676
▁sadness	-8.35676
▁shut	-8.35676
▁skill	-8.35676
▁sub	-8.35676
▁tonight	-8.35676
▁waking	-8.35676
▁waste	-8.35676
▁yeah	-8.35676
▁16	-8.39312
▁annoying	-8.39312
▁anyways	-8.39312
▁bos	-8.39312
▁causing	-8.39312
▁childhood	-8.39312
▁driving	-8.39312
▁hang	-8.39312
▁interview	-8.39312
▁name	-8.39312
▁offer	-8.39312
▁overthinking	-8.39312
▁session	-8.39312
▁skin	-8.39312
▁toxic	-8.39312
▁true	-8.39312
▁upset	-8.39312
▁weekend	-8.39312
▁wonder	-8.39312
▁2020	-8.43086
▁24	-8.43086
▁anger	-8.43086
▁badly	-8.43086
▁comfort	-8.43086
▁cried	-8.43086
▁damn	-8.43086
▁describe	-8.43086
▁finish	-8.43086
▁hobby	-8.43086
▁incredibly	-8.43086
▁meant	-8.43086
▁missed	-8.43086
▁nowhere	-8.43086
▁piece	-8.43086
▁process	-8.43086
▁putting	-8.43086
▁selfish	-8.43086
▁somewhere	-8.43086
▁straight	-8.43086
▁teeth	-8.43086
▁thats	-8.43086
▁treatment	-8.43086
▁alcohol	-8.47009
▁apartment	-8.47009
▁cat	-8.47009
▁common	-8.47009
▁confidence	-8.47009
▁detail	-8.47009
▁everytime	-8.47009
▁fake	-8.47009
▁final	-8.47009
▁foot	-8.47009
▁freaking	-8.47009
▁fully	-8.47009
▁lead	-8.47009
▁nausea	-8.47009
▁overwhelmed	-8.47009
▁personality	-8.47009
▁response	-8.47009
▁throat	-8.47009
▁truth	-8.47009
▁unable	-8.47009
▁younger	-8.47009
▁zoloft	-8.47009
▁actual	-8.51091
▁alright	-8.51091
▁bunch	-8.51091
▁community	-8.51091
▁degree	-8.51091
▁function	-8.51091
▁improve	-8.51091
▁including	-8.51091
▁intense	-8.51091
▁letting	-8.51091
▁luck	-8.51091
▁manager	-8.51091
▁medical	-8.51091
▁overcome	-8.51091
▁painful	-8.51091
▁purpose	-8.51091
▁r	-8.51091
▁return	-8.51091
▁set	-8.51091
▁shake	-8.51091
▁smile	-8.51091
▁subreddit	-8.51091
▁system	-8.51091
▁task	-8.51091
▁tho	-8.51091
▁weak	-8.51091
▁50	-8.55347
▁accept	-8.55347
▁allowed	-8.55347
▁bc	-8.55347
▁bother	-8.55347
▁confident	-8.55347
▁consider	-8.55347
▁depressive	-8.55347
▁edit	-8.55347
▁emptypost	-8.55347
▁failed	-8.55347
▁failing	-8.55347
▁gym	-8.55347
▁keeping	-8.55347
▁light	-8.55347
▁looked	-8.55347
▁medicine	-8.55347
▁office	-8.55347
▁quickly	-8.55347
▁risk	-8.55347
▁shot	-8.55347
▁trauma	-8.55347
▁treat	-8.55347
▁understanding	-8.55347
▁12	-8.59792
▁abusive	-8.59792
▁anywhere	-8.59792
▁beginning	-8.59792
▁blame	-8.59792
▁born	-8.59792
▁cancer	-8.59792
▁condition	-8.59792
▁considering	-8.59792
▁dating	-8.59792
▁diagnosis	-8.59792
▁difference	-8.59792
▁easily	-8.59792
▁ex	-8.59792
▁failure	-8.59792
▁fell	-8.59792
▁goal	-8.59792
▁husband	-8.59792
▁interested	-8.59792
▁internet	-8.59792
▁intrusive	-8.59792
▁known	-8.59792
▁lay	-8.59792
▁lexapro	-8.59792
▁lower	-8.59792
▁member	-8.59792
▁per	-8.59792
▁ready	-8.59792
▁rough	-8.59792
▁save	-8.59792
▁speaking	-8.59792
▁specific	-8.59792
▁spiral	-8.59792
▁store	-8.59792
▁studying	-8.59792
▁supportive	-8.59792
▁touch	-8.59792
▁usual	-8.59792
▁vent	-8.59792
▁worthless	-8.59792
▁across	-8.64444
▁affect	-8.64444
▁appreciate	-8.64444
▁arm	-8.64444
▁begin	-8.64444
▁com	-8.64444
▁complete	-8.64444
▁decision	-8.64444
▁doubt	-8.64444
▁dr	-8.64444
▁emotionally	-8.64444
▁english	-8.64444
▁excuse	-8.64444
▁exist	-8.64444
▁falling	-8.64444
▁forced	-8.64444
▁friendship	-8.64444
▁guilt	-8.64444
▁hair	-8.64444
▁hurting	-8.64444
▁liked	-8.64444
▁lockdown	-8.64444
▁loss	-8.64444
▁lying	-8.64444
▁mask	-8.64444
▁meeting	-8.64444
▁messed	-8.64444
▁mg	-8.64444
▁normally	-8.64444
▁order	-8.64444
▁overall	-8.64444
▁prescription	-8.64444
▁quiet	-8.64444
▁racing	-8.64444
▁regret	-8.64444
▁solution	-8.64444
▁somewhat	-8.64444
▁son	-8.64444
▁staying	-8.64444
▁struggled	-8.64444
▁suffered	-8.64444
▁till	-8.64444
▁title	-8.64444
▁trapped	-8.64444
▁unless	-8.64444
▁visit	-8.64444
▁walking	-8.64444
▁youtube	-8.64444
▁ability	-8.69323
▁awkward	-8.69323
▁baby	-8.69323
▁besides	-8.69323
▁calling	-8.69323
▁clear	-8.69323
▁cuz	-8.69323
▁desire	-8.69323
▁didnt	-8.69323
▁dread	-8.69323
▁fail	-8.69323
▁fat	-8.69323
▁forgot	-8.69323
▁funny	-8.69323
▁headache	-8.69323
▁honest	-8.69323
▁ignore	-8.69323
▁joy	-8.69323
▁missing	-8.69323
▁nightmare	-8.69323
▁obviously	-8.69323
▁patient	-8.69323
▁practice	-8.69323
▁professional	-8.69323
▁project	-8.69323
▁psychologist	-8.69323
▁scary	-8.69323
▁society	-8.69323
▁soul	-8.69323
▁ssri	-8.69323
▁successful	-8.69323
▁trouble	-8.69323
▁urge	-8.69323
▁woman	-8.69323
▁23	-8.74452
▁account	-8.74452
▁adhd	-8.74452
▁breakdown	-8.74452
▁breaking	-8.74452
▁caffeine	-8.74452
▁clothes	-8.74452
▁computer	-8.74452
▁coping	-8.74452
▁current	-8.74452
▁cutting	-8.74452
▁dealt	-8.74452
▁easier	-8.74452
▁everybody	-8.74452
▁expecting	-8.74452
▁extreme	-8.74452
▁fighting	-8.74452
▁finger	-8.74452
▁frustrated	-8.74452
▁google	-8.74452
▁hopefully	-8.74452
▁impossible	-8.74452
▁insane	-8.74452
▁laugh	-8.74452
▁learned	-8.74452
▁learning	-8.74452
▁male	-8.74452
▁pound	-8.74452
▁rate	-8.74452
▁reaction	-8.74452
▁relief	-8.74452
▁rid	-8.74452
▁sensation	-8.74452
▁site	-8.74452
▁slow	-8.74452
▁smart	-8.74452
▁spot	-8.74452
▁stressful	-8.74452
▁suggestion	-8.74452
▁ton	-8.74452
▁topic	-8.74452
▁ugly	-8.74452
▁uni	-8.74452
▁view	-8.74452
▁wellbutrin	-8.74452
▁withdrawal	-8.74452
▁21	-8.79859
▁22	-8.79859
▁add	-8.79859
▁advance	-8.79859
▁afford	-8.79859
▁anti	-8.79859
▁assignment	-8.79859
▁bullshit	-8.79859
▁caught	-8.79859
▁clearly	-8.79859
▁confused	-8.79859
▁context	-8.79859
▁email	-8.79859
▁embarrassed	-8.79859
▁grew	-8.79859
▁habit	-8.79859
▁hated	-8.79859
▁hot	-8.79859
▁lived	-8.79859
▁mention	-8.79859
▁mild	-8.79859
▁nearly	-8.79859
▁noise	-8.79859
▁opportunity	-8.79859
▁overwhelming	-8.79859
▁passing	-8.79859
▁pick	-8.79859
▁poor	-8.79859
▁rarely	-8.79859
▁ruin	-8.79859
▁sex	-8.79859
▁sudden	-8.79859
▁trip	-8.79859
▁wear	-8.79859
▁11	-8.85575
▁14	-8.85575
▁25	-8.85575
▁beat	-8.85575
▁brought	-8.85575
▁build	-8.85575
▁building	-8.85575
▁checked	-8.85575
▁convinced	-8.85575
▁cover	-8.85575
▁crap	-8.85575
▁drained	-8.85575
▁earlier	-8.85575
▁ending	-8.85575
▁expect	-8.85575
▁extra	-8.85575
▁f	-8.85575
▁following	-8.85575
▁gain	-8.85575
▁hanging	-8.85575
▁irrational	-8.85575
▁laying	-8.85575
▁mouth	-8.85575
▁mum	-8.85575
▁muscle	-8.85575
▁nail	-8.85575
▁opinion	-8.85575
▁pathetic	-8.85575
▁personally	-8.85575
▁plus	-8.85575
▁posted	-8.85575
▁productive	-8.85575
▁progress	-8.85575
▁properly	-8.85575
▁ptsd	-8.85575
▁public	-8.85575
▁rant	-8.85575
▁rude	-8.85575
▁september	-8.85575
▁shift	-8.85575
▁sibling	-8.85575
▁smoking	-8.85575
▁song	-8.85575
▁specifically	-8.85575
▁stable	-8.85575
▁various	-8.85575
▁violent	-8.85575
▁wall	-8.85575
▁wonderful	-8.85575
▁www	-8.85575
▁100	-8.91637
▁absolute	-8.91637
▁accepted	-8.91637
▁argument	-8.91637
▁aunt	-8.91637
▁background	-8.91637
▁beyond	-8.91637
▁bill	-8.91637
▁black	-8.91637
▁broken	-8.91637
▁buy	-8.91637
▁changing	-8.91637
▁chat	-8.91637
▁crisis	-8.91637
▁dizzy	-8.91637
▁everywhere	-8.91637
▁fair	-8.91637
▁filled	-8.91637
▁freak	-8.91637
▁greatly	-8.91637
▁growing	-8.91637
▁hearing	-8.91637
▁heavy	-8.91637
▁information	-8.91637
▁january	-8.91637
▁likely	-8.91637
▁list	-8.91637
▁main	-8.91637
▁managing	-8.91637
▁medium	-8.91637
▁mentioned	-8.91637
▁mid	-8.91637
▁neck	-8.91637
▁nerve	-8.91637
▁non	-8.91637
▁nurse	-8.91637
▁panicking	-8.91637
▁perfect	-8.91637
▁possibly	-8.91637
▁potential	-8.91637
▁pretend	-8.91637
▁rule	-8.91637
▁smoke	-8.91637
▁stayed	-8.91637
▁throw	-8.91637
▁throwing	-8.91637
▁allow	-8.98091
▁apparently	-8.98091
▁aspect	-8.98091
▁assume	-8.98091
▁ball	-8.98091
▁based	-8.98091
▁bought	-8.98091
▁caring	-8.98091
▁cbt	-8.98091
▁clean	-8.98091
▁commit	-8.98091
▁conscious	-8.98091
▁considered	-8.98091
▁deeper	-8.98091
▁developed	-8.98091
▁dosage	-8.98091
▁drop	-8.98091
▁dropped	-8.98091
▁ear	-8.98091
▁field	-8.98091
▁fired	-8.98091
▁four	-8.98091
▁ghost	-8.98091
▁haha	-8.98091
▁history	-8.98091
▁interaction	-8.98091
▁judge	-8.98091
▁loud	-8.98091
▁loving	-8.98091
▁march	-8.98091
▁married	-8.98091
▁october	-8.98091
▁opening	-8.98091
▁paper	-8.98091
▁party	-8.98091
▁planning	-8.98091
▁pm	-8.98091
▁quick	-8.98091
▁restaurant	-8.98091
▁rn	-8.98091
▁roof	-8.98091
▁sat	-8.98091
▁scare	-8.98091
▁schedule	-8.98091
▁sentence	-8.98091
▁shoulder	-8.98091
▁shy	-8.98091
▁socially	-8.98091
▁staring	-8.98091
▁success	-8.98091
▁switched	-8.98091
▁tend	-8.98091
▁tested	-8.98091
▁vacation	-8.98091
▁value	-8.98091
▁wasting	-8.98091
▁weed	-8.98091
▁welcome	-8.98091
▁wont	-8.98091
▁wrote	-8.98091
▁xanax	-8.98091
▁access	-9.0499
▁action	-9.0499
▁anytime	-9.0499
▁april	-9.0499
▁art	-9.0499
▁aside	-9.0499
▁b	-9.0499
▁bathroom	-9.0499
▁benefit	-9.0499
▁bottle	-9.0499
▁burn	-9.0499
▁card	-9.0499
▁choose	-9.0499
▁chore	-9.0499
▁chronic	-9.0499
▁city	-9.0499
▁compared	-9.0499
▁connect	-9.0499
▁connection	-9.0499
▁coworkers	-9.0499
▁creative	-9.0499
▁crippling	-9.0499
▁crush	-9.0499
▁curious	-9.0499
▁depressant	-9.0499
▁dinner	-9.0499
▁dizziness	-9.0499
▁edge	-9.0499
▁exact	-9.0499
▁existence	-9.0499
▁faking	-9.0499
▁fiance	-9.0499
▁floor	-9.0499
▁follow	-9.0499
▁fresh	-9.0499
▁frustrating	-9.0499
▁generally	-9.0499
▁graduate	-9.0499
▁halfway	-9.0499
▁hardly	-9.0499
▁hide	-9.0499
▁holding	-9.0499
▁hungry	-9.0499
▁id	-9.0499
▁image	-9.0499
▁law	-9.0499
▁letter	-9.0499
▁loneliness	-9.0499
▁mainly	-9.0499
▁majority	-9.0499
▁meaning	-9.0499
▁odd	-9.0499
▁onto	-9.0499
▁perfectly	-9.0499
▁planned	-9.0499
▁pointless	-9.0499
▁position	-9.0499
▁reply	-9.0499
▁rush	-9.0499
▁scream	-9.0499
▁seek	-9.0499
▁somebody	-9.0499
▁sore	-9.0499
▁spiraling	-9.0499
▁strength	-9.0499
▁sunday	-9.0499
▁thousand	-9.0499
▁treated	-9.0499
▁turning	-9.0499
▁yell	-9.0499
▁13	-9.12401
▁acting	-9.12401
▁actively	-9.12401
▁addicted	-9.12401
▁apologize	-9.12401
▁applying	-9.12401
▁asshole	-9.12401
▁awareness	-9.12401
▁bored	-9.12401
▁boring	-9.12401
▁bottom	-9.12401
▁bye	-9.12401
▁catch	-9.12401
▁closed	-9.12401
▁closer	-9.12401
▁co	-9.12401
▁daughter	-9.12401
▁depressing	-9.12401
▁disease	-9.12401
▁disgusting	-9.12401
▁enjoyed	-9.12401
▁environment	-9.12401
▁frequently	-9.12401
▁gained	-9.12401
▁grow	-9.12401
▁hug	-9.12401
▁ignored	-9.12401
▁increase	-9.12401
▁insurance	-9.12401
▁irritated	-9.12401
▁j	-9.12401
▁judged	-9.12401
▁kick	-9.12401
▁lesson	-9.12401
▁line	-9.12401
▁lucky	-9.12401
▁marfans	-9.12401
▁mechanism	-9.12401
▁obsessing	-9.12401
▁opened	-9.12401
▁otherwise	-9.12401
▁picture	-9.12401
▁private	-9.12401
▁realised	-9.12401
▁recent	-9.12401
▁refuse	-9.12401
▁responsible	-9.12401
▁rock	-9.12401
▁routine	-9.12401
▁send	-9.12401
▁sensitive	-9.12401
▁shaky	-9.12401
▁showing	-9.12401
▁stick	-9.12401
▁stranger	-9.12401
▁stressing	-9.12401
▁suggested	-9.12401
▁syndrome	-9.12401
▁teen	-9.12401
▁tense	-9.12401
▁vaccinated	-9.12401
▁wasted	-9.12401
▁wearing	-9.12401
▁yelling	-9.12401
▁zero	-9.12401
▁2nd	-9.20405
▁abuse	-9.20405
▁abused	-9.20405
▁ache	-9.20405
▁admit	-9.20405
▁air	-9.20405
▁appetite	-9.20405
▁application	-9.20405
▁ashamed	-9.20405
▁ate	-9.20405
▁autism	-9.20405
▁autistic	-9.20405
▁becomes	-9.20405
▁behavior	-9.20405
▁bf	-9.20405
▁bigger	-9.20405
▁biggest	-9.20405
▁brush	-9.20405
▁buying	-9.20405
▁concerned	-9.20405
▁content	-9.20405
▁couch	-9.20405
▁counselor	-9.20405
▁counter	-9.20405
▁danger	-9.20405
▁distance	-9.20405
▁doc	-9.20405
▁drain	-9.20405
▁drove	-9.20405
▁effective	-9.20405
▁figured	-9.20405
▁fill	-9.20405
▁flat	-9.20405
▁grateful	-9.20405
▁hating	-9.20405
▁heal	-9.20405
▁heat	-9.20405
▁higher	-9.20405
▁increased	-9.20405
▁industry	-9.20405
▁insult	-9.20405
▁juli	-9.20405
▁language	-9.20405
▁leading	-9.20405
▁mark	-9.20405
▁mode	-9.20405
▁monster	-9.20405
▁note	-9.20405
▁noticing	-9.20405
▁opposite	-9.20405
▁p	-9.20405
▁paid	-9.20405
▁paranoia	-9.20405
▁particularly	-9.20405
▁pissed	-9.20405
▁played	-9.20405
▁pull	-9.20405
▁pushed	-9.20405
▁ran	-9.20405
▁recommended	-9.20405
▁research	-9.20405
▁road	-9.20405
▁role	-9.20405
▁scar	-9.20405
▁screaming	-9.20405
▁screw	-9.20405
▁series	-9.20405
▁significant	-9.20405
▁sport	-9.20405
▁strange	-9.20405
▁stronger	-9.20405
▁taper	-9.20405
▁thread	-9.20405
▁tightness	-9.20405
▁totally	-9.20405
▁travel	-9.20405
▁typing	-9.20405
▁unbearable	-9.20405
▁understands	-9.20405
▁watched	-9.20405
▁worker	-9.20405
▁yelled	-9.20405
▁accepting	-9.29107
▁accident	-9.29107
▁active	-9.29107
▁activity	-9.29107
▁afterwards	-9.29107
▁ahead	-9.29107
▁attacked	-9.29107
▁august	-9.29107
▁average	-9.29107
▁battle	-9.29107
▁believing	-9.29107
▁bipolar	-9.29107
▁bothered	-9.29107
▁bringing	-9.29107
▁brings	-9.29107
▁checking	-9.29107
▁circle	-9.29107
▁cool	-9.29107
▁counseling	-9.29107
▁cousin	-9.29107
▁cure	-9.29107
▁desperately	-9.29107
▁destroy	-9.29107
▁direction	-9.29107
▁disappear	-9.29107
▁disappointment	-9.29107
▁dressed	-9.29107
▁dry	-9.29107
▁education	-9.29107
▁embarrassing	-9.29107
▁faster	-9.29107
▁focused	-9.29107
▁focusing	-9.29107
▁gabapentin	-9.29107
▁glad	-9.29107
▁graduated	-9.29107
▁graduation	-9.29107
▁grandfather	-9.29107
▁harming	-9.29107
▁held	-9.29107
▁hiding	-9.29107
▁homeless	-9.29107
▁idiot	-9.29107
▁instantly	-9.29107
▁isnt	-9.29107
▁journey	-9.29107
▁klonopin	-9.29107
▁large	-9.29107
▁loser	-9.29107
▁lunch	-9.29107
▁massive	-9.29107
▁meal	-9.29107
▁method	-9.29107
▁minor	-9.29107
▁monday	-9.29107
▁overthink	-9.29107
▁perspective	-9.29107
▁power	-9.29107
▁psych	-9.29107
▁quality	-9.29107
▁quarantine	-9.29107
▁randomly	-9.29107
▁regarding	-9.29107
▁regular	-9.29107
▁repeat	-9.29107
▁responsibility	-9.29107
▁roommate	-9.29107
▁root	-9.29107
▁sale	-9.29107
▁saving	-9.29107
▁se	-9.29107
▁source	-9.29107
▁special	-9.29107
▁stopping	-9.29107
▁street	-9.29107
▁surgery	-9.29107
▁survive	-9.29107
▁texted	-9.29107
▁texting	-9.29107
▁tldr	-9.29107
▁total	-9.29107
▁track	-9.29107
▁tv	-9.29107
▁unemployed	-9.29107
▁w	-9.29107
▁walked	-9.29107
▁wave	-9.29107
▁willing	-9.29107
▁win	-9.29107
▁x	-9.29107
▁40	-9.38638
▁academic	-9.38638
▁accomplish	-9.38638
▁af	-9.38638
▁approach	-9.38638
▁available	-9.38638
▁beautiful	-9.38638
▁bedroom	-9.38638
▁bitch	-9.38638
▁brief	-9.38638
▁built	-9.38638
▁c	-9.38638
▁center	-9.38638
▁character	-9.38638
▁clue	-9.38638
▁concentrate	-9.38638
▁courage	-9.38638
▁damage	-9.38638
▁deadline	-9.38638
▁debilitating	-9.38638
▁deeply	-9.38638
▁dentist	-9.38638
▁derealization	-9.38638
▁desperate	-9.38638
▁difficulty	-9.38638
▁disappointed	-9.38638
▁doom	-9.38638
▁dreading	-9.38638
▁endless	-9.38638
▁enjoying	-9.38638
▁esteem	-9.38638
▁expectation	-9.38638
▁express	-9.38638
▁february	-9.38638
▁financial	-9.38638
▁finished	-9.38638
▁five	-9.38638
▁friday	-9.38638
▁friendly	-9.38638
▁functioning	-9.38638
▁gift	-9.38638
▁grandma	-9.38638
▁hardest	-9.38638
▁heavily	-9.38638
▁hopeless	-9.38638
▁impact	-9.38638
▁imposter	-9.38638
▁incident	-9.38638
▁insomnia	-9.38638
▁isolation	-9.38638
▁june	-9.38638
▁kicked	-9.38638
▁leaf	-9.38638
▁limited	-9.38638
▁loose	-9.38638
▁luckily	-9.38638
▁marry	-9.38638
▁master	-9.38638
▁math	-9.38638
▁mile	-9.38638
▁minimum	-9.38638
▁nauseous	-9.38638
▁nose	-9.38638
▁number	-9.38638
▁numbness	-9.38638
▁palpitation	-9.38638
▁passion	-9.38638
▁phobia	-9.38638
▁pushing	-9.38638
▁raised	-9.38638
▁receive	-9.38638
▁recognize	-9.38638
▁recovery	-9.38638
▁religion	-9.38638
▁requires	-9.38638
▁respect	-9.38638
▁ruining	-9.38638
▁scrolling	-9.38638
▁service	-9.38638
▁shame	-9.38638
▁silence	-9.38638
▁silent	-9.38638
▁slightly	-9.38638
▁sooner	-9.38638
▁spending	-9.38638
▁stroke	-9.38638
▁subject	-9.38638
▁surprise	-9.38638
▁surrounded	-9.38638
▁temporary	-9.38638
▁terrifying	-9.38638
▁thankfully	-9.38638
▁tight	-9.38638
▁tl	-9.38638
▁training	-9.38638
▁traumatic	-9.38638
▁v	-9.38638
▁wound	-9.38638
▁0	-9.49174
▁5mg	-9.49174
▁accidentally	-9.49174
▁adrenaline	-9.49174
▁affected	-9.49174
▁allergic	-9.49174
▁apps	-9.49174
▁asian	-9.49174
▁assessment	-9.49174
▁ativan	-9.49174
▁attracted	-9.49174
▁awake	-9.49174
▁beating	-9.49174
▁bird	-9.49174
▁blocked	-9.49174
▁bond	-9.49174
▁btw	-9.49174
▁bullied	-9.49174
▁business	-9.49174
▁camera	-9.49174
▁cleaning	-9.49174
▁client	-9.49174
▁complaint	-9.49174
▁concern	-9.49174
▁confusing	-9.49174
▁continued	-9.49174
▁convince	-9.49174
▁cost	-9.49174
▁crawl	-9.49174
▁create	-9.49174
▁cute	-9.49174
▁decent	-9.49174
▁destroyed	-9.49174
▁distract	-9.49174
▁dude	-9.49174
▁enter	-9.49174
▁explaining	-9.49174
▁faced	-9.49174
▁fatigue	-9.49174
▁flight	-9.49174
▁fog	-9.49174
▁forcing	-9.49174
▁generalized	-9.49174
▁genuine	-9.49174
▁gf	-9.49174
▁glass	-9.49174
▁grammar	-9.49174
▁hatred	-9.49174
▁homework	-9.49174
▁hr	-9.49174
▁impending	-9.49174
▁insecurity	-9.49174
▁interesting	-9.49174
▁introvert	-9.49174
▁isolated	-9.49174
▁iv	-9.49174
▁jealous	-9.49174
▁killed	-9.49174
▁led	-9.49174
▁literal	-9.49174
▁load	-9.49174
▁loop	-9.49174
▁meaningless	-9.49174
▁min	-9.49174
▁moderator	-9.49174
▁nasty	-9.49174
▁naturally	-9.49174
▁needing	-9.49174
▁needle	-9.49174
▁neither	-9.49174
▁news	-9.49174
▁obvious	-9.49174
▁particular	-9.49174
▁paying	-9.49174
▁pleasure	-9.49174
▁plenty	-9.49174
▁pop	-9.49174
▁porn	-9.49174
▁pretending	-9.49174
▁previous	-9.49174
▁prior	-9.49174
▁proper	-9.49174
▁pulled	-9.49174
▁rare	-9.49174
▁reaching	-9.49174
▁react	-9.49174
▁realizing	-9.49174
▁received	-9.49174
▁regard	-9.49174
▁relaxed	-9.49174
▁ruined	-9.49174
▁semi	-9.49174
▁sending	-9.49174
▁setting	-9.49174
▁shes	-9.49174
▁shirt	-9.49174
▁shortness	-9.49174
▁silly	-9.49174
▁sober	-9.49174
▁socializing	-9.49174
▁statement	-9.49174
▁sun	-9.49174
▁suppose	-9.49174
▁sweating	-9.49174
▁tbh	-9.49174
▁third	-9.49174
▁toilet	-9.49174
▁toll	-9.49174
▁torture	-9.49174
▁touching	-9.49174
▁train	-9.49174
▁triggering	-9.49174
▁unit	-9.49174
▁venting	-9.49174
▁ward	-9.49174
▁wind	-9.49174
▁wreck	-9.49174
▁written	-9.49174
▁10mg	-9.60952
▁2021	-9.60952
▁3rd	-9.60952
▁acknowledge	-9.60952
▁added	-9.60952
▁adventure	-9.60952
▁affecting	-9.60952
▁apologized	-9.60952
▁apology	-9.60952
▁appearance	-9.60952
▁apply	-9.60952
▁article	-9.60952
▁attempted	-9.60952
▁avoiding	-9.60952
▁balance	-9.60952
▁bath	-9.60952
▁bearable	-9.60952
▁begging	-9.60952
▁bite	-9.60952
▁blanket	-9.60952
▁blue	-9.60952
▁booked	-9.60952
▁box	-9.60952
▁bright	-9.60952
▁burst	-9.60952
▁capable	-9.60952
▁cared	-9.60952
▁cbd	-9.60952
▁chanel	-9.60952
▁chill	-9.60952
▁cleaned	-9.60952
▁coffee	-9.60952
▁cognitive	-9.60952
▁colleague	-9.60952
▁complaining	-9.60952
▁complicated	-9.60952
▁conclusion	-9.60952
▁conflict	-9.60952
▁consistently	-9.60952
▁consuming	-9.60952
▁correct	-9.60952
▁debt	-9.60952
▁decide	-9.60952
▁depend	-9.60952
▁described	-9.60952
▁destroying	-9.60952
▁disability	-9.60952
▁distant	-9.60952
▁distraction	-9.60952
▁divorced	-9.60952
▁doesnt	-9.60952
▁downhill	-9.60952
▁drank	-9.60952
▁draw	-9.60952
▁drowning	-9.60952
▁e	-9.60952
▁ease	-9.60952
▁emergency	-9.60952
▁encouragement	-9.60952
▁exhausting	-9.60952
▁false	-9.60952
▁fire	-9.60952
▁folk	-9.60952
▁followed	-9.60952
▁forgotten	-9.60952
▁gaming	-9.60952
▁goodbye	-9.60952
▁gp	-9.60952
▁helper	-9.60952
▁highschool	-9.60952
▁identify	-9.60952
▁impacted	-9.60952
▁improvement	-9.60952
▁infection	-9.60952
▁insecure	-9.60952
▁internship	-9.60952
▁jump	-9.60952
▁knee	-9.60952
▁knowledge	-9.60952
▁limit	-9.60952
▁local	-9.60952
▁match	-9.60952
▁meantime	-9.60952
▁meditation	-9.60952
▁mindfulness	-9.60952
▁mirror	-9.60952
▁mirtazapine	-9.60952
▁misery	-9.60952
▁motivated	-9.60952
▁natural	-9.60952
▁negativity	-9.60952
▁nowadays	-9.60952
▁occasion	-9.60952
▁offered	-9.60952
▁official	-9.60952
▁org	-9.60952
▁park	-9.60952
▁pass	-9.60952
▁pcp	-9.60952
▁pfizer	-9.60952
▁pity	-9.60952
▁procedure	-9.60952
▁program	-9.60952
▁provide	-9.60952
▁prozac	-9.60952
▁questioning	-9.60952
▁quitting	-9.60952
▁reached	-9.60952
▁receptionist	-9.60952
▁recommend	-9.60952
▁recover	-9.60952
▁rejection	-9.60952
▁religious	-9.60952
▁resource	-9.60952
▁rich	-9.60952
▁sample	-9.60952
▁scan	-9.60952
▁screwed	-9.60952
▁seeking	-9.60952
▁sexual	-9.60952
▁shell	-9.60952
▁sigh	-9.60952
▁skinny	-9.60952
▁slept	-9.60952
▁snap	-9.60952
▁spark	-9.60952
▁stage	-9.60952
▁surface	-9.60952
▁swear	-9.60952
▁tall	-9.60952
▁taught	-9.60952
▁tea	-9.60952
▁teach	-9.60952
▁team	-9.60952
▁tendency	-9.60952
▁threat	-9.60952
▁threatened	-9.60952
▁threw	-9.60952
▁tingling	-9.60952
▁toe	-9.60952
▁touched	-9.60952
▁tuesday	-9.60952
▁understood	-9.60952
▁unsure	-9.60952
▁upon	-9.60952
▁verge	-9.60952
▁version	-9.60952
▁vitamin	-9.60952
▁wage	-9.60952
▁warning	-9.60952
▁wash	-9.60952
▁wedding	-9.60952
▁whats	-9.60952
▁wise	-9.60952
▁wishing	-9.60952
▁zone	-9.60952
▁1st	-9.74305
▁accomplishment	-9.74305
▁acted	-9.74305
▁advise	-9.74305
▁affirmation	-9.74305
▁agency	-9.74305
▁agreed	-9.74305
▁alot	-9.74305
▁bag	-9.74305
▁basic	-9.74305
▁bat	-9.74305
▁bear	-9.74305
▁begged	-9.74305
▁belief	-9.74305
▁believed	-9.74305
▁benzo	-9.74305
▁birth	-9.74305
▁blah	-9.74305
▁blown	-9.74305
▁blur	-9.74305
▁bothering	-9.74305
▁cancel	-9.74305
▁cardiologist	-9.74305
▁carry	-9.74305
▁celexa	-9.74305
▁certainly	-9.74305
▁cheated	-9.74305
▁classmate	-9.74305
▁combination	-9.74305
▁communicate	-9.74305
▁core	-9.74305
▁countless	-9.74305
▁coworker	-9.74305
▁crack	-9.74305
▁created	-9.74305
▁customer	-9.74305
▁cymbalta	-9.74305
▁darkness	-9.74305
▁develop	-9.74305
▁directly	-9.74305
▁disaster	-9.74305
▁draining	-9.74305
▁dramatic	-9.74305
▁driver	-9.74305
▁drunk	-9.74305
▁ekg	-9.74305
▁evening	-9.74305
▁existential	-9.74305
▁explanation	-9.74305
▁exposed	-9.74305
▁faint	-9.74305
▁fairly	-9.74305
▁favorite	-9.74305
▁former	-9.74305
▁garden	-9.74305
▁gosh	-9.74305
▁gotta	-9.74305
▁graduating	-9.74305
▁green	-9.74305
▁grocery	-9.74305
▁ground	-9.74305
▁guessing	-9.74305
▁gut	-9.74305
▁havent	-9.74305
▁heck	-9.74305
▁helpless	-9.74305
▁hiv	-9.74305
▁hospitalized	-9.74305
▁hundred	-9.74305
▁ideal	-9.74305
▁idek	-9.74305
▁increasing	-9.74305
▁increasingly	-9.74305
▁independent	-9.74305
▁inner	-9.74305
▁insight	-9.74305
▁involved	-9.74305
▁joking	-9.74305
▁junk	-9.74305
▁knot	-9.74305
▁l	-9.74305
▁lasted	-9.74305
▁laughing	-9.74305
▁license	-9.74305
▁link	-9.74305
▁lip	-9.74305
▁locked	-9.74305
▁lowest	-9.74305
▁lung	-9.74305
▁manifest	-9.74305
▁messaged	-9.74305
▁mindset	-9.74305
▁mixed	-9.74305
▁model	-9.74305
▁monitor	-9.74305
▁november	-9.74305
▁occasionally	-9.74305
▁op	-9.74305
▁originally	-9.74305
▁oxygen	-9.74305
▁package	-9.74305
▁parking	-9.74305
▁permanent	-9.74305
▁phase	-9.74305
▁photo	-9.74305
▁picked	-9.74305
▁plate	-9.74305
▁possibility	-9.74305
▁primary	-9.74305
▁promise	-9.74305
▁prove	-9.74305
▁psychological	-9.74305
▁pursue	-9.74305
▁race	-9.74305
▁raise	-9.74305
▁realise	-9.74305
▁reassurance	-9.74305
▁red	-9.74305
▁refused	-9.74305
▁rejected	-9.74305
▁remark	-9.74305
▁replied	-9.74305
▁round	-9.74305
▁scholarship	-9.74305
▁science	-9.74305
▁scratch	-9.74305
▁searching	-9.74305
▁selling	-9.74305
▁separate	-9.74305
▁sh	-9.74305
▁sharing	-9.74305
▁shock	-9.74305
▁shooting	-9.74305
▁shop	-9.74305
▁significantly	-9.74305
▁snack	-9.74305
▁solve	-9.74305
▁speed	-9.74305
▁split	-9.74305
▁stabbing	-9.74305
▁substance	-9.74305
▁surely	-9.74305
▁sweat	-9.74305
▁taste	-9.74305
▁teenager	-9.74305
▁tension	-9.74305
▁terribly	-9.74305
▁thursday	-9.74305
▁thus	-9.74305
▁town	-9.74305
▁tremor	-9.74305
▁trick	-9.74305
▁turkey	-9.74305
▁tw	-9.74305
▁twitch	-9.74305
▁typically	-9.74305
▁ultimately	-9.74305
▁uncle	-9.74305
▁undiagnosed	-9.74305
▁universe	-9.74305
▁unmotivated	-9.74305
▁vet	-9.74305
▁vulnerable	-9.74305
▁website	-9.74305
▁wherever	-9.74305
▁whose	-9.74305
▁workout	-9.74305
▁00	-9.8972
▁28	-9.8972
▁4th	-9.8972
▁80	-9.8972
▁acid	-9.8972
▁addiction	-9.8972
▁additional	-9.8972
▁advantage	-9.8972
▁afternoon	-9.8972
▁aggressive	-9.8972
▁agree	-9.8972
▁alternative	-9.8972
▁animal	-9.8972
▁anime	-9.8972
▁annoyed	-9.8972
▁apparent	-9.8972
▁apple	-9.8972
▁attached	-9.8972
▁attend	-9.8972
▁avoided	-9.8972
▁award	-9.8972
▁bank	-9.8972
▁bare	-9.8972
▁bartender	-9.8972
▁basis	-9.8972
▁benzos	-9.8972
▁blaming	-9.8972
▁bleak	-9.8972
▁blind	-9.8972
▁block	-9.8972
▁bone	-9.8972
▁bout	-9.8972
▁boy	-9.8972
▁brushing	-9.8972
▁bullet	-9.8972
▁burning	-9.8972
▁burnt	-9.8972
▁buspar	-9.8972
▁button	-9.8972
▁chemical	-9.8972
▁christmas	-9.8972
▁citalopram	-9.8972
▁click	-9.8972
▁clinic	-9.8972
▁clock	-9.8972
▁clot	-9.8972
▁club	-9.8972
▁comforting	-9.8972
▁commitment	-9.8972
▁communication	-9.8972
▁compare	-9.8972
▁complex	-9.8972
▁connected	-9.8972
▁continuously	-9.8972
▁controlled	-9.8972
▁cooking	-9.8972
▁crushing	-9.8972
▁culture	-9.8972
▁debating	-9.8972
▁december	-9.8972
▁deleted	-9.8972
▁demanding	-9.8972
▁demon	-9.8972
▁detached	-9.8972
▁discord	-9.8972
▁discus	-9.8972
▁discussing	-9.8972
▁distracted	-9.8972
▁doomed	-9.8972
▁dos	-9.8972
▁double	-9.8972
▁dozen	-9.8972
▁effexor	-9.8972
▁employer	-9.8972
▁emptiness	-9.8972
▁enjoyment	-9.8972
▁entirely	-9.8972
▁essentially	-9.8972
▁excessive	-9.8972
▁existed	-9.8972
▁existing	-9.8972
▁expensive	-9.8972
▁explained	-9.8972
▁expose	-9.8972
▁facade	-9.8972
▁facility	-9.8972
▁fallen	-9.8972
▁familiar	-9.8972
▁famous	-9.8972
▁fatigued	-9.8972
▁feed	-9.8972
▁feedback	-9.8972
▁female	-9.8972
▁flu	-9.8972
▁frankly	-9.8972
▁freaked	-9.8972
▁frequent	-9.8972
▁functional	-9.8972
▁gap	-9.8972
▁gt	-9.8972
▁happier	-9.8972
▁healthcare	-9.8972
▁hopeful	-9.8972
▁identifying	-9.8972
▁ignoring	-9.8972
▁ik	-9.8972
▁immense	-9.8972
▁inability	-9.8972
▁invited	-9.8972
▁irl	-9.8972
▁itch	-9.8972
▁join	-9.8972
▁joined	-9.8972
▁journal	-9.8972
▁jumped	-9.8972
▁junior	-9.8972
▁kitchen	-9.8972
▁land	-9.8972
▁laptop	-9.8972
▁lied	-9.8972
▁lightheaded	-9.8972
▁lock	-9.8972
▁lu	-9.8972
▁mall	-9.8972
▁management	-9.8972
▁measure	-9.8972
▁meditate	-9.8972
▁messing	-9.8972
▁midnight	-9.8972
▁million	-9.8972
▁minimal	-9.8972
▁mobile	-9.8972
▁moon	-9.8972
▁mri	-9.8972
▁necessarily	-9.8972
▁necessary	-9.8972
▁neighbor	-9.8972
▁notebook	-9.8972
▁nothingness	-9.8972
▁numerous	-9.8972
▁ob	-9.8972
▁odor	-9.8972
▁offmychest	-9.8972
▁outsider	-9.8972
▁overreacting	-9.8972
▁overweight	-9.8972
▁page	-9.8972
▁participate	-9.8972
▁passionate	-9.8972
▁path	-9.8972
▁pattern	-9.8972
▁peak	-9.8972
▁perform	-9.8972
▁pet	-9.8972
▁petty	-9.8972
▁picking	-9.8972
▁pile	-9.8972
▁piling	-9.8972
▁pit	-9.8972
▁planet	-9.8972
▁policy	-9.8972
▁poop	-9.8972
▁practically	-9.8972
▁pregnant	-9.8972
▁prepared	-9.8972
▁presentation	-9.8972
▁previously	-9.8972
▁product	-9.8972
▁pulling	-9.8972
▁puppy	-9.8972
▁purchase	-9.8972
▁pussy	-9.8972
▁rabies	-9.8972
▁rage	-9.8972
▁reasonable	-9.8972
▁reduced	-9.8972
▁refill	-9.8972
▁reflux	-9.8972
▁relatively	-9.8972
▁relaxing	-9.8972
▁remedy	-9.8972
▁remembering	-9.8972
▁reminder	-9.8972
▁repeatedly	-9.8972
▁replaying	-9.8972
▁report	-9.8972
▁reported	-9.8972
▁request	-9.8972
▁respond	-9.8972
▁ride	-9.8972
▁ridiculous	-9.8972
▁ruminating	-9.8972
▁rv	-9.8972
▁safer	-9.8972
▁safety	-9.8972
▁salary	-9.8972
▁saved	-9.8972
▁scenario	-9.8972
▁scene	-9.8972
▁screamed	-9.8972
▁screen	-9.8972
▁seizure	-9.8972
▁sertraline	-9.8972
▁severely	-9.8972
▁sharp	-9.8972
▁shattered	-9.8972
▁shopping	-9.8972
▁shout	-9.8972
▁showed	-9.8972
▁shuts	-9.8972
▁sinus	-9.8972
▁six	-9.8972
▁slip	-9.8972
▁socialize	-9.8972
▁spare	-9.8972
▁spell	-9.8972
▁spin	-9.8972
▁square	-9.8972
▁steal	-9.8972
▁stem	-9.8972
▁strategy	-9.8972
▁strongly	-9.8972
▁succeed	-9.8972
▁sugar	-9.8972
▁supplement	-9.8972
▁surprised	-9.8972
▁target	-9.8972
▁tax	-9.8972
▁technique	-9.8972
▁ten	-9.8972
▁thriving	-9.8972
▁thrown	-9.8972
▁thru	-9.8972
▁tinder	-9.8972
▁tiny	-9.8972
▁tiring	-9.8972
▁tissue	-9.8972
▁tone	-9.8972
▁trained	-9.8972
▁trans	-9.8972
▁trash	-9.8972
▁traveling	-9.8972
▁treating	-9.8972
▁twenty	-9.8972
▁typical	-9.8972
▁uk	-9.8972
▁uncertainty	-9.8972
▁ungrateful	-9.8972
▁unhappy	-9.8972
▁useful	-9.8972
▁vegetable	-9.8972
▁victim	-9.8972
▁virtual	-9.8972
▁virus	-9.8972
▁vision	-9.8972
▁visited	-9.8972
▁warm	-9.8972
▁wiki	-9.8972
▁window	-9.8972
▁wondered	-9.8972
▁wrist	-9.8972
▁wtf	-9.8972
▁000	-10.0795
▁15mg	-10.0795
▁25mg	-10.0795
▁34	-10.0795
▁35	-10.0795
▁45	-10.0795
▁abandoned	-10.0795
▁abt	-10.0795
▁accomplished	-10.0795
▁according	-10.0795
▁address	-10.0795
▁agoraphobia	-10.0795
▁allergy	-10.0795
▁allows	-10.0795
▁among	-10.0795
▁answered	-10.0795
▁apathetic	-10.0795
▁appear	-10.0795
▁arrived	-10.0795
▁asap	-10.0795
▁assumed	-10.0795
▁assumption	-10.0795
▁attending	-10.0795
▁attitude	-10.0795
▁awesome	-10.0795
▁balanced	-10.0795
▁band	-10.0795
▁beforehand	-10.0795
▁belong	-10.0795
▁benadryl	-10.0795
▁blamed	-10.0795
▁blank	-10.0795
▁blocking	-10.0795
▁boss	-10.0795
▁bowel	-10.0795
▁bpd	-10.0795
▁bpm	-10.0795
▁brand	-10.0795
▁breakfast	-10.0795
▁bridge	-10.0795
▁brilliant	-10.0795
▁cage	-10.0795
▁capacity	-10.0795
▁careful	-10.0795
▁casually	-10.0795
▁chaos	-10.0795
▁cheese	-10.0795
▁ck	-10.0795
▁clarity	-10.0795
▁clinical	-10.0795
▁closely	-10.0795
▁combat	-10.0795
▁committed	-10.0795
▁comprehend	-10.0795
▁concept	-10.0795
▁continues	-10.0795
▁continuing	-10.0795
▁cook	-10.0795
▁corner	-10.0795
▁costume	-10.0795
▁count	-10.0795
▁court	-10.0795
▁coward	-10.0795
▁crawling	-10.0795
▁ct	-10.0795
▁dance	-10.0795
▁delay	-10.0795
▁description	-10.0795
▁deserves	-10.0795
▁despise	-10.0795
▁determined	-10.0795
▁devastated	-10.0795
▁diary	-10.0795
▁dick	-10.0795
▁differently	-10.0795
▁digging	-10.0795
▁dirty	-10.0795
▁disconnected	-10.0795
▁distracting	-10.0795
▁document	-10.0795
▁dollar	-10.0795
▁downstairs	-10.0795
▁dreadful	-10.0795
▁dropping	-10.0795
▁dull	-10.0795
▁duty	-10.0795
▁dysfunctional	-10.0795
▁employee	-10.0795
▁employment	-10.0795
▁enjoyable	-10.0795
▁error	-10.0795
▁escitalopram	-10.0795
▁essay	-10.0795
▁experiment	-10.0795
▁explains	-10.0795
▁extent	-10.0795
▁external	-10.0795
▁fantasy	-10.0795
▁fed	-10.0795
▁fixed	-10.0795
▁flair	-10.0795
▁flying	-10.0795
▁foggy	-10.0795
▁foreign	-10.0795
▁fortunate	-10.0795
▁freshman	-10.0795
▁frozen	-10.0795
▁frustration	-10.0795
▁garbage	-10.0795
▁gas	-10.0795
▁gay	-10.0795
▁government	-10.0795
▁gpa	-10.0795
▁gradually	-10.0795
▁grandmother	-10.0795
▁grown	-10.0795
▁guard	-10.0795
▁gun	-10.0795
▁hangout	-10.0795
▁heartbreak	-10.0795
▁hesitant	-10.0795
▁highly	-10.0795
▁hire	-10.0795
▁hitting	-10.0795
▁hopelessness	-10.0795
▁horribly	-10.0795
▁hotline	-10.0795
▁household	-10.0795
▁hydroxyzine	-10.0795
▁hydroxzine	-10.0795
▁hyper	-10.0795
▁hypochondria	-10.0795
▁ideation	-10.0795
▁identity	-10.0795
▁improved	-10.0795
▁improving	-10.0795
▁impulse	-10.0795
▁incapable	-10.0795
▁income	-10.0795
▁incredible	-10.0795
▁indeed	-10.0795
▁indifference	-10.0795
▁info	-10.0795
▁injury	-10.0795
▁innocent	-10.0795
▁instagram	-10.0795
▁intake	-10.0795
▁interact	-10.0795
▁introverted	-10.0795
▁investing	-10.0795
▁invite	-10.0795
▁irrationally	-10.0795
▁irritable	-10.0795
▁item	-10.0795
▁jaw	-10.0795
▁judging	-10.0795
▁jumping	-10.0795
▁key	-10.0795
▁knock	-10.0795
▁label	-10.0795
▁landed	-10.0795
▁lasting	-10.0795
▁laughed	-10.0795
▁laundry	-10.0795
▁layer	-10.0795
▁lecture	-10.0795
▁lift	-10.0795
▁lighter	-10.0795
▁lil	-10.0795
▁listened	-10.0795
▁lmao	-10.0795
▁loan	-10.0795
▁longest	-10.0795
▁lt	-10.0795
▁maintain	-10.0795
▁meaningful	-10.0795
▁medicated	-10.0795
▁messaging	-10.0795
▁metal	-10.0795
▁midterm	-10.0795
▁military	-10.0795
▁mindlessly	-10.0795
▁miracle	-10.0795
▁mix	-10.0795
▁motion	-10.0795
▁muster	-10.0795
▁native	-10.0795
▁nature	-10.0795
▁negatively	-10.0795
▁neighborhood	-10.0795
▁neurotypical	-10.0795
▁niece	-10.0795
▁obsessive	-10.0795
▁original	-10.0795
▁outcome	-10.0795
▁outfit	-10.0795
▁overdose	-10.0795
▁owe	-10.0795
▁palm	-10.0795
▁panicked	-10.0795
▁pant	-10.0795
▁paragraph	-10.0795
▁passive	-10.0795
▁peaceful	-10.0795
▁perhaps	-10.0795
▁pharmacy	-10.0795
▁piss	-10.0795
▁popular	-10.0795
▁potentially	-10.0795
▁pounding	-10.0795
▁pre	-10.0795
▁prepare	-10.0795
▁prevent	-10.0795
▁prison	-10.0795
▁pristiq	-10.0795
▁processing	-10.0795
▁promised	-10.0795
▁provided	-10.0795
▁psychiatric	-10.0795
▁psychotic	-10.0795
▁qualified	-10.0795
▁quote	-10.0795
▁rambling	-10.0795
▁ranting	-10.0795
▁realisation	-10.0795
▁recommending	-10.0795
▁record	-10.0795
▁reflect	-10.0795
▁reflecting	-10.0795
▁regularly	-10.0795
▁relieved	-10.0795
▁rely	-10.0795
▁remind	-10.0795
▁reminds	-10.0795
▁remove	-10.0795
▁rent	-10.0795
▁required	-10.0795
▁responded	-10.0795
▁restart	-10.0795
▁resume	-10.0795
▁retail	-10.0795
▁returning	-10.0795
▁ring	-10.0795
▁rolling	-10.0795
▁rose	-10.0795
▁scalp	-10.0795
▁schizophrenia	-10.0795
▁scratching	-10.0795
▁serve	-10.0795
▁server	-10.0795
▁serving	-10.0795
▁settle	-10.0795
▁sheet	-10.0795
▁shelf	-10.0795
▁shutting	-10.0795
▁sickness	-10.0795
▁sight	-10.0795
▁signed	-10.0795
▁sinking	-10.0795
▁skip	-10.0795
▁sky	-10.0795
▁slight	-10.0795
▁slowing	-10.0795
▁sobbing	-10.0795
▁sold	-10.0795
▁solid	-10.0795
▁someday	-10.0795
▁sometime	-10.0795
▁sought	-10.0795
▁spam	-10.0795
▁span	-10.0795
▁spectrum	-10.0795
▁speech	-10.0795
▁spread	-10.0795
▁spring	-10.0795
▁stab	-10.0795
▁staff	-10.0795
▁standard	-10.0795
▁standing	-10.0795
▁stare	-10.0795
▁status	-10.0795
▁stretch	-10.0795
▁sufferer	-10.0795
▁suffers	-10.0795
▁survey	-10.0795
▁survived	-10.0795
▁switch	-10.0795
▁table	-10.0795
▁tech	-10.0795
▁temperature	-10.0795
▁terror	-10.0795
▁therefore	-10.0795
▁tingly	-10.0795
▁tooth	-10.0795
▁trade	-10.0795
▁transferred	-10.0795
▁typed	-10.0795
▁ultrasound	-10.0795
▁unknown	-10.0795
▁unlucky	-10.0795
▁unpleasant	-10.0795
▁untill	-10.0795
▁unwanted	-10.0795
▁upper	-10.0795
▁ups	-10.0795
▁valid	-10.0795
▁vibe	-10.0795
▁victory	-10.0795
▁void	-10.0795
▁waited	-10.0795
▁wander	-10.0795
▁weekly	-10.0795
▁whatsoever	-10.0795
▁winter	-10.0795
▁worn	-10.0795
▁yep	-10.0795
▁150	-10.3027
▁18f	-10.3027
▁1mg	-10.3027
▁20mg	-10.3027
▁21f	-10.3027
▁300mg	-10.3027
▁31	-10.3027
▁abdomen	-10.3027
▁achieve	-10.3027
▁ad	-10.3027
▁adding	-10.3027
▁adjusting	-10.3027
▁admitted	-10.3027
▁adopted	-10.3027
▁afterlife	-10.3027
▁aid	-10.3027
▁alert	-10.3027
▁alongside	-10.3027
▁ambition	-10.3027
▁america	-10.3027
▁amt	-10.3027
▁android	-10.3027
▁ankle	-10.3027
▁annoys	-10.3027
▁answering	-10.3027
▁aorta	-10.3027
▁ap	-10.3027
▁appeared	-10.3027
▁applied	-10.3027
▁arrogant	-10.3027
▁assuming	-10.3027
▁atleast	-10.3027
▁atm	-10.3027
▁attachment	-10.3027
▁autopilot	-10.3027
▁awhile	-10.3027
▁bachelor	-10.3027
▁backyard	-10.3027
▁bar	-10.3027
▁baseline	-10.3027
▁behavioral	-10.3027
▁behaviour	-10.3027
▁bitter	-10.3027
▁board	-10.3027
▁bob	-10.3027
▁bomb	-10.3027
▁booking	-10.3027
▁boost	-10.3027
▁brat	-10.3027
▁brave	-10.3027
▁breakup	-10.3027
▁browsing	-10.3027
▁bug	-10.3027
▁burned	-10.3027
▁bus	-10.3027
▁buspirone	-10.3027
▁butt	-10.3027
▁calmed	-10.3027
▁carrying	-10.3027
▁casual	-10.3027
▁ceiling	-10.3027
▁celebration	-10.3027
▁charge	-10.3027
▁choking	-10.3027
▁cigarette	-10.3027
▁clash	-10.3027
▁clonazepam	-10.3027
▁closest	-10.3027
▁closing	-10.3027
▁cloud	-10.3027
▁coach	-10.3027
▁collapse	-10.3027
▁color	-10.3027
▁commented	-10.3027
▁complain	-10.3027
▁concrete	-10.3027
▁consciousness	-10.3027
▁conspiracy	-10.3027
▁controlling	-10.3027
▁convincing	-10.3027
▁cptsd	-10.3027
▁craving	-10.3027
▁creativity	-10.3027
▁creator	-10.3027
▁credit	-10.3027
▁creep	-10.3027
▁creeping	-10.3027
▁crippled	-10.3027
▁crohn	-10.3027
▁cross	-10.3027
▁cruel	-10.3027
▁crushed	-10.3027
▁damaged	-10.3027
▁daytime	-10.3027
▁de	-10.3027
▁decade	-10.3027
▁deciding	-10.3027
▁decline	-10.3027
▁deed	-10.3027
▁deepest	-10.3027
▁define	-10.3027
▁definition	-10.3027
▁delete	-10.3027
▁depression1	-10.3027
▁development	-10.3027
▁diagnose	-10.3027
▁disappeared	-10.3027
▁discouraged	-10.3027
▁discovered	-10.3027
▁discussion	-10.3027
▁disgusted	-10.3027
▁dissociating	-10.3027
▁distorted	-10.3027
▁dm	-10.3027
▁dot	-10.3027
▁downright	-10.3027
▁drama	-10.3027
▁dreaded	-10.3027
▁dumped	-10.3027
▁dunno	-10.3027
▁dust	-10.3027
▁earth	-10.3027
▁easiest	-10.3027
▁ect	-10.3027
▁effortless	-10.3027
▁eight	-10.3027
▁elderly	-10.3027
▁entry	-10.3027
▁ethic	-10.3027
▁evil	-10.3027
▁evrything	-10.3027
▁excitement	-10.3027
▁exercising	-10.3027
▁exhale	-10.3027
▁explode	-10.3027
▁exposure	-10.3027
▁expressed	-10.3027
▁facing	-10.3027
▁factor	-10.3027
▁fade	-10.3027
▁faith	-10.3027
▁fantastic	-10.3027
▁favor	-10.3027
▁feared	-10.3027
▁fever	-10.3027
▁finance	-10.3027
▁finishing	-10.3027
▁fixing	-10.3027
▁flame	-10.3027
▁flare	-10.3027
▁flared	-10.3027
▁flower	-10.3027
▁fomo	-10.3027
▁fool	-10.3027
▁forgive	-10.3027
▁forth	-10.3027
▁forum	-10.3027
▁fragile	-10.3027
▁france	-10.3027
▁freeze	-10.3027
▁fuckin	-10.3027
▁fulfill	-10.3027
▁fulfilling	-10.3027
▁funeral	-10.3027
▁gaslighting	-10.3027
▁gentle	-10.3027
▁ghosted	-10.3027
▁gle	-10.3027
▁goddamn	-10.3027
▁googled	-10.3027
▁grab	-10.3027
▁greedy	-10.3027
▁grief	-10.3027
▁gross	-10.3027
▁grudge	-10.3027
▁guidance	-10.3027
▁guideline	-10.3027
▁hallucination	-10.3027
▁happily	-10.3027
▁heartbeat	-10.3027
▁heaven	-10.3027
▁height	-10.3027
▁hike	-10.3027
▁hive	-10.3027
▁holiday	-10.3027
▁hollow	-10.3027
▁hospitalization	-10.3027
▁hotel	-10.3027
▁humiliated	-10.3027
▁hung	-10.3027
▁hurtful	-10.3027
▁hygiene	-10.3027
▁hypocrite	-10.3027
▁iam	-10.3027
▁ice	-10.3027
▁icu	-10.3027
▁ignorant	-10.3027
▁immediate	-10.3027
▁immensely	-10.3027
▁immune	-10.3027
▁inbox	-10.3027
▁include	-10.3027
▁includes	-10.3027
▁inflammation	-10.3027
▁input	-10.3027
▁instant	-10.3027
▁instinct	-10.3027
▁intelligent	-10.3027
▁intention	-10.3027
▁interviewed	-10.3027
▁invest	-10.3027
▁invisible	-10.3027
▁iphones	-10.3027
▁irritability	-10.3027
▁ish	-10.3027
▁isolating	-10.3027
▁itchy	-10.3027
▁jasmine	-10.3027
▁jealousy	-10.3027
▁jittery	-10.3027
▁joint	-10.3027
▁judgement	-10.3027
▁judgment	-10.3027
▁juice	-10.3027
▁july	-10.3027
▁ka	-10.3027
▁kicking	-10.3027
▁kindly	-10.3027
▁kindness	-10.3027
▁lady	-10.3027
▁laid	-10.3027
▁lb	-10.3027
▁legal	-10.3027
▁legit	-10.3027
▁legitimately	-10.3027
▁length	-10.3027
▁lightheadedness	-10.3027
▁limb	-10.3027
▁logic	-10.3027
▁logically	-10.3027
▁loosing	-10.3027
▁loudly	-10.3027
▁mac	-10.3027
▁machine	-10.3027
▁manageable	-10.3027
▁manipulative	-10.3027
▁marketing	-10.3027
▁max	-10.3027
▁meat	-10.3027
▁meh	-10.3027
▁meltdown	-10.3027
▁meme	-10.3027
▁men	-10.3027
▁mertazapine	-10.3027
▁minecraft	-10.3027
▁misdiagnosed	-10.3027
▁movement	-10.3027
▁mundane	-10.3027
▁mute	-10.3027
▁n	-10.3027
▁naked	-10.3027
▁nighttime	-10.3027
▁normalcy	-10.3027
▁notification	-10.3027
▁numbing	-10.3027
▁object	-10.3027
▁objective	-10.3027
▁objectively	-10.3027
▁obsession	-10.3027
▁occasional	-10.3027
▁ocean	-10.3027
▁ops	-10.3027
▁outgoing	-10.3027
▁outright	-10.3027
▁outta	-10.3027
▁overtime	-10.3027
▁pack	-10.3027
▁pair	-10.3027
▁panick	-10.3027
▁pause	-10.3027
▁paxil	-10.3027
▁perception	-10.3027
▁phd	-10.3027
▁plane	-10.3027
▁platform	-10.3027
▁plea	-10.3027
▁pls	-10.3027
▁police	-10.3027
▁polite	-10.3027
▁portal	-10.3027
▁pot	-10.3027
▁praised	-10.3027
▁pray	-10.3027
▁predictable	-10.3027
▁preface	-10.3027
▁prefer	-10.3027
▁pregnancy	-10.3027
▁preparing	-10.3027
▁prescribe	-10.3027
▁presence	-10.3027
▁preventing	-10.3027
▁pride	-10.3027
▁priority	-10.3027
▁privately	-10.3027
▁privilege	-10.3027
▁privileged	-10.3027
▁procrastination	-10.3027
▁prof	-10.3027
▁professor	-10.3027
▁psychiatry	-10.3027
▁pulse	-10.3027
▁pure	-10.3027
▁pursuing	-10.3027
▁rabbit	-10.3027
▁raising	-10.3027
▁ramble	-10.3027
▁rationally	-10.3027
▁ray	-10.3027
▁reacts	-10.3027
▁reduce	-10.3027
▁regardless	-10.3027
▁regretting	-10.3027
▁relapse	-10.3027
▁relative	-10.3027
▁release	-10.3027
▁remote	-10.3027
▁remotely	-10.3027
▁repeating	-10.3027
▁replace	-10.3027
▁replying	-10.3027
▁resilient	-10.3027
▁respectful	-10.3027
▁resulting	-10.3027
▁returned	-10.3027
▁ridiculously	-10.3027
▁rise	-10.3027
▁romantically	-10.3027
▁rot	-10.3027
▁route	-10.3027
▁row	-10.3027
▁rub	-10.3027
▁rut	-10.3027
▁sadly	-10.3027
▁salad	-10.3027
▁sand	-10.3027
▁scheduled	-10.3027
▁schoolwork	-10.3027
▁score	-10.3027
▁season	-10.3027
▁secondary	-10.3027
▁sell	-10.3027
▁sexually	-10.3027
▁shoot	-10.3027
▁shortly	-10.3027
▁shouldnt	-10.3027
▁shutdown	-10.3027
▁sing	-10.3027
▁sits	-10.3027
▁size	-10.3027
▁slammed	-10.3027
▁slipped	-10.3027
▁smell	-10.3027
▁snapped	-10.3027
▁snd	-10.3027
▁software	-10.3027
▁sounded	-10.3027
▁sounding	-10.3027
▁spoke	-10.3027
▁starve	-10.3027
▁stated	-10.3027
▁stimulus	-10.3027
▁storm	-10.3027
▁stream	-10.3027
▁stubborn	-10.3027
▁studied	-10.3027
▁subconsciously	-10.3027
▁submitted	-10.3027
▁subsequently	-10.3027
▁suggests	-10.3027
▁sum	-10.3027
▁superior	-10.3027
▁survival	-10.3027
▁surviving	-10.3027
▁sweet	-10.3027
▁swollen	-10.3027
▁talent	-10.3027
▁tank	-10.3027
▁tantrum	-10.3027
▁tearing	-10.3027
▁temper	-10.3027
▁tends	-10.3027
▁thankful	-10.3027
▁thin	-10.3027
▁threatening	-10.3027
▁tiktok	-10.3027
▁tire	-10.3027
▁tolerance	-10.3027
▁tracker	-10.3027
▁traumatized	-10.3027
▁tremendously	-10.3027
▁trivial	-10.3027
▁truck	-10.3027
▁twisted	-10.3027
▁unattractive	-10.3027
▁uncontrollably	-10.3027
▁underage	-10.3027
▁undermine	-10.3027
▁unemployment	-10.3027
▁unhealthy	-10.3027
▁unlike	-10.3027
▁unrealistic	-10.3027
▁user	-10.3027
▁utm	-10.3027
▁validation	-10.3027
▁vanished	-10.3027
▁venlafaxine	-10.3027
▁virgin	-10.3027
▁visiting	-10.3027
▁vomit	-10.3027
▁weirdly	-10.3027
▁welding	-10.3027
▁wfh	-10.3027
▁whilst	-10.3027
▁white	-10.3027
▁worsened	-10.3027
▁worsening	-10.3027
▁worthwhile	-10.3027
▁worthy	-10.3027
▁wow	-10.3027
▁yo	-10.3027
▁yoga	-10.3027
▁zoom	-10.3027
▁150mg	-10.5903
▁2018	-10.5903
▁26	-10.5903
▁2mg	-10.5903
▁30mg	-10.5903
▁3am	-10.5903
▁40mg	-10.5903
▁500	-10.5903
▁60	-10.5903
▁6am	-10.5903
▁6th	-10.5903
▁8th	-10.5903
▁abandon	-10.5903
▁abilify	-10.5903
▁absorbed	-10.5903
▁ac	-10.5903
▁academically	-10.5903
▁acceptable	-10.5903
▁accounting	-10.5903
▁accurate	-10.5903
▁acute	-10.5903
▁adderall	-10.5903
▁addition	-10.5903
▁advil	-10.5903
▁afterward	-10.5903
▁agitated	-10.5903
▁airport	-10.5903
▁aisle	-10.5903
▁album	-10.5903
▁alternate	-10.5903
▁amazon	-10.5903
▁ambulance	-10.5903
▁antihistamine	-10.5903
▁anyresume	-10.5903
▁apprentice	-10.5903
▁appropriate	-10.5903
▁arguing	-10.5903
▁arise	-10.5903
▁arrive	-10.5903
▁articulate	-10.5903
▁asks	-10.5903
▁aspergers	-10.5903
▁assistance	-10.5903
▁assistant	-10.5903
▁assure	-10.5903
▁asthma	-10.5903
▁attract	-10.5903
▁attractive	-10.5903
▁badass	-10.5903
▁battled	-10.5903
▁beach	-10.5903
▁becouse	-10.5903
▁begun	-10.5903
▁belly	-10.5903
▁bet	-10.5903
▁betrayed	-10.5903
▁bin	-10.5903
▁binge	-10.5903
▁bio	-10.5903
▁bla	-10.5903
▁blade	-10.5903
▁bleeding	-10.5903
▁blink	-10.5903
▁blow	-10.5903
▁blurry	-10.5903
▁boom	-10.5903
▁booze	-10.5903
▁bottled	-10.5903
▁bounced	-10.5903
▁bound	-10.5903
▁boundary	-10.5903
▁bowl	-10.5903
▁breeze	-10.5903
▁brick	-10.5903
▁brighter	-10.5903
▁bruh	-10.5903
▁brushed	-10.5903
▁bubble	-10.5903
▁bumble	-10.5903
▁bump	-10.5903
▁bumped	-10.5903
▁burger	-10.5903
▁california	-10.5903
▁calmer	-10.5903
▁camp	-10.5903
▁cancelled	-10.5903
▁candle	-10.5903
▁candy	-10.5903
▁carbon	-10.5903
▁category	-10.5903
▁cautious	-10.5903
▁celebrate	-10.5903
▁centered	-10.5903
▁central	-10.5903
▁certified	-10.5903
▁chart	-10.5903
▁chatter	-10.5903
▁checkup	-10.5903
▁cheer	-10.5903
▁chilling	-10.5903
▁chocolate	-10.5903
▁choosing	-10.5903
▁chose	-10.5903
▁christ	-10.5903
▁christian	-10.5903
▁church	-10.5903
▁cipralex	-10.5903
▁claimed	-10.5903
▁classroom	-10.5903
▁claw	-10.5903
▁closure	-10.5903
▁cognitively	-10.5903
▁collect	-10.5903
▁comfy	-10.5903
▁comma	-10.5903
▁communicated	-10.5903
▁comparing	-10.5903
▁competition	-10.5903
▁competitive	-10.5903
▁complacent	-10.5903
▁complication	-10.5903
▁concerning	-10.5903
▁concussion	-10.5903
▁condescending	-10.5903
▁confrontation	-10.5903
▁confronted	-10.5903
▁connecting	-10.5903
▁consent	-10.5903
▁consequence	-10.5903
▁consistent	-10.5903
▁contained	-10.5903
▁contract	-10.5903
▁contrary	-10.5903
▁cooped	-10.5903
▁cop	-10.5903
▁correctly	-10.5903
▁cough	-10.5903
▁couldnt	-10.5903
▁counselling	-10.5903
▁counsellor	-10.5903
▁county	-10.5903
▁cp	-10.5903
▁crashed	-10.5903
▁cream	-10.5903
▁creating	-10.5903
▁crime	-10.5903
▁cringe	-10.5903
▁criticize	-10.5903
▁crossed	-10.5903
▁crowded	-10.5903
▁crutch	-10.5903
▁crypto	-10.5903
▁cup	-10.5903
▁curl	-10.5903
▁curled	-10.5903
▁cursed	-10.5903
▁cursing	-10.5903
▁dare	-10.5903
▁darkest	-10.5903
▁daunting	-10.5903
▁deaf	-10.5903
▁decaf	-10.5903
▁declining	-10.5903
▁dedicated	-10.5903
▁defeated	-10.5903
▁delusion	-10.5903
▁delusional	-10.5903
▁denial	-10.5903
▁dependent	-10.5903
▁depersonalization	-10.5903
▁deprecating	-10.5903
▁describing	-10.5903
▁deserved	-10.5903
▁deserving	-10.5903
▁desk	-10.5903
▁despair	-10.5903
▁destructive	-10.5903
▁developing	-10.5903
▁diet	-10.5903
▁differentiate	-10.5903
▁dig	-10.5903
▁direct	-10.5903
▁directed	-10.5903
▁dirt	-10.5903
▁disabled	-10.5903
▁disappointing	-10.5903
▁discovering	-10.5903
▁disgrace	-10.5903
▁disgust	-10.5903
▁dish	-10.5903
▁dismiss	-10.5903
▁disoriented	-10.5903
▁disowned	-10.5903
▁disregard	-10.5903
▁dissociation	-10.5903
▁distress	-10.5903
▁distressing	-10.5903
▁district	-10.5903
▁ditched	-10.5903
▁divert	-10.5903
▁doubled	-10.5903
▁draft	-10.5903
▁dragged	-10.5903
▁drastically	-10.5903
▁dropout	-10.5903
▁dumbest	-10.5903
▁dy	-10.5903
▁dyspnea	-10.5903
▁earn	-10.5903
▁earning	-10.5903
▁echocardiogram	-10.5903
▁ed	-10.5903
▁editing	-10.5903
▁effectively	-10.5903
▁egg	-10.5903
▁elbow	-10.5903
▁electronics	-10.5903
▁elementary	-10.5903
▁elsewhere	-10.5903
▁emetophobia	-10.5903
▁emotionless	-10.5903
▁empathy	-10.5903
▁en	-10.5903
▁endured	-10.5903
▁enemy	-10.5903
▁engineer	-10.5903
▁enhanced	-10.5903
▁entertaining	-10.5903
▁entertainment	-10.5903
▁entrance	-10.5903
▁entrusted	-10.5903
▁equal	-10.5903
▁equipment	-10.5903
▁errand	-10.5903
▁established	-10.5903
▁exaggerating	-10.5903
▁excellent	-10.5903
▁exception	-10.5903
▁exceptionally	-10.5903
▁exchange	-10.5903
▁existent	-10.5903
▁exists	-10.5903
▁expected	-10.5903
▁expire	-10.5903
▁extended	-10.5903
▁extrovert	-10.5903
▁fading	-10.5903
▁fan	-10.5903
▁favour	-10.5903
▁fb	-10.5903
▁feeding	-10.5903
▁filing	-10.5903
▁filling	-10.5903
▁fixated	-10.5903
▁flaw	-10.5903
▁flirt	-10.5903
▁florida	-10.5903
▁fluoxetine	-10.5903
▁fly	-10.5903
▁football	-10.5903
▁formal	-10.5903
▁formally	-10.5903
▁formed	-10.5903
▁fortunately	-10.5903
▁fought	-10.5903
▁fourth	-10.5903
▁freeway	-10.5903
▁freshly	-10.5903
▁frightening	-10.5903
▁fruit	-10.5903
▁fume	-10.5903
▁fundraising	-10.5903
▁furloughed	-10.5903
▁g	-10.5903
▁gather	-10.5903
▁generalised	-10.5903
▁gentleness	-10.5903
▁gig	-10.5903
▁globe	-10.5903
▁gloomy	-10.5903
▁grabbed	-10.5903
▁grad	-10.5903
▁grand	-10.5903
▁granted	-10.5903
▁grasp	-10.5903
▁greatest	-10.5903
▁growth	-10.5903
▁halcion	-10.5903
▁hallway	-10.5903
▁handed	-10.5903
▁handful	-10.5903
▁hangover	-10.5903
▁happiest	-10.5903
▁headed	-10.5903
▁healed	-10.5903
▁healthier	-10.5903
▁heartbroken	-10.5903
▁highest	-10.5903
▁hood	-10.5903
▁hormone	-10.5903
▁horrendous	-10.5903
▁horror	-10.5903
▁housemate	-10.5903
▁housing	-10.5903
▁html	-10.5903
▁humanity	-10.5903
▁humble	-10.5903
▁hyperventilating	-10.5903
▁ibs	-10.5903
▁ideally	-10.5903
▁identified	-10.5903
▁illusion	-10.5903
▁imagining	-10.5903
▁imbalance	-10.5903
▁imo	-10.5903
▁inadequate	-10.5903
▁inconvenience	-10.5903
▁incorrectly	-10.5903
▁india	-10.5903
▁individual	-10.5903
▁induced	-10.5903
▁inevitable	-10.5903
▁inevitably	-10.5903
▁infected	-10.5903
▁informed	-10.5903
▁ing	-10.5903
▁insanely	-10.5903
▁insisted	-10.5903
▁inspiration	-10.5903
▁instance	-10.5903
▁intentionally	-10.5903
▁internal	-10.5903
▁introduce	-10.5903
▁invalidate	-10.5903
▁inverse	-10.5903
▁involve	-10.5903
▁ironic	-10.5903
▁isolate	-10.5903
▁iyo	-10.5903
▁jacket	-10.5903
▁jean	-10.5903
▁jerk	-10.5903
▁journaling	-10.5903
▁judgmental	-10.5903
▁jury	-10.5903
▁ketamine	-10.5903
▁kidding	-10.5903
▁knife	-10.5903
▁lamictal	-10.5903
▁lashed	-10.5903
▁lastly	-10.5903
▁latter	-10.5903
▁laziness	-10.5903
▁leak	-10.5903
▁learnt	-10.5903
▁leukemia	-10.5903
▁libido	-10.5903
▁library	-10.5903
▁lifelong	-10.5903
▁lifestyle	-10.5903
▁linked	-10.5903
▁litteraly	-10.5903
▁locking	-10.5903
▁lonlyness	-10.5903
▁lurking	-10.5903
▁magic	-10.5903
▁magnus	-10.5903
▁mailto	-10.5903
▁mam	-10.5903
▁manic	-10.5903
▁manifestation	-10.5903
▁manipulate	-10.5903
▁manner	-10.5903
▁maoi	-10.5903
▁market	-10.5903
▁marriage	-10.5903
▁masculine	-10.5903
▁material	-10.5903
▁mediocre	-10.5903
▁mere	-10.5903
▁messy	-10.5903
▁mildly	-10.5903
▁miller	-10.5903
▁mobility	-10.5903
▁moderna	-10.5903
▁moody	-10.5903
▁moreover	-10.5903
▁moreso	-10.5903
▁motivate	-10.5903
▁narcissistic	-10.5903
▁nervousness	-10.5903
▁net	-10.5903
▁neurological	-10.5903
▁newly	-10.5903
▁nonetheless	-10.5903
▁norm	-10.5903
▁nut	-10.5903
▁obligation	-10.5903
▁observation	-10.5903
▁obsessed	-10.5903
▁obstacle	-10.5903
▁obtain	-10.5903
▁occurred	-10.5903
▁odds	-10.5903
▁ofc	-10.5903
▁oil	-10.5903
▁oldest	-10.5903
▁omg	-10.5903
▁onset	-10.5903
▁openly	-10.5903
▁operation	-10.5903
▁organ	-10.5903
▁organised	-10.5903
▁outlet	-10.5903
▁overcame	-10.5903
▁overly	-10.5903
▁pacing	-10.5903
▁painting	-10.5903
▁paralyzed	-10.5903
▁partially	-10.5903
▁partying	-10.5903
▁passenger	-10.5903
▁passively	-10.5903
▁paycheck	-10.5903
▁pb	-10.5903
▁peacefully	-10.5903
▁peer	-10.5903
▁perceive	-10.5903
▁performance	-10.5903
▁persist	-10.5903
▁persistent	-10.5903
▁photography	-10.5903
▁picnic	-10.5903
▁piled	-10.5903
▁pin	-10.5903
▁placebo	-10.5903
▁placed	-10.5903
▁plain	-10.5903
▁plant	-10.5903
▁plastic	-10.5903
▁pleaded	-10.5903
▁pocd	-10.5903
▁poem	-10.5903
▁political	-10.5903
▁poorly	-10.5903
▁ppl	-10.5903
▁praise	-10.5903
▁prayed	-10.5903
▁precious	-10.5903
▁prescribing	-10.5903
▁pressed	-10.5903
▁pressured	-10.5903
▁presume	-10.5903
▁prevented	-10.5903
▁primarily	-10.5903
▁problematic	-10.5903
▁procrastinating	-10.5903
▁profit	-10.5903
▁prolonged	-10.5903
▁promising	-10.5903
▁prospect	-10.5903
▁proved	-10.5903
▁provider	-10.5903
▁psychologically	-10.5903
▁psychosis	-10.5903
▁punch	-10.5903
▁punish	-10.5903
▁purely	-10.5903
▁pushy	-10.5903
▁questionnaire	-10.5903
▁radio	-10.5903
▁reacting	-10.5903
▁realistic	-10.5903
▁realistically	-10.5903
▁realization	-10.5903
▁realy	-10.5903
▁reasoning	-10.5903
▁receiving	-10.5903
▁recognized	-10.5903
▁recommendation	-10.5903
▁recording	-10.5903
▁recovered	-10.5903
▁recovering	-10.5903
▁reducing	-10.5903
▁refreshed	-10.5903
▁regain	-10.5903
▁relaxation	-10.5903
▁released	-10.5903
▁relieve	-10.5903
▁relive	-10.5903
▁remain	-10.5903
▁reminded	-10.5903
▁removed	-10.5903
▁repeated	-10.5903
▁replaced	-10.5903
▁replay	-10.5903
▁researched	-10.5903
▁resolution	-10.5903
▁resolve	-10.5903
▁responder	-10.5903
▁restless	-10.5903
▁restroom	-10.5903
▁resulted	-10.5903
▁revolves	-10.5903
▁ridden	-10.5903
▁ringing	-10.5903
▁rising	-10.5903
▁robot	-10.5903
▁roll	-10.5903
▁romantic	-10.5903
▁rotting	-10.5903
▁rubber	-10.5903
▁rural	-10.5903
▁rushing	-10.5903
▁sabotaging	-10.5903
▁saddest	-10.5903
▁saliva	-10.5903
▁salvation	-10.5903
▁sandwich	-10.5903
▁sane	-10.5903
▁sanity	-10.5903
▁satisfaction	-10.5903
▁satisfied	-10.5903
▁saturday	-10.5903
▁scaring	-10.5903
▁scheduling	-10.5903
▁scrutiny	-10.5903
▁search	-10.5903
▁secret	-10.5903
▁section	-10.5903
▁security	-10.5903
▁seeker	-10.5903
▁seemingly	-10.5903
▁senior	-10.5903
▁separation	-10.5903
▁seroquel	-10.5903
▁setback	-10.5903
▁seven	-10.5903
▁shallow	-10.5903
▁shameful	-10.5903
▁shelter	-10.5903
▁shoe	-10.5903
▁shorter	-10.5903
▁showering	-10.5903
▁simplest	-10.5903
▁singing	-10.5903
▁sip	-10.5903
▁slap	-10.5903
▁slave	-10.5903
▁sleepy	-10.5903
▁sleeve	-10.5903
▁slightest	-10.5903
▁slump	-10.5903
▁smallest	-10.5903
▁smoked	-10.5903
▁sneeze	-10.5903
▁socialise	-10.5903
▁soft	-10.5903
▁solved	-10.5903
▁sooo	-10.5903
▁spaced	-10.5903
▁speaker	-10.5903
▁specially	-10.5903
▁specie	-10.5903
▁spends	-10.5903
▁spike	-10.5903
▁spinning	-10.5903
▁spit	-10.5903
▁spite	-10.5903
▁spoiled	-10.5903
▁stadium	-10.5903
▁star	-10.5903
▁startle	-10.5903
▁stating	-10.5903
▁stemmed	-10.5903
▁sticking	-10.5903
▁stiff	-10.5903
▁stood	-10.5903
▁stool	-10.5903
▁storage	-10.5903
▁straightened	-10.5903
▁stray	-10.5903
▁strengthen	-10.5903
▁stricture	-10.5903
▁strike	-10.5903
▁string	-10.5903
▁strongest	-10.5903
▁structure	-10.5903
▁strung	-10.5903
▁studio	-10.5903
▁stuttering	-10.5903
▁style	-10.5903
▁submitting	-10.5903
▁suboxone	-10.5903
▁subside	-10.5903
▁subsided	-10.5903
▁sucked	-10.5903
▁suffocating	-10.5903
▁suggest	-10.5903
▁suicidewatch	-10.5903
▁supervisor	-10.5903
▁supporting	-10.5903
▁surprisingly	-10.5903
▁surrounding	-10.5903
▁surroundings	-10.5903
▁swallow	-10.5903
▁sway	-10.5903
▁sweaty	-10.5903
▁tab	-10.5903
▁tablet	-10.5903
▁talkative	-10.5903
▁tapering	-10.5903
▁taxing	-10.5903
▁technical	-10.5903
▁ted	-10.5903
▁teenage	-10.5903
▁tender	-10.5903
▁testing	-10.5903
▁texas	-10.5903
▁tf	-10.5903
▁theft	-10.5903
▁theory	-10.5903
▁thigh	-10.5903
▁thrilled	-10.5903
▁throwaway	-10.5903
▁thumbnail	-10.5903
▁tic	-10.5903
▁ticket	-10.5903
▁tied	-10.5903
▁tightly	-10.5903
▁til	-10.5903
▁tiredness	-10.5903
▁tool	-10.5903
▁toughest	-10.5903
▁transphobic	-10.5903
▁treading	-10.5903
▁tree	-10.5903
▁trusting	-10.5903
▁truthfully	-10.5903
▁twelve	-10.5903
▁ugh	-10.5903
▁unconsciously	-10.5903
▁uncontrollable	-10.5903
▁underlying	-10.5903
▁uneasy	-10.5903
▁unfair	-10.5903
▁unsafe	-10.5903
▁unstable	-10.5903
▁unstoppable	-10.5903
▁untreated	-10.5903
▁unwell	-10.5903
▁upcoming	-10.5903
▁upside	-10.5903
▁uti	-10.5903
▁utm_medium	-10.5903
▁utm_source	-10.5903
▁utter	-10.5903
▁vanish	-10.5903
▁vaping	-10.5903
▁verbally	-10.5903
▁vertigo	-10.5903
▁via	-10.5903
▁vicious	-10.5903
▁violation	-10.5903
▁visa	-10.5903
▁war	-10.5903
▁warned	-10.5903
▁wasnt	-10.5903
▁weather	-10.5903
▁wednesday	-10.5903
▁weigh	-10.5903
▁weighed	-10.5903
▁welp	-10.5903
▁whereas	-10.5903
▁whirlwind	-10.5903
▁wide	-10.5903
▁wikipedia	-10.5903
▁wild	-10.5903
▁willpower	-10.5903
▁wire	-10.5903
▁wished	-10.5903
▁wood	-10.5903
▁woozy	-10.5903
▁xbox	-10.5903
▁xvideos	-10.5903
▁yearly	-10.5903
▁yellow	-10.5903
▁00am	-10.9958
▁10am	-10.9958
▁10x	-10.9958
▁11pm	-10.9958
▁130	-10.9958
▁143	-10.9958
▁14f	-10.9958
▁180	-10.9958
▁2000	-10.9958
▁21m	-10.9958
▁21st	-10.9958
▁23f	-10.9958
▁23m	-10.9958
▁24m	-10.9958
▁24th	-10.9958
▁25f	-10.9958
▁2pm	-10.9958
▁300	-10.9958
▁3000	-10.9958
▁30ish	-10.9958
▁3a4	-10.9958
▁3mg	-10.9958
▁3x	-10.9958
▁4262bd60	-10.9958
▁5am	-10.9958
▁5th	-10.9958
▁60mg	-10.9958
▁64	-10.9958
▁_petition	-10.9958
▁abandonment	-10.9958
▁abdominal	-10.9958
▁abnormal	-10.9958
▁abroad	-10.9958
▁absent	-10.9958
▁absurd	-10.9958
▁abuser	-10.9958
▁abusing	-10.9958
▁accommodate	-10.9958
▁accompanied	-10.9958
▁accomplishing	-10.9958
▁accused	-10.9958
▁accusing	-10.9958
▁accustomed	-10.9958
▁achieved	-10.9958
▁aching	-10.9958
▁acquaintance	-10.9958
▁activism	-10.9958
▁actress	-10.9958
▁adapt	-10.9958
▁adderal	-10.9958
▁addict	-10.9958
▁additionally	-10.9958
▁adequate	-10.9958
▁admiration	-10.9958
▁admission	-10.9958
▁adulthood	-10.9958
▁advised	-10.9958
▁aesthetic	-10.9958
▁affection	-10.9958
▁affluent	-10.9958
▁affordable	-10.9958
▁aged	-10.9958
▁agony	-10.9958
▁aim	-10.9958
▁aka	-10.9958
▁ala	-10.9958
▁alarming	-10.9958
▁albeit	-10.9958
▁alcoholic	-10.9958
▁alien	-10.9958
▁alley	-10.9958
▁allocate	-10.9958
▁allot	-10.9958
▁allowing	-10.9958
▁aloof	-10.9958
▁altered	-10.9958
▁american	-10.9958
▁amitriptyline	-10.9958
▁amongst	-10.9958
▁amygdala	-10.9958
▁analyze	-10.9958
▁analyzing	-10.9958
▁anaphylaxis	-10.9958
▁aninjusticemag	-10.9958
▁announced	-10.9958
▁anonymity	-10.9958
▁anonymously	-10.9958
▁antagonize	-10.9958
▁antibiotic	-10.9958
▁antonio	-10.9958
▁anxiousness	-10.9958
▁appearing	-10.9958
▁appreciation	-10.9958
▁approached	-10.9958
▁arent	-10.9958
▁argue	-10.9958
▁armed	-10.9958
▁army	-10.9958
▁arranged	-10.9958
▁arrangement	-10.9958
▁arrested	-10.9958
▁artery	-10.9958
▁artist	-10.9958
▁ass	-10.9958
▁asshat	-10.9958
▁assigned	-10.9958
▁associated	-10.9958
▁assured	-10.9958
▁aswell	-10.9958
▁ati	-10.9958
▁attach	-10.9958
▁attempting	-10.9958
▁aussie	-10.9958
▁authoritative	-10.9958
▁autoimmune	-10.9958
▁availability	-10.9958
▁avocado	-10.9958
▁avoidance	-10.9958
▁awe	-10.9958
▁b12	-10.9958
▁ba	-10.9958
▁babbling	-10.9958
▁backed	-10.9958
▁backstory	-10.9958
▁bacteria	-10.9958
▁baker	-10.9958
▁bakery	-10.9958
▁bald	-10.9958
▁balding	-10.9958
▁bam	-10.9958
▁banned	-10.9958
▁basketball	-10.9958
▁bass	-10.9958
▁bcs	-10.9958
▁bean	-10.9958
▁beard	-10.9958
▁bearing	-10.9958
▁becuase	-10.9958
▁beef	-10.9958
▁beer	-10.9958
▁behavioural	-10.9958
▁belonging	-10.9958
▁belongs	-10.9958
▁beneficial	-10.9958
▁bent	-10.9958
▁benzodiazepine	-10.9958
▁beqause	-10.9958
▁beta	-10.9958
▁biased	-10.9958
▁billion	-10.9958
▁biological	-10.9958
▁bitten	-10.9958
▁blacked	-10.9958
▁blessed	-10.9958
▁blocker	-10.9958
▁bloody	-10.9958
▁blushing	-10.9958
▁bodyimage	-10.9958
▁bonus	-10.9958
▁borderline	-10.9958
▁bp	-10.9958
▁brainwashed	-10.9958
▁breathed	-10.9958
▁breather	-10.9958
▁brew	-10.9958
▁brink	-10.9958
▁bubbling	-10.9958
▁buck	-10.9958
▁buddy	-10.9958
▁bull	-10.9958
▁bullying	-10.9958
▁bupropion	-10.9958
▁burdening	-10.9958
▁buried	-10.9958
▁burying	-10.9958
▁bust	-10.9958
▁buzz	-10.9958
▁buzzing	-10.9958
▁ca	-10.9958
▁cabinet	-10.9958
▁cake	-10.9958
▁calendar	-10.9958
▁caller	-10.9958
▁calmly	-10.9958
▁canada	-10.9958
▁canal	-10.9958
▁cancelling	-10.9958
▁cannabis	-10.9958
▁capitalism	-10.9958
▁cartoon	-10.9958
▁cashier	-10.9958
▁cast	-10.9958
▁castle	-10.9958
▁cater	-10.9958
▁cathartic	-10.9958
▁cavity	-10.9958
▁cease	-10.9958
▁celebrating	-10.9958
▁cemented	-10.9958
▁chair	-10.9958
▁challenging	-10.9958
▁chapter	-10.9958
▁characteristic	-10.9958
▁charged	-10.9958
▁charity	-10.9958
▁chase	-10.9958
▁chased	-10.9958
▁chatty	-10.9958
▁cheaper	-10.9958
▁cheat	-10.9958
▁cheating	-10.9958
▁cheesy	-10.9958
▁chew	-10.9958
▁chewbacca	-10.9958
▁chicken	-10.9958
▁childish	-10.9958
▁chin	-10.9958
▁chosen	-10.9958
▁chunk	-10.9958
▁churning	-10.9958
▁circled	-10.9958
▁civilized	-10.9958
▁claim	-10.9958
▁cleared	-10.9958
▁clearer	-10.9958
▁clench	-10.9958
▁clerk	-10.9958
▁clever	-10.9958
▁cliche	-10.9958
▁clientele	-10.9958
▁clinging	-10.9958
▁clipper	-10.9958
▁clothing	-10.9958
▁clueless	-10.9958
▁co2	-10.9958
▁coding	-10.9958
▁cognition	-10.9958
▁coherent	-10.9958
▁coincidence	-10.9958
▁colitis	-10.9958
▁colonoscopy	-10.9958
▁colour	-10.9958
▁comeback	-10.9958
▁comedian	-10.9958
▁command	-10.9958
▁commits	-10.9958
▁committee	-10.9958
▁committing	-10.9958
▁communicating	-10.9958
▁compete	-10.9958
▁completing	-10.9958
▁compliment	-10.9958
▁compose	-10.9958
▁comprehension	-10.9958
▁compulsion	-10.9958
▁compulsively	-10.9958
▁concentrating	-10.9958
▁concentration	-10.9958
▁concluded	-10.9958
▁conducting	-10.9958
▁confessed	-10.9958
▁confidential	-10.9958
▁confirm	-10.9958
▁confirmation	-10.9958
▁conquer	-10.9958
▁conservative	-10.9958
▁consist	-10.9958
▁consists	-10.9958
▁consultation	-10.9958
▁consulted	-10.9958
▁consume	-10.9958
▁consumed	-10.9958
▁consumes	-10.9958
▁contacted	-10.9958
▁contacting	-10.9958
▁contest	-10.9958
▁contrast	-10.9958
▁contribute	-10.9958
▁copy	-10.9958
▁copylink	-10.9958
▁corpse	-10.9958
▁corsage	-10.9958
▁coughing	-10.9958
▁covered	-10.9958
▁coz	-10.9958
▁cracker	-10.9958
▁cramp	-10.9958
▁cramped	-10.9958
▁crappy	-10.9958
▁crate	-10.9958
▁crave	-10.9958
▁criminal	-10.9958
▁critical	-10.9958
▁criticizing	-10.9958
▁crp	-10.9958
▁crumbled	-10.9958
▁crumbling	-10.9958
▁cuddle	-10.9958
▁cuddled	-10.9958
▁curse	-10.9958
▁custody	-10.9958
▁cycling	-10.9958
▁da3225tu	-10.9958
▁dam	-10.9958
▁damned	-10.9958
▁dancer	-10.9958
▁dancing	-10.9958
▁dang	-10.9958
▁dangerous	-10.9958
▁dated	-10.9958
▁david	-10.9958
▁deadly	-10.9958
▁dear	-10.9958
▁decency	-10.9958
▁defend	-10.9958
▁deferred	-10.9958
▁deficit	-10.9958
▁deja	-10.9958
▁deleting	-10.9958
▁democrat	-10.9958
▁dense	-10.9958
▁deodorant	-10.9958
▁depending	-10.9958
▁depreciating	-10.9958
▁deprivation	-10.9958
▁depth	-10.9958
▁design	-10.9958
▁designer	-10.9958
▁destroys	-10.9958
▁devastating	-10.9958
▁developer	-10.9958
▁device	-10.9958
▁devil	-10.9958
▁diabetes	-10.9958
▁diabetic	-10.9958
▁diaphragm	-10.9958
▁diarrhea	-10.9958
▁diego	-10.9958
▁digital	-10.9958
▁dilemma	-10.9958
▁dioxide	-10.9958
▁dire	-10.9958
▁director	-10.9958
▁disabling	-10.9958
▁disappears	-10.9958
▁disc	-10.9958
▁disclosure	-10.9958
▁dislike	-10.9958
▁disliked	-10.9958
▁dismissed	-10.9958
▁dismissive	-10.9958
▁disordered	-10.9958
▁disposable	-10.9958
▁disregarded	-10.9958
▁dissapeared	-10.9958
▁dissapoint	-10.9958
▁dissappeared	-10.9958
▁dissociated	-10.9958
▁distancing	-10.9958
▁ditch	-10.9958
▁divorce	-10.9958
▁dming	-10.9958
▁doens	-10.9958
▁dominant	-10.9958
▁dorm	-10.9958
▁downer	-10.9958
▁download	-10.9958
▁downloaded	-10.9958
▁downvotes	-10.9958
▁downward	-10.9958
▁dragging	-10.9958
▁dragon	-10.9958
▁drawing	-10.9958
▁drawn	-10.9958
▁dreaming	-10.9958
▁dress	-10.9958
▁dressing	-10.9958
▁drifted	-10.9958
▁drifting	-10.9958
▁drowsy	-10.9958
▁dug	-10.9958
▁dumbass	-10.9958
▁dwell	-10.9958
▁dwelling	-10.9958
▁dysfunction	-10.9958
▁earliest	-10.9958
▁earphone	-10.9958
▁eaten	-10.9958
▁eats	-10.9958
▁ecg	-10.9958
▁echo	-10.9958
▁edible	-10.9958
▁edu	-10.9958
▁educated	-10.9958
▁effected	-10.9958
▁effecting	-10.9958
▁effexeor	-10.9958
▁eh	-10.9958
▁electric	-10.9958
▁electricity	-10.9958
▁elevate	-10.9958
▁elevated	-10.9958
▁emailed	-10.9958
▁embarrassment	-10.9958
▁embrace	-10.9958
▁empathetic	-10.9958
▁employed	-10.9958
▁encephalitis	-10.9958
▁encounter	-10.9958
▁encouraged	-10.9958
▁encouraging	-10.9958
▁endlessly	-10.9958
▁endorphin	-10.9958
▁endure	-10.9958
▁engage	-10.9958
▁engagement	-10.9958
▁engine	-10.9958
▁engineering	-10.9958
▁englisch	-10.9958
▁enroll	-10.9958
▁enters	-10.9958
▁enthusiasm	-10.9958
▁entirety	-10.9958
▁envious	-10.9958
▁environmental	-10.9958
▁escrow	-10.9958
▁eternal	-10.9958
▁evaluated	-10.9958
▁evaluating	-10.9958
▁evaluation	-10.9958
▁evidence	-10.9958
▁exaggeration	-10.9958
▁exceeding	-10.9958
▁exceedingly	-10.9958
▁excess	-10.9958
▁excruciating	-10.9958
▁exhaustion	-10.9958
▁exited	-10.9958
▁expense	-10.9958
▁experimenting	-10.9958
▁expert	-10.9958
▁exploded	-10.9958
▁explore	-10.9958
▁exploring	-10.9958
▁expressing	-10.9958
▁ext	-10.9958
▁eyed	-10.9958
▁eyeing	-10.9958
▁facebook	-10.9958
▁factory	-10.9958
▁faded	-10.9958
▁familiy	-10.9958
▁farewell	-10.9958
▁favourite	-10.9958
▁fdzw	-10.9958
▁fearing	-10.9958
▁feather	-10.9958
▁feature	-10.9958
▁feb	-10.9958
▁fee	-10.9958
▁fellow	-10.9958
▁feminime	-10.9958
▁feminine	-10.9958
▁fetal	-10.9958
▁fetzima	-10.9958
▁fewer	-10.9958
▁fictional	-10.9958
▁fidgeting	-10.9958
▁fifth	-10.9958
▁figuring	-10.9958
▁financially	-10.9958
▁finn	-10.9958
▁firing	-10.9958
▁fish	-10.9958
▁fist	-10.9958
▁flag	-10.9958
▁flareups	-10.9958
▁flash	-10.9958
▁fleeting	-10.9958
▁flesh	-10.9958
▁flew	-10.9958
▁flirting	-10.9958
▁flood	-10.9958
▁flow	-10.9958
▁fo	-10.9958
▁follower	-10.9958
▁fond	-10.9958
▁forcefully	-10.9958
▁forearm	-10.9958
▁forehead	-10.9958
▁format	-10.9958
▁fountain	-10.9958
▁fr	-10.9958
▁frame	-10.9958
▁fraud	-10.9958
▁french	-10.9958
▁frickin	-10.9958
▁fridge	-10.9958
▁froze	-10.9958
▁fucker	-10.9958
▁fueled	-10.9958
▁fullest	-10.9958
▁fuming	-10.9958
▁funk	-10.9958
▁fuzzy	-10.9958
▁gaining	-10.9958
▁gait	-10.9958
▁galaxy	-10.9958
▁gasp	-10.9958
▁gaze	-10.9958
▁generating	-10.9958
▁genetic	-10.9958
▁gently	-10.9958
▁georgia	-10.9958
▁gerd	-10.9958
▁gesture	-10.9958
▁giant	-10.9958
▁giggling	-10.9958
▁glove	-10.9958
▁goof	-10.9958
▁googling	-10.9958
▁gordon	-10.9958
▁gorgeous	-10.9958
▁gossip	-10.9958
▁grammatical	-10.9958
▁grandparent	-10.9958
▁grant	-10.9958
▁grave	-10.9958
▁gravitate	-10.9958
▁grey	-10.9958
▁grip	-10.9958
▁groggy	-10.9958
▁grounding	-10.9958
▁groupchat	-10.9958
▁grumpy	-10.9958
▁guaranteed	-10.9958
▁guessed	-10.9958
▁guide	-10.9958
▁guitar	-10.9958
▁gunna	-10.9958
▁h	-10.9958
▁hack	-10.9958
▁hail	-10.9958
▁haircut	-10.9958
▁hampered	-10.9958
▁handicapped	-10.9958
▁harmed	-10.9958
▁harsh	-10.9958
▁harshly	-10.9958
▁hassle	-10.9958
▁hat	-10.9958
▁haunt	-10.9958
▁haunting	-10.9958
▁havnt	-10.9958
▁hazy	-10.9958
▁headphone	-10.9958
▁headspace	-10.9958
▁healing	-10.9958
▁healthily	-10.9958
▁heartbreaking	-10.9958
▁heaviness	-10.9958
▁hehe	-10.9958
▁heightened	-10.9958
▁hella	-10.9958
▁hemeopathy	-10.9958
▁hence	-10.9958
▁herbal	-10.9958
▁hermit	-10.9958
▁hernia	-10.9958
▁herniated	-10.9958
▁heyy	-10.9958
▁hierarchy	-10.9958
▁highway	-10.9958
▁hilarious	-10.9958
▁hinder	-10.9958
▁hint	-10.9958
▁hip	-10.9958
▁hired	-10.9958
▁hiya	-10.9958
▁hmm	-10.9958
▁hoarse	-10.9958
▁holed	-10.9958
▁holter	-10.9958
▁homelessness	-10.9958
▁homeopathy	-10.9958
▁hometown	-10.9958
▁honesty	-10.9958
▁honor	-10.9958
▁hopping	-10.9958
▁horrified	-10.9958
▁humor	-10.9958
▁humour	-10.9958
▁hunt	-10.9958
▁hurted	-10.9958
▁hydrated	-10.9958
▁hyperventilate	-10.9958
▁hypochondriac	-10.9958
▁iced	-10.9958
▁ig	-10.9958
▁ignores	-10.9958
▁ijfnaupe	-10.9958
▁imaginary	-10.9958
▁imagination	-10.9958
▁imagined	-10.9958
▁imaging	-10.9958
▁immature	-10.9958
▁impactful	-10.9958
▁implies	-10.9958
▁impromptu	-10.9958
▁improv	-10.9958
▁impulsive	-10.9958
▁inappropriate	-10.9958
▁inch	-10.9958
▁included	-10.9958
▁incompetent	-10.9958
▁indecision	-10.9958
▁indefinite	-10.9958
▁inducing	-10.9958
▁infact	-10.9958
▁inferiority	-10.9958
▁infinite	-10.9958
▁inflation	-10.9958
▁inflict	-10.9958
▁influence	-10.9958
▁inhale	-10.9958
▁inherently	-10.9958
▁initial	-10.9958
▁innocence	-10.9958
▁insignificant	-10.9958
▁inspection	-10.9958
▁inspire	-10.9958
▁insta	-10.9958
▁instruction	-10.9958
▁instructor	-10.9958
▁insulin	-10.9958
▁intelligence	-10.9958
▁intensity	-10.9958
▁intent	-10.9958
▁interacting	-10.9958
▁interferes	-10.9958
▁interfering	-10.9958
▁international	-10.9958
▁interpretation	-10.9958
▁interruption	-10.9958
▁interviewer	-10.9958
▁intestine	-10.9958
▁intimidating	-10.9958
▁introduction	-10.9958
▁investigate	-10.9958
▁invitation	-10.9958
▁involves	-10.9958
▁irony	-10.9958
▁itching	-10.9958
▁jack	-10.9958
▁jaded	-10.9958
▁jail	-10.9958
▁jake	-10.9958
▁james	-10.9958
▁japan	-10.9958
▁jeopardy	-10.9958
▁jerking	-10.9958
▁jitteriness	-10.9958
▁johnson	-10.9958
▁joyless	-10.9958
▁jumbled	-10.9958
▁jumpy	-10.9958
▁justifiably	-10.9958
▁justified	-10.9958
▁kicker	-10.9958
▁kidnapped	-10.9958
▁killer	-10.9958
▁kiss	-10.9958
▁kissed	-10.9958
▁kit	-10.9958
▁km	-10.9958
▁kylo	-10.9958
▁labor	-10.9958
▁lame	-10.9958
▁landlord	-10.9958
▁lane	-10.9958
▁lang	-10.9958
▁lap	-10.9958
▁lash	-10.9958
▁lean	-10.9958
▁leap	-10.9958
▁lease	-10.9958
▁leash	-10.9958
▁leeching	-10.9958
▁lessened	-10.9958
▁lexipro	-10.9958
▁lgbt	-10.9958
▁lifted	-10.9958
▁linden	-10.9958
▁lingering	-10.9958
▁lingers	-10.9958
▁lipstick	-10.9958
▁liquid	-10.9958
▁listed	-10.9958
▁liver	-10.9958
▁logical	-10.9958
▁looming	-10.9958
▁lorazepam	-10.9958
▁lord	-10.9958
▁loses	-10.9958
▁lottery	-10.9958
▁lovely	-10.9958
▁lymph	-10.9958
▁lyric	-10.9958
▁machado	-10.9958
▁magically	-10.9958
▁magnesium	-10.9958
▁mail	-10.9958
▁maintaining	-10.9958
▁makeup	-10.9958
▁mandatory	-10.9958
▁manifesting	-10.9958
▁manipulation	-10.9958
▁marathon	-10.9958
▁marceline	-10.9958
▁massively	-10.9958
▁masturbating	-10.9958
▁matching	-10.9958
▁mate	-10.9958
▁mathematics	-10.9958
▁mattered	-10.9958
▁mattress	-10.9958
▁mdd	-10.9958
▁meaninglessness	-10.9958
▁meanwhile	-10.9958
▁mechanic	-10.9958
▁medicating	-10.9958
▁melatonin	-10.9958
▁menace	-10.9958
▁mentality	-10.9958
▁mentor	-10.9958
▁micro	-10.9958
▁midday	-10.9958
▁midst	-10.9958
▁migraine	-10.9958
▁minded	-10.9958
▁mindless	-10.9958
▁minimize	-10.9958
▁minus	-10.9958
▁miserably	-10.9958
▁mishap	-10.9958
▁misunderstand	-10.9958
▁misunderstood	-10.9958
▁ml	-10.9958
▁mo	-10.9958
▁mock	-10.9958
▁mod	-10.9958
▁modern	-10.9958
▁moisturising	-10.9958
▁monthly	-10.9958
▁motherly	-10.9958
▁mr	-10.9958
▁mud	-10.9958
▁murder	-10.9958
▁na	-10.9958
▁nailed	-10.9958
▁nakakapagod	-10.9958
▁naman	-10.9958
▁named	-10.9958
▁nap	-10.9958
▁narcissist	-10.9958
▁narrative	-10.9958
▁national	-10.9958
▁nd	-10.9958
▁necessity	-10.9958
▁needlessly	-10.9958
▁neglecting	-10.9958
▁nerd	-10.9958
▁nest	-10.9958
▁neurologist	-10.9958
▁nevada	-10.9958
▁newer	-10.9958
▁nh	-10.9958
▁nicest	-10.9958
▁nickname	-10.9958
▁nicotine	-10.9958
▁node	-10.9958
▁nofap	-10.9958
▁nonsense	-10.9958
▁nonsensical	-10.9958
▁nonstop	-10.9958
▁noon	-10.9958
▁noone	-10.9958
▁noticeable	-10.9958
▁novel	-10.9958
▁nutrient	-10.9958
▁obese	-10.9958
▁obsessively	-10.9958
▁obtained	-10.9958
▁occupied	-10.9958
▁occupy	-10.9958
▁occur	-10.9958
▁offering	-10.9958
▁officially	-10.9958
▁offline	-10.9958
▁olanzapine	-10.9958
▁ongoing	-10.9958
▁ontario	-10.9958
▁operate	-10.9958
▁optimistic	-10.9958
▁optometrist	-10.9958
▁orange	-10.9958
▁ordered	-10.9958
▁organise	-10.9958
▁organising	-10.9958
▁organization	-10.9958
▁organized	-10.9958
▁outcast	-10.9958
▁outdoor	-10.9958
▁outing	-10.9958
▁outweighs	-10.9958
▁overbearing	-10.9958
▁overdosed	-10.9958
▁overdramatise	-10.9958
▁overeacting	-10.9958
▁overnight	-10.9958
▁overwhelm	-10.9958
▁oxycodone	-10.9958
▁packaging	-10.9958
▁packed	-10.9958
▁packing	-10.9958
▁painkiller	-10.9958
▁paint	-10.9958
▁painted	-10.9958
▁pajama	-10.9958
▁panicky	-10.9958
▁paperwork	-10.9958
▁paralyzing	-10.9958
▁parked	-10.9958
▁partake	-10.9958
▁participant	-10.9958
▁participation	-10.9958
▁patch	-10.9958
▁pc	-10.9958
▁pcr	-10.9958
▁penis	-10.9958
▁perceived	-10.9958
▁percent	-10.9958
▁percentage	-10.9958
▁perfectionism	-10.9958
▁performed	-10.9958
▁performing	-10.9958
▁permanently	-10.9958
▁petal	-10.9958
▁petrified	-10.9958
▁phased	-10.9958
▁philosophy	-10.9958
▁phlegm	-10.9958
▁phoning	-10.9958
▁phony	-10.9958
▁photograph	-10.9958
▁phrase	-10.9958
▁physician	-10.9958
▁pinching	-10.9958
▁pinpoint	-10.9958
▁pinworm	-10.9958
▁pitch	-10.9958
▁pizza	-10.9958
▁plagued	-10.9958
▁plaque	-10.9958
▁plastered	-10.9958
▁playlist	-10.9958
▁pleasant	-10.9958
▁plot	-10.9958
▁pmo	-10.9958
▁pocket	-10.9958
▁podcasts	-10.9958
▁pointed	-10.9958
▁pointing	-10.9958
▁poisoning	-10.9958
▁poke	-10.9958
▁popped	-10.9958
▁population	-10.9958
▁portfolio	-10.9958
▁portion	-10.9958
▁pose	-10.9958
▁positively	-10.9958
▁possession	-10.9958
▁posture	-10.9958
▁pouch	-10.9958
▁poured	-10.9958
▁powerful	-10.9958
▁powerless	-10.9958
▁practical	-10.9958
▁praying	-10.9958
▁predicted	-10.9958
▁premise	-10.9958
▁prepares	-10.9958
▁preschool	-10.9958
▁press	-10.9958
▁pressuring	-10.9958
▁prestigious	-10.9958
▁prevents	-10.9958
▁prime	-10.9958
▁private_contact	-10.9958
▁pro	-10.9958
▁probation	-10.9958
▁proceed	-10.9958
▁proceeded	-10.9958
▁procrastinate	-10.9958
▁produced	-10.9958
▁professionnal	-10.9958
▁profile	-10.9958
▁profound	-10.9958
▁programmer	-10.9958
▁promoted	-10.9958
▁promotion	-10.9958
▁promptly	-10.9958
▁prone	-10.9958
▁property	-10.9958
▁proposed	-10.9958
▁propranolol	-10.9958
▁protecting	-10.9958
▁protection	-10.9958
▁protracted	-10.9958
▁proving	-10.9958
▁pseudo	-10.9958
▁psychology	-10.9958
▁psyciatrist	-10.9958
▁pt	-10.9958
▁puberty	-10.9958
▁publicly	-10.9958
▁publish	-10.9958
▁puke	-10.9958
▁punched	-10.9958
▁punctuation	-10.9958
▁punished	-10.9958
▁purposeful	-10.9958
▁purposely	-10.9958
▁purse	-10.9958
▁pursuit	-10.9958
▁quantity	-10.9958
▁quarter	-10.9958
▁queen	-10.9958
▁questionable	-10.9958
▁queue	-10.9958
▁quits	-10.9958
▁rabid	-10.9958
▁racking	-10.9958
▁ramp	-10.9958
▁ramping	-10.9958
▁raped	-10.9958
▁rapidly	-10.9958
▁rash	-10.9958
▁rat	-10.9958
▁rational	-10.9958
▁realising	-10.9958
▁reassure	-10.9958
▁recall	-10.9958
▁recognise	-10.9958
▁reconnected	-10.9958
▁recruiter	-10.9958
▁recurring	-10.9958
▁redirect	-10.9958
▁redo	-10.9958
▁reference	-10.9958
▁referral	-10.9958
▁refusing	-10.9958
▁regimen	-10.9958
▁register	-10.9958
▁registered	-10.9958
▁reinstated	-10.9958
▁reinstating	-10.9958
▁rejecting	-10.9958
▁relates	-10.9958
▁relation	-10.9958
▁releasing	-10.9958
▁relevant	-10.9958
▁reliving	-10.9958
▁remaining	-10.9958
▁remeron	-10.9958
▁remorse	-10.9958
▁removal	-10.9958
▁ren	-10.9958
▁repetitive	-10.9958
▁representative	-10.9958
▁repressed	-10.9958
▁repulsive	-10.9958
▁reputation	-10.9958
▁require	-10.9958
▁requirement	-10.9958
▁reschedule	-10.9958
▁rescue	-10.9958
▁reselling	-10.9958
▁resent	-10.9958
▁residential	-10.9958
▁resist	-10.9958
▁resistance	-10.9958
▁resistant	-10.9958
▁resisting	-10.9958
▁resort	-10.9958
▁resting	-10.9958
▁restricted	-10.9958
▁retarded	-10.9958
▁retirement	-10.9958
▁revealed	-10.9958
▁review	-10.9958
▁rib	-10.9958
▁riddled	-10.9958
▁righteous	-10.9958
▁ripped	-10.9958
▁rly	-10.9958
▁roadblock	-10.9958
▁robbed	-10.9958
▁robin	-10.9958
▁rollercoaster	-10.9958
▁romance	-10.9958
▁rope	-10.9958
▁rota	-10.9958
▁roughly	-10.9958
▁ruled	-10.9958
▁rumour	-10.9958
▁runny	-10.9958
▁rupture	-10.9958
▁rushed	-10.9958
▁s8mwbi	-10.9958
▁sa	-10.9958
▁sabotage	-10.9958
▁safely	-10.9958
▁sake	-10.9958
▁salvage	-10.9958
▁san	-10.9958
▁sarcasm	-10.9958
▁scarier	-10.9958
▁scariest	-10.9958
▁scheme	-10.9958
▁scientifically	-10.9958
▁scooping	-10.9958
▁scraping	-10.9958
▁screwing	-10.9958
▁scroll	-10.9958
▁searched	-10.9958
▁seasonal	-10.9958
▁seat	-10.9958
▁sec	-10.9958
▁secretly	-10.9958
▁seeming	-10.9958
▁seize	-10.9958
▁selfharm	-10.9958
▁seller	-10.9958
▁seminar	-10.9958
▁semster	-10.9958
▁sensitivity	-10.9958
▁settled	-10.9958
▁shade	-10.9958
▁shamed	-10.9958
▁shape	-10.9958
▁share_petition	-10.9958
▁shared	-10.9958
▁shaved	-10.9958
▁sheep	-10.9958
▁shi	-10.9958
▁shifting	-10.9958
▁shining	-10.9958
▁ship	-10.9958
▁shocked	-10.9958
▁shook	-10.9958
▁shortest	-10.9958
▁shouted	-10.9958
▁showered	-10.9958
▁shown	-10.9958
▁sideline	-10.9958
▁silver	-10.9958
▁similarly	-10.9958
▁simulation	-10.9958
▁sin	-10.9958
▁sink	-10.9958
▁sitcom	-10.9958
▁skilled	-10.9958
▁skipped	-10.9958
▁skull	-10.9958
▁skype	-10.9958
▁skyrocket	-10.9958
▁sl	-10.9958
▁slavery	-10.9958
▁slaving	-10.9958
▁sleepover	-10.9958
▁sliced	-10.9958
▁slipping	-10.9958
▁slog	-10.9958
▁slumber	-10.9958
▁smaller	-10.9958
▁smash	-10.9958
▁smashing	-10.9958
▁smelling	-10.9958
▁smiled	-10.9958
▁smiley	-10.9958
▁smiling	-10.9958
▁smoker	-10.9958
▁smooth	-10.9958
▁snapchat	-10.9958
▁snow	-10.9958
▁snris	-10.9958
▁sob	-10.9958
▁soccer	-10.9958
▁sociable	-10.9958
▁socialising	-10.9958
▁sociopathic	-10.9958
▁soften	-10.9958
▁solidarity	-10.9958
▁solo	-10.9958
▁somethings	-10.9958
▁soooo	-10.9958
▁soothe	-10.9958
▁soothing	-10.9958
▁sophomore	-10.9958
▁sorrow	-10.9958
▁southern	-10.9958
▁specialist	-10.9958
▁specify	-10.9958
▁spilled	-10.9958
▁spiralling	-10.9958
▁spoken	-10.9958
▁spotlight	-10.9958
▁spray	-10.9958
▁spurt	-10.9958
▁squad	-10.9958
▁squeeze	-10.9958
▁stabbed	-10.9958
▁stabilizer	-10.9958
▁stain	-10.9958
▁stair	-10.9958
▁stake	-10.9958
▁stalking	-10.9958
▁stall	-10.9958
▁stamen	-10.9958
▁stamping	-10.9958
▁static	-10.9958
▁stellar	-10.9958
▁stepping	-10.9958
▁steroid	-10.9958
▁stimulate	-10.9958
▁stimulation	-10.9958
▁stolen	-10.9958
▁stored	-10.9958
▁strand	-10.9958
▁streaming	-10.9958
▁stretched	-10.9958
▁strict	-10.9958
▁striving	-10.9958
▁stupidly	-10.9958
▁stuttered	-10.9958
▁subconscious	-10.9958
▁subreddits	-10.9958
▁substitute	-10.9958
▁subway	-10.9958
▁succeeded	-10.9958
▁sucking	-10.9958
▁suffocation	-10.9958
▁suit	-10.9958
▁suitable	-10.9958
▁summary	-10.9958
▁supply	-10.9958
▁supported	-10.9958
▁suppress	-10.9958
▁suppressed	-10.9958
▁surgeon	-10.9958
▁surpress	-10.9958
▁survivingantidepressants	-10.9958
▁survivor	-10.9958
▁sushi	-10.9958
▁suspended	-10.9958
▁sustainable	-10.9958
▁sv	-10.9958
▁swab	-10.9958
▁swallowing	-10.9958
▁swelling	-10.9958
▁swimming	-10.9958
▁swing	-10.9958
▁swirling	-10.9958
▁switching	-10.9958
▁swore	-10.9958
▁sympathy	-10.9958
▁tackle	-10.9958
▁taco	-10.9958
▁tad	-10.9958
▁taller	-10.9958
▁teary	-10.9958
▁temp	-10.9958
▁temporarily	-10.9958
▁tensing	-10.9958
▁terrifies	-10.9958
▁territory	-10.9958
▁testosterone	-10.9958
▁theme	-10.9958
▁theoretically	-10.9958
▁therapy_	-10.9958
▁theyre	-10.9958
▁thinning	-10.9958
▁thrash	-10.9958
▁thrive	-10.9958
▁throbbing	-10.9958
▁thyroid	-10.9958
▁tia	-10.9958
▁tick	-10.9958
▁tie	-10.9958
▁tighten	-10.9958
▁tiktoks	-10.9958
▁tile	-10.9958
▁timed	-10.9958
▁timing	-10.9958
▁tingle	-10.9958
▁tm	-10.9958
▁toddler	-10.9958
▁toenail	-10.9958
▁tolerable	-10.9958
▁tolerate	-10.9958
▁tongue	-10.9958
▁torment	-10.9958
▁tornado	-10.9958
▁toronto	-10.9958
▁torso	-10.9958
▁tortured	-10.9958
▁torwards	-10.9958
▁tossing	-10.9958
▁tought	-10.9958
▁toward	-10.9958
▁toxicity	-10.9958
▁trace	-10.9958
▁traditional	-10.9958
▁tragedy	-10.9958
▁trainee	-10.9958
▁trainer	-10.9958
▁trait	-10.9958
▁transcranial	-10.9958
▁transition	-10.9958
▁traumatize	-10.9958
▁traumatizing	-10.9958
▁travelling	-10.9958
▁trembly	-10.9958
▁trough	-10.9958
▁tryna	-10.9958
▁tumbler	-10.9958
▁tumblr	-10.9958
▁tummy	-10.9958
▁tumor	-10.9958
▁tumour	-10.9958
▁tunnel	-10.9958
▁twin	-10.9958
▁twisting	-10.9958
▁twitter	-10.9958
▁ty	-10.9958
▁typo	-10.9958
▁uc	-10.9958
▁ucsd	-10.9958
▁uh	-10.9958
▁ultimate	-10.9958
▁un	-10.9958
▁unaware	-10.9958
▁unbeknownst	-10.9958
▁unbelievably	-10.9958
▁undergrad	-10.9958
▁understandable	-10.9958
▁underweight	-10.9958
▁unexplained	-10.9958
▁unfamiliar	-10.9958
▁unfit	-10.9958
▁unfortunate	-10.9958
▁unintentionally	-10.9958
▁unlikely	-10.9958
▁unloved	-10.9958
▁unmoved	-10.9958
▁unnecessarily	-10.9958
▁unpack	-10.9958
▁unproductive	-10.9958
▁unprofessional	-10.9958
▁unrelated	-10.9958
▁untrue	-10.9958
▁unusual	-10.9958
▁upbringing	-10.9958
▁updated	-10.9958
▁uploaded	-10.9958
▁uploading	-10.9958
▁upped	-10.9958
▁upward	-10.9958
▁urgent	-10.9958
▁urine	-10.9958
▁us	-10.9958
▁vague	-10.9958
▁vampire	-10.9958
▁vapes	-10.9958
▁variety	-10.9958
▁vega	-10.9958
▁vehicle	-10.9958
▁vented	-10.9958
▁verified	-10.9958
▁viable	-10.9958
▁vic	-10.9958
▁vicodin	-10.9958
▁viewing	-10.9958
▁violence	-10.9958
▁virginity	-10.9958
▁virtually	-10.9958
▁vit	-10.9958
▁voicemail	-10.9958
▁voluntary	-10.9958
▁voted	-10.9958
▁vow	-10.9958
▁vu	-10.9958
▁waitress	-10.9958
▁wallet	-10.9958
▁wandering	-10.9958
▁wane	-10.9958
▁warehouse	-10.9958
▁washed	-10.9958
▁washer	-10.9958
▁washing	-10.9958
▁weaker	-10.9958
▁weakness	-10.9958
▁weaning	-10.9958
▁web	-10.9958
▁webcam	-10.9958
▁weighs	-10.9958
▁weightlifting	-10.9958
▁weirdo	-10.9958
▁wept	-10.9958
▁wet	-10.9958
▁wheel	-10.9958
▁whim	-10.9958
▁whiny	-10.9958
▁whiskey	-10.9958
▁wholeheartedly	-10.9958
▁wifi	-10.9958
▁williams	-10.9958
▁wing	-10.9958
▁witch	-10.9958
▁witchcraft	-10.9958
▁withdrawing	-10.9958
▁withdrawls	-10.9958
▁withered	-10.9958
▁witness	-10.9958
▁witnessed	-10.9958
▁woohoo	-10.9958
▁wore	-10.9958
▁workbook	-10.9958
▁worm	-10.9958
▁worsen	-10.9958
▁worsens	-10.9958
▁worship	-10.9958
▁wrecking	-10.9958
▁writer	-10.9958
▁writes	-10.9958
▁ww3	-10.9958
▁ya	-10.9958
▁yan	-10.9958
▁yard	-10.9958
▁yawning	-10.9958
▁yay	-10.9958
▁yea	-10.9958
▁yearning	-10.9958
▁yk	-10.9958
▁ykw	-10.9958
▁yoke	-10.9958
▁york	-10.9958
▁youre	-10.9958
▁youth	-10.9958
▁z	-10.9958
▁zap	-10.9958
▁zombie	-10.9958
▁03am	-11.689
▁1000	-11.689
▁10000	-11.689
▁1000mph	-11.689
▁100k	-11.689
▁102	-11.689
▁10ish	-11.689
▁10kg	-11.689
▁10th	-11.689
▁118kg	-11.689
▁11am	-11.689
▁11th	-11.689
▁120	-11.689
▁124p	-11.689
▁125	-11.689
▁128	-11.689
▁12ish	-11.689
▁12mg	-11.689
▁12yo	-11.689
▁1300	-11.689
▁138	-11.689
▁13f	-11.689
▁140	-11.689
▁14th	-11.689
▁1500	-11.689
▁15m	-11.689
▁15mins	-11.689
▁160	-11.689
▁161	-11.689
▁162	-11.689
▁16m	-11.689
▁16th	-11.689
▁18m	-11.689
▁1mm	-11.689
▁200	-11.689
▁2005	-11.689
▁2006	-11.689
▁2011	-11.689
▁2014	-11.689
▁2015	-11.689
▁2016	-11.689
▁20f	-11.689
▁20kg	-11.689
▁20lbs	-11.689
▁20th	-11.689
▁20x	-11.689
▁20years	-11.689
▁20yrs	-11.689
▁210	-11.689
▁22m	-11.689
▁22yo	-11.689
▁23cm	-11.689
▁24h	-11.689
▁2500	-11.689
▁255	-11.689
▁25_rule_	-11.689
▁2600	-11.689
▁260pounds	-11.689
▁28f	-11.689
▁2appkoq	-11.689
▁2x	-11.689
▁30f	-11.689
▁30lbs	-11.689
▁30pm	-11.689
▁321	-11.689
▁32f	-11.689
▁32m	-11.689
▁32yo	-11.689
▁33	-11.689
▁330	-11.689
▁33m	-11.689
▁342	-11.689
▁34y	-11.689
▁38	-11.689
▁38m	-11.689
▁3ish	-11.689
▁3mgs	-11.689
▁3y	-11.689
▁400	-11.689
▁41	-11.689
▁44	-11.689
▁4am	-11.689
▁4pm	-11.689
▁4x	-11.689
▁50am	-11.689
▁50k	-11.689
▁51k	-11.689
▁530am	-11.689
▁54321	-11.689
▁5f	-11.689
▁5hours	-11.689
▁5hrs	-11.689
▁5in	-11.689
▁5ish	-11.689
▁5minutes	-11.689
▁5pm	-11.689
▁6000mg	-11.689
▁65	-11.689
▁6yrs	-11.689
▁800	-11.689
▁80bpm	-11.689
▁82	-11.689
▁858	-11.689
▁85bpm	-11.689
▁8pm	-11.689
▁8yo	-11.689
▁8yrs	-11.689
▁_____	-11.689
▁_acceptance	-11.689
▁_campaign	-11.689
▁_cognitive	-11.689
▁_content	-11.689
▁_decaf_	-11.689
▁_deep	-11.689
▁_en	-11.689
▁_everything	-11.689
▁_i	-11.689
▁_magnetic	-11.689
▁_medium	-11.689
▁_meds_	-11.689
▁_o	-11.689
▁_sharecopy	-11.689
▁_source	-11.689
▁_stimulation	-11.689
▁_this_	-11.689
▁_tpost	-11.689
▁_tposting	-11.689
▁aa	-11.689
▁aaaaaaa	-11.689
▁aaaaaaaaa	-11.689
▁aah	-11.689
▁ab	-11.689
▁abc	-11.689
▁abit	-11.689
▁abomination	-11.689
▁aborted	-11.689
▁abruptly	-11.689
▁absorb	-11.689
▁absorbing	-11.689
▁abstinence	-11.689
▁abstract	-11.689
▁abysmal	-11.689
▁acacia	-11.689
▁academia	-11.689
▁acc	-11.689
▁accentuate	-11.689
▁acceptance	-11.689
▁acceptancecommitment	-11.689
▁accepts	-11.689
▁accidently	-11.689
▁accommodation	-11.689
▁accompany	-11.689
▁accumulate	-11.689
▁accumulated	-11.689
▁aced	-11.689
▁ached	-11.689
▁achievement	-11.689
▁achieving	-11.689
▁achy	-11.689
▁acidity	-11.689
▁acknowledgement	-11.689
▁acne	-11.689
▁acquire	-11.689
▁acrosd	-11.689
▁acrossthe	-11.689
▁actovities	-11.689
▁acussing	-11.689
▁adamant	-11.689
▁adamantly	-11.689
▁adapted	-11.689
▁adaptogens	-11.689
▁addicting	-11.689
▁addictive	-11.689
▁addressed	-11.689
▁adequately	-11.689
▁aderall	-11.689
▁adjust	-11.689
▁adjuster	-11.689
▁adjustment	-11.689
▁admin	-11.689
▁admire	-11.689
▁admitting	-11.689
▁adopt	-11.689
▁adorable	-11.689
▁adore	-11.689
▁adored	-11.689
▁adores	-11.689
▁adrenalin	-11.689
▁adresses	-11.689
▁advanced	-11.689
▁adverse	-11.689
▁advertises	-11.689
▁advertising	-11.689
▁advisor	-11.689
▁advocate	-11.689
▁advocating	-11.689
▁afloat	-11.689
▁african	-11.689
▁aftermath	-11.689
▁againts	-11.689
▁aggressively	-11.689
▁aggrevated	-11.689
▁agitation	-11.689
▁agreement	-11.689
▁aha	-11.689
▁ahah	-11.689
▁ahold	-11.689
▁aimlessly	-11.689
▁airbnbs	-11.689
▁airplane	-11.689
▁al	-11.689
▁alarm	-11.689
▁alcholism	-11.689
▁alienated	-11.689
▁aligned	-11.689
▁allegedly	-11.689
▁alleviate	-11.689
▁allll	-11.689
▁allowance	-11.689
▁aloneness	-11.689
▁alseep	-11.689
▁alt	-11.689
▁altern	-11.689
▁alternately	-11.689
▁alternating	-11.689
▁altough	-11.689
▁alward	-11.689
▁amazingly	-11.689
▁ambitious	-11.689
▁amd	-11.689
▁amends	-11.689
▁amidst	-11.689
▁amitryptaline	-11.689
▁amped	-11.689
▁amplified	-11.689
▁amplifies	-11.689
▁amused	-11.689
▁amusing	-11.689
▁anal	-11.689
▁analogously	-11.689
▁analogy	-11.689
▁ananya	-11.689
▁anaphylactic	-11.689
▁anchor	-11.689
▁android_app	-11.689
▁anecdote	-11.689
▁anemia	-11.689
▁angel	-11.689
▁angeles	-11.689
▁angery	-11.689
▁angle	-11.689
▁angst	-11.689
▁anniversary	-11.689
▁annotated	-11.689
▁announcement	-11.689
▁annoy	-11.689
▁annual	-11.689
▁anonymous	-11.689
▁ant	-11.689
▁antagonistic	-11.689
▁anticipation	-11.689
▁anticipatory	-11.689
▁antiepelectic	-11.689
▁antiperspirant	-11.689
▁antipsychotic	-11.689
▁antipyschotic	-11.689
▁antisocial	-11.689
▁anyresumes	-11.689
▁apnea	-11.689
▁apointment	-11.689
▁apologetic	-11.689
▁apologise	-11.689
▁appears	-11.689
▁appereance	-11.689
▁applies	-11.689
▁appreciates	-11.689
▁appreciating	-11.689
▁apprenticeship	-11.689
▁approachable	-11.689
▁approaching	-11.689
▁appropriately	-11.689
▁approved	-11.689
▁appt	-11.689
▁archive	-11.689
▁arguably	-11.689
▁argued	-11.689
▁arising	-11.689
▁armpit	-11.689
▁arogent	-11.689
▁array	-11.689
▁arrest	-11.689
▁arrgh	-11.689
▁arrival	-11.689
▁arrives	-11.689
▁arsed	-11.689
▁arsenal	-11.689
▁arte	-11.689
▁artistic	-11.689
▁artwork	-11.689
▁asd	-11.689
▁asf	-11.689
▁ash	-11.689
▁ashwaghanda	-11.689
▁asmr	-11.689
▁aspiration	-11.689
▁aspire	-11.689
▁assault	-11.689
▁assaulted	-11.689
▁assed	-11.689
▁assing	-11.689
▁assist	-11.689
▁assisted	-11.689
▁associate	-11.689
▁asst	-11.689
▁asylum	-11.689
▁athletic	-11.689
▁atleaset	-11.689
▁atp	-11.689
▁atrophy	-11.689
▁attacking	-11.689
▁attacs	-11.689
▁attended	-11.689
▁attick	-11.689
▁attributed	-11.689
▁atypical	-11.689
▁audacity	-11.689
▁audible	-11.689
▁audio	-11.689
▁audit	-11.689
▁auditory	-11.689
▁augment	-11.689
▁authentic	-11.689
▁authority	-11.689
▁authorization	-11.689
▁autocompassion	-11.689
▁automated	-11.689
▁automatic	-11.689
▁automatically	-11.689
▁automation	-11.689
▁autonomy	-11.689
▁avail	-11.689
▁averaging	-11.689
▁averse	-11.689
▁aversion	-11.689
▁avpd	-11.689
▁await	-11.689
▁awaiting	-11.689
▁awakens	-11.689
▁aways	-11.689
▁awkwardly	-11.689
▁ay	-11.689
▁ayahuasca	-11.689
▁baba	-11.689
▁babble	-11.689
▁babyface	-11.689
▁baccalaureate	-11.689
▁backing	-11.689
▁backpack	-11.689
▁backrub	-11.689
▁backtracking	-11.689
▁backward	-11.689
▁backwards	-11.689
▁baclofen	-11.689
▁badger	-11.689
▁bahay	-11.689
▁bait	-11.689
▁baked	-11.689
▁baking	-11.689
▁bakit	-11.689
▁balled	-11.689
▁balloon	-11.689
▁bandcamp	-11.689
▁bang	-11.689
▁banner	-11.689
▁banter	-11.689
▁barbaric	-11.689
▁barbecue	-11.689
▁barber	-11.689
▁bareable	-11.689
▁barista	-11.689
▁barium	-11.689
▁bark	-11.689
▁barley	-11.689
▁barrage	-11.689
▁barrier	-11.689
▁base	-11.689
▁baseball	-11.689
▁basement	-11.689
▁bashed	-11.689
▁basicly	-11.689
▁basket	-11.689
▁bastard	-11.689
▁batch	-11.689
▁batchmates	-11.689
▁bathe	-11.689
▁batshit	-11.689
▁battery	-11.689
▁battling	-11.689
▁bawling	-11.689
▁bay	-11.689
▁bbq	-11.689
▁bcst	-11.689
▁bdd	-11.689
▁bead	-11.689
▁beast	-11.689
▁beauty	-11.689
▁becaause	-11.689
▁bedding	-11.689
▁bedridden	-11.689
▁bedrock	-11.689
▁bedsheets	-11.689
▁bedtime	-11.689
▁beeing	-11.689
▁beeping	-11.689
▁befriend	-11.689
▁befuddle	-11.689
▁beg	-11.689
▁beginner	-11.689
▁behalf	-11.689
▁behave	-11.689
▁behaving	-11.689
▁beleive	-11.689
▁believer	-11.689
▁belittled	-11.689
▁belive	-11.689
▁belonged	-11.689
▁bending	-11.689
▁beneath	-11.689
▁berated	-11.689
▁bestfriend	-11.689
▁bestfriends	-11.689
▁bestie	-11.689
▁betrail	-11.689
▁betray	-11.689
▁betrayal	-11.689
▁bias	-11.689
▁bible	-11.689
▁bid	-11.689
▁bigoted	-11.689
▁bike	-11.689
▁bile	-11.689
▁billed	-11.689
▁billionth	-11.689
▁bings	-11.689
▁biology	-11.689
▁bipolarism	-11.689
▁bispurone	-11.689
▁biter	-11.689
▁biting	-11.689
▁bizarre	-11.689
▁blabbering	-11.689
▁blackburn	-11.689
▁blackness	-11.689
▁bladder	-11.689
▁blandest	-11.689
▁blanking	-11.689
▁blankly	-11.689
▁blaring	-11.689
▁blast	-11.689
▁bleed	-11.689
▁blend	-11.689
▁blending	-11.689
▁bless	-11.689
▁blessing	-11.689
▁blew	-11.689
▁blindsided	-11.689
▁blinking	-11.689
▁bliss	-11.689
▁blister	-11.689
▁blob	-11.689
▁blockade	-11.689
▁blockage	-11.689
▁blooded	-11.689
▁bloom	-11.689
▁blotchy	-11.689
▁blowing	-11.689
▁bluntly	-11.689
▁bmi	-11.689
▁bmo	-11.689
▁boast	-11.689
▁boat	-11.689
▁bodied	-11.689
▁bodily	-11.689
▁bodyache	-11.689
▁boiling	-11.689
▁bolster	-11.689
▁bombard	-11.689
▁bombarded	-11.689
▁bombing	-11.689
▁bonding	-11.689
▁bookshelf	-11.689
▁boosted	-11.689
▁boot	-11.689
▁bore	-11.689
▁boredom	-11.689
▁bosse	-11.689
▁botched	-11.689
▁bothersome	-11.689
▁bottemless	-11.689
▁bottling	-11.689
▁bottomless	-11.689
▁boulder	-11.689
▁bour	-11.689
▁bow	-11.689
▁boxer	-11.689
▁brace	-11.689
▁brad	-11.689
▁brag	-11.689
▁bragging	-11.689
▁braindead	-11.689
▁brainwash	-11.689
▁branch	-11.689
▁brandon	-11.689
▁bratty	-11.689
▁breakthrough	-11.689
▁breast	-11.689
▁breathes	-11.689
▁breathing_	-11.689
▁breathless	-11.689
▁breathtaking	-11.689
▁bref	-11.689
▁brian	-11.689
▁briefly	-11.689
▁brittle	-11.689
▁bro	-11.689
▁bros	-11.689
▁brown	-11.689
▁browse	-11.689
▁bruising	-11.689
▁brunt	-11.689
▁bsed	-11.689
▁bsomething	-11.689
▁btc	-11.689
▁bu	-11.689
▁bubbly	-11.689
▁budgeting	-11.689
▁buff	-11.689
▁bugged	-11.689
▁bugging	-11.689
▁buildup	-11.689
▁bulging	-11.689
▁bulldog	-11.689
▁bully	-11.689
▁bum	-11.689
▁bumbling	-11.689
▁bunting	-11.689
▁bur	-11.689
▁burdened	-11.689
▁burdensome	-11.689
▁burnout	-11.689
▁bury	-11.689
▁busier	-11.689
▁busprione	-11.689
▁bustling	-11.689
▁butterfly	-11.689
▁buzzfeed	-11.689
▁bv	-11.689
▁cabin	-11.689
▁cable	-11.689
▁calculate	-11.689
▁calculator	-11.689
▁calf	-11.689
▁calisthenics	-11.689
▁calmers	-11.689
▁calming	-11.689
▁calorie	-11.689
▁cam	-11.689
▁campaign	-11.689
▁camping	-11.689
▁campus	-11.689
▁canceled	-11.689
▁candidate	-11.689
▁cannabinoid	-11.689
▁canyon	-11.689
▁capsule	-11.689
▁captain	-11.689
▁captcha	-11.689
▁carbs	-11.689
▁carefree	-11.689
▁carefully	-11.689
▁caregiver	-11.689
▁caretaker	-11.689
▁carpal	-11.689
▁carpe	-11.689
▁carpentry	-11.689
▁carpet	-11.689
▁carpeted	-11.689
▁carried	-11.689
▁carrier	-11.689
▁cartoony	-11.689
▁cascade	-11.689
▁cash	-11.689
▁cassian	-11.689
▁casuing	-11.689
▁cataloging	-11.689
▁catastrophic	-11.689
▁catastrophizing	-11.689
▁catching	-11.689
▁catfish	-11.689
▁catfished	-11.689
▁catharsis	-11.689
▁causevme	-11.689
▁cave	-11.689
▁caved	-11.689
▁cba	-11.689
▁ceased	-11.689
▁celebrated	-11.689
▁celebrity	-11.689
▁cell	-11.689
▁censentually	-11.689
▁ceo	-11.689
▁cereal	-11.689
▁certainty	-11.689
▁cf	-11.689
▁chain	-11.689
▁chained	-11.689
▁challenge	-11.689
▁challenged	-11.689
▁chameleon	-11.689
▁changer	-11.689
▁channel	-11.689
▁chaotic	-11.689
▁chapped	-11.689
▁charade	-11.689
▁charcoal	-11.689
▁charger	-11.689
▁charisma	-11.689
▁charismatic	-11.689
▁charleston	-11.689
▁chastising	-11.689
▁chattering	-11.689
▁chatting	-11.689
▁chavy	-11.689
▁cheap	-11.689
▁cheaply	-11.689
▁cheek	-11.689
▁cheesed	-11.689
▁chemically	-11.689
▁chemistry	-11.689
▁cherish	-11.689
▁cherished	-11.689
▁cherry	-11.689
▁chewy	-11.689
▁chickened	-11.689
▁childlike	-11.689
▁chilled	-11.689
▁china	-11.689
▁chinese	-11.689
▁chipped	-11.689
▁chipper	-11.689
▁chirping	-11.689
▁chit	-11.689
▁chlonazapam	-11.689
▁choke	-11.689
▁chronically	-11.689
▁chuck	-11.689
▁chugging	-11.689
▁chummy	-11.689
▁cicada	-11.689
▁cico	-11.689
▁cidal	-11.689
▁cigs	-11.689
▁cinco	-11.689
▁cindy	-11.689
▁cinematography	-11.689
▁circling	-11.689
▁circuiting	-11.689
▁circuitry	-11.689
▁circulating	-11.689
▁circulation	-11.689
▁circumstance	-11.689
▁circus	-11.689
▁citizenship	-11.689
▁civic	-11.689
▁cked	-11.689
▁cl	-11.689
▁claiming	-11.689
▁clammy	-11.689
▁clarify	-11.689
▁clarifying	-11.689
▁clasp	-11.689
▁class8s	-11.689
▁cleanliness	-11.689
▁clearance	-11.689
▁clearing	-11.689
▁clenched	-11.689
▁clg	-11.689
▁clickbait	-11.689
▁clicked	-11.689
▁cliff	-11.689
▁climbing	-11.689
▁cling	-11.689
▁clockwork	-11.689
▁clog	-11.689
▁clonaxepam	-11.689
▁clonazipam	-11.689
▁clonidine	-11.689
▁clonopin	-11.689
▁closet	-11.689
▁cloth	-11.689
▁clouding	-11.689
▁clued	-11.689
▁cluster	-11.689
▁clutching	-11.689
▁clutter	-11.689
▁cmon	-11.689
▁cnn	-11.689
▁coached	-11.689
▁coaching	-11.689
▁coast	-11.689
▁coat	-11.689
▁cocaine	-11.689
▁cofe	-11.689
▁cognizant	-11.689
▁coherently	-11.689
▁coincidentally	-11.689
▁coincides	-11.689
▁coke	-11.689
▁cola	-11.689
▁coldest	-11.689
▁coleagues	-11.689
▁collected	-11.689
▁collection	-11.689
▁collective	-11.689
▁collegue	-11.689
▁coma	-11.689
▁comb	-11.689
▁comfortably	-11.689
▁comforted	-11.689
▁commended	-11.689
▁commenting	-11.689
▁comming	-11.689
▁commiseration	-11.689
▁commonality	-11.689
▁commotion	-11.689
▁communist	-11.689
▁comorbid	-11.689
▁companionship	-11.689
▁comparison	-11.689
▁compassion	-11.689
▁compassionate	-11.689
▁compatiblism	-11.689
▁compelled	-11.689
▁compensated	-11.689
▁compensating	-11.689
▁competent	-11.689
▁compilation	-11.689
▁complains	-11.689
▁complicating	-11.689
▁complimented	-11.689
▁compny	-11.689
▁component	-11.689
▁composed	-11.689
▁composure	-11.689
▁comprehensive	-11.689
▁compressed	-11.689
▁compressing	-11.689
▁comprises	-11.689
▁computational	-11.689
▁con	-11.689
▁conceptually	-11.689
▁conclude	-11.689
▁concur	-11.689
▁condo	-11.689
▁conduct	-11.689
▁confession	-11.689
▁confided	-11.689
▁confiding	-11.689
▁confined	-11.689
▁confirmed	-11.689
▁confirms	-11.689
▁confort	-11.689
▁confounded	-11.689
▁confront	-11.689
▁confusa	-11.689
▁confuse	-11.689
▁confusedly	-11.689
▁confusion	-11.689
▁congratulate	-11.689
▁congratulated	-11.689
▁congratulating	-11.689
▁congregating	-11.689
▁conjures	-11.689
▁consented	-11.689
▁consequential	-11.689
▁consequently	-11.689
▁considerable	-11.689
▁considerably	-11.689
▁considerate	-11.689
▁constanlty	-11.689
▁constipated	-11.689
▁construction	-11.689
▁consultant	-11.689
▁consults	-11.689
▁consumerism	-11.689
▁containing	-11.689
▁contains	-11.689
▁contemplate	-11.689
▁contemplating	-11.689
▁contemplation	-11.689
▁contempt	-11.689
▁continent	-11.689
▁continually	-11.689
▁continuous	-11.689
▁contracted	-11.689
▁contradicting	-11.689
▁contributed	-11.689
▁contributing	-11.689
▁contribution	-11.689
▁controll	-11.689
▁controller	-11.689
▁convalescensing	-11.689
▁conveniently	-11.689
▁conversational	-11.689
▁converse	-11.689
▁conversion	-11.689
▁convinces	-11.689
▁convulsing	-11.689
▁convulsion	-11.689
▁cooldown	-11.689
▁coop	-11.689
▁cooperate	-11.689
▁cooperating	-11.689
▁coordinator	-11.689
▁corinne	-11.689
▁corolla	-11.689
▁corona	-11.689
▁coronavirus	-11.689
▁correction	-11.689
▁correlate	-11.689
▁correlated	-11.689
▁correlation	-11.689
▁corsodyl	-11.689
▁cortisol	-11.689
▁cortizone	-11.689
▁cosmic	-11.689
▁cosmos	-11.689
▁costly	-11.689
▁coughed	-11.689
▁couldve	-11.689
▁counsious	-11.689
▁counteract	-11.689
▁counteracts	-11.689
▁countess	-11.689
▁counting	-11.689
▁coursework	-11.689
▁courtroom	-11.689
▁cow	-11.689
▁cowardice	-11.689
▁cozy	-11.689
▁crackdown	-11.689
▁cracked	-11.689
▁cram	-11.689
▁cramping	-11.689
▁crash	-11.689
▁crashing	-11.689
▁craved	-11.689
▁crawled	-11.689
▁creature	-11.689
▁credibility	-11.689
▁cricket	-11.689
▁crier	-11.689
▁cringy	-11.689
▁criterion	-11.689
▁criticism	-11.689
▁criticized	-11.689
▁crm	-11.689
▁crown	-11.689
▁cruelest	-11.689
▁cruelty	-11.689
▁crumple	-11.689
▁crunch	-11.689
▁crusty	-11.689
▁csgo	-11.689
▁csncer	-11.689
▁cu	-11.689
▁cubicle	-11.689
▁cue	-11.689
▁cultivating	-11.689
▁cunt	-11.689
▁cupboard	-11.689
▁cupcake	-11.689
▁cupid	-11.689
▁curating	-11.689
▁curator	-11.689
▁curdling	-11.689
▁cured	-11.689
▁cursor	-11.689
▁curtain	-11.689
▁cushy	-11.689
▁custom	-11.689
▁cutaneous	-11.689
▁cutesy	-11.689
▁cv	-11.689
▁cyclical	-11.689
▁d3	-11.689
▁dab	-11.689
▁dabbing	-11.689
▁dae	-11.689
▁damaging	-11.689
▁damit	-11.689
▁dana	-11.689
▁danced	-11.689
▁dangerously	-11.689
▁danielle	-11.689
▁darken	-11.689
▁darker	-11.689
▁darknet	-11.689
▁darting	-11.689
▁data	-11.689
▁davis	-11.689
▁daw	-11.689
▁dawned	-11.689
▁daycare	-11.689
▁daydream	-11.689
▁daze	-11.689
▁dazed	-11.689
▁dea	-11.689
▁deadlier	-11.689
▁dealer	-11.689
▁dealership	-11.689
▁dearly	-11.689
▁deathbed	-11.689
▁deathly	-11.689
▁debbie	-11.689
▁debilitated	-11.689
▁debunk	-11.689
▁deceitful	-11.689
▁deceive	-11.689
▁deceived	-11.689
▁deceptive	-11.689
▁decipher	-11.689
▁deconstruct	-11.689
▁decor	-11.689
▁decrease	-11.689
▁decreased	-11.689
▁dedepress	-11.689
▁dedicate	-11.689
▁dedicating	-11.689
▁deemed	-11.689
▁deems	-11.689
▁defeat	-11.689
▁defecate	-11.689
▁defecating	-11.689
▁defect	-11.689
▁defective	-11.689
▁defencesive	-11.689
▁defense	-11.689
▁defensive	-11.689
▁deficiency	-11.689
▁deficient	-11.689
▁defines	-11.689
▁definetely	-11.689
▁deflect	-11.689
▁defo	-11.689
▁degenerative	-11.689
▁degraded	-11.689
▁dehydrate	-11.689
▁delayed	-11.689
▁deliberate	-11.689
▁deliberately	-11.689
▁delicate	-11.689
▁delightful	-11.689
▁delirious	-11.689
▁delirium	-11.689
▁deliver	-11.689
▁delivered	-11.689
▁delude	-11.689
▁delve	-11.689
▁demand	-11.689
▁demanded	-11.689
▁demeanor	-11.689
▁democracy	-11.689
▁demonstrate	-11.689
▁demotivating	-11.689
▁denied	-11.689
▁dented	-11.689
▁dentistry	-11.689
▁deny	-11.689
▁denying	-11.689
▁department	-11.689
▁depends	-11.689
▁depersonalisation	-11.689
▁depersonalize	-11.689
▁depersonalizing	-11.689
▁depict	-11.689
▁depleted	-11.689
▁depo	-11.689
▁depot	-11.689
▁deppresion	-11.689
▁depresion	-11.689
▁depress	-11.689
▁depressents	-11.689
▁deprived	-11.689
▁depthless	-11.689
▁derailed	-11.689
▁derealisation	-11.689
▁derives	-11.689
▁dermatologist	-11.689
▁descision	-11.689
▁desired	-11.689
▁desperation	-11.689
▁despondency	-11.689
▁dessert	-11.689
▁destination	-11.689
▁destined	-11.689
▁destiny	-11.689
▁destruction	-11.689
▁desvenlafaxine	-11.689
▁detailing	-11.689
▁detect	-11.689
▁detected	-11.689
▁detector	-11.689
▁deteriorate	-11.689
▁deteriorates	-11.689
▁determination	-11.689
▁determine	-11.689
▁determinism	-11.689
▁deterring	-11.689
▁detriment	-11.689
▁devastate	-11.689
▁developper	-11.689
▁deviant	-11.689
▁devise	-11.689
▁devolve	-11.689
▁devote	-11.689
▁devour	-11.689
▁devout	-11.689
▁diabolical	-11.689
▁diagnosing	-11.689
▁diagnostic	-11.689
▁diagnostics	-11.689
▁diaphragmatic	-11.689
▁diazepam	-11.689
▁dice	-11.689
▁dicey	-11.689
▁dicked	-11.689
▁dickhead	-11.689
▁dieing	-11.689
▁diem	-11.689
▁dietary	-11.689
▁dieted	-11.689
▁differ	-11.689
▁dificult	-11.689
▁digestion	-11.689
▁digestive	-11.689
▁digit	-11.689
▁dignity	-11.689
▁dilaudid	-11.689
▁diminish	-11.689
▁diminished	-11.689
▁ding	-11.689
▁dining	-11.689
▁dip	-11.689
▁diploma	-11.689
▁disappearing	-11.689
▁disappoint	-11.689
▁disarray	-11.689
▁disbelief	-11.689
▁discharge	-11.689
▁discharged	-11.689
▁discipline	-11.689
▁disciplined	-11.689
▁disclaimer	-11.689
▁disclosed	-11.689
▁discomfort	-11.689
▁disconnecting	-11.689
▁disconneted	-11.689
▁discontinuation	-11.689
▁discontinue	-11.689
▁discontinued	-11.689
▁discourage	-11.689
▁discouragement	-11.689
▁discouraging	-11.689
▁discover	-11.689
▁discovery	-11.689
▁discrediting	-11.689
▁discust	-11.689
▁disdain	-11.689
▁diseased	-11.689
▁disfunctional	-11.689
▁disguise	-11.689
▁disheartening	-11.689
▁dishwasher	-11.689
▁disintegrating	-11.689
▁disjointed	-11.689
▁dismissal	-11.689
▁disobedient	-11.689
▁disorientation	-11.689
▁disparaging	-11.689
▁dispense	-11.689
▁displeasure	-11.689
▁disproportionately	-11.689
▁disprove	-11.689
▁disrespected	-11.689
▁disrespectful	-11.689
▁disrupts	-11.689
▁dissability	-11.689
▁dissapointed	-11.689
▁dissapoints	-11.689
▁dissappear	-11.689
▁dissatisfaction	-11.689
▁dissection	-11.689
▁dissipate	-11.689
▁dissipated	-11.689
▁dissociate	-11.689
▁dissolve	-11.689
▁dissonance	-11.689
▁distanced	-11.689
▁distinct	-11.689
▁distinction	-11.689
▁distinguish	-11.689
▁distort	-11.689
▁distraught	-11.689
▁disturb	-11.689
▁disturbance	-11.689
▁disturbed	-11.689
▁disturbing	-11.689
▁disturbs	-11.689
▁ditching	-11.689
▁diva	-11.689
▁dive	-11.689
▁diver	-11.689
▁divide	-11.689
▁divine	-11.689
▁diving	-11.689
▁division	-11.689
▁dizzyness	-11.689
▁dj	-11.689
▁dl	-11.689
▁dlc	-11.689
▁dmv	-11.689
▁documentary	-11.689
▁documented	-11.689
▁dodged	-11.689
▁dodging	-11.689
▁dodgy	-11.689
▁dogecoin	-11.689
▁dogshit	-11.689
▁doi	-11.689
▁doll	-11.689
▁donated	-11.689
▁donor	-11.689
▁donut	-11.689
▁doodle	-11.689
▁doomscroll	-11.689
▁doomsday	-11.689
▁doooo	-11.689
▁doorknob	-11.689
▁doorway	-11.689
▁dopamine	-11.689
▁dorky	-11.689
▁dosent	-11.689
▁doublechecking	-11.689
▁doubling	-11.689
▁doubting	-11.689
▁downgrade	-11.689
▁downplaying	-11.689
▁downside	-11.689
▁downtown	-11.689
▁dp	-11.689
▁dramatically	-11.689
▁drawer	-11.689
▁dreamed	-11.689
▁dreamt	-11.689
▁drill	-11.689
▁drilled	-11.689
▁driven	-11.689
▁drone	-11.689
▁drool	-11.689
▁drooping	-11.689
▁drown	-11.689
▁drowned	-11.689
▁drowns	-11.689
▁drs	-11.689
▁drudgery	-11.689
▁drugstore	-11.689
▁drum	-11.689
▁drunkard	-11.689
▁duct	-11.689
▁duh	-11.689
▁dumbed	-11.689
▁dumbells	-11.689
▁dumber	-11.689
▁dumbfounded	-11.689
▁dumbfuck	-11.689
▁dump	-11.689
▁dumping	-11.689
▁duo	-11.689
▁dusty	-11.689
▁dwindling	-11.689
▁dx	-11.689
▁dyeing	-11.689
▁dyslexic	-11.689
▁dysmorphia	-11.689
▁dysthimia	-11.689
▁eachother	-11.689
▁eagled	-11.689
▁eardrum	-11.689
▁earned	-11.689
▁earnestly	-11.689
▁earnings	-11.689
▁easter	-11.689
▁ebay	-11.689
▁ecc	-11.689
▁economical	-11.689
▁economy	-11.689
▁eczema	-11.689
▁educate	-11.689
▁educational	-11.689
▁eff	-11.689
▁effeminate	-11.689
▁efilism	-11.689
▁eg	-11.689
▁eggar	-11.689
▁egocentric	-11.689
▁eighth	-11.689
▁ejaculating	-11.689
▁el	-11.689
▁electrical	-11.689
▁electroconvulsive	-11.689
▁electronic	-11.689
▁element	-11.689
▁eleventh	-11.689
▁elicits	-11.689
▁eligible	-11.689
▁eliminate	-11.689
▁elliot	-11.689
▁embarased	-11.689
▁embarass	-11.689
▁embarassed	-11.689
▁embarisning	-11.689
▁embarrass	-11.689
▁embarrasses	-11.689
▁embarssing	-11.689
▁embedded	-11.689
▁embracing	-11.689
▁emdr	-11.689
▁emily	-11.689
▁emojis	-11.689
▁empanadas	-11.689
▁empathiic	-11.689
▁emphasise	-11.689
▁emphasize	-11.689
▁empowered	-11.689
▁emptied	-11.689
▁enable	-11.689
▁enabled	-11.689
▁enabling	-11.689
▁enact	-11.689
▁enagie	-11.689
▁enclose	-11.689
▁encountered	-11.689
▁encourage	-11.689
▁endangering	-11.689
▁endodontist	-11.689
▁enduring	-11.689
▁enegy	-11.689
▁enforce	-11.689
▁eng	-11.689
▁engaged	-11.689
▁engaging	-11.689
▁england	-11.689
▁engrained	-11.689
▁engraved	-11.689
▁enjoys	-11.689
▁enlighten	-11.689
▁enormous	-11.689
▁enormously	-11.689
▁enquired	-11.689
▁enrichment	-11.689
▁enrolled	-11.689
▁ensued	-11.689
▁ent	-11.689
▁entered	-11.689
▁entering	-11.689
▁enthusiastic	-11.689
▁entitled	-11.689
▁entrepreneur	-11.689
▁enunciated	-11.689
▁envisioned	-11.689
▁envy	-11.689
▁envying	-11.689
▁epidemic	-11.689
▁equation	-11.689
▁equipped	-11.689
▁era	-11.689
▁erase	-11.689
▁erectile	-11.689
▁erupt	-11.689
▁erupting	-11.689
▁escalate	-11.689
▁escalated	-11.689
▁escalating	-11.689
▁escaped	-11.689
▁escaping	-11.689
▁escapism	-11.689
▁escapist	-11.689
▁essence	-11.689
▁essentaily	-11.689
▁essentia	-11.689
▁essential	-11.689
▁est	-11.689
▁estate	-11.689
▁estimate	-11.689
▁etcetera	-11.689
▁eternally	-11.689
▁etsy	-11.689
▁euphoric	-11.689
▁europe	-11.689
▁evangelical	-11.689
▁eve	-11.689
▁eventuality	-11.689
▁eventualy	-11.689
▁everday	-11.689
▁everithig	-11.689
▁everydays	-11.689
▁everyones	-11.689
▁everythings	-11.689
▁eveyones	-11.689
▁eveything	-11.689
▁evicted	-11.689
▁eviction	-11.689
▁evidenced	-11.689
▁evident	-11.689
▁evolution	-11.689
▁evolve	-11.689
▁eww	-11.689
▁exacerbated	-11.689
▁exagerated	-11.689
▁exaggerated	-11.689
▁examen	-11.689
▁excel	-11.689
▁excell	-11.689
▁excelled	-11.689
▁excessively	-11.689
▁excite	-11.689
▁excites	-11.689
▁exciting	-11.689
▁excluded	-11.689
▁exclusive	-11.689
▁excusing	-11.689
▁exemplary	-11.689
▁exemple	-11.689
▁exercisig	-11.689
▁exert	-11.689
▁exhuasted	-11.689
▁exiled	-11.689
▁existance	-11.689
▁exit	-11.689
▁expand	-11.689
▁expanse	-11.689
▁expecially	-11.689
▁expects	-11.689
▁expeditiously	-11.689
▁expelled	-11.689
▁experiances	-11.689
▁experienc	-11.689
▁expired	-11.689
▁explanantion	-11.689
▁explicitly	-11.689
▁exploding	-11.689
▁exploit	-11.689
▁exploited	-11.689
▁explosion	-11.689
▁explosive	-11.689
▁expressionless	-11.689
▁extends	-11.689
▁extension	-11.689
▁externally	-11.689
▁extinct	-11.689
▁extraordinarily	-11.689
▁extraterrestrial	-11.689
▁extroversion	-11.689
▁exuberance	-11.689
▁eyelash	-11.689
▁eyelid	-11.689
▁f24	-11.689
▁fabricate	-11.689
▁faceless	-11.689
▁facet	-11.689
▁facial	-11.689
▁faction	-11.689
▁failling	-11.689
▁fails	-11.689
▁fainting	-11.689
▁fairness	-11.689
▁fairy	-11.689
▁faithfully	-11.689
▁fallout	-11.689
▁falsely	-11.689
▁fam	-11.689
▁fancy	-11.689
▁fantasizing	-11.689
▁fashion	-11.689
▁fastest	-11.689
▁fastworward	-11.689
▁fate	-11.689
▁fatty	-11.689
▁fav	-11.689
▁fbs	-11.689
▁fearful	-11.689
▁federal	-11.689
▁feeble	-11.689
▁feeeeel	-11.689
▁feelingd	-11.689
▁feld	-11.689
▁felony	-11.689
▁fent	-11.689
▁fermented	-11.689
▁fester	-11.689
▁fetish	-11.689
▁feverish	-11.689
▁fiancee	-11.689
▁fib	-11.689
▁fiber	-11.689
▁fidget	-11.689
▁fiercely	-11.689
▁fifteen	-11.689
▁fighter	-11.689
▁file	-11.689
▁film	-11.689
▁filmed	-11.689
▁filter	-11.689
▁filthy	-11.689
▁finacial	-11.689
▁finality	-11.689
▁fingertip	-11.689
▁firefighter	-11.689
▁firework	-11.689
▁firm	-11.689
▁firmly	-11.689
▁firstly	-11.689
▁fischer	-11.689
▁fishing	-11.689
▁fistula	-11.689
▁fitted	-11.689
▁fitter	-11.689
▁fixable	-11.689
▁fixate	-11.689
▁fk	-11.689
▁fl	-11.689
▁flaired	-11.689
▁flatters	-11.689
▁flavor	-11.689
▁flawed	-11.689
▁flea	-11.689
▁flexeril	-11.689
▁flexibility	-11.689
▁flick	-11.689
▁flipping	-11.689
▁flirted	-11.689
▁flirty	-11.689
▁float	-11.689
▁floater	-11.689
▁floating	-11.689
▁flooded	-11.689
▁floral	-11.689
▁flossing	-11.689
▁flourishing	-11.689
▁flowing	-11.689
▁fluanxol	-11.689
▁fluctuate	-11.689
▁fluctuates	-11.689
▁fluctuation	-11.689
▁fluent	-11.689
▁fluid	-11.689
▁flunking	-11.689
▁flush	-11.689
▁flushing	-11.689
▁flutter	-11.689
▁fml	-11.689
▁fobia	-11.689
▁fogged	-11.689
▁fold	-11.689
▁follows	-11.689
▁followup	-11.689
▁font	-11.689
▁fooled	-11.689
▁footstep	-11.689
▁forbid	-11.689
▁forceful	-11.689
▁forcible	-11.689
▁forensic	-11.689
▁forgetfulness	-11.689
▁forgetting	-11.689
▁forgiven	-11.689
▁forgiveness	-11.689
▁forgivness	-11.689
▁formatting	-11.689
▁forming	-11.689
▁formulate	-11.689
▁forreal	-11.689
▁fortnight	-11.689
▁fose	-11.689
▁fostering	-11.689
▁foward	-11.689
▁fraction	-11.689
▁fracture	-11.689
▁fractured	-11.689
▁fraid	-11.689
▁frantically	-11.689
▁frat	-11.689
▁fraying	-11.689
▁freakouts	-11.689
▁freedom	-11.689
▁freelance	-11.689
▁freely	-11.689
▁freezing	-11.689
▁freind	-11.689
▁freinds	-11.689
▁frequents	-11.689
▁fretting	-11.689
▁friggin	-11.689
▁fright	-11.689
▁frightened	-11.689
▁fron	-11.689
▁frowing	-11.689
▁frowned	-11.689
▁frugal	-11.689
▁fruitful	-11.689
▁frumpy	-11.689
▁frustrates	-11.689
▁frustratingly	-11.689
▁fryer	-11.689
▁fucin	-11.689
▁fuckinv	-11.689
▁fuckkkkkk	-11.689
▁fuel	-11.689
▁fukin	-11.689
▁fulfilled	-11.689
▁functionally	-11.689
▁fund	-11.689
▁fundamental	-11.689
▁funniest	-11.689
▁fur	-11.689
▁furious	-11.689
▁furniture	-11.689
▁furthering	-11.689
▁futile	-11.689
▁futility	-11.689
▁fuuuuuuuuuuuuuuuuuuuuuuuuuuuuuuuuuuuuuuuuuuuuuuuuuuuuuuuuuuuuuuuuuuuuuuuuuuuuuuuuuuuuuuuuuuuuuuuuuuuuuuuuuuuuuuuuuuuuuuuuuuuuuuuuuuuuuuuuuuuuuuuuuuuuuuuuuuuuuuuuuuuuuuuuuuuuuuuuuuuuuuuuuuuk	-11.689
▁fuzziness	-11.689
▁fwb	-11.689
▁fx	-11.689
▁fyi	-11.689
▁gaba	-11.689
▁gal	-11.689
▁gamble	-11.689
▁gamers	-11.689
▁gamming	-11.689
▁gaping	-11.689
▁gardening	-11.689
▁gaslight	-11.689
▁gasping	-11.689
▁gastric	-11.689
▁gate	-11.689
▁gated	-11.689
▁gatekeep	-11.689
▁gathering	-11.689
▁gawd	-11.689
▁gazillion	-11.689
▁gd	-11.689
▁gear	-11.689
▁gee	-11.689
▁gel	-11.689
▁gen	-11.689
▁gender	-11.689
▁generation	-11.689
▁generic	-11.689
▁generous	-11.689
▁generously	-11.689
▁genetics	-11.689
▁geniunely	-11.689
▁genius	-11.689
▁genshin	-11.689
▁geographically	-11.689
▁geopolitical	-11.689
▁germ	-11.689
▁german	-11.689
▁germany	-11.689
▁gettinf	-11.689
▁getup	-11.689
▁ghb	-11.689
▁ghosting	-11.689
▁gibberish	-11.689
▁gice	-11.689
▁giddiness	-11.689
▁giddy	-11.689
▁giftcard	-11.689
▁giftcards	-11.689
▁gifted	-11.689
▁giggle	-11.689
▁gingivitis	-11.689
▁girlfirend	-11.689
▁girth	-11.689
▁gladly	-11.689
▁glam	-11.689
▁glance	-11.689
▁glancing	-11.689
▁gland	-11.689
▁glare	-11.689
▁glimpse	-11.689
▁global	-11.689
▁globus	-11.689
▁gloomiest	-11.689
▁glorified	-11.689
▁glorify	-11.689
▁glued	-11.689
▁gold	-11.689
▁goldendoodle	-11.689
▁goner	-11.689
▁gong	-11.689
▁goodness	-11.689
▁goodnight	-11.689
▁goodwill	-11.689
▁goofed	-11.689
▁gop	-11.689
▁gorilla	-11.689
▁gov	-11.689
▁grace	-11.689
▁grain	-11.689
▁gramatical	-11.689
▁grandchild	-11.689
▁grandpa	-11.689
▁grapple	-11.689
▁grasping	-11.689
▁grass	-11.689
▁gratitude	-11.689
▁gravely	-11.689
▁gravity	-11.689
▁gravy	-11.689
▁gray	-11.689
▁greasy	-11.689
▁greece	-11.689
▁greediness	-11.689
▁greet	-11.689
▁greeted	-11.689
▁greeting	-11.689
▁grid	-11.689
▁grieving	-11.689
▁grim	-11.689
▁grind	-11.689
▁grinded	-11.689
▁grinding	-11.689
▁grit	-11.689
▁grotesque	-11.689
▁grounded	-11.689
▁guarantee	-11.689
▁guardian	-11.689
▁gummies	-11.689
▁gurgling	-11.689
▁gutter	-11.689
▁hah	-11.689
▁hahaha	-11.689
▁hahahahahaha	-11.689
▁hahahahahahahahahahahahaha	-11.689
▁hai	-11.689
▁hairdresser	-11.689
▁hall	-11.689
▁halloween	-11.689
▁hallucinate	-11.689
▁halt	-11.689
▁halter	-11.689
▁halve	-11.689
▁halved	-11.689
▁hammer	-11.689
▁handicap	-11.689
▁handing	-11.689
▁handling	-11.689
▁handshake	-11.689
▁hanged	-11.689
▁hangnail	-11.689
▁happend	-11.689
▁harassed	-11.689
▁harbor	-11.689
▁hardcore	-11.689
▁hardened	-11.689
▁hardship	-11.689
▁hardware	-11.689
▁hardworking	-11.689
▁harmful	-11.689
▁harrassed	-11.689
▁hauler	-11.689
▁hauling	-11.689
▁havers	-11.689
▁haze	-11.689
▁headeache	-11.689
▁heading	-11.689
▁heals	-11.689
▁healthiest	-11.689
▁heap	-11.689
▁hearning	-11.689
▁hears	-11.689
▁hearted	-11.689
▁heated	-11.689
▁heavier	-11.689
▁heist	-11.689
▁hellbent	-11.689
▁hellish	-11.689
▁hellopoetry	-11.689
▁help_me_pick_please	-11.689
▁helplesness	-11.689
▁helplessness	-11.689
▁hemorrhagic	-11.689
▁hemorrhoid	-11.689
▁hereditary	-11.689
▁hero	-11.689
▁heroic	-11.689
▁hesistating	-11.689
▁hesitate	-11.689
▁heuristic	-11.689
▁heve	-11.689
▁hhah	-11.689
▁hiatal	-11.689
▁hid	-11.689
▁hideous	-11.689
▁highlight	-11.689
▁highlighted	-11.689
▁highschooling	-11.689
▁hii	-11.689
▁hijack	-11.689
▁hiked	-11.689
▁hill	-11.689
▁hindering	-11.689
▁hipster	-11.689
▁hiring	-11.689
▁hm	-11.689
▁holder	-11.689
▁holler	-11.689
▁hollowly	-11.689
▁holy	-11.689
▁holyyyyy	-11.689
▁homebody	-11.689
▁homely	-11.689
▁homepathic	-11.689
▁homeschooled	-11.689
▁hominid	-11.689
▁homophobe	-11.689
▁homosexual	-11.689
▁honey	-11.689
▁hoody	-11.689
▁hooray	-11.689
▁hoped	-11.689
▁hopped	-11.689
▁horizontal	-11.689
▁horny	-11.689
▁horoscope	-11.689
▁horrid	-11.689
▁horrifies	-11.689
▁hospice	-11.689
▁hospitalize	-11.689
▁host	-11.689
▁hostile	-11.689
▁hostility	-11.689
▁hotlines	-11.689
▁hovers	-11.689
▁hovever	-11.689
▁hp	-11.689
▁hpe	-11.689
▁hpv	-11.689
▁hugged	-11.689
▁hugging	-11.689
▁hugo	-11.689
▁humbling	-11.689
▁humbly	-11.689
▁humidifier	-11.689
▁humidity	-11.689
▁hun	-11.689
▁hunger	-11.689
▁hungover	-11.689
▁hungrier	-11.689
▁hunting	-11.689
▁hurhur	-11.689
▁hurling	-11.689
▁hurricane	-11.689
▁hvac	-11.689
▁hw	-11.689
▁hybrid	-11.689
▁hydrochloride	-11.689
▁hydroxezine	-11.689
▁hydroxyzene	-11.689
▁hygienist	-11.689
▁hyped	-11.689
▁hyperarousal	-11.689
▁hyperemesis	-11.689
▁hyperfixated	-11.689
▁hypersomnia	-11.689
▁hyperventilated	-11.689
▁hyperverbal	-11.689
▁hypervigilant	-11.689
▁hypnotherapy	-11.689
▁hypocrisy	-11.689
▁hypothetical	-11.689
▁ibuprofen	-11.689
▁idealistic	-11.689
▁idiotic	-11.689
▁idky	-11.689
▁idontwanttogoooooo	-11.689
▁ie	-11.689
▁iffy	-11.689
▁ignorance	-11.689
▁ileostomy	-11.689
▁ilnesses	-11.689
▁imaginable	-11.689
▁imbalanced	-11.689
▁imessages	-11.689
▁imgur	-11.689
▁imma	-11.689
▁immedietly	-11.689
▁immerse	-11.689
▁immigrant	-11.689
▁immunity	-11.689
▁immunocompromised	-11.689
▁impacting	-11.689
▁impaired	-11.689
▁imperfection	-11.689
▁implied	-11.689
▁implying	-11.689
▁importantly	-11.689
▁imposed	-11.689
▁impostor	-11.689
▁impotent	-11.689
▁impressed	-11.689
▁impression	-11.689
▁improper	-11.689
▁improv4health	-11.689
▁improves	-11.689
▁impulsively	-11.689
▁impurity	-11.689
▁inaction	-11.689
▁inactivity	-11.689
▁inane	-11.689
▁inattention	-11.689
▁inattentive	-11.689
▁inauthentic	-11.689
▁inb4	-11.689
▁inbetween	-11.689
▁incarcerated	-11.689
▁incase	-11.689
▁incentive	-11.689
▁incessantly	-11.689
▁inching	-11.689
▁incision	-11.689
▁incoherent	-11.689
▁incoming	-11.689
▁inconsiderate	-11.689
▁inconsistent	-11.689
▁inconsolable	-11.689
▁incorrect	-11.689
▁incurable	-11.689
▁indeffinite	-11.689
▁indefinitely	-11.689
▁independence	-11.689
▁indescribable	-11.689
▁indicate	-11.689
▁indicated	-11.689
▁indigestion	-11.689
▁individualist	-11.689
▁induce	-11.689
▁indulging	-11.689
▁ineffective	-11.689
▁inescapable	-11.689
▁inexcusable	-11.689
▁inexistant	-11.689
▁inexperienced	-11.689
▁infant	-11.689
▁infect	-11.689
▁infinitely	-11.689
▁inflamations	-11.689
▁inflamed	-11.689
▁inflicted	-11.689
▁inflicting	-11.689
▁influenced	-11.689
▁influx	-11.689
▁informal	-11.689
▁informative	-11.689
▁infrequent	-11.689
▁infusion	-11.689
▁ingesting	-11.689
▁ingrained	-11.689
▁ingredient	-11.689
▁inhaling	-11.689
▁inherit	-11.689
▁inhertitance	-11.689
▁initially	-11.689
▁initiate	-11.689
▁initiative	-11.689
▁injected	-11.689
▁injured	-11.689
▁inlove	-11.689
▁innovative	-11.689
▁inparticular	-11.689
▁inpatient	-11.689
▁inquiring	-11.689
▁inquiry	-11.689
▁inquisition	-11.689
▁insanity	-11.689
▁insensitive	-11.689
▁insightful	-11.689
▁insist	-11.689
▁insists	-11.689
▁insole	-11.689
▁insomniac	-11.689
▁inspected	-11.689
▁inspector	-11.689
▁inst	-11.689
▁instability	-11.689
▁instagrams	-11.689
▁instinctive	-11.689
▁instructed	-11.689
▁instrument	-11.689
▁insulted	-11.689
▁insulting	-11.689
▁intellectual	-11.689
▁intellectually	-11.689
▁intelligibly	-11.689
▁intended	-11.689
▁intensely	-11.689
▁intensified	-11.689
▁intensifying	-11.689
▁interactivity	-11.689
▁interim	-11.689
▁internalising	-11.689
▁internet_culture	-11.689
▁interpreted	-11.689
▁interrupted	-11.689
▁intervention	-11.689
▁interviewing	-11.689
▁intimate	-11.689
▁intolerable	-11.689
▁intoxicated	-11.689
▁intricacy	-11.689
▁intriguing	-11.689
▁introduced	-11.689
▁introducing	-11.689
▁inundated	-11.689
▁invalid	-11.689
▁invalidating	-11.689
▁invasion	-11.689
▁invident	-11.689
▁involed	-11.689
▁involuntary	-11.689
▁invovled	-11.689
▁ios_app	-11.689
▁iossmf	-11.689
▁ir	-11.689
▁irb	-11.689
▁ironically	-11.689
▁irrelevant	-11.689
▁irresponsible	-11.689
▁irretrievably	-11.689
▁irrevocably	-11.689
▁irritates	-11.689
▁irritating	-11.689
▁isip	-11.689
▁isolationism	-11.689
▁italian	-11.689
▁jab	-11.689
▁jackass	-11.689
▁jacked	-11.689
▁jacking	-11.689
▁jakes	-11.689
▁jammed	-11.689
▁janeiro	-11.689
▁jarring	-11.689
▁jaycon	-11.689
▁jehovas	-11.689
▁jeopardised	-11.689
▁jesus	-11.689
▁jitter	-11.689
▁jobless	-11.689
▁jockeying	-11.689
▁joe	-11.689
▁jolt	-11.689
▁journaled	-11.689
▁joyful	-11.689
▁julls	-11.689
▁jumper	-11.689
▁jungle	-11.689
▁jusy	-11.689
▁juvie	-11.689
▁k	-11.689
▁karma	-11.689
▁keen	-11.689
▁keenly	-11.689
▁keepsake	-11.689
▁kennel	-11.689
▁keyword	-11.689
▁kickass	-11.689
▁kiddos	-11.689
▁kidnap	-11.689
▁kin	-11.689
▁kinakain	-11.689
▁kinder	-11.689
▁kindergarten	-11.689
▁kindve	-11.689
▁kingdom	-11.689
▁kitten	-11.689
▁klonapin	-11.689
▁klonipin	-11.689
▁knifing	-11.689
▁knocked	-11.689
▁knocking	-11.689
▁knoe	-11.689
▁know_	-11.689
▁knowingly	-11.689
▁knowledgeable	-11.689
▁knowns	-11.689
▁la	-11.689
▁labixten	-11.689
▁labyrinthitis	-11.689
▁lactose	-11.689
▁lagging	-11.689
▁lake	-11.689
▁lancashire	-11.689
▁landing	-11.689
▁landlady	-11.689
▁landmark	-11.689
▁landscaping	-11.689
▁langage	-11.689
▁largely	-11.689
▁latch	-11.689
▁latching	-11.689
▁laughter	-11.689
▁lawn	-11.689
▁layed	-11.689
▁ldr	-11.689
▁leader	-11.689
▁leadership	-11.689
▁leaning	-11.689
▁leaped	-11.689
▁learner	-11.689
▁leaved	-11.689
▁lecturer	-11.689
▁legally	-11.689
▁legend	-11.689
▁legged	-11.689
▁legging	-11.689
▁legitimate	-11.689
▁lend	-11.689
▁lens	-11.689
▁lent	-11.689
▁lethal	-11.689
▁lethargic	-11.689
▁lethargy	-11.689
▁lettuce	-11.689
▁leukaemia	-11.689
▁leveling	-11.689
▁lexepro	-11.689
▁lf	-11.689
▁lgbtq	-11.689
▁liar	-11.689
▁librium	-11.689
▁licensed	-11.689
▁licked	-11.689
▁lieu	-11.689
▁lifeguard	-11.689
▁lifeless	-11.689
▁lifeline	-11.689
▁lifespan	-11.689
▁lifetime	-11.689
▁lifting	-11.689
▁lighthead	-11.689
▁lightheadness	-11.689
▁lightly	-11.689
▁lightsaber	-11.689
▁liking	-11.689
▁limbic	-11.689
▁limbo	-11.689
▁limitation	-11.689
▁linear	-11.689
▁lined	-11.689
▁liquidy	-11.689
▁lisiniprol	-11.689
▁listener	-11.689
▁listing	-11.689
▁lit	-11.689
▁litany	-11.689
▁liter	-11.689
▁litrally	-11.689
▁litterally	-11.689
▁littlest	-11.689
▁lively	-11.689
▁lll	-11.689
▁lmfao	-11.689
▁loathe	-11.689
▁loathing	-11.689
▁location	-11.689
▁locker	-11.689
▁log	-11.689
▁logged	-11.689
▁logging	-11.689
▁logo	-11.689
▁london	-11.689
▁lonelier	-11.689
▁loneliest	-11.689
▁lonley	-11.689
▁lonlinees	-11.689
▁lonliness	-11.689
▁loon	-11.689
▁loooooong	-11.689
▁looots	-11.689
▁loophole	-11.689
▁los	-11.689
▁lotion	-11.689
▁louder	-11.689
▁lousy	-11.689
▁lovelife	-11.689
▁lover	-11.689
▁lowkey	-11.689
▁lowtide	-11.689
▁loyal	-11.689
▁lr	-11.689
▁lsd	-11.689
▁lucid	-11.689
▁lug	-11.689
▁lump	-11.689
▁lund	-11.689
▁lunesta	-11.689
▁lurker	-11.689
▁ly	-11.689
▁lynch	-11.689
▁lyrica	-11.689
▁m23	-11.689
▁maddening	-11.689
▁madman	-11.689
▁magical	-11.689
▁magnet	-11.689
▁magnetic	-11.689
▁magnificent	-11.689
▁maid	-11.689
▁mainstream	-11.689
▁maintained	-11.689
▁maintenance	-11.689
▁majorly	-11.689
▁maked	-11.689
▁malfunctioning	-11.689
▁malintent	-11.689
▁malnourished	-11.689
▁malnourishing	-11.689
▁mama	-11.689
▁manages	-11.689
▁manchester	-11.689
▁manga	-11.689
▁mania	-11.689
▁manifested	-11.689
▁manifestly	-11.689
▁manipulated	-11.689
▁mantain	-11.689
▁manteinance	-11.689
▁manufacturing	-11.689
▁mapansin	-11.689
▁mapping	-11.689
▁marijn	-11.689
▁marine	-11.689
▁marked	-11.689
▁marvelous	-11.689
▁mary	-11.689
▁mason	-11.689
▁mass	-11.689
▁massage	-11.689
▁mastered	-11.689
▁mastery	-11.689
▁masturbate	-11.689
▁masturbated	-11.689
▁masturbation	-11.689
▁materialize	-11.689
▁mature	-11.689
▁maxed	-11.689
▁maxer	-11.689
▁maximum	-11.689
▁maybey	-11.689
▁mayo	-11.689
▁mcdonagh	-11.689
▁mcyt	-11.689
▁md	-11.689
▁meaningfulness	-11.689
▁medcu	-11.689
▁mediate	-11.689
▁mediating	-11.689
▁mediation	-11.689
▁mediator	-11.689
▁medicaid	-11.689
▁medicate	-11.689
▁medieval	-11.689
▁meditating	-11.689
▁melenials	-11.689
▁melt	-11.689
▁melted	-11.689
▁melty	-11.689
▁memorable	-11.689
▁menial	-11.689
▁menstrual	-11.689
▁menu	-11.689
▁mercari	-11.689
▁merciless	-11.689
▁mercy	-11.689
▁merely	-11.689
▁merger	-11.689
▁merit	-11.689
▁meshed	-11.689
▁messenger	-11.689
▁messurd	-11.689
▁metacognition	-11.689
▁metally	-11.689
▁metaphor	-11.689
▁mgr	-11.689
▁mhm	-11.689
▁mi	-11.689
▁mickey	-11.689
▁microbiology	-11.689
▁microphone	-11.689
▁microwave	-11.689
▁middel	-11.689
▁middleschool	-11.689
▁midodrine	-11.689
▁mighty	-11.689
▁milder	-11.689
▁milestone	-11.689
▁milk	-11.689
▁millionth	-11.689
▁mindful	-11.689
▁minding	-11.689
▁mini	-11.689
▁miniscule	-11.689
▁minority	-11.689
▁mire	-11.689
▁misbehaving	-11.689
▁misdirect	-11.689
▁misfiring	-11.689
▁misheard	-11.689
▁misinterpreted	-11.689
▁mislead	-11.689
▁misleading	-11.689
▁mismanagement	-11.689
▁misplace	-11.689
▁misplaced	-11.689
▁misread	-11.689
▁misreading	-11.689
▁mission	-11.689
▁misstep	-11.689
▁mist	-11.689
▁mistook	-11.689
▁mistreated	-11.689
▁misunderstanding	-11.689
▁mitigates	-11.689
▁mmm	-11.689
▁mnghgnmngh	-11.689
▁moaning	-11.689
▁mob	-11.689
▁mocked	-11.689
▁mocking	-11.689
▁modeling	-11.689
▁moderate	-11.689
▁moderation	-11.689
▁modest	-11.689
▁modmail	-11.689
▁modqueue	-11.689
▁mogul	-11.689
▁mojar	-11.689
▁molasses	-11.689
▁molecular	-11.689
▁mome	-11.689
▁momentary	-11.689
▁momentum	-11.689
▁mommy	-11.689
▁mon	-11.689
▁mondo	-11.689
▁monitored	-11.689
▁monke	-11.689
▁monotone	-11.689
▁monotonous	-11.689
▁monotony	-11.689
▁monoxide	-11.689
▁monter	-11.689
▁moping	-11.689
▁morale	-11.689
▁morality	-11.689
▁morally	-11.689
▁morbid	-11.689
▁morbidity	-11.689
▁morbidly	-11.689
▁morgan	-11.689
▁mortally	-11.689
▁mortgage	-11.689
▁motel	-11.689
▁moth	-11.689
▁motivates	-11.689
▁motive	-11.689
▁motorcycle	-11.689
▁motto	-11.689
▁mouldy	-11.689
▁mountain	-11.689
▁mourning	-11.689
▁mouse	-11.689
▁moutain	-11.689
▁mouthwash	-11.689
▁mowed	-11.689
▁mt	-11.689
▁mu	-11.689
▁mucus	-11.689
▁multilane	-11.689
▁multiplayer	-11.689
▁multitask	-11.689
▁multivitamin	-11.689
▁mumbling	-11.689
▁murderous	-11.689
▁museum	-11.689
▁musician	-11.689
▁mustache	-11.689
▁mustve	-11.689
▁mutated	-11.689
▁mutism	-11.689
▁mutual	-11.689
▁mutuals	-11.689
▁mydayis	-11.689
▁myriad	-11.689
▁mysekf	-11.689
▁mysterious	-11.689
▁myth	-11.689
▁n0y1us	-11.689
▁n4hpcb	-11.689
▁nag	-11.689
▁nagging	-11.689
▁naive	-11.689
▁naively	-11.689
▁naltraxone	-11.689
▁nanny	-11.689
▁nardil	-11.689
▁nasa	-11.689
▁nastier	-11.689
▁navigate	-11.689
▁navigated	-11.689
▁nazi	-11.689
▁nbsp	-11.689
▁nearby	-11.689
▁nearer	-11.689
▁nearest	-11.689
▁neatly	-11.689
▁needy	-11.689
▁neglect	-11.689
▁neglected	-11.689
▁neglectful	-11.689
▁neighbour	-11.689
▁neo	-11.689
▁nephew	-11.689
▁netflix	-11.689
▁network	-11.689
▁networking	-11.689
▁neural	-11.689
▁neurofeedback	-11.689
▁neurology	-11.689
▁neuronal	-11.689
▁neuropsychological	-11.689
▁neurotypic	-11.689
▁neurpsychologist	-11.689
▁neutral	-11.689
▁nf	-11.689
▁nfnqrtvs8g24ancw6	-11.689
▁ng	-11.689
▁nibble	-11.689
▁nicely	-11.689
▁nicer	-11.689
▁nightine	-11.689
▁nightmarish	-11.689
▁nightshifts	-11.689
▁nine	-11.689
▁nitrous	-11.689
▁nod	-11.689
▁noisy	-11.689
▁nomore	-11.689
▁nomorepanic	-11.689
▁nonexistence	-11.689
▁nonexistent	-11.689
▁nonjudgmental	-11.689
▁noose	-11.689
▁nope	-11.689
▁north	-11.689
▁nostalgia	-11.689
▁notably	-11.689
▁noted	-11.689
▁notion	-11.689
▁nots	-11.689
▁novice	-11.689
▁noving	-11.689
▁np	-11.689
▁nth	-11.689
▁nugget	-11.689
▁nuke	-11.689
▁numbed	-11.689
▁nursing	-11.689
▁nurturing	-11.689
▁nutrition	-11.689
▁nutritional	-11.689
▁nutritionist	-11.689
▁nv	-11.689
▁nzs	-11.689
▁obesity	-11.689
▁objectifying	-11.689
▁obligatory	-11.689
▁obliged	-11.689
▁obliterated	-11.689
▁obliteration	-11.689
▁oblivion	-11.689
▁obscure	-11.689
▁observing	-11.689
▁obsessional	-11.689
▁obtainable	-11.689
▁occupational	-11.689
▁occupying	-11.689
▁occurrence	-11.689
▁occurring	-11.689
▁ocpd	-11.689
▁oddly	-11.689
▁odn	-11.689
▁offence	-11.689
▁offend	-11.689
▁offended	-11.689
▁offsite	-11.689
▁ohh	-11.689
▁ohhh	-11.689
▁okey	-11.689
▁om	-11.689
▁omniprozol	-11.689
▁ooze	-11.689
▁openner	-11.689
▁opiate	-11.689
▁opposed	-11.689
▁oppressive	-11.689
▁optimism	-11.689
▁optmistic	-11.689
▁oral	-11.689
▁ordeal	-11.689
▁ordering	-11.689
▁ordinary	-11.689
▁oreo	-11.689
▁orfidal	-11.689
▁organisation	-11.689
▁organizing	-11.689
▁orgasm	-11.689
▁oriented	-11.689
▁origin	-11.689
▁orthodox	-11.689
▁orthopedic	-11.689
▁osteopathic	-11.689
▁otherwse	-11.689
▁otr	-11.689
▁ou	-11.689
▁ought	-11.689
▁ourselfs	-11.689
▁outburst	-11.689
▁outburts	-11.689
▁outdoors	-11.689
▁outed	-11.689
▁outlandish	-11.689
▁outset	-11.689
▁outsourced	-11.689
▁ovary	-11.689
▁oven	-11.689
▁overanalyze	-11.689
▁overanalyzed	-11.689
▁overanalyzing	-11.689
▁overarching	-11.689
▁overcommitted	-11.689
▁overdid	-11.689
▁overdrive	-11.689
▁overdue	-11.689
▁overeating	-11.689
▁overheard	-11.689
▁overhyped	-11.689
▁overloaded	-11.689
▁overnights	-11.689
▁overpass	-11.689
▁overpowering	-11.689
▁overprescribed	-11.689
▁overseas	-11.689
▁overshadows	-11.689
▁oversleep	-11.689
▁overslept	-11.689
▁overstimulated	-11.689
▁overused	-11.689
▁overvalued	-11.689
▁overwelm	-11.689
▁overwhelms	-11.689
▁overworked	-11.689
▁owed	-11.689
▁owner	-11.689
▁owning	-11.689
▁oxford	-11.689
▁oxide	-11.689
▁oxymeter	-11.689
▁pace	-11.689
▁pad	-11.689
▁painfully	-11.689
▁painless	-11.689
▁painstakingly	-11.689
▁paired	-11.689
▁palace	-11.689
▁pan	-11.689
▁pancreatic	-11.689
▁pandemy	-11.689
▁pap	-11.689
▁para	-11.689
▁parade	-11.689
▁paradise	-11.689
▁paradoxical	-11.689
▁paralized	-11.689
▁parallel	-11.689
▁paraphrase	-11.689
▁paraphrasing	-11.689
▁parasite	-11.689
▁parasympathetic	-11.689
▁parental	-11.689
▁parenting	-11.689
▁parkinson	-11.689
▁paroxetine	-11.689
▁parted	-11.689
▁particals	-11.689
▁partly	-11.689
▁partook	-11.689
▁passably	-11.689
▁passionale	-11.689
▁paste	-11.689
▁pastime	-11.689
▁pat	-11.689
▁patience	-11.689
▁patriarchy	-11.689
▁payed	-11.689
▁paypal	-11.689
▁pd	-11.689
▁pdf	-11.689
▁peanut	-11.689
▁pee	-11.689
▁peek	-11.689
▁peel	-11.689
▁peep	-11.689
▁peering	-11.689
▁peg	-11.689
▁peice	-11.689
▁pen	-11.689
▁pencil	-11.689
▁penny	-11.689
▁pensacola	-11.689
▁pep	-11.689
▁pepsi	-11.689
▁pepto	-11.689
▁perceives	-11.689
▁perceptual	-11.689
▁perfectionist	-11.689
▁performer	-11.689
▁peripheral	-11.689
▁permabanned	-11.689
▁permeating	-11.689
▁permission	-11.689
▁permit	-11.689
▁perpetual	-11.689
▁perse	-11.689
▁persisted	-11.689
▁persists	-11.689
▁personsl	-11.689
▁perspire	-11.689
▁persuade	-11.689
▁pervasive	-11.689
▁pessimistic	-11.689
▁pestered	-11.689
▁petition	-11.689
▁petrol	-11.689
▁petted	-11.689
▁pg	-11.689
▁phantasmagoric	-11.689
▁phantom	-11.689
▁pharma	-11.689
▁pharmacist	-11.689
▁phenomenon	-11.689
▁phew	-11.689
▁philosophical	-11.689
▁phoenix	-11.689
▁phoniness	-11.689
▁photographer	-11.689
▁photographing	-11.689
▁php	-11.689
▁phrasing	-11.689
▁phsycially	-11.689
▁physic	-11.689
▁physicality	-11.689
▁pic	-11.689
▁picturing	-11.689
▁pieced	-11.689
▁piecing	-11.689
▁pigeon	-11.689
▁pigeonholed	-11.689
▁piggybacking	-11.689
▁pillow	-11.689
▁pinch	-11.689
▁ping	-11.689
▁pinned	-11.689
▁pinterest	-11.689
▁pitfall	-11.689
▁pitying	-11.689
▁placate	-11.689
▁plague	-11.689
▁platonic	-11.689
▁plausible	-11.689
▁plausibly	-11.689
▁player	-11.689
▁plaything	-11.689
▁pleads	-11.689
▁pleasing	-11.689
▁pleasw	-11.689
▁plotting	-11.689
▁plugged	-11.689
▁plywood	-11.689
▁pmdd	-11.689
▁pnemonia	-11.689
▁pneumonia	-11.689
▁podcaster	-11.689
▁poetic	-11.689
▁pointer	-11.689
▁poked	-11.689
▁poking	-11.689
▁polar	-11.689
▁policing	-11.689
▁politely	-11.689
▁poll	-11.689
▁pollen	-11.689
▁polution	-11.689
▁poo	-11.689
▁poorer	-11.689
▁popcorn	-11.689
▁popping	-11.689
▁popsicle	-11.689
▁populated	-11.689
▁porg	-11.689
▁portrays	-11.689
▁positioned	-11.689
▁positivity	-11.689
▁posse	-11.689
▁possessive	-11.689
▁poster	-11.689
▁postgrad	-11.689
▁postpartum	-11.689
▁postural	-11.689
▁potato	-11.689
▁potatoe	-11.689
▁potency	-11.689
▁potent	-11.689
▁potion	-11.689
▁pour	-11.689
▁pouring	-11.689
▁poverty	-11.689
▁powering	-11.689
▁ppls	-11.689
▁prayer	-11.689
▁precaution	-11.689
▁precieve	-11.689
▁precipice	-11.689
▁precise	-11.689
▁precisely	-11.689
▁predicament	-11.689
▁prednisone	-11.689
▁preety	-11.689
▁prefaced	-11.689
▁preferable	-11.689
▁preferred	-11.689
▁pregabalin	-11.689
▁prematurely	-11.689
▁premier	-11.689
▁prentedn	-11.689
▁prentenious	-11.689
▁preposterously	-11.689
▁prescribes	-11.689
▁presently	-11.689
▁preserve	-11.689
▁pressing	-11.689
▁presssure	-11.689
▁presumably	-11.689
▁presumed	-11.689
▁pretense	-11.689
▁prettiest	-11.689
▁preventable	-11.689
▁preventative	-11.689
▁prevention	-11.689
▁prework	-11.689
▁price	-11.689
▁priceless	-11.689
▁pricier	-11.689
▁prick	-11.689
▁pricking	-11.689
▁primed	-11.689
▁priming	-11.689
▁princess	-11.689
▁prioritise	-11.689
▁prioritize	-11.689
▁prism	-11.689
▁prisoner	-11.689
▁privacy	-11.689
▁priveleged	-11.689
▁prize	-11.689
▁prn	-11.689
▁proactive	-11.689
▁probability	-11.689
▁probaply	-11.689
▁proceded	-11.689
▁proceeding	-11.689
▁processed	-11.689
▁prochlorperazine	-11.689
▁procrastinator	-11.689
▁procreating	-11.689
▁prod	-11.689
▁prodded	-11.689
▁produce	-11.689
▁production	-11.689
▁professionally	-11.689
▁proffessional	-11.689
▁profiting	-11.689
▁profusely	-11.689
▁prognosis	-11.689
▁programmed	-11.689
▁programming	-11.689
▁progressed	-11.689
▁progressing	-11.689
▁progressively	-11.689
▁projecting	-11.689
▁projection	-11.689
▁prominent	-11.689
▁promo	-11.689
▁promotes	-11.689
▁prompt	-11.689
▁proof	-11.689
▁proofreading	-11.689
▁propanolol	-11.689
▁propelling	-11.689
▁prophecy	-11.689
▁prosperity	-11.689
▁prostitute	-11.689
▁protect	-11.689
▁protected	-11.689
▁protein	-11.689
▁proudest	-11.689
▁proudly	-11.689
▁proven	-11.689
▁provera	-11.689
▁provides	-11.689
▁providing	-11.689
▁psy	-11.689
▁psyanin	-11.689
▁psychanalist	-11.689
▁psyche	-11.689
▁psycho	-11.689
▁psychologied	-11.689
▁psychopath	-11.689
▁psychopharmaca	-11.689
▁psychosomatic	-11.689
▁published	-11.689
▁publishing	-11.689
▁puked	-11.689
▁puking	-11.689
▁pulsing	-11.689
▁pump	-11.689
▁punching	-11.689
▁punctual	-11.689
▁punishes	-11.689
▁puppet	-11.689
▁purchased	-11.689
▁purist	-11.689
▁purposeless	-11.689
▁pwease	-11.689
▁q	-11.689
▁qualification	-11.689
▁qualify	-11.689
▁quasimodo	-11.689
▁queasy	-11.689
▁quentin	-11.689
▁quest	-11.689
▁questioned	-11.689
▁quetamine	-11.689
▁quetiapine	-11.689
▁quickbooks	-11.689
▁quicker	-11.689
▁quicly	-11.689
▁quiting	-11.689
▁quitter	-11.689
▁quiz	-11.689
▁quo	-11.689
▁quora	-11.689
▁quotation	-11.689
▁racist	-11.689
▁radar	-11.689
▁radiate	-11.689
▁radiating	-11.689
▁radiologist	-11.689
▁radius	-11.689
▁rail	-11.689
▁railing	-11.689
▁raining	-11.689
▁rainy	-11.689
▁ramblings	-11.689
▁rambly	-11.689
▁rando	-11.689
▁rang	-11.689
▁ranged	-11.689
▁ranger	-11.689
▁rank	-11.689
▁ranking	-11.689
▁ranty	-11.689
▁rap	-11.689
▁rapid	-11.689
▁rapport	-11.689
▁rapunzled	-11.689
▁ration	-11.689
▁rationalised	-11.689
▁rationality	-11.689
▁rationalizing	-11.689
▁ravaging	-11.689
▁raving	-11.689
▁raw	-11.689
▁raynaud	-11.689
▁rdation	-11.689
▁reacted	-11.689
▁reader	-11.689
▁realizes	-11.689
▁realm	-11.689
▁rearing	-11.689
▁reasonably	-11.689
▁reassess	-11.689
▁reate	-11.689
▁reawakens	-11.689
▁rebirth	-11.689
▁reborn	-11.689
▁rebounded	-11.689
▁rebranded	-11.689
▁recalling	-11.689
▁recenntly	-11.689
▁receptive	-11.689
▁recipe	-11.689
▁reciprocated	-11.689
▁reckless	-11.689
▁recognised	-11.689
▁recognising	-11.689
▁recognition	-11.689
▁recoil	-11.689
▁recollection	-11.689
▁reconcile	-11.689
▁reconnect	-11.689
▁recorded	-11.689
▁recovers	-11.689
▁recreationally	-11.689
▁recruiting	-11.689
▁redditor	-11.689
▁redeem	-11.689
▁redeemable	-11.689
▁redeemed	-11.689
▁redemption	-11.689
▁reduces	-11.689
▁reduction	-11.689
▁refer	-11.689
▁referred	-11.689
▁refers	-11.689
▁reflection	-11.689
▁reflects	-11.689
▁reflex	-11.689
▁refreshing	-11.689
▁regaining	-11.689
▁regal	-11.689
▁regenerates	-11.689
▁registrar	-11.689
▁registration	-11.689
▁regression	-11.689
▁regretted	-11.689
▁regularity	-11.689
▁regulating	-11.689
▁regulation	-11.689
▁rehab	-11.689
▁rehabilitation	-11.689
▁reherniated	-11.689
▁reherniation	-11.689
▁reincarnation	-11.689
▁reinforced	-11.689
▁reinforcement	-11.689
▁reiterate	-11.689
▁reject	-11.689
▁rejoined	-11.689
▁rejuvenate	-11.689
▁relapsing	-11.689
▁relatable	-11.689
▁relaxes	-11.689
▁relay	-11.689
▁relentless	-11.689
▁reliable	-11.689
▁reliably	-11.689
▁relies	-11.689
▁relocate	-11.689
▁reluctance	-11.689
▁reluctant	-11.689
▁remained	-11.689
▁remeber	-11.689
▁remedial	-11.689
▁remembered	-11.689
▁remnant	-11.689
▁removing	-11.689
▁renewed	-11.689
▁renovation	-11.689
▁rental	-11.689
▁renting	-11.689
▁reoccurring	-11.689
▁repaired	-11.689
▁repay	-11.689
▁repaying	-11.689
▁rephrase	-11.689
▁replacement	-11.689
▁replacing	-11.689
▁repost	-11.689
▁represent	-11.689
▁reproduction	-11.689
▁reread	-11.689
▁researcher	-11.689
▁researching	-11.689
▁resembled	-11.689
▁resentful	-11.689
▁resentment	-11.689
▁reserved	-11.689
▁reshape	-11.689
▁residence	-11.689
▁residual	-11.689
▁resigned	-11.689
▁resisted	-11.689
▁resolved	-11.689
▁resonate	-11.689
▁respiratory	-11.689
▁respite	-11.689
▁respondin	-11.689
▁responding	-11.689
▁responsability	-11.689
▁responsive	-11.689
▁restaraunts	-11.689
▁restlessness	-11.689
▁restore	-11.689
▁restored	-11.689
▁restoril	-11.689
▁restraint	-11.689
▁restriction	-11.689
▁resubmitt	-11.689
▁resurfacing	-11.689
▁ret	-11.689
▁retake	-11.689
▁retaking	-11.689
▁retard	-11.689
▁retested	-11.689
▁rethink	-11.689
▁rethinking	-11.689
▁retraced	-11.689
▁retreated	-11.689
▁reunite	-11.689
▁reunited	-11.689
▁revered	-11.689
▁reverse	-11.689
▁reversible	-11.689
▁revert	-11.689
▁reviles	-11.689
▁revise	-11.689
▁revolve	-11.689
▁rework	-11.689
▁richer	-11.689
▁ridiculed	-11.689
▁riding	-11.689
▁rigid	-11.689
▁ringer	-11.689
▁ringtone	-11.689
▁rio	-11.689
▁rip	-11.689
▁risen	-11.689
▁ritalin	-11.689
▁river	-11.689
▁rlly	-11.689
▁roamed	-11.689
▁roaming	-11.689
▁robbery	-11.689
▁robbing	-11.689
▁robotic	-11.689
▁rocd	-11.689
▁rocket	-11.689
▁rocketed	-11.689
▁rocketing	-11.689
▁rodeo	-11.689
▁roleplay	-11.689
▁rolled	-11.689
▁roller	-11.689
▁roofied	-11.689
▁roofing	-11.689
▁roomie	-11.689
▁rooted	-11.689
▁rooting	-11.689
▁royally	-11.689
▁rpm	-11.689
▁rt	-11.689
▁rubbed	-11.689
▁rubbing	-11.689
▁rudely	-11.689
▁rue	-11.689
▁ruler	-11.689
▁rumination	-11.689
▁runaway	-11.689
▁runner	-11.689
▁runt	-11.689
▁rusty	-11.689
▁rutine	-11.689
▁rx	-11.689
▁rythm	-11.689
▁sacrifice	-11.689
▁sadden	-11.689
▁saddening	-11.689
▁sadder	-11.689
▁saint	-11.689
▁salesperson	-11.689
▁salt	-11.689
▁sang	-11.689
▁sap	-11.689
▁sarted	-11.689
▁satisfying	-11.689
▁savage	-11.689
▁savescumming	-11.689
▁savior	-11.689
▁scaly	-11.689
▁scammed	-11.689
▁scandal	-11.689
▁scanning	-11.689
▁scape	-11.689
▁scaping	-11.689
▁scarce	-11.689
▁scatterbrained	-11.689
▁scented	-11.689
▁scheming	-11.689
▁schiz	-11.689
▁schooled	-11.689
▁schooling	-11.689
▁sciatica	-11.689
▁scientist	-11.689
▁scissors	-11.689
▁scoff	-11.689
▁scolarships	-11.689
▁scold	-11.689
▁scolded	-11.689
▁scolding	-11.689
▁scoop	-11.689
▁scouring	-11.689
▁scout	-11.689
▁scramble	-11.689
▁scrap	-11.689
▁scraped	-11.689
▁scratched	-11.689
▁script	-11.689
▁scrolled	-11.689
▁scrub	-11.689
▁scrutinising	-11.689
▁scrutinize	-11.689
▁scum	-11.689
▁sea	-11.689
▁seam	-11.689
▁seconding	-11.689
▁securely	-11.689
▁seed	-11.689
▁seeked	-11.689
▁seeping	-11.689
▁segz	-11.689
▁selective	-11.689
▁selfie	-11.689
▁selfishness	-11.689
▁selfriges	-11.689
▁selled	-11.689
▁semantic	-11.689
▁semblance	-11.689
▁semen	-11.689
▁sen	-11.689
▁sends	-11.689
▁sensibility	-11.689
▁sensory	-11.689
▁sentient	-11.689
▁sentiment	-11.689
▁separated	-11.689
▁separating	-11.689
▁seperated	-11.689
▁seratonergic	-11.689
▁seratonin	-11.689
▁serf	-11.689
▁seriousness	-11.689
▁serodeps	-11.689
▁serotonin	-11.689
▁serqouil	-11.689
▁sertaline	-11.689
▁sertralin	-11.689
▁serum	-11.689
▁served	-11.689
▁servely	-11.689
▁sesh	-11.689
▁settling	-11.689
▁seventy	-11.689
▁severance	-11.689
▁severed	-11.689
▁severity	-11.689
▁shabby	-11.689
▁shakiness	-11.689
▁shallowest	-11.689
▁shaman	-11.689
▁shamble	-11.689
▁sharpens	-11.689
▁shatter	-11.689
▁shattering	-11.689
▁shaving	-11.689
▁shawshank	-11.689
▁shed	-11.689
▁sheeesh	-11.689
▁sheer	-11.689
▁sheltered	-11.689
▁sheltering	-11.689
▁shepherd	-11.689
▁shield	-11.689
▁shiftwork	-11.689
▁shine	-11.689
▁shiny	-11.689
▁shipping	-11.689
▁shitshow	-11.689
▁shitted	-11.689
▁shitting	-11.689
▁shittttt	-11.689
▁shiver	-11.689
▁shivering	-11.689
▁shlock	-11.689
▁shocking	-11.689
▁shoplifting	-11.689
▁shortage	-11.689
▁shove	-11.689
▁shoved	-11.689
▁showthread	-11.689
▁shrink	-11.689
▁shrouding	-11.689
▁shrug	-11.689
▁shtposting	-11.689
▁si	-11.689
▁sickening	-11.689
▁sicker	-11.689
▁sidebar	-11.689
▁sideeffects	-11.689
▁sidestep	-11.689
▁sidewalk	-11.689
▁sighed	-11.689
▁sightline	-11.689
▁silently	-11.689
▁silhouette	-11.689
▁similair	-11.689
▁simpler	-11.689
▁simplistic	-11.689
▁simultaneous	-11.689
▁simultaneously	-11.689
▁sings	-11.689
▁sisyphus	-11.689
▁sitrust	-11.689
▁sitter	-11.689
▁situational	-11.689
▁skate	-11.689
▁skeptical	-11.689
▁sketch	-11.689
▁sketchy	-11.689
▁skimmed	-11.689
▁skipper	-11.689
▁skulll	-11.689
▁skyline	-11.689
▁skyrocketed	-11.689
▁slab	-11.689
▁slam	-11.689
▁slamming	-11.689
▁slash	-11.689
▁sleeo	-11.689
▁sleepless	-11.689
▁slice	-11.689
▁slicing	-11.689
▁slim	-11.689
▁slob	-11.689
▁slot	-11.689
▁slowed	-11.689
▁slower	-11.689
▁slung	-11.689
▁slurred	-11.689
▁slut	-11.689
▁sm	-11.689
▁smarter	-11.689
▁smartphone	-11.689
▁smear	-11.689
▁smh	-11.689
▁smoldering	-11.689
▁smoothy	-11.689
▁smth	-11.689
▁snapping	-11.689
▁snatched	-11.689
▁sneezed	-11.689
▁sneezing	-11.689
▁snide	-11.689
▁snip	-11.689
▁snl	-11.689
▁snor	-11.689
▁snow_selmon	-11.689
▁snowballed	-11.689
▁snowballing	-11.689
▁snowflake	-11.689
▁snowing	-11.689
▁snri	-11.689
▁snuck	-11.689
▁snuggle	-11.689
▁soak	-11.689
▁sobbed	-11.689
▁sociability	-11.689
▁socialanxiety	-11.689
▁socialization	-11.689
▁societal	-11.689
▁soda	-11.689
▁sofa	-11.689
▁soil	-11.689
▁solely	-11.689
▁solidity	-11.689
▁solver	-11.689
▁somatic	-11.689
▁somrthing	-11.689
▁somthing	-11.689
▁somtimes	-11.689
▁somwhat	-11.689
▁songwriting	-11.689
▁soo	-11.689
▁soonest	-11.689
▁sooooo	-11.689
▁soot	-11.689
▁sopped	-11.689
▁soreness	-11.689
▁sorta	-11.689
▁sorted	-11.689
▁sorting	-11.689
▁soulmate	-11.689
▁south	-11.689
▁spa	-11.689
▁spacing	-11.689
▁spanish	-11.689
▁spared	-11.689
▁sparkly	-11.689
▁spasm	-11.689
▁spawn	-11.689
▁spawned	-11.689
▁speach	-11.689
▁specialization	-11.689
▁speck	-11.689
▁spectator	-11.689
▁spelt	-11.689
▁spended	-11.689
▁sperm	-11.689
▁spews	-11.689
▁spill	-11.689
▁spiraled	-11.689
▁spiralled	-11.689
▁spirit	-11.689
▁spiritual	-11.689
▁spoiler	-11.689
▁spoilt	-11.689
▁sponge	-11.689
▁spontaneous	-11.689
▁spooked	-11.689
▁spotting	-11.689
▁spreading	-11.689
▁spree	-11.689
▁sprinkler	-11.689
▁spying	-11.689
▁squared	-11.689
▁squirming	-11.689
▁squished	-11.689
▁srry	-11.689
▁sry	-11.689
▁stabilised	-11.689
▁stability	-11.689
▁stabilizing	-11.689
▁stagnate	-11.689
▁stale	-11.689
▁stalk	-11.689
▁stalker	-11.689
▁standalone	-11.689
▁standby	-11.689
▁standpoint	-11.689
▁stardom	-11.689
▁starter	-11.689
▁startling	-11.689
▁starved	-11.689
▁starving	-11.689
▁statistic	-11.689
▁stbxw	-11.689
▁steadily	-11.689
▁stealing	-11.689
▁steam	-11.689
▁stereotype	-11.689
▁sternum	-11.689
▁stethoscope	-11.689
▁stfu	-11.689
▁sticky	-11.689
▁stiffen	-11.689
▁stigma	-11.689
▁stimulant	-11.689
▁stimulated	-11.689
▁sting	-11.689
▁stock	-11.689
▁stole	-11.689
▁stoned	-11.689
▁stopgap	-11.689
▁stopp	-11.689
▁storyline	-11.689
▁straddled	-11.689
▁strain	-11.689
▁strained	-11.689
▁strangely	-11.689
▁strangled	-11.689
▁strapped	-11.689
▁strawberry	-11.689
▁streesd	-11.689
▁strenght	-11.689
▁strengthens	-11.689
▁stressor	-11.689
▁strewn	-11.689
▁strictly	-11.689
▁striker	-11.689
▁stripped	-11.689
▁stripping	-11.689
▁stroll	-11.689
▁strolling	-11.689
▁struck	-11.689
▁stubborness	-11.689
▁stufd	-11.689
▁stuffed	-11.689
▁stuggle	-11.689
▁stumbled	-11.689
▁stumbling	-11.689
▁stupider	-11.689
▁stupidest	-11.689
▁stutter	-11.689
▁styling	-11.689
▁su	-11.689
▁su1c1de	-11.689
▁subdue	-11.689
▁subjective	-11.689
▁sublime	-11.689
▁submission	-11.689
▁submit	-11.689
▁subsides	-11.689
▁substantial	-11.689
▁subtle	-11.689
▁subtly	-11.689
▁suburb	-11.689
▁succeeding	-11.689
▁succes	-11.689
▁succesful	-11.689
▁suceeded	-11.689
▁sucide	-11.689
▁sucker	-11.689
▁sucky	-11.689
▁sue	-11.689
▁sued	-11.689
▁sufder	-11.689
▁sufficient	-11.689
▁suffocate	-11.689
▁suffocated	-11.689
▁suggery	-11.689
▁suggerys	-11.689
▁suggesting	-11.689
▁suicidality	-11.689
▁sulfuric	-11.689
▁summarize	-11.689
▁summarized	-11.689
▁summertime	-11.689
▁summit	-11.689
▁summons	-11.689
▁sunk	-11.689
▁sunken	-11.689
▁sunlight	-11.689
▁sunod	-11.689
▁sunset	-11.689
▁supersonic	-11.689
▁supervision	-11.689
▁supportively	-11.689
▁suppressing	-11.689
▁surf	-11.689
▁surficial	-11.689
▁surgieries	-11.689
▁surname	-11.689
▁surpassing	-11.689
▁surprising	-11.689
▁surreal	-11.689
▁surround	-11.689
▁sus	-11.689
▁susceptible	-11.689
▁suspected	-11.689
▁suspension	-11.689
▁suspicion	-11.689
▁suspicious	-11.689
▁sustain	-11.689
▁sustained	-11.689
▁sustaining	-11.689
▁swam	-11.689
▁swap	-11.689
▁swapped	-11.689
▁swaying	-11.689
▁sweared	-11.689
▁swept	-11.689
▁swinging	-11.689
▁swipe	-11.689
▁swirlies	-11.689
▁swiss	-11.689
▁sword	-11.689
▁swung	-11.689
▁symotoms	-11.689
▁sympathize	-11.689
▁symptos	-11.689
▁sync	-11.689
▁syrian	-11.689
▁syrup	-11.689
▁systematically	-11.689
▁taboo	-11.689
▁tachycardia	-11.689
▁tactfully	-11.689
▁tactic	-11.689
▁taiwan	-11.689
▁taked	-11.689
▁takeout	-11.689
▁tale	-11.689
▁talented	-11.689
▁talikg	-11.689
▁talkativeness	-11.689
▁tangent	-11.689
▁tap	-11.689
▁tape	-11.689
▁tapered	-11.689
▁taping	-11.689
▁tarantino	-11.689
▁tarnished	-11.689
▁tasting	-11.689
▁tat	-11.689
▁tattoo	-11.689
▁taunted	-11.689
▁taunting	-11.689
▁tca	-11.689
▁tcas	-11.689
▁td	-11.689
▁teaching	-11.689
▁teard	-11.689
▁teariness	-11.689
▁teased	-11.689
▁teasing	-11.689
▁teeter	-11.689
▁telehealth	-11.689
▁teleport	-11.689
▁teleworking	-11.689
▁temazepam	-11.689
▁temesta	-11.689
▁tempered	-11.689
▁temptation	-11.689
▁tenant	-11.689
▁tendances	-11.689
▁tenderness	-11.689
▁tending	-11.689
▁tendon	-11.689
▁tennis	-11.689
▁tenuously	-11.689
▁tenured	-11.689
▁terrific	-11.689
▁terrifyingly	-11.689
▁terrrifying	-11.689
▁testify	-11.689
▁tetanus	-11.689
▁tether	-11.689
▁textbook	-11.689
▁tge	-11.689
▁tha	-11.689
▁thanked	-11.689
▁thanking	-11.689
▁thanksgiving	-11.689
▁thankyou	-11.689
▁thati	-11.689
▁thc	-11.689
▁theet	-11.689
▁theirkids	-11.689
▁theorising	-11.689
▁theorist	-11.689
▁theorize	-11.689
▁thereby	-11.689
▁thers	-11.689
▁thickest	-11.689
▁thief	-11.689
▁thinker	-11.689
▁thirsty	-11.689
▁thomas	-11.689
▁thorough	-11.689
▁thoroughly	-11.689
▁thorugh	-11.689
▁thoughtful	-11.689
▁thoughtfully	-11.689
▁thoughtfulness	-11.689
▁threaten	-11.689
▁threatment	-11.689
▁thrifting	-11.689
▁thrill	-11.689
▁thrombosis	-11.689
▁thruth	-11.689
▁tht	-11.689
▁thud	-11.689
▁thumb	-11.689
▁thunderstorm	-11.689
▁thwarted	-11.689
▁tidy	-11.689
▁tiffany	-11.689
▁tightening	-11.689
▁tighter	-11.689
▁timer	-11.689
▁timetable	-11.689
▁tiniest	-11.689
▁tinted	-11.689
▁tmr	-11.689
▁toaster	-11.689
▁tolerated	-11.689
▁tolerating	-11.689
▁tolstoy	-11.689
▁tommy	-11.689
▁toned	-11.689
▁tonsil	-11.689
▁toothpaste	-11.689
▁topamax	-11.689
▁topical	-11.689
▁torchlight	-11.689
▁tore	-11.689
▁torn	-11.689
▁tortilla	-11.689
▁toss	-11.689
▁tossed	-11.689
▁totalled	-11.689
▁totter	-11.689
▁toughen	-11.689
▁toughness	-11.689
▁toughst	-11.689
▁towed	-11.689
▁towel	-11.689
▁toy	-11.689
▁toyota	-11.689
▁tracing	-11.689
▁tracked	-11.689
▁tracking	-11.689
▁traction	-11.689
▁traded	-11.689
▁tradesman	-11.689
▁traffic	-11.689
▁tragic	-11.689
▁trainwreck	-11.689
▁trajectory	-11.689
▁tranquility	-11.689
▁transcranial_magnetic_stimulation	-11.689
▁transexuality	-11.689
▁transfer	-11.689
▁transfered	-11.689
▁transitioned	-11.689
▁transitioning	-11.689
▁translated	-11.689
▁translating	-11.689
▁transparency	-11.689
▁transparently	-11.689
▁transportation	-11.689
▁trap	-11.689
▁trashed	-11.689
▁trashy	-11.689
▁traumatised	-11.689
▁traumatising	-11.689
▁traveled	-11.689
▁travelled	-11.689
▁traying	-11.689
▁trazadone	-11.689
▁trazodone	-11.689
▁tread	-11.689
▁tremble	-11.689
▁trend	-11.689
▁trial	-11.689
▁trichotillomania	-11.689
▁trickling	-11.689
▁tricky	-11.689
▁tricyclic	-11.689
▁trintellix	-11.689
▁triple	-11.689
▁tripled	-11.689
▁tripping	-11.689
▁troath	-11.689
▁trooper	-11.689
▁trotted	-11.689
▁troubled	-11.689
▁trouser	-11.689
▁trudge	-11.689
▁trudging	-11.689
▁truest	-11.689
▁trully	-11.689
▁trump	-11.689
▁trumpism	-11.689
▁trusted	-11.689
▁trustworthy	-11.689
▁tucking	-11.689
▁tuff	-11.689
▁tuition	-11.689
▁tulsi	-11.689
▁tuned	-11.689
▁turbulence	-11.689
▁turmoil	-11.689
▁turtle	-11.689
▁tweaked	-11.689
▁tweaky	-11.689
▁twinge	-11.689
▁twink	-11.689
▁twitching	-11.689
▁twitchy	-11.689
▁uck	-11.689
▁ughh	-11.689
▁uhh	-11.689
▁uhs	-11.689
▁uke	-11.689
▁um	-11.689
▁ums	-11.689
▁unacceptable	-11.689
▁unadulterated	-11.689
▁unashamedly	-11.689
▁unavailable	-11.689
▁unbalanced	-11.689
▁unbeatable	-11.689
▁unbiased	-11.689
▁uncalled	-11.689
▁uncertain	-11.689
▁uncommon	-11.689
▁unconditional	-11.689
▁unconditionally	-11.689
▁unconfident	-11.689
▁uncontrolled	-11.689
▁und	-11.689
▁underaged	-11.689
▁underestimated	-11.689
▁undergraduate	-11.689
▁understatement	-11.689
▁underwater	-11.689
▁undeserving	-11.689
▁undesirable	-11.689
▁undo	-11.689
▁unequivocally	-11.689
▁unexpectedly	-11.689
▁unexplainably	-11.689
▁unfiltered	-11.689
▁unfinished	-11.689
▁unflattering	-11.689
▁unfollowed	-11.689
▁unforeseen	-11.689
▁unfulfilled	-11.689
▁unfunny	-11.689
▁unhappiness	-11.689
▁unheard	-11.689
▁unhelpful	-11.689
▁uniform	-11.689
▁unimportant	-11.689
▁uninstalling	-11.689
▁uninterested	-11.689
▁united	-11.689
▁universally	-11.689
▁uniwersity	-11.689
▁unjustifiably	-11.689
▁unkind	-11.689
▁unknowingly	-11.689
▁unlikable	-11.689
▁unlocked	-11.689
▁unlovable	-11.689
▁unloveable	-11.689
▁unloyal	-11.689
▁unmade	-11.689
▁unmanageable	-11.689
▁unnecessary	-11.689
▁unnessesary	-11.689
▁unorganised	-11.689
▁unpacking	-11.689
▁unpopular	-11.689
▁unreal	-11.689
▁unreasonable	-11.689
▁unrelenting	-11.689
▁unresponsive	-11.689
▁unrolled	-11.689
▁unsatisfying	-11.689
▁unseasoned	-11.689
▁unshakable	-11.689
▁unstressed	-11.689
▁unsuccessful	-11.689
▁unsweetened	-11.689
▁untenable	-11.689
▁untouch	-11.689
▁unttill	-11.689
▁unwilling	-11.689
▁unwillingly	-11.689
▁unwise	-11.689
▁unworthiness	-11.689
▁upbeat	-11.689
▁update	-11.689
▁uphill	-11.689
▁uplifting	-11.689
▁upload	-11.689
▁upping	-11.689
▁upsetting	-11.689
▁upstairs	-11.689
▁upvote	-11.689
▁upvots	-11.689
▁ur	-11.689
▁ure	-11.689
▁urgency	-11.689
▁usa	-11.689
▁usage	-11.689
▁usefull	-11.689
▁username	-11.689
▁uso	-11.689
▁usseles	-11.689
▁utility	-11.689
▁utm_campaign	-11.689
▁utm_content	-11.689
▁utm_name	-11.689
▁utmost	-11.689
▁utterly	-11.689
▁uve	-11.689
▁vacuum	-11.689
▁vacuumed	-11.689
▁vagrant	-11.689
▁vain	-11.689
▁valdoxan	-11.689
▁valerian	-11.689
▁validate	-11.689
▁valium	-11.689
▁valuable	-11.689
▁valued	-11.689
▁van	-11.689
▁vape	-11.689
▁vastly	-11.689
▁veen	-11.689
▁vegetative	-11.689
▁veggie	-11.689
▁vehemently	-11.689
▁veil	-11.689
▁vein	-11.689
▁ventilated	-11.689
▁verbal	-11.689
▁verify	-11.689
▁versus	-11.689
▁vest	-11.689
▁veteran	-11.689
▁veterinary	-11.689
▁vibrant	-11.689
▁victimizing	-11.689
▁videogame	-11.689
▁videogamer	-11.689
▁videographer	-11.689
▁viewed	-11.689
▁vile	-11.689
▁vintage	-11.689
▁violate	-11.689
▁violently	-11.689
▁vip	-11.689
▁viscous	-11.689
▁visual	-11.689
▁visualizing	-11.689
▁vital	-11.689
▁vitals	-11.689
▁vivid	-11.689
▁vividly	-11.689
▁vocabulary	-11.689
▁vocal	-11.689
▁vocational	-11.689
▁volcanic	-11.689
▁volcano	-11.689
▁voltage	-11.689
▁volume	-11.689
▁voluntarily	-11.689
▁volunteered	-11.689
▁vomiting	-11.689
▁vortex	-11.689
▁vyvanse	-11.689
▁waaaaay	-11.689
▁wageslave	-11.689
▁wail	-11.689
▁waistband	-11.689
▁waisted	-11.689
▁waiter	-11.689
▁waitlisted	-11.689
▁waitstaff	-11.689
▁wajt	-11.689
▁wakeful	-11.689
▁wallow	-11.689
▁wallowing	-11.689
▁wallpaper	-11.689
▁waltz	-11.689
▁wanders	-11.689
▁wanne	-11.689
▁warden	-11.689
▁wardrobe	-11.689
▁warms	-11.689
▁warmth	-11.689
▁warn	-11.689
▁warrant	-11.689
▁warranty	-11.689
▁wary	-11.689
▁waster	-11.689
▁watering	-11.689
▁watery	-11.689
▁wathever	-11.689
▁wavered	-11.689
▁wax	-11.689
▁wbc	-11.689
▁weakened	-11.689
▁weakens	-11.689
▁wealth	-11.689
▁wealthy	-11.689
▁wean	-11.689
▁weaned	-11.689
▁weapon	-11.689
▁weary	-11.689
▁wedge	-11.689
▁weekday	-11.689
▁weepy	-11.689
▁weighing	-11.689
▁weighting	-11.689
▁weirder	-11.689
▁weirdest	-11.689
▁weirdness	-11.689
▁wel	-11.689
▁welbutrin	-11.689
▁welcoming	-11.689
▁welfare	-11.689
▁wellbeing	-11.689
▁welling	-11.689
▁wellness	-11.689
▁whack	-11.689
▁whatnot	-11.689
▁whatsapp	-11.689
▁wheezy	-11.689
▁whereby	-11.689
▁whine	-11.689
▁whining	-11.689
▁whisper	-11.689
▁whispered	-11.689
▁whispering	-11.689
▁whiteboard	-11.689
▁whiteness	-11.689
▁whoever	-11.689
▁wholesome	-11.689
▁whoop	-11.689
▁whore	-11.689
▁whrists	-11.689
▁whta	-11.689
▁wider	-11.689
▁widespread	-11.689
▁widget	-11.689
▁wig	-11.689
▁wigging	-11.689
▁wiggle	-11.689
▁wilbur	-11.689
▁wildflower	-11.689
▁wildland	-11.689
▁wildly	-11.689
▁willed	-11.689
▁willingness	-11.689
▁winding	-11.689
▁wine	-11.689
▁wink	-11.689
▁winner	-11.689
▁winning	-11.689
▁wipe	-11.689
▁wisdom	-11.689
▁wisj	-11.689
▁wit	-11.689
▁withdraw	-11.689
