▁like	-4.16625
<s>	0
</s>	0
<unk>	0
▁wa	-4.20116
▁feel	-4.25418
▁anxiety	-4.6022
▁get	-4.66023
▁know	-4.66287
▁time	-4.78154
▁want	-4.80869
▁even	-4.87506
▁life	-4.98309
▁really	-4.99653
▁day	-5.0139
▁thing	-5.11109
▁year	-5.11385
▁people	-5.23112
▁think	-5.23423
▁ha	-5.25313
▁one	-5.25791
▁go	-5.32394
▁help	-5.34812
▁make	-5.34987
▁would	-5.36576
▁friend	-5.38734
▁going	-5.40755
▁much	-5.43577
▁something	-5.49069
▁thought	-5.49675
▁never	-5.53605
▁work	-5.54453
▁feeling	-5.55522
▁anyone	-5.58579
▁got	-5.64048
▁back	-5.64753
▁anything	-5.69091
▁always	-5.71333
▁still	-5.75184
▁job	-5.77034
▁bad	-5.77837
▁also	-5.78106
▁way	-5.78918
▁good	-5.79463
▁depression	-5.80286
▁every	-5.81394
▁need	-5.81394
▁take	-5.83648
▁could	-5.86245
▁getting	-5.87126
▁everything	-5.87422
▁month	-5.89213
▁_	-5.9073
▁started	-5.91344
▁someone	-5.91652
▁since	-5.92582
▁school	-5.93207
▁better	-5.94152
▁say	-5.97368
▁week	-5.97368
▁see	-6.01368
▁last	-6.01709
▁attack	-6.03778
▁point	-6.03778
▁lot	-6.05891
▁else	-6.08413
▁family	-6.09884
▁try	-6.10255
▁panic	-6.11001
▁anymore	-6.12131
▁person	-6.13658
▁hate	-6.14043
▁anxious	-6.14819
▁first	-6.156
▁right	-6.15993
▁around	-6.16387
▁nothing	-6.19193
▁hard	-6.20832
▁ever	-6.21662
▁keep	-6.2292
▁tell	-6.2292
▁well	-6.2292
▁talk	-6.23343
▁trying	-6.23343
▁everyone	-6.24622
▁im	-6.24622
▁long	-6.25052
▁able	-6.25484
▁away	-6.26354
▁felt	-6.27673
▁made	-6.30363
▁thinking	-6.30819
▁past	-6.31277
▁said	-6.32198
▁stop	-6.32198
▁worse	-6.32198
▁2	-6.33597
▁start	-6.34068
▁come	-6.3454
▁new	-6.35493
▁love	-6.36454
▁actually	-6.38406
▁doe	-6.38406
▁find	-6.39396
▁sleep	-6.39894
▁told	-6.41406
▁maybe	-6.41915
▁though	-6.41915
▁alone	-6.42426
▁night	-6.4294
▁care	-6.43457
▁end	-6.43457
▁home	-6.45024
▁ago	-6.45551
▁scared	-6.45551
▁live	-6.46615
▁problem	-6.47152
▁went	-6.47152
▁sometimes	-6.47691
▁tried	-6.47691
▁look	-6.48233
▁mental	-6.49326
▁reason	-6.50988
▁sure	-6.51548
▁little	-6.53248
▁pain	-6.53821
▁today	-6.54977
▁issue	-6.5556
▁give	-6.56146
▁health	-6.56146
▁many	-6.56146
▁mind	-6.56146
▁almost	-6.56736
▁shit	-6.57927
▁parent	-6.58527
▁best	-6.59132
▁without	-6.60351
▁body	-6.60967
▁depressed	-6.60967
▁fear	-6.61586
▁taking	-6.62209
▁enough	-6.62836
▁medication	-6.62836
▁two	-6.62836
▁place	-6.63467
▁happy	-6.64102
▁therapy	-6.65384
▁hour	-6.66031
▁self	-6.66031
▁fucking	-6.66682
▁experience	-6.67338
▁done	-6.67998
▁3	-6.68663
▁cry	-6.69332
▁head	-6.69332
▁hope	-6.70005
▁making	-6.70005
▁normal	-6.70683
▁post	-6.70683
▁doctor	-6.71365
▁heart	-6.71365
▁tired	-6.73442
▁used	-6.73442
▁put	-6.75562
▁working	-6.77001
▁wrong	-6.77001
▁either	-6.77728
▁pretty	-6.77728
▁advice	-6.78461
▁another	-6.78461
▁house	-6.78461
▁dont	-6.79199
▁wanted	-6.79199
▁relationship	-6.79942
▁social	-6.79942
▁wish	-6.79942
▁let	-6.81446
▁left	-6.82206
▁please	-6.82206
▁high	-6.82973
▁symptom	-6.82973
▁guy	-6.84523
▁med	-6.84523
▁talking	-6.86895
▁lost	-6.88508
▁whole	-6.88508
▁bed	-6.90147
▁etc	-6.90147
▁part	-6.90977
▁amp	-6.91814
▁recently	-6.91814
▁cause	-6.93509
▁living	-6.93509
▁understand	-6.93509
▁kind	-6.94367
▁world	-6.94367
▁brain	-6.95233
▁bit	-6.96106
▁happened	-6.96106
▁hurt	-6.96106
▁mom	-6.96106
▁probably	-6.96106
▁already	-6.96987
▁might	-6.96987
▁die	-6.97876
▁next	-6.97876
▁sorry	-6.98773
▁finally	-7.00591
▁mean	-7.00591
▁moment	-7.01513
▁old	-7.01513
▁real	-7.01513
▁side	-7.01513
▁took	-7.01513
▁5	-7.02443
▁stay	-7.02443
▁4	-7.03382
▁u	-7.03382
▁found	-7.0433
▁due	-7.05287
▁fine	-7.05287
▁guess	-7.05287
▁college	-7.06253
▁looking	-7.06253
▁sick	-7.06253
▁seems	-7.07229
▁gonna	-7.08214
▁literally	-7.08214
▁stuff	-7.09209
▁therapist	-7.09209
▁couple	-7.10214
▁situation	-7.10214
▁call	-7.12255
▁honestly	-7.12255
▁okay	-7.12255
▁sad	-7.12255
▁covid	-7.13291
▁worst	-7.13291
▁gone	-7.14338
▁saying	-7.14338
▁afraid	-7.15397
▁change	-7.15397
▁different	-7.15397
▁fuck	-7.15397
▁happen	-7.15397
▁least	-7.15397
▁read	-7.15397
▁remember	-7.15397
▁close	-7.16466
▁constantly	-7.16466
▁leave	-7.16466
▁eat	-7.17547
▁yet	-7.17547
▁everyday	-7.1864
▁completely	-7.19745
▁seem	-7.19745
▁struggling	-7.19745
▁matter	-7.20863
▁others	-7.20863
▁worried	-7.20863
▁money	-7.21992
▁second	-7.21992
▁1	-7.23135
▁room	-7.23135
▁starting	-7.24291
▁stress	-7.24291
▁weird	-7.24291
▁effect	-7.25461
▁hit	-7.25461
▁deal	-7.27842
▁kid	-7.27842
▁class	-7.29054
▁helped	-7.29054
▁may	-7.29054
▁morning	-7.29054
▁came	-7.30281
▁future	-7.30281
▁gotten	-7.30281
▁great	-7.30281
▁kill	-7.31524
▁together	-7.31524
▁telling	-7.32781
▁worry	-7.32781
▁ask	-7.34055
▁diagnosed	-7.34055
▁sound	-7.34055
▁usually	-7.34055
▁10	-7.35346
▁break	-7.35346
▁currently	-7.36653
▁idea	-7.36653
▁thank	-7.36653
▁wanna	-7.36653
▁control	-7.37977
▁fact	-7.37977
▁far	-7.37977
▁question	-7.37977
▁reading	-7.37977
▁stupid	-7.37977
▁asked	-7.3932
▁basically	-7.3932
▁become	-7.3932
▁dad	-7.3932
▁eating	-7.3932
▁hand	-7.3932
▁mother	-7.3932
▁outside	-7.3932
▁barely	-7.4068
▁idk	-7.4068
▁needed	-7.4068
▁sense	-7.4068
▁soon	-7.4068
▁grade	-7.4206
▁minute	-7.4206
▁phone	-7.4206
▁energy	-7.43458
▁food	-7.43458
▁girl	-7.43458
▁psychiatrist	-7.43458
▁especially	-7.44877
▁face	-7.44877
▁chest	-7.46316
▁game	-7.46316
▁thanks	-7.46316
▁disorder	-7.47775
▁stuck	-7.47775
▁suicidal	-7.47775
▁7	-7.49257
▁hear	-7.49257
▁online	-7.49257
▁stopped	-7.49257
▁turn	-7.49257
▁believe	-7.50761
▁big	-7.50761
▁full	-7.50761
▁pay	-7.50761
▁suck	-7.50761
▁support	-7.50761
▁breathing	-7.52287
▁crazy	-7.52287
▁cut	-7.52287
▁state	-7.52287
▁super	-7.52287
▁use	-7.52287
▁wake	-7.52287
▁word	-7.52287
▁cant	-7.53838
▁eye	-7.53838
▁half	-7.53838
▁later	-7.53838
▁weight	-7.53838
▁coming	-7.55413
▁move	-7.55413
▁severe	-7.55413
▁called	-7.57013
▁girlfriend	-7.57013
▁le	-7.57013
▁low	-7.57013
▁tip	-7.57013
▁age	-7.58639
▁daily	-7.58639
▁dead	-7.58639
▁dealing	-7.58639
▁plan	-7.58639
▁test	-7.58639
▁x200b	-7.58639
▁decided	-7.60292
▁happens	-7.60292
▁terrible	-7.60292
▁death	-7.61972
▁focus	-7.61972
▁hell	-7.61972
▁hi	-7.61972
▁inside	-7.61972
▁often	-7.61972
▁quite	-7.61972
▁car	-7.63682
▁motivation	-7.63682
▁negative	-7.63682
▁suicide	-7.63682
▁drive	-7.65421
▁hey	-7.65421
▁instead	-7.65421
▁nice	-7.65421
▁open	-7.65421
▁seeing	-7.65421
▁walk	-7.65421
▁whenever	-7.65421
▁absolutely	-7.67191
▁calm	-7.67191
▁however	-7.67191
▁single	-7.67191
▁struggle	-7.67191
▁20	-7.68993
▁asking	-7.68993
▁conversation	-7.68993
▁course	-7.68993
▁nobody	-7.68993
▁sister	-7.68993
▁early	-7.70828
▁empty	-7.70828
▁fun	-7.70828
▁group	-7.70828
▁physical	-7.70828
▁seen	-7.70828
▁small	-7.70828
▁suffer	-7.70828
▁video	-7.70828
▁eventually	-7.72697
▁reddit	-7.72697
▁yesterday	-7.72697
▁blood	-7.74602
▁child	-7.74602
▁emotion	-7.74602
▁music	-7.74602
▁possible	-7.74602
▁similar	-7.74602
▁stomach	-7.74602
▁terrified	-7.74602
▁tomorrow	-7.74602
▁top	-7.74602
▁worked	-7.74602
▁extremely	-7.76544
▁fight	-7.76544
▁ok	-7.76544
▁rather	-7.76544
▁sit	-7.76544
▁story	-7.76544
▁stressed	-7.76544
▁suffering	-7.76544
▁trigger	-7.76544
▁wondering	-7.76544
▁dose	-7.78524
▁ended	-7.78524
▁hold	-7.78524
▁kinda	-7.78524
▁mentally	-7.78524
▁mood	-7.78524
▁noticed	-7.78524
▁pill	-7.78524
▁rest	-7.78524
▁study	-7.78524
▁anyway	-7.80544
▁awful	-7.80544
▁free	-7.80544
▁gave	-7.80544
▁horrible	-7.80544
▁kept	-7.80544
▁share	-7.80544
▁30	-7.82606
▁entire	-7.82606
▁healthy	-7.82606
▁late	-7.82606
▁pandemic	-7.82606
▁writing	-7.82606
▁constant	-7.84711
▁fall	-7.84711
▁giving	-7.84711
▁lose	-7.84711
▁nervous	-7.84711
▁supposed	-7.84711
▁wanting	-7.84711
▁water	-7.84711
▁deep	-7.86862
▁ive	-7.86862
▁longer	-7.86862
▁miss	-7.86862
▁oh	-7.86862
▁sleeping	-7.86862
▁whatever	-7.86862
▁chance	-7.8906
▁definitely	-7.8906
▁difficult	-7.8906
▁enjoy	-7.8906
▁exercise	-7.8906
▁fix	-7.8906
▁general	-7.8906
▁knew	-7.8906
▁level	-7.8906
▁three	-7.8906
▁write	-7.8906
▁answer	-7.91307
▁cannot	-7.91307
▁given	-7.91307
▁helpful	-7.91307
▁saw	-7.91307
▁sitting	-7.91307
▁taken	-7.91307
▁truly	-7.91307
▁watching	-7.91307
▁episode	-7.93606
▁experienced	-7.93606
▁forget	-7.93606
▁happening	-7.93606
▁happiness	-7.93606
▁man	-7.93606
▁notice	-7.93606
▁partner	-7.93606
▁pressure	-7.93606
▁sort	-7.93606
▁god	-7.95959
▁human	-7.95959
▁loved	-7.95959
▁met	-7.95959
▁prescribed	-7.95959
▁run	-7.95959
▁seriously	-7.95959
▁show	-7.95959
▁speak	-7.95959
▁breath	-7.98369
▁breathe	-7.98369
▁case	-7.98369
▁dog	-7.98369
▁fast	-7.98369
▁forward	-7.98369
▁fucked	-7.98369
▁hello	-7.98369
▁huge	-7.98369
▁physically	-7.98369
▁realize	-7.98369
▁step	-7.98369
▁type	-7.98369
▁attention	-8.00838
▁behind	-8.00838
▁broke	-8.00838
▁brother	-8.00838
▁illness	-8.00838
▁lately	-8.00838
▁mostly	-8.00838
▁option	-8.00838
▁playing	-8.00838
▁related	-8.00838
▁semester	-8.00838
▁watch	-8.00838
▁woke	-8.00838
▁appointment	-8.0337
▁caused	-8.0337
▁country	-8.0337
▁dream	-8.0337
▁easy	-8.0337
▁except	-8.0337
▁hospital	-8.0337
▁listen	-8.0337
▁lonely	-8.0337
▁message	-8.0337
▁must	-8.0337
▁numb	-8.0337
▁quit	-8.0337
▁short	-8.0337
▁waiting	-8.0337
▁worth	-8.0337
▁book	-8.05968
▁career	-8.05968
▁date	-8.05968
▁exhausted	-8.05968
▁father	-8.05968
▁leaving	-8.05968
▁losing	-8.05968
▁middle	-8.05968
▁moved	-8.05968
▁play	-8.05968
▁posting	-8.05968
▁realized	-8.05968
▁angry	-8.08634
▁boyfriend	-8.08634
▁cope	-8.08634
▁despite	-8.08634
▁emotional	-8.08634
▁forever	-8.08634
▁learn	-8.08634
▁term	-8.08634
▁bring	-8.11374
▁drink	-8.11374
▁driving	-8.11374
▁dying	-8.11374
▁example	-8.11374
▁important	-8.11374
▁lack	-8.11374
▁lol	-8.11374
▁manage	-8.11374
▁managed	-8.11374
▁safe	-8.11374
▁turned	-8.11374
▁wait	-8.11374
▁alive	-8.14191
▁although	-8.14191
▁amount	-8.14191
▁antidepressant	-8.14191
▁explain	-8.14191
▁push	-8.14191
▁talked	-8.14191
▁uncomfortable	-8.14191
▁voice	-8.14191
▁young	-8.14191
▁avoid	-8.1709
▁became	-8.1709
▁contact	-8.1709
▁fault	-8.1709
▁finding	-8.1709
▁helping	-8.1709
▁husband	-8.1709
▁knowing	-8.1709
▁moving	-8.1709
▁random	-8.1709
▁serious	-8.1709
▁simple	-8.1709
▁spent	-8.1709
▁strong	-8.1709
▁tonight	-8.1709
▁true	-8.1709
▁unable	-8.1709
▁upset	-8.1709
▁whether	-8.1709
▁yes	-8.1709
▁busy	-8.20075
▁choice	-8.20075
▁drinking	-8.20075
▁dumb	-8.20075
▁guilty	-8.20075
▁handle	-8.20075
▁killing	-8.20075
▁leg	-8.20075
▁lie	-8.20075
▁mine	-8.20075
▁miserable	-8.20075
▁nausea	-8.20075
▁relax	-8.20075
▁seemed	-8.20075
▁sent	-8.20075
▁somehow	-8.20075
▁spend	-8.20075
▁summer	-8.20075
▁worrying	-8.20075
▁along	-8.23153
▁attempt	-8.23153
▁burden	-8.23153
▁died	-8.23153
▁door	-8.23153
▁genuinely	-8.23153
▁joke	-8.23153
▁major	-8.23153
▁pas	-8.23153
▁passed	-8.23153
▁response	-8.23153
▁several	-8.23153
▁sign	-8.23153
▁straight	-8.23153
▁student	-8.23153
▁suddenly	-8.23153
▁tough	-8.23153
▁trust	-8.23153
▁university	-8.23153
▁15	-8.26328
▁apart	-8.26328
▁causing	-8.26328
▁cold	-8.26328
▁company	-8.26328
▁drug	-8.26328
▁er	-8.26328
▁experiencing	-8.26328
▁finish	-8.26328
▁fit	-8.26328
▁front	-8.26328
▁hole	-8.26328
▁http	-8.26328
▁incredibly	-8.26328
▁medical	-8.26328
▁memory	-8.26328
▁name	-8.26328
▁personal	-8.26328
▁reality	-8.26328
▁running	-8.26328
▁shitty	-8.26328
▁slowly	-8.26328
▁task	-8.26328
▁useless	-8.26328
▁waking	-8.26328
▁appreciated	-8.29606
▁aware	-8.29606
▁certain	-8.29606
▁comfortable	-8.29606
▁confidence	-8.29606
▁function	-8.29606
▁immediately	-8.29606
▁lead	-8.29606
▁listening	-8.29606
▁looked	-8.29606
▁mad	-8.29606
▁meet	-8.29606
▁paranoid	-8.29606
▁positive	-8.29606
▁proud	-8.29606
▁shut	-8.29606
▁skill	-8.29606
▁stand	-8.29606
▁yeah	-8.29606
▁act	-8.32997
▁anybody	-8.32997
▁breakdown	-8.32997
▁calling	-8.32997
▁check	-8.32997
▁comment	-8.32997
▁dark	-8.32997
▁degree	-8.32997
▁deserve	-8.32997
▁detail	-8.32997
▁exactly	-8.32997
▁excited	-8.32997
▁figure	-8.32997
▁imagine	-8.32997
▁lexapro	-8.32997
▁none	-8.32997
▁office	-8.32997
▁period	-8.32997
▁personality	-8.32997
▁quickly	-8.32997
▁return	-8.32997
▁selfish	-8.32997
▁shaking	-8.32997
▁stressful	-8.32997
▁treat	-8.32997
▁using	-8.32997
▁waste	-8.32997
▁adult	-8.36506
▁annoying	-8.36506
▁anti	-8.36506
▁changed	-8.36506
▁continue	-8.36506
▁event	-8.36506
▁foot	-8.36506
▁gad	-8.36506
▁hang	-8.36506
▁hobby	-8.36506
▁loss	-8.36506
▁mess	-8.36506
▁mistake	-8.36506
▁normally	-8.36506
▁psychologist	-8.36506
▁reach	-8.36506
▁result	-8.36506
▁sensation	-8.36506
▁slow	-8.36506
▁toxic	-8.36506
▁wonder	-8.36506
▁anger	-8.40142
▁arm	-8.40142
▁bc	-8.40142
▁beat	-8.40142
▁cat	-8.40142
▁dr	-8.40142
▁emptypost	-8.40142
▁extreme	-8.40142
▁failed	-8.40142
▁including	-8.40142
▁interest	-8.40142
▁movie	-8.40142
▁offer	-8.40142
▁older	-8.40142
▁order	-8.40142
▁present	-8.40142
▁set	-8.40142
▁skin	-8.40142
▁somewhere	-8.40142
▁teeth	-8.40142
▁trapped	-8.40142
▁triggered	-8.40142
▁usual	-8.40142
▁19	-8.43917
▁actual	-8.43917
▁app	-8.43917
▁area	-8.43917
▁asleep	-8.43917
▁bos	-8.43917
▁bother	-8.43917
▁cancer	-8.43917
▁childhood	-8.43917
▁effort	-8.43917
▁escape	-8.43917
▁force	-8.43917
▁habit	-8.43917
▁hair	-8.43917
▁heard	-8.43917
▁ill	-8.43917
▁internet	-8.43917
▁interview	-8.43917
▁keeping	-8.43917
▁laugh	-8.43917
▁lay	-8.43917
▁mouth	-8.43917
▁nowhere	-8.43917
▁overwhelmed	-8.43917
▁piece	-8.43917
▁professional	-8.43917
▁rate	-8.43917
▁simply	-8.43917
▁tear	-8.43917
▁text	-8.43917
▁thats	-8.43917
▁throat	-8.43917
▁trouble	-8.43917
▁weak	-8.43917
▁within	-8.43917
▁24	-8.47839
▁common	-8.47839
▁diagnosis	-8.47839
▁dread	-8.47839
▁failure	-8.47839
▁falling	-8.47839
▁form	-8.47839
▁fully	-8.47839
▁hoping	-8.47839
▁member	-8.47839
▁multiple	-8.47839
▁near	-8.47839
▁overthinking	-8.47839
▁process	-8.47839
▁putting	-8.47839
▁relate	-8.47839
▁soul	-8.47839
▁studying	-8.47839
▁twice	-8.47839
▁unfortunately	-8.47839
▁walking	-8.47839
▁zoloft	-8.47839
▁abusive	-8.51921
▁adhd	-8.51921
▁anywhere	-8.51921
▁appreciate	-8.51921
▁becoming	-8.51921
▁broken	-8.51921
▁condition	-8.51921
▁cycle	-8.51921
▁decision	-8.51921
▁exist	-8.51921
▁fake	-8.51921
▁fighting	-8.51921
▁freaking	-8.51921
▁funny	-8.51921
▁harder	-8.51921
▁headache	-8.51921
▁hopefully	-8.51921
▁intense	-8.51921
▁likely	-8.51921
▁lockdown	-8.51921
▁ocd	-8.51921
▁painful	-8.51921
▁peace	-8.51921
▁shower	-8.51921
▁smile	-8.51921
▁throughout	-8.51921
▁title	-8.51921
▁weekend	-8.51921
▁younger	-8.51921
▁alcohol	-8.56177
▁anyways	-8.56177
▁apartment	-8.56177
▁born	-8.56177
▁complete	-8.56177
▁coping	-8.56177
▁cried	-8.56177
▁current	-8.56177
▁depressive	-8.56177
▁easier	-8.56177
▁fat	-8.56177
▁goal	-8.56177
▁harm	-8.56177
▁hated	-8.56177
▁honest	-8.56177
▁interested	-8.56177
▁lazy	-8.56177
▁light	-8.56177
▁loud	-8.56177
▁male	-8.56177
▁meant	-8.56177
▁meeting	-8.56177
▁missed	-8.56177
▁perfect	-8.56177
▁quiet	-8.56177
▁shot	-8.56177
▁smoking	-8.56177
▁space	-8.56177
▁speaking	-8.56177
▁spiral	-8.56177
▁sub	-8.56177
▁supportive	-8.56177
▁teacher	-8.56177
▁till	-8.56177
▁towards	-8.56177
▁understanding	-8.56177
▁unless	-8.56177
▁vaccine	-8.56177
▁wall	-8.56177
▁worthless	-8.56177
▁2020	-8.60622
▁21	-8.60622
▁alright	-8.60622
▁begin	-8.60622
▁bunch	-8.60622
▁community	-8.60622
▁confused	-8.60622
▁dating	-8.60622
▁emotionally	-8.60622
▁fail	-8.60622
▁fell	-8.60622
▁gain	-8.60622
▁ignore	-8.60622
▁impossible	-8.60622
▁learned	-8.60622
▁letting	-8.60622
▁mentioned	-8.60622
▁mg	-8.60622
▁muscle	-8.60622
▁nightmare	-8.60622
▁plus	-8.60622
▁ready	-8.60622
▁session	-8.60622
▁solution	-8.60622
▁store	-8.60622
▁tho	-8.60622
▁truth	-8.60622
▁woman	-8.60622
▁account	-8.65274
▁amazing	-8.65274
▁began	-8.65274
▁beyond	-8.65274
▁birthday	-8.65274
▁blame	-8.65274
▁confident	-8.65274
▁conscious	-8.65274
▁considering	-8.65274
▁damn	-8.65274
▁dealt	-8.65274
▁describe	-8.65274
▁earlier	-8.65274
▁everytime	-8.65274
▁ex	-8.65274
▁exam	-8.65274
▁excuse	-8.65274
▁extra	-8.65274
▁forgot	-8.65274
▁google	-8.65274
▁intrusive	-8.65274
▁known	-8.65274
▁manager	-8.65274
▁numbness	-8.65274
▁overcome	-8.65274
▁pick	-8.65274
▁prescription	-8.65274
▁progress	-8.65274
▁racing	-8.65274
▁rough	-8.65274
▁sadness	-8.65274
▁shake	-8.65274
▁specific	-8.65274
▁ssri	-8.65274
▁struggled	-8.65274
▁system	-8.65274
▁visit	-8.65274
▁12	-8.70153
▁22	-8.70153
▁accept	-8.70153
▁accepted	-8.70153
▁across	-8.70153
▁apparently	-8.70153
▁badly	-8.70153
▁beginning	-8.70153
▁build	-8.70153
▁difference	-8.70153
▁easily	-8.70153
▁everybody	-8.70153
▁expect	-8.70153
▁final	-8.70153
▁freak	-8.70153
▁liked	-8.70153
▁medicine	-8.70153
▁medium	-8.70153
▁noise	-8.70153
▁obviously	-8.70153
▁possibly	-8.70153
▁practice	-8.70153
▁public	-8.70153
▁save	-8.70153
▁scare	-8.70153
▁sibling	-8.70153
▁touch	-8.70153
▁trauma	-8.70153
▁treatment	-8.70153
▁vent	-8.70153
▁wife	-8.70153
▁youtube	-8.70153
▁affect	-8.75282
▁breaking	-8.75282
▁caring	-8.75282
▁city	-8.75282
▁clothes	-8.75282
▁cutting	-8.75282
▁dizzy	-8.75282
▁edit	-8.75282
▁existence	-8.75282
▁failing	-8.75282
▁forced	-8.75282
▁friendship	-8.75282
▁frustrated	-8.75282
▁functioning	-8.75282
▁hearing	-8.75282
▁hurting	-8.75282
▁improve	-8.75282
▁insane	-8.75282
▁interaction	-8.75282
▁joy	-8.75282
▁luck	-8.75282
▁mention	-8.75282
▁mum	-8.75282
▁patient	-8.75282
▁pound	-8.75282
▁purpose	-8.75282
▁r	-8.75282
▁rant	-8.75282
▁rarely	-8.75282
▁restaurant	-8.75282
▁scary	-8.75282
▁smoke	-8.75282
▁son	-8.75282
▁stable	-8.75282
▁subreddit	-8.75282
▁successful	-8.75282
▁throw	-8.75282
▁trip	-8.75282
▁uni	-8.75282
▁urge	-8.75282
▁weed	-8.75282
▁withdrawal	-8.75282
▁wonderful	-8.75282
▁100	-8.80689
▁ability	-8.80689
▁bathroom	-8.80689
▁besides	-8.80689
▁bottle	-8.80689
▁choose	-8.80689
▁chronic	-8.80689
▁clean	-8.80689
▁comfort	-8.80689
▁consider	-8.80689
▁crap	-8.80689
▁depressant	-8.80689
▁didnt	-8.80689
▁email	-8.80689
▁four	-8.80689
▁graduate	-8.80689
▁greatly	-8.80689
▁guilt	-8.80689
▁heavy	-8.80689
▁infection	-8.80689
▁information	-8.80689
▁lying	-8.80689
▁messed	-8.80689
▁missing	-8.80689
▁nearly	-8.80689
▁overwhelming	-8.80689
▁panicking	-8.80689
▁party	-8.80689
▁productive	-8.80689
▁reaction	-8.80689
▁responsibility	-8.80689
▁rid	-8.80689
▁routine	-8.80689
▁sex	-8.80689
▁site	-8.80689
▁society	-8.80689
▁somewhat	-8.80689
▁song	-8.80689
▁staying	-8.80689
▁throwing	-8.80689
▁totally	-8.80689
▁ugly	-8.80689
▁wellbutrin	-8.80689
▁yelled	-8.80689
▁absolute	-8.86405
▁argument	-8.86405
▁awkward	-8.86405
▁baby	-8.86405
▁boring	-8.86405
▁bullshit	-8.86405
▁burn	-8.86405
▁buy	-8.86405
▁catch	-8.86405
▁cbt	-8.86405
▁commit	-8.86405
▁compared	-8.86405
▁doc	-8.86405
▁drop	-8.86405
▁english	-8.86405
▁express	-8.86405
▁filled	-8.86405
▁finger	-8.86405
▁generally	-8.86405
▁growing	-8.86405
▁judge	-8.86405
▁learning	-8.86405
▁line	-8.86405
▁list	-8.86405
▁lived	-8.86405
▁lower	-8.86405
▁main	-8.86405
▁method	-8.86405
▁mid	-8.86405
▁nauseous	-8.86405
▁opening	-8.86405
▁overall	-8.86405
▁passing	-8.86405
▁pm	-8.86405
▁potential	-8.86405
▁regarding	-8.86405
▁regret	-8.86405
▁schedule	-8.86405
▁seek	-8.86405
▁september	-8.86405
▁smart	-8.86405
▁stayed	-8.86405
▁strange	-8.86405
▁suffered	-8.86405
▁ton	-8.86405
▁topic	-8.86405
▁various	-8.86405
▁wasted	-8.86405
▁wasting	-8.86405
▁xanax	-8.86405
▁17	-8.92467
▁23	-8.92467
▁9	-8.92467
▁afford	-8.92467
▁allowed	-8.92467
▁aspect	-8.92467
▁assignment	-8.92467
▁brought	-8.92467
▁building	-8.92467
▁checked	-8.92467
▁clearly	-8.92467
▁com	-8.92467
▁computer	-8.92467
▁convinced	-8.92467
▁cover	-8.92467
▁creative	-8.92467
▁crisis	-8.92467
▁cuz	-8.92467
▁daughter	-8.92467
▁dentist	-8.92467
▁dosage	-8.92467
▁e	-8.92467
▁ear	-8.92467
▁embarrassed	-8.92467
▁field	-8.92467
▁floor	-8.92467
▁ghost	-8.92467
▁hide	-8.92467
▁hopeless	-8.92467
▁laying	-8.92467
▁mask	-8.92467
▁mechanism	-8.92467
▁mode	-8.92467
▁nail	-8.92467
▁note	-8.92467
▁opinion	-8.92467
▁project	-8.92467
▁relief	-8.92467
▁responsible	-8.92467
▁ruin	-8.92467
▁sat	-8.92467
▁sentence	-8.92467
▁tl	-8.92467
▁treated	-8.92467
▁0	-8.98921
▁11	-8.98921
▁25	-8.98921
▁50	-8.98921
▁abuse	-8.98921
▁art	-8.98921
▁assume	-8.98921
▁aunt	-8.98921
▁bf	-8.98921
▁bill	-8.98921
▁black	-8.98921
▁bored	-8.98921
▁bottom	-8.98921
▁bought	-8.98921
▁brings	-8.98921
▁caffeine	-8.98921
▁caught	-8.98921
▁clear	-8.98921
▁co	-8.98921
▁connect	-8.98921
▁crippling	-8.98921
▁disappointment	-8.98921
▁distract	-8.98921
▁distraction	-8.98921
▁edge	-8.98921
▁ending	-8.98921
▁expecting	-8.98921
▁f	-8.98921
▁following	-8.98921
▁frustrating	-8.98921
▁gf	-8.98921
▁grateful	-8.98921
▁hot	-8.98921
▁instantly	-8.98921
▁irrational	-8.98921
▁majority	-8.98921
▁managing	-8.98921
▁meaning	-8.98921
▁neck	-8.98921
▁opportunity	-8.98921
▁opposite	-8.98921
▁p	-8.98921
▁paid	-8.98921
▁per	-8.98921
▁personally	-8.98921
▁poor	-8.98921
▁posted	-8.98921
▁pull	-8.98921
▁reply	-8.98921
▁research	-8.98921
▁rude	-8.98921
▁rush	-8.98921
▁send	-8.98921
▁shoulder	-8.98921
▁somebody	-8.98921
▁stick	-8.98921
▁success	-8.98921
▁sudden	-8.98921
▁surgery	-8.98921
▁taste	-8.98921
▁tense	-8.98921
▁violent	-8.98921
▁worker	-8.98921
▁www	-8.98921
▁yell	-8.98921
▁zero	-8.98921
▁14	-9.0582
▁2019	-9.0582
▁acting	-9.0582
▁advance	-9.0582
▁anytime	-9.0582
▁apologize	-9.0582
▁average	-9.0582
▁changing	-9.0582
▁courage	-9.0582
▁curious	-9.0582
▁deeper	-9.0582
▁desire	-9.0582
▁developed	-9.0582
▁disease	-9.0582
▁disgusting	-9.0582
▁doubt	-9.0582
▁dropped	-9.0582
▁dry	-9.0582
▁effective	-9.0582
▁explained	-9.0582
▁fill	-9.0582
▁haha	-9.0582
▁hanging	-9.0582
▁hardly	-9.0582
▁heavily	-9.0582
▁history	-9.0582
▁increase	-9.0582
▁insurance	-9.0582
▁letter	-9.0582
▁loving	-9.0582
▁march	-9.0582
▁meditation	-9.0582
▁mild	-9.0582
▁mile	-9.0582
▁non	-9.0582
▁otherwise	-9.0582
▁planning	-9.0582
▁pointless	-9.0582
▁position	-9.0582
▁properly	-9.0582
▁ran	-9.0582
▁regular	-9.0582
▁rn	-9.0582
▁rock	-9.0582
▁scream	-9.0582
▁sensitive	-9.0582
▁sexual	-9.0582
▁spiraling	-9.0582
▁spot	-9.0582
▁stranger	-9.0582
▁suggested	-9.0582
▁tv	-9.0582
▁walked	-9.0582
▁welcome	-9.0582
▁yelling	-9.0582
▁accident	-9.13231
▁actively	-9.13231
▁add	-9.13231
▁air	-9.13231
▁allow	-9.13231
▁animal	-9.13231
▁aside	-9.13231
▁ate	-9.13231
▁attempted	-9.13231
▁based	-9.13231
▁beautiful	-9.13231
▁bedroom	-9.13231
▁bitch	-9.13231
▁bringing	-9.13231
▁buying	-9.13231
▁card	-9.13231
▁center	-9.13231
▁closest	-9.13231
▁considered	-9.13231
▁content	-9.13231
▁context	-9.13231
▁cousin	-9.13231
▁coworkers	-9.13231
▁debt	-9.13231
▁dinner	-9.13231
▁dizziness	-9.13231
▁embarrassing	-9.13231
▁environment	-9.13231
▁exact	-9.13231
▁fair	-9.13231
▁faith	-9.13231
▁figured	-9.13231
▁focusing	-9.13231
▁follow	-9.13231
▁followed	-9.13231
▁grow	-9.13231
▁gym	-9.13231
▁hug	-9.13231
▁hungry	-9.13231
▁image	-9.13231
▁insomnia	-9.13231
▁insult	-9.13231
▁judged	-9.13231
▁lesson	-9.13231
▁lucky	-9.13231
▁marfans	-9.13231
▁massive	-9.13231
▁meal	-9.13231
▁nerve	-9.13231
▁october	-9.13231
▁planned	-9.13231
▁played	-9.13231
▁pop	-9.13231
▁pretend	-9.13231
▁previous	-9.13231
▁psych	-9.13231
▁randomly	-9.13231
▁realised	-9.13231
▁recent	-9.13231
▁saving	-9.13231
▁slightly	-9.13231
▁specifically	-9.13231
▁stronger	-9.13231
▁survive	-9.13231
▁sweating	-9.13231
▁switched	-9.13231
▁tall	-9.13231
▁tingling	-9.13231
▁tooth	-9.13231
▁typing	-9.13231
▁v	-9.13231
▁value	-9.13231
▁wear	-9.13231
▁willing	-9.13231
▁5mg	-9.21235
▁90	-9.21235
▁accepting	-9.21235
▁action	-9.21235
▁active	-9.21235
▁addicted	-9.21235
▁admit	-9.21235
▁ahead	-9.21235
▁appetite	-9.21235
▁applying	-9.21235
▁april	-9.21235
▁ball	-9.21235
▁battle	-9.21235
▁biggest	-9.21235
▁bipolar	-9.21235
▁brush	-9.21235
▁business	-9.21235
▁bye	-9.21235
▁camera	-9.21235
▁character	-9.21235
▁chore	-9.21235
▁concerned	-9.21235
▁connection	-9.21235
▁cost	-9.21235
▁counter	-9.21235
▁danger	-9.21235
▁deeply	-9.21235
▁depressing	-9.21235
▁distance	-9.21235
▁enjoyed	-9.21235
▁esteem	-9.21235
▁everywhere	-9.21235
▁exhausting	-9.21235
▁fired	-9.21235
▁flight	-9.21235
▁frequently	-9.21235
▁fresh	-9.21235
▁gained	-9.21235
▁grew	-9.21235
▁hating	-9.21235
▁held	-9.21235
▁homeless	-9.21235
▁id	-9.21235
▁isnt	-9.21235
▁isolated	-9.21235
▁j	-9.21235
▁knee	-9.21235
▁laughing	-9.21235
▁limited	-9.21235
▁loneliness	-9.21235
▁loop	-9.21235
▁mainly	-9.21235
▁married	-9.21235
▁math	-9.21235
▁number	-9.21235
▁nurse	-9.21235
▁odd	-9.21235
▁passion	-9.21235
▁pathetic	-9.21235
▁picture	-9.21235
▁program	-9.21235
▁pushed	-9.21235
▁quick	-9.21235
▁react	-9.21235
▁recognize	-9.21235
▁recommended	-9.21235
▁refuse	-9.21235
▁roommate	-9.21235
▁rule	-9.21235
▁scenario	-9.21235
▁screaming	-9.21235
▁sending	-9.21235
▁series	-9.21235
▁shaky	-9.21235
▁shift	-9.21235
▁showing	-9.21235
▁source	-9.21235
▁sport	-9.21235
▁standing	-9.21235
▁stressing	-9.21235
▁suggestion	-9.21235
▁teen	-9.21235
▁tension	-9.21235
▁therefore	-9.21235
▁track	-9.21235
▁travel	-9.21235
▁vacation	-9.21235
▁wearing	-9.21235
▁00	-9.29937
▁13	-9.29937
▁ache	-9.29937
▁affecting	-9.29937
▁appearance	-9.29937
▁application	-9.29937
▁august	-9.29937
▁autism	-9.29937
▁autistic	-9.29937
▁background	-9.29937
▁basic	-9.29937
▁believed	-9.29937
▁believing	-9.29937
▁benefit	-9.29937
▁bird	-9.29937
▁closed	-9.29937
▁convince	-9.29937
▁couch	-9.29937
▁cure	-9.29937
▁direction	-9.29937
▁doom	-9.29937
▁drained	-9.29937
▁drowning	-9.29937
▁education	-9.29937
▁enjoying	-9.29937
▁expectation	-9.29937
▁fairly	-9.29937
▁fever	-9.29937
▁flat	-9.29937
▁focused	-9.29937
▁fog	-9.29937
▁gabapentin	-9.29937
▁generalized	-9.29937
▁graduation	-9.29937
▁hiding	-9.29937
▁holding	-9.29937
▁idiot	-9.29937
▁ignored	-9.29937
▁impending	-9.29937
▁industry	-9.29937
▁insecurity	-9.29937
▁language	-9.29937
▁leaf	-9.29937
▁loser	-9.29937
▁meantime	-9.29937
▁monster	-9.29937
▁motivated	-9.29937
▁naturally	-9.29937
▁news	-9.29937
▁noticing	-9.29937
▁onto	-9.29937
▁opened	-9.29937
▁paranoia	-9.29937
▁perfectly	-9.29937
▁pissed	-9.29937
▁porn	-9.29937
▁prior	-9.29937
▁private	-9.29937
▁quitting	-9.29937
▁reaching	-9.29937
▁religion	-9.29937
▁rely	-9.29937
▁repeat	-9.29937
▁risk	-9.29937
▁road	-9.29937
▁roof	-9.29937
▁root	-9.29937
▁scar	-9.29937
▁shame	-9.29937
▁significant	-9.29937
▁slept	-9.29937
▁socializing	-9.29937
▁socially	-9.29937
▁solve	-9.29937
▁spending	-9.29937
▁stroke	-9.29937
▁sun	-9.29937
▁syndrome	-9.29937
▁texted	-9.29937
▁tight	-9.29937
▁town	-9.29937
▁train	-9.29937
▁training	-9.29937
▁triggering	-9.29937
▁turning	-9.29937
▁unit	-9.29937
▁upon	-9.29937
▁view	-9.29937
▁wont	-9.29937
▁zone	-9.29937
▁access	-9.39468
▁activity	-9.39468
▁af	-9.39468
▁attitude	-9.39468
▁avoiding	-9.39468
▁awareness	-9.39468
▁b	-9.39468
▁bigger	-9.39468
▁boy	-9.39468
▁bullied	-9.39468
▁buspar	-9.39468
▁c	-9.39468
▁chat	-9.39468
▁coffee	-9.39468
▁commitment	-9.39468
▁concentrate	-9.39468
▁concern	-9.39468
▁consuming	-9.39468
▁counselor	-9.39468
▁customer	-9.39468
▁darkness	-9.39468
▁decent	-9.39468
▁desperate	-9.39468
▁difficulty	-9.39468
▁disappointed	-9.39468
▁drain	-9.39468
▁dressed	-9.39468
▁drove	-9.39468
▁earth	-9.39468
▁ease	-9.39468
▁encouragement	-9.39468
▁fallen	-9.39468
▁faster	-9.39468
▁financial	-9.39468
▁finished	-9.39468
▁fire	-9.39468
▁friday	-9.39468
▁genuine	-9.39468
▁gift	-9.39468
▁glad	-9.39468
▁graduated	-9.39468
▁harming	-9.39468
▁higher	-9.39468
▁highly	-9.39468
▁isolation	-9.39468
▁june	-9.39468
▁kick	-9.39468
▁klonopin	-9.39468
▁knowledge	-9.39468
▁large	-9.39468
▁literal	-9.39468
▁mirror	-9.39468
▁necessary	-9.39468
▁neither	-9.39468
▁picked	-9.39468
▁procedure	-9.39468
▁proper	-9.39468
▁ptsd	-9.39468
▁quality	-9.39468
▁quarantine	-9.39468
▁recovery	-9.39468
▁regard	-9.39468
▁respond	-9.39468
▁ruined	-9.39468
▁se	-9.39468
▁severely	-9.39468
▁shy	-9.39468
▁silence	-9.39468
▁silent	-9.39468
▁special	-9.39468
▁stopping	-9.39468
▁street	-9.39468
▁surrounded	-9.39468
▁taper	-9.39468
▁temporary	-9.39468
▁tend	-9.39468
▁terribly	-9.39468
▁third	-9.39468
▁toll	-9.39468
▁total	-9.39468
▁touching	-9.39468
▁unconscious	-9.39468
▁venting	-9.39468
▁vision	-9.39468
▁vulnerable	-9.39468
▁wave	-9.39468
▁wreck	-9.39468
▁10mg	-9.50004
▁1st	-9.50004
▁2021	-9.50004
▁3rd	-9.50004
▁40	-9.50004
▁abused	-9.50004
▁accidentally	-9.50004
▁according	-9.50004
▁adrenaline	-9.50004
▁approach	-9.50004
▁apps	-9.50004
▁available	-9.50004
▁basis	-9.50004
▁becomes	-9.50004
▁behavior	-9.50004
▁bite	-9.50004
▁blue	-9.50004
▁bond	-9.50004
▁bothering	-9.50004
▁built	-9.50004
▁carry	-9.50004
▁cheated	-9.50004
▁checking	-9.50004
▁chemical	-9.50004
▁chill	-9.50004
▁cleaning	-9.50004
▁concept	-9.50004
▁conflict	-9.50004
▁consistently	-9.50004
▁count	-9.50004
▁create	-9.50004
▁deadline	-9.50004
▁decide	-9.50004
▁derealization	-9.50004
▁destroyed	-9.50004
▁doesnt	-9.50004
▁dropping	-9.50004
▁dude	-9.50004
▁explaining	-9.50004
▁faking	-9.50004
▁false	-9.50004
▁fatigue	-9.50004
▁five	-9.50004
▁freedom	-9.50004
▁graduating	-9.50004
▁grammar	-9.50004
▁grandfather	-9.50004
▁grandmother	-9.50004
▁gt	-9.50004
▁gut	-9.50004
▁hardest	-9.50004
▁havent	-9.50004
▁heat	-9.50004
▁homework	-9.50004
▁hr	-9.50004
▁ideation	-9.50004
▁improvement	-9.50004
▁increased	-9.50004
▁increasing	-9.50004
▁irritated	-9.50004
▁jake	-9.50004
▁joking	-9.50004
▁journey	-9.50004
▁juli	-9.50004
▁lasted	-9.50004
▁laughed	-9.50004
▁law	-9.50004
▁lowest	-9.50004
▁luckily	-9.50004
▁lung	-9.50004
▁mark	-9.50004
▁master	-9.50004
▁meaningless	-9.50004
▁mindfulness	-9.50004
▁minor	-9.50004
▁monday	-9.50004
▁natural	-9.50004
▁nose	-9.50004
▁offered	-9.50004
▁official	-9.50004
▁particular	-9.50004
▁particularly	-9.50004
▁perspective	-9.50004
▁pet	-9.50004
▁piling	-9.50004
▁pleasure	-9.50004
▁power	-9.50004
▁pre	-9.50004
▁pregnant	-9.50004
▁raised	-9.50004
▁receive	-9.50004
▁relatively	-9.50004
▁religious	-9.50004
▁remark	-9.50004
▁role	-9.50004
▁sale	-9.50004
▁scholarship	-9.50004
▁screen	-9.50004
▁screw	-9.50004
▁seeking	-9.50004
▁seizure	-9.50004
▁semi	-9.50004
▁shell	-9.50004
▁shes	-9.50004
▁shock	-9.50004
▁shortness	-9.50004
▁sigh	-9.50004
▁silly	-9.50004
▁six	-9.50004
▁size	-9.50004
▁sobbing	-9.50004
▁sore	-9.50004
▁statement	-9.50004
▁subject	-9.50004
▁suppose	-9.50004
▁surface	-9.50004
▁swear	-9.50004
▁target	-9.50004
▁tbh	-9.50004
▁team	-9.50004
▁tendency	-9.50004
▁thousand	-9.50004
▁tldr	-9.50004
▁toilet	-9.50004
▁torture	-9.50004
▁trash	-9.50004
▁traumatic	-9.50004
▁unbearable	-9.50004
▁uncle	-9.50004
▁undiagnosed	-9.50004
▁void	-9.50004
▁ward	-9.50004
▁whats	-9.50004
▁win	-9.50004
▁wind	-9.50004
▁workout	-9.50004
▁written	-9.50004
▁wrote	-9.50004
▁x	-9.50004
▁academic	-9.61782
▁accomplish	-9.61782
▁affected	-9.61782
▁affirmation	-9.61782
▁afterwards	-9.61782
▁alot	-9.61782
▁anime	-9.61782
▁apply	-9.61782
▁ashamed	-9.61782
▁assessment	-9.61782
▁asshole	-9.61782
▁attacked	-9.61782
▁attractive	-9.61782
▁balance	-9.61782
▁beating	-9.61782
▁begging	-9.61782
▁benzo	-9.61782
▁boost	-9.61782
▁bothered	-9.61782
▁box	-9.61782
▁bpd	-9.61782
▁bright	-9.61782
▁btw	-9.61782
▁burst	-9.61782
▁cared	-9.61782
▁circle	-9.61782
▁closer	-9.61782
▁clue	-9.61782
▁combat	-9.61782
▁combination	-9.61782
▁complain	-9.61782
▁complaining	-9.61782
▁conclusion	-9.61782
▁cooking	-9.61782
▁cool	-9.61782
▁countless	-9.61782
▁crawl	-9.61782
▁damage	-9.61782
▁debilitating	-9.61782
▁described	-9.61782
▁differently	-9.61782
▁directly	-9.61782
▁disappear	-9.61782
▁dramatic	-9.61782
▁draw	-9.61782
▁dreading	-9.61782
▁emetophobia	-9.61782
▁endless	-9.61782
▁enjoyment	-9.61782
▁entirely	-9.61782
▁existing	-9.61782
▁fantasy	-9.61782
▁february	-9.61782
▁fiance	-9.61782
▁forcing	-9.61782
▁freaked	-9.61782
▁goodbye	-9.61782
▁gotta	-9.61782
▁guessing	-9.61782
▁halfway	-9.61782
▁hatred	-9.61782
▁interesting	-9.61782
▁internship	-9.61782
▁iv	-9.61782
▁january	-9.61782
▁junior	-9.61782
▁kicked	-9.61782
▁lamictal	-9.61782
▁leading	-9.61782
▁license	-9.61782
▁load	-9.61782
▁local	-9.61782
▁logic	-9.61782
▁logical	-9.61782
▁loose	-9.61782
▁machine	-9.61782
▁marry	-9.61782
▁min	-9.61782
▁minimum	-9.61782
▁model	-9.61782
▁needing	-9.61782
▁neighborhood	-9.61782
▁nowadays	-9.61782
▁occasionally	-9.61782
▁org	-9.61782
▁overweight	-9.61782
▁paper	-9.61782
▁pass	-9.61782
▁path	-9.61782
▁phobia	-9.61782
▁pit	-9.61782
▁pity	-9.61782
▁prove	-9.61782
▁provide	-9.61782
▁prozac	-9.61782
▁pulled	-9.61782
▁pure	-9.61782
▁pursue	-9.61782
▁pushing	-9.61782
▁reached	-9.61782
▁realizing	-9.61782
▁reassurance	-9.61782
▁recovering	-9.61782
▁red	-9.61782
▁rejected	-9.61782
▁rejection	-9.61782
▁requires	-9.61782
▁resource	-9.61782
▁respect	-9.61782
▁ridiculous	-9.61782
▁round	-9.61782
▁ruining	-9.61782
▁sample	-9.61782
▁saved	-9.61782
▁scrolling	-9.61782
▁setting	-9.61782
▁shirt	-9.61782
▁skinny	-9.61782
▁snap	-9.61782
▁socialize	-9.61782
▁spare	-9.61782
▁split	-9.61782
▁staring	-9.61782
▁storm	-9.61782
▁strength	-9.61782
▁sunday	-9.61782
▁surprise	-9.61782
▁sweet	-9.61782
▁taught	-9.61782
▁tea	-9.61782
▁thankfully	-9.61782
▁thru	-9.61782
▁thursday	-9.61782
▁tiring	-9.61782
▁toe	-9.61782
▁trained	-9.61782
▁tuesday	-9.61782
▁ultimately	-9.61782
▁understood	-9.61782
▁unemployed	-9.61782
▁unhappy	-9.61782
▁unmotivated	-9.61782
▁ur	-9.61782
▁vaccinated	-9.61782
▁vegetable	-9.61782
▁victim	-9.61782
▁warm	-9.61782
▁wash	-9.61782
▁wondered	-9.61782
▁wound	-9.61782
▁45	-9.75135
▁ad	-9.75135
▁addiction	-9.75135
▁afternoon	-9.75135
▁agency	-9.75135
▁agoraphobia	-9.75135
▁agree	-9.75135
▁ambition	-9.75135
▁annoyed	-9.75135
▁apologized	-9.75135
▁appear	-9.75135
▁ativan	-9.75135
▁attached	-9.75135
▁attracted	-9.75135
▁award	-9.75135
▁awhile	-9.75135
▁bare	-9.75135
▁bear	-9.75135
▁bearable	-9.75135
▁begged	-9.75135
▁birth	-9.75135
▁bitter	-9.75135
▁blah	-9.75135
▁blank	-9.75135
▁blanket	-9.75135
▁blocked	-9.75135
▁bone	-9.75135
▁booked	-9.75135
▁brief	-9.75135
▁burning	-9.75135
▁capable	-9.75135
▁casual	-9.75135
▁certainly	-9.75135
▁chose	-9.75135
▁cleaned	-9.75135
▁client	-9.75135
▁cognitive	-9.75135
▁colleague	-9.75135
▁correct	-9.75135
▁credit	-9.75135
▁crush	-9.75135
▁culture	-9.75135
▁cute	-9.75135
▁cymbalta	-9.75135
▁demanding	-9.75135
▁desperately	-9.75135
▁destroy	-9.75135
▁destroying	-9.75135
▁discus	-9.75135
▁downhill	-9.75135
▁driver	-9.75135
▁elsewhere	-9.75135
▁employee	-9.75135
▁emptiness	-9.75135
▁enter	-9.75135
▁existed	-9.75135
▁faced	-9.75135
▁feed	-9.75135
▁folk	-9.75135
▁forgotten	-9.75135
▁former	-9.75135
▁frozen	-9.75135
▁functional	-9.75135
▁gaming	-9.75135
▁garbage	-9.75135
▁gas	-9.75135
▁glass	-9.75135
▁grandma	-9.75135
▁green	-9.75135
▁grief	-9.75135
▁grocery	-9.75135
▁helper	-9.75135
▁highschool	-9.75135
▁hitting	-9.75135
▁hiv	-9.75135
▁hospitalized	-9.75135
▁hyper	-9.75135
▁ignoring	-9.75135
▁ik	-9.75135
▁impact	-9.75135
▁incident	-9.75135
▁insecure	-9.75135
▁introvert	-9.75135
▁investing	-9.75135
▁involved	-9.75135
▁jaw	-9.75135
▁joined	-9.75135
▁jump	-9.75135
▁killed	-9.75135
▁kitchen	-9.75135
▁knock	-9.75135
▁latter	-9.75135
▁lip	-9.75135
▁logically	-9.75135
▁lunch	-9.75135
▁manifest	-9.75135
▁medicated	-9.75135
▁midnight	-9.75135
▁million	-9.75135
▁mindset	-9.75135
▁misery	-9.75135
▁mri	-9.75135
▁nasty	-9.75135
▁neighbor	-9.75135
▁obsessing	-9.75135
▁odor	-9.75135
▁overreacting	-9.75135
▁oxygen	-9.75135
▁palm	-9.75135
▁palpitation	-9.75135
▁panicked	-9.75135
▁paragraph	-9.75135
▁park	-9.75135
▁parking	-9.75135
▁pile	-9.75135
▁plenty	-9.75135
▁possibility	-9.75135
▁puppy	-9.75135
▁pussy	-9.75135
▁quote	-9.75135
▁rabies	-9.75135
▁raise	-9.75135
▁rambling	-9.75135
▁received	-9.75135
▁recommend	-9.75135
▁recover	-9.75135
▁reduced	-9.75135
▁refused	-9.75135
▁relaxed	-9.75135
▁remind	-9.75135
▁reminds	-9.75135
▁rent	-9.75135
▁ride	-9.75135
▁rut	-9.75135
▁screamed	-9.75135
▁server	-9.75135
▁sh	-9.75135
▁sharp	-9.75135
▁slip	-9.75135
▁spell	-9.75135
▁spread	-9.75135
▁stabbing	-9.75135
▁stood	-9.75135
▁sucked	-9.75135
▁suffers	-9.75135
▁supplement	-9.75135
▁surely	-9.75135
▁survived	-9.75135
▁sweat	-9.75135
▁swing	-9.75135
▁technique	-9.75135
▁ten	-9.75135
▁threatened	-9.75135
▁threw	-9.75135
▁tightness	-9.75135
▁treating	-9.75135
▁trick	-9.75135
▁typical	-9.75135
▁uk	-9.75135
▁understands	-9.75135
▁universe	-9.75135
▁verge	-9.75135
▁version	-9.75135
▁vet	-9.75135
▁victory	-9.75135
▁warning	-9.75135
▁watched	-9.75135
▁website	-9.75135
▁winter	-9.75135
▁000	-9.9055
▁150	-9.9055
▁25mg	-9.9055
▁2nd	-9.9055
▁99	-9.9055
▁abandoned	-9.9055
▁abilify	-9.9055
▁acted	-9.9055
▁added	-9.9055
▁agreed	-9.9055
▁allergic	-9.9055
▁alternative	-9.9055
▁answered	-9.9055
▁appeared	-9.9055
▁article	-9.9055
▁assistance	-9.9055
▁assuming	-9.9055
▁assumption	-9.9055
▁awake	-9.9055
▁bath	-9.9055
▁benzos	-9.9055
▁blind	-9.9055
▁blown	-9.9055
▁boom	-9.9055
▁bout	-9.9055
▁bpm	-9.9055
▁browsing	-9.9055
▁brushing	-9.9055
▁cage	-9.9055
▁cancel	-9.9055
▁cheer	-9.9055
▁cigarette	-9.9055
▁classmate	-9.9055
▁click	-9.9055
▁club	-9.9055
▁comforting	-9.9055
▁committed	-9.9055
▁communicate	-9.9055
▁communication	-9.9055
▁complex	-9.9055
▁complicated	-9.9055
▁confusing	-9.9055
▁continued	-9.9055
▁continues	-9.9055
▁continuing	-9.9055
▁convincing	-9.9055
▁core	-9.9055
▁cream	-9.9055
▁crushed	-9.9055
▁crushing	-9.9055
▁december	-9.9055
▁demon	-9.9055
▁determined	-9.9055
▁develop	-9.9055
▁diet	-9.9055
▁digging	-9.9055
▁disability	-9.9055
▁disaster	-9.9055
▁discussing	-9.9055
▁dismissed	-9.9055
▁distracted	-9.9055
▁divorced	-9.9055
▁dos	-9.9055
▁downright	-9.9055
▁drank	-9.9055
▁earn	-9.9055
▁eaten	-9.9055
▁ect	-9.9055
▁effexor	-9.9055
▁evening	-9.9055
▁evidence	-9.9055
▁exercising	-9.9055
▁existential	-9.9055
▁expressing	-9.9055
▁facade	-9.9055
▁facility	-9.9055
▁facing	-9.9055
▁faint	-9.9055
▁fan	-9.9055
▁female	-9.9055
▁film	-9.9055
▁flare	-9.9055
▁flaw	-9.9055
▁flying	-9.9055
▁foggy	-9.9055
▁frankly	-9.9055
▁friendly	-9.9055
▁frustration	-9.9055
▁garden	-9.9055
▁gosh	-9.9055
▁gpa	-9.9055
▁grad	-9.9055
▁gross	-9.9055
▁ground	-9.9055
▁guidance	-9.9055
▁healthcare	-9.9055
▁heck	-9.9055
▁helpless	-9.9055
▁hesitant	-9.9055
▁hopeful	-9.9055
▁ideal	-9.9055
▁idek	-9.9055
▁identify	-9.9055
▁ignorant	-9.9055
▁impacted	-9.9055
▁inability	-9.9055
▁income	-9.9055
▁incredible	-9.9055
▁independent	-9.9055
▁infected	-9.9055
▁injury	-9.9055
▁innocent	-9.9055
▁insight	-9.9055
▁invite	-9.9055
▁invited	-9.9055
▁irritable	-9.9055
▁itch	-9.9055
▁join	-9.9055
▁journal	-9.9055
▁jumping	-9.9055
▁junk	-9.9055
▁knot	-9.9055
▁label	-9.9055
▁laid	-9.9055
▁legitimately	-9.9055
▁libido	-9.9055
▁lied	-9.9055
▁loan	-9.9055
▁locked	-9.9055
▁lt	-9.9055
▁lu	-9.9055
▁maintain	-9.9055
▁marriage	-9.9055
▁match	-9.9055
▁messaged	-9.9055
▁motion	-9.9055
▁nature	-9.9055
▁notebook	-9.9055
▁nothingness	-9.9055
▁november	-9.9055
▁object	-9.9055
▁obsession	-9.9055
▁obvious	-9.9055
▁odds	-9.9055
▁op	-9.9055
▁optimistic	-9.9055
▁outcome	-9.9055
▁participate	-9.9055
▁pattern	-9.9055
▁pause	-9.9055
▁paying	-9.9055
▁phd	-9.9055
▁photo	-9.9055
▁picking	-9.9055
▁planet	-9.9055
▁plate	-9.9055
▁police	-9.9055
▁popular	-9.9055
▁pray	-9.9055
▁preface	-9.9055
▁prepared	-9.9055
▁pretending	-9.9055
▁prevent	-9.9055
▁prison	-9.9055
▁promise	-9.9055
▁promised	-9.9055
▁psychiatric	-9.9055
▁psychological	-9.9055
▁pulling	-9.9055
▁pulse	-9.9055
▁punch	-9.9055
▁questioning	-9.9055
▁rare	-9.9055
▁realization	-9.9055
▁reasonable	-9.9055
▁record	-9.9055
▁refill	-9.9055
▁relapse	-9.9055
▁remedy	-9.9055
▁remove	-9.9055
▁repeated	-9.9055
▁request	-9.9055
▁retail	-9.9055
▁rose	-9.9055
▁rv	-9.9055
▁salary	-9.9055
▁schizophrenia	-9.9055
▁scratch	-9.9055
▁screwed	-9.9055
▁searching	-9.9055
▁secret	-9.9055
▁service	-9.9055
▁sexually	-9.9055
▁sharing	-9.9055
▁shattered	-9.9055
▁shooting	-9.9055
▁shopping	-9.9055
▁significantly	-9.9055
▁sinus	-9.9055
▁skip	-9.9055
▁slight	-9.9055
▁snack	-9.9055
▁sober	-9.9055
▁sooner	-9.9055
▁spam	-9.9055
▁speed	-9.9055
▁spring	-9.9055
▁stem	-9.9055
▁strategy	-9.9055
▁string	-9.9055
▁succeed	-9.9055
▁suggest	-9.9055
▁sum	-9.9055
▁surprised	-9.9055
▁survival	-9.9055
▁talent	-9.9055
▁teach	-9.9055
▁teenager	-9.9055
▁tested	-9.9055
▁texting	-9.9055
▁theory	-9.9055
▁threat	-9.9055
▁thrown	-9.9055
▁til	-9.9055
▁trade	-9.9055
▁turkey	-9.9055
▁tw	-9.9055
▁twitch	-9.9055
▁twitching	-9.9055
▁unhealthy	-9.9055
▁ups	-9.9055
▁useful	-9.9055
▁valid	-9.9055
▁venlafaxine	-9.9055
▁via	-9.9055
▁virtual	-9.9055
▁vomit	-9.9055
▁w	-9.9055
▁wedding	-9.9055
▁weekly	-9.9055
▁whatsoever	-9.9055
▁white	-9.9055
▁whose	-9.9055
▁wiki	-9.9055
▁wisdom	-9.9055
▁wise	-9.9055
▁wishing	-9.9055
▁worsened	-9.9055
▁yawn	-9.9055
▁yellow	-9.9055
▁150mg	-10.0878
▁2017	-10.0878
▁27	-10.0878
▁29	-10.0878
▁4th	-10.0878
▁abdomen	-10.0878
▁abt	-10.0878
▁achieve	-10.0878
▁acid	-10.0878
▁acknowledge	-10.0878
▁address	-10.0878
▁advise	-10.0878
▁allergy	-10.0878
▁allowing	-10.0878
▁ambulance	-10.0878
▁among	-10.0878
▁ap	-10.0878
▁apathetic	-10.0878
▁apology	-10.0878
▁apparent	-10.0878
▁asian	-10.0878
▁atleast	-10.0878
▁attend	-10.0878
▁attending	-10.0878
▁awesome	-10.0878
▁bag	-10.0878
▁bar	-10.0878
▁bartender	-10.0878
▁bass	-10.0878
▁bat	-10.0878
▁beforehand	-10.0878
▁behaviour	-10.0878
▁belong	-10.0878
▁blamed	-10.0878
▁blaming	-10.0878
▁blocking	-10.0878
▁blur	-10.0878
▁boss	-10.0878
▁breakup	-10.0878
▁bridge	-10.0878
▁brilliant	-10.0878
▁burned	-10.0878
▁burnt	-10.0878
▁button	-10.0878
▁calmed	-10.0878
▁cardiologist	-10.0878
▁challenge	-10.0878
▁chaos	-10.0878
▁cheese	-10.0878
▁choking	-10.0878
▁christmas	-10.0878
▁citalopram	-10.0878
▁clinical	-10.0878
▁compare	-10.0878
▁complaint	-10.0878
▁comprehend	-10.0878
▁concentration	-10.0878
▁concussion	-10.0878
▁confrontation	-10.0878
▁confronted	-10.0878
▁connected	-10.0878
▁consciousness	-10.0878
▁consistent	-10.0878
▁consume	-10.0878
▁contribute	-10.0878
▁cook	-10.0878
▁couldnt	-10.0878
▁counseling	-10.0878
▁coward	-10.0878
▁coworker	-10.0878
▁cptsd	-10.0878
▁created	-10.0878
▁crippled	-10.0878
▁cross	-10.0878
▁dangerous	-10.0878
▁debating	-10.0878
▁depend	-10.0878
▁deserves	-10.0878
▁despise	-10.0878
▁detached	-10.0878
▁discovered	-10.0878
▁discussion	-10.0878
▁distracting	-10.0878
▁divorce	-10.0878
▁doomed	-10.0878
▁dot	-10.0878
▁double	-10.0878
▁dy	-10.0878
▁eight	-10.0878
▁employer	-10.0878
▁employment	-10.0878
▁enemy	-10.0878
▁error	-10.0878
▁essentially	-10.0878
▁excruciating	-10.0878
▁exhale	-10.0878
▁exists	-10.0878
▁expensive	-10.0878
▁experiment	-10.0878
▁explanation	-10.0878
▁explode	-10.0878
▁expose	-10.0878
▁extent	-10.0878
▁external	-10.0878
▁factor	-10.0878
▁factory	-10.0878
▁familiar	-10.0878
▁favor	-10.0878
▁favorite	-10.0878
▁feedback	-10.0878
▁fixed	-10.0878
▁flair	-10.0878
▁flared	-10.0878
▁flu	-10.0878
▁foreign	-10.0878
▁forgive	-10.0878
▁frequent	-10.0878
▁froze	-10.0878
▁g	-10.0878
▁gay	-10.0878
▁googling	-10.0878
▁government	-10.0878
▁gp	-10.0878
▁grab	-10.0878
▁grown	-10.0878
▁grudge	-10.0878
▁heal	-10.0878
▁heartbreak	-10.0878
▁hip	-10.0878
▁hire	-10.0878
▁honor	-10.0878
▁hormone	-10.0878
▁horribly	-10.0878
▁hundred	-10.0878
▁ice	-10.0878
▁identifying	-10.0878
▁immense	-10.0878
▁immensely	-10.0878
▁imposter	-10.0878
▁improved	-10.0878
▁include	-10.0878
▁induced	-10.0878
▁inducing	-10.0878
▁inflammation	-10.0878
▁inner	-10.0878
▁input	-10.0878
▁insisted	-10.0878
▁instagram	-10.0878
▁instant	-10.0878
▁intake	-10.0878
▁introverted	-10.0878
▁irl	-10.0878
▁irrationally	-10.0878
▁ish	-10.0878
▁jealous	-10.0878
▁judging	-10.0878
▁laptop	-10.0878
▁lasting	-10.0878
▁lastly	-10.0878
▁led	-10.0878
▁legal	-10.0878
▁legit	-10.0878
▁limit	-10.0878
▁listened	-10.0878
▁lock	-10.0878
▁market	-10.0878
▁measure	-10.0878
▁meditate	-10.0878
▁men	-10.0878
▁messaging	-10.0878
▁messing	-10.0878
▁metal	-10.0878
▁midst	-10.0878
▁midterm	-10.0878
▁migraine	-10.0878
▁military	-10.0878
▁minimal	-10.0878
▁mix	-10.0878
▁moderator	-10.0878
▁monitor	-10.0878
▁moon	-10.0878
▁movement	-10.0878
▁n	-10.0878
▁native	-10.0878
▁necessarily	-10.0878
▁needle	-10.0878
▁negatively	-10.0878
▁niece	-10.0878
▁norm	-10.0878
▁notification	-10.0878
▁numbing	-10.0878
▁numerous	-10.0878
▁ob	-10.0878
▁objectively	-10.0878
▁occasional	-10.0878
▁original	-10.0878
▁originally	-10.0878
▁outfit	-10.0878
▁outsider	-10.0878
▁package	-10.0878
▁pant	-10.0878
▁partying	-10.0878
▁passionate	-10.0878
▁pcp	-10.0878
▁peaceful	-10.0878
▁peak	-10.0878
▁perceived	-10.0878
▁perform	-10.0878
▁perhaps	-10.0878
▁permanent	-10.0878
▁phase	-10.0878
▁platform	-10.0878
▁policy	-10.0878
▁pounding	-10.0878
▁praying	-10.0878
▁prefer	-10.0878
▁previously	-10.0878
▁primary	-10.0878
▁processing	-10.0878
▁promising	-10.0878
▁purchase	-10.0878
▁pursuing	-10.0878
▁qualified	-10.0878
▁rage	-10.0878
▁ranting	-10.0878
▁rational	-10.0878
▁ray	-10.0878
▁realise	-10.0878
▁reducing	-10.0878
▁regardless	-10.0878
▁regularly	-10.0878
▁relative	-10.0878
▁relaxing	-10.0878
▁release	-10.0878
▁reminded	-10.0878
▁reminder	-10.0878
▁remote	-10.0878
▁repeatedly	-10.0878
▁replace	-10.0878
▁rescue	-10.0878
▁rich	-10.0878
▁ring	-10.0878
▁ripped	-10.0878
▁route	-10.0878
▁row	-10.0878
▁safer	-10.0878
▁salad	-10.0878
▁sarah	-10.0878
▁scalp	-10.0878
▁scan	-10.0878
▁scheduled	-10.0878
▁schoolwork	-10.0878
▁scratching	-10.0878
▁separate	-10.0878
▁sertraline	-10.0878
▁serve	-10.0878
▁serving	-10.0878
▁shout	-10.0878
▁shutting	-10.0878
▁sickness	-10.0878
▁sight	-10.0878
▁simplest	-10.0878
▁sinking	-10.0878
▁slightest	-10.0878
▁slowing	-10.0878
▁sold	-10.0878
▁someday	-10.0878
▁spark	-10.0878
▁spoiled	-10.0878
▁spoke	-10.0878
▁spoken	-10.0878
▁square	-10.0878
▁staff	-10.0878
▁stage	-10.0878
▁stare	-10.0878
▁sticking	-10.0878
▁strongly	-10.0878
▁subsided	-10.0878
▁substance	-10.0878
▁sugar	-10.0878
▁supervisor	-10.0878
▁survey	-10.0878
▁switch	-10.0878
▁tank	-10.0878
▁tech	-10.0878
▁temper	-10.0878
▁tinder	-10.0878
▁tiny	-10.0878
▁tool	-10.0878
▁tornado	-10.0878
▁touched	-10.0878
▁toward	-10.0878
▁trait	-10.0878
▁transferred	-10.0878
▁traveling	-10.0878
▁twenty	-10.0878
▁twisted	-10.0878
▁typed	-10.0878
▁typically	-10.0878
▁un	-10.0878
▁uncertainty	-10.0878
▁uncontrollably	-10.0878
▁unsure	-10.0878
▁unwanted	-10.0878
▁upper	-10.0878
▁vanished	-10.0878
▁verbally	-10.0878
▁vibe	-10.0878
▁violence	-10.0878
▁vitamin	-10.0878
▁vomiting	-10.0878
▁wage	-10.0878
▁wander	-10.0878
▁weakness	-10.0878
▁weather	-10.0878
▁wherever	-10.0878
▁wide	-10.0878
▁willpower	-10.0878
▁wood	-10.0878
▁worsening	-10.0878
▁wow	-10.0878
▁wrist	-10.0878
▁wtf	-10.0878
▁zombie	-10.0878
▁1mg	-10.311
▁20mg	-10.311
▁300mg	-10.311
▁40mg	-10.311
▁9th	-10.311
▁abandonment	-10.311
▁accomplishment	-10.311
▁accurate	-10.311
▁acute	-10.311
▁adam	-10.311
▁adderall	-10.311
▁adding	-10.311
▁addition	-10.311
▁adjusting	-10.311
▁admitted	-10.311
▁adopted	-10.311
▁advised	-10.311
▁afterlife	-10.311
▁alleviate	-10.311
▁amazon	-10.311
▁amt	-10.311
▁ankle	-10.311
▁annoys	-10.311
▁antibiotic	-10.311
▁aorta	-10.311
▁appears	-10.311
▁apple	-10.311
▁arise	-10.311
▁arrived	-10.311
▁asap	-10.311
▁asks	-10.311
▁aspergers	-10.311
▁aspiration	-10.311
▁assumed	-10.311
▁atm	-10.311
▁attachment	-10.311
▁automatically	-10.311
▁autopilot	-10.311
▁avail	-10.311
▁avoided	-10.311
▁bacteria	-10.311
▁balding	-10.311
▁bank	-10.311
▁baseline	-10.311
▁battling	-10.311
▁behavioral	-10.311
▁belief	-10.311
▁benadryl	-10.311
▁bet	-10.311
▁block	-10.311
▁blow	-10.311
▁bob	-10.311
▁bottled	-10.311
▁bounced	-10.311
▁bound	-10.311
▁bp	-10.311
▁brat	-10.311
▁brave	-10.311
▁breakfast	-10.311
▁buddy	-10.311
▁bullet	-10.311
▁bumble	-10.311
▁bus	-10.311
▁camp	-10.311
▁canal	-10.311
▁careful	-10.311
▁caretaker	-10.311
▁cash	-10.311
▁casually	-10.311
▁cautious	-10.311
▁ceiling	-10.311
▁celebrate	-10.311
▁celexa	-10.311
▁chanel	-10.311
▁chapter	-10.311
▁charge	-10.311
▁charity	-10.311
▁chilling	-10.311
▁ck	-10.311
▁clarity	-10.311
▁clash	-10.311
▁classroom	-10.311
▁cleared	-10.311
▁closely	-10.311
▁coincidence	-10.311
▁collapse	-10.311
▁color	-10.311
▁communicating	-10.311
▁compete	-10.311
▁condescending	-10.311
▁consequence	-10.311
▁conspiracy	-10.311
▁consumed	-10.311
▁contemplating	-10.311
▁continuously	-10.311
▁controlled	-10.311
▁controlling	-10.311
▁correctly	-10.311
▁counsellor	-10.311
▁court	-10.311
▁crappy	-10.311
▁crash	-10.311
▁craving	-10.311
▁critical	-10.311
▁crypto	-10.311
▁cup	-10.311
▁cured	-10.311
▁curl	-10.311
▁damaged	-10.311
▁dance	-10.311
▁dated	-10.311
▁de	-10.311
▁decency	-10.311
▁decline	-10.311
▁deed	-10.311
▁definition	-10.311
▁delay	-10.311
▁delete	-10.311
▁deleted	-10.311
▁dense	-10.311
▁describing	-10.311
▁description	-10.311
▁devastated	-10.311
▁developing	-10.311
▁development	-10.311
▁diagnose	-10.311
▁diary	-10.311
▁dick	-10.311
▁differentiate	-10.311
▁disappeared	-10.311
▁disappointing	-10.311
▁disconnected	-10.311
▁discord	-10.311
▁dislike	-10.311
▁dismiss	-10.311
▁disposable	-10.311
▁disregard	-10.311
▁dissociating	-10.311
▁distant	-10.311
▁distorted	-10.311
▁distress	-10.311
▁document	-10.311
▁dozen	-10.311
▁drama	-10.311
▁dreaded	-10.311
▁dreadful	-10.311
▁dumped	-10.311
▁dust	-10.311
▁dysfunctional	-10.311
▁dyspnea	-10.311
▁easiest	-10.311
▁egg	-10.311
▁ekg	-10.311
▁elderly	-10.311
▁elementary	-10.311
▁embarrassment	-10.311
▁emergency	-10.311
▁encounter	-10.311
▁endure	-10.311
▁entry	-10.311
▁established	-10.311
▁evaluating	-10.311
▁evaluation	-10.311
▁exaggerating	-10.311
▁excessive	-10.311
▁excitement	-10.311
▁expects	-10.311
▁explains	-10.311
▁facebook	-10.311
▁famous	-10.311
▁fb	-10.311
▁feared	-10.311
▁fellow	-10.311
▁finance	-10.311
▁fixing	-10.311
▁flame	-10.311
▁flow	-10.311
▁flower	-10.311
▁flowing	-10.311
▁fluoxetine	-10.311
▁forth	-10.311
▁freeze	-10.311
▁freshman	-10.311
▁fruit	-10.311
▁fulfilling	-10.311
▁funeral	-10.311
▁fuzzy	-10.311
▁gap	-10.311
▁gentle	-10.311
▁goddamn	-10.311
▁googled	-10.311
▁grabbed	-10.311
▁gradually	-10.311
▁granted	-10.311
▁grasp	-10.311
▁grip	-10.311
▁growth	-10.311
▁gun	-10.311
▁h	-10.311
▁hallucination	-10.311
▁hangover	-10.311
▁happier	-10.311
▁happily	-10.311
▁harmed	-10.311
▁haunting	-10.311
▁heartbeat	-10.311
▁heartbroken	-10.311
▁height	-10.311
▁hero	-10.311
▁highest	-10.311
▁highway	-10.311
▁hike	-10.311
▁hopelessness	-10.311
▁horrendous	-10.311
▁horror	-10.311
▁hospitalization	-10.311
▁household	-10.311
▁humiliated	-10.311
▁hydroxyzine	-10.311
▁hypochondria	-10.311
▁hypocrite	-10.311
▁iam	-10.311
▁ibs	-10.311
▁icu	-10.311
▁illusion	-10.311
▁imagining	-10.311
▁imbalance	-10.311
▁immediate	-10.311
▁immune	-10.311
▁includes	-10.311
▁incompetent	-10.311
▁increasingly	-10.311
▁indeed	-10.311
▁india	-10.311
▁indifference	-10.311
▁info	-10.311
▁intention	-10.311
▁intentionally	-10.311
▁interact	-10.311
▁interviewed	-10.311
▁invalidate	-10.311
▁invest	-10.311
▁invisible	-10.311
▁irritability	-10.311
▁isolating	-10.311
▁jasmine	-10.311
▁jerk	-10.311
▁jittery	-10.311
▁journaling	-10.311
▁judgment	-10.311
▁july	-10.311
▁ka	-10.311
▁key	-10.311
▁kidding	-10.311
▁killer	-10.311
▁knife	-10.311
▁land	-10.311
▁landed	-10.311
▁laundry	-10.311
▁lecture	-10.311
▁lift	-10.311
▁lighter	-10.311
▁lil	-10.311
▁link	-10.311
▁loudly	-10.311
▁lowered	-10.311
▁mall	-10.311
▁management	-10.311
▁mate	-10.311
▁max	-10.311
▁meaningful	-10.311
▁meat	-10.311
▁mediocre	-10.311
▁meltdown	-10.311
▁meme	-10.311
▁mertazapine	-10.311
▁miracle	-10.311
▁mirtazapine	-10.311
▁misdiagnosed	-10.311
▁mobile	-10.311
▁motivate	-10.311
▁murder	-10.311
▁muster	-10.311
▁naked	-10.311
▁narcissistic	-10.311
▁negativity	-10.311
▁nervousness	-10.311
▁neurotypical	-10.311
▁nursing	-10.311
▁nut	-10.311
▁occasion	-10.311
▁occupied	-10.311
▁operation	-10.311
▁ops	-10.311
▁outlet	-10.311
▁overly	-10.311
▁overthink	-10.311
▁owe	-10.311
▁owner	-10.311
▁pacing	-10.311
▁pack	-10.311
▁page	-10.311
▁painting	-10.311
▁pair	-10.311
▁panicky	-10.311
▁paxil	-10.311
▁peer	-10.311
▁perception	-10.311
▁persistent	-10.311
▁pfizer	-10.311
▁philosophy	-10.311
▁piss	-10.311
▁pizza	-10.311
▁plea	-10.311
▁pleaded	-10.311
▁poop	-10.311
▁poorly	-10.311
▁portal	-10.311
▁ppl	-10.311
▁practically	-10.311
▁pregnancy	-10.311
▁prepare	-10.311
▁prescribe	-10.311
▁presence	-10.311
▁presentation	-10.311
▁pressuring	-10.311
▁prevents	-10.311
▁privately	-10.311
▁privileged	-10.311
▁product	-10.311
▁professor	-10.311
▁psychiatry	-10.311
▁psychotic	-10.311
▁puke	-10.311
▁pushy	-10.311
▁race	-10.311
▁raising	-10.311
▁ramble	-10.311
▁reacting	-10.311
▁reacts	-10.311
▁realisation	-10.311
▁realistically	-10.311
▁recall	-10.311
▁receptionist	-10.311
▁recurring	-10.311
▁referral	-10.311
▁reflect	-10.311
▁reflecting	-10.311
▁regain	-10.311
▁regretting	-10.311
▁relieved	-10.311
▁remembered	-10.311
▁remotely	-10.311
▁repeating	-10.311
▁replaying	-10.311
▁report	-10.311
▁reported	-10.311
▁required	-10.311
▁reset	-10.311
▁respectful	-10.311
▁resume	-10.311
▁rise	-10.311
▁rolling	-10.311
▁rot	-10.311
▁rotten	-10.311
▁rub	-10.311
▁sadly	-10.311
▁science	-10.311
▁score	-10.311
▁section	-10.311
▁seemingly	-10.311
▁selling	-10.311
▁separated	-10.311
▁serotonin	-10.311
▁shallow	-10.311
▁shape	-10.311
▁shared	-10.311
▁shoot	-10.311
▁shop	-10.311
▁shortly	-10.311
▁showering	-10.311
▁signed	-10.311
▁sing	-10.311
▁sits	-10.311
▁sky	-10.311
▁skyrocket	-10.311
▁slammed	-10.311
▁smiled	-10.311
▁snapped	-10.311
▁socialising	-10.311
▁solved	-10.311
▁sometime	-10.311
▁sought	-10.311
▁sounding	-10.311
▁spaced	-10.311
▁span	-10.311
▁spectrum	-10.311
▁speech	-10.311
▁spin	-10.311
▁spite	-10.311
▁standard	-10.311
▁star	-10.311
▁stimulus	-10.311
▁stream	-10.311
▁stretch	-10.311
▁stubborn	-10.311
▁successfully	-10.311
▁sufferer	-10.311
▁suicidewatch	-10.311
▁suit	-10.311
▁supported	-10.311
▁surgeon	-10.311
▁surrounding	-10.311
▁surviving	-10.311
▁swallow	-10.311
▁sweaty	-10.311
▁swelling	-10.311
▁swollen	-10.311
▁sympathy	-10.311
▁tablet	-10.311
▁tantrum	-10.311
▁tapering	-10.311
▁tax	-10.311
▁tearing	-10.311
▁temporarily	-10.311
▁terrifies	-10.311
▁terrifying	-10.311
▁terror	-10.311
▁tf	-10.311
▁thread	-10.311
▁thyroid	-10.311
▁tiktok	-10.311
▁tone	-10.311
▁traffic	-10.311
▁traumatized	-10.311
▁travelling	-10.311
▁trivial	-10.311
▁truck	-10.311
▁truthfully	-10.311
▁tummy	-10.311
▁ugh	-10.311
▁uh	-10.311
▁underage	-10.311
▁underlying	-10.311
▁unemployment	-10.311
▁ungrateful	-10.311
▁unknown	-10.311
▁unlike	-10.311
▁unstoppable	-10.311
▁untreated	-10.311
▁utm	-10.311
▁utter	-10.311
▁validation	-10.311
▁valued	-10.311
▁vaping	-10.311
▁vertigo	-10.311
▁visited	-10.311
▁visiting	-10.311
▁warned	-10.311
▁wasnt	-10.311
▁welding	-10.311
▁whilst	-10.311
▁window	-10.311
▁worthwhile	-10.311
▁wrap	-10.311
▁yard	-10.311
▁yawning	-10.311
▁yay	-10.311
▁yo	-10.311
▁zoom	-10.311
▁11pm	-10.5986
▁140	-10.5986
▁15mg	-10.5986
▁19f	-10.5986
▁2000	-10.5986
▁21f	-10.5986
▁23f	-10.5986
▁24m	-10.5986
▁25f	-10.5986
▁2mg	-10.5986
▁35	-10.5986
▁3am	-10.5986
▁70	-10.5986
▁75	-10.5986
▁75mg	-10.5986
▁95	-10.5986
▁abaissement	-10.5986
▁abandon	-10.5986
▁absent	-10.5986
▁ac	-10.5986
▁academically	-10.5986
▁accomplished	-10.5986
▁accumulated	-10.5986
▁achieved	-10.5986
▁additional	-10.5986
▁advantage	-10.5986
▁advil	-10.5986
▁affection	-10.5986
▁aftermath	-10.5986
▁afterward	-10.5986
▁aggressive	-10.5986
▁agitated	-10.5986
▁aid	-10.5986
▁albeit	-10.5986
▁alcoholic	-10.5986
▁alert	-10.5986
▁alien	-10.5986
▁alongside	-10.5986
▁ambitious	-10.5986
▁amends	-10.5986
▁analyze	-10.5986
▁android	-10.5986
▁answering	-10.5986
▁anyresume	-10.5986
▁applied	-10.5986
▁apprentice	-10.5986
▁appropriate	-10.5986
▁arrive	-10.5986
▁articulate	-10.5986
▁assure	-10.5986
▁assured	-10.5986
▁asthma	-10.5986
▁bachelor	-10.5986
▁backyard	-10.5986
▁baking	-10.5986
▁balanced	-10.5986
▁barrier	-10.5986
▁basketball	-10.5986
▁battled	-10.5986
▁beach	-10.5986
▁bearing	-10.5986
▁beauty	-10.5986
▁begun	-10.5986
▁behave	-10.5986
▁belongs	-10.5986
▁bent	-10.5986
▁beta	-10.5986
▁bettering	-10.5986
▁biological	-10.5986
▁bla	-10.5986
▁blade	-10.5986
▁bleed	-10.5986
▁bleeding	-10.5986
▁blocker	-10.5986
▁blueberry	-10.5986
▁board	-10.5986
▁boundary	-10.5986
▁bowel	-10.5986
▁brand	-10.5986
▁breast	-10.5986
▁breathed	-10.5986
▁brink	-10.5986
▁bruh	-10.5986
▁brushed	-10.5986
▁bug	-10.5986
▁bully	-10.5986
▁bump	-10.5986
▁bumped	-10.5986
▁bupropion	-10.5986
▁burger	-10.5986
▁burnout	-10.5986
▁butt	-10.5986
▁buzz	-10.5986
▁cake	-10.5986
▁california	-10.5986
▁calmer	-10.5986
▁campus	-10.5986
▁canceled	-10.5986
▁candle	-10.5986
▁capacity	-10.5986
▁carbon	-10.5986
▁carrying	-10.5986
▁cashier	-10.5986
▁category	-10.5986
▁cathartic	-10.5986
▁cbd	-10.5986
▁celebration	-10.5986
▁chain	-10.5986
▁challenging	-10.5986
▁characteristic	-10.5986
▁checkup	-10.5986
▁chemistry	-10.5986
▁chew	-10.5986
▁chocolate	-10.5986
▁christ	-10.5986
▁cipralex	-10.5986
▁claim	-10.5986
▁claw	-10.5986
▁clench	-10.5986
▁clever	-10.5986
▁clinic	-10.5986
▁clonazepam	-10.5986
▁closing	-10.5986
▁clot	-10.5986
▁cloud	-10.5986
▁cognitively	-10.5986
▁coherent	-10.5986
▁collect	-10.5986
▁committing	-10.5986
▁comparison	-10.5986
▁compassion	-10.5986
▁complacent	-10.5986
▁concrete	-10.5986
▁confirm	-10.5986
▁connecting	-10.5986
▁consciously	-10.5986
▁consent	-10.5986
▁consists	-10.5986
▁contacted	-10.5986
▁contacting	-10.5986
▁contained	-10.5986
▁contract	-10.5986
▁contrary	-10.5986
▁convulsing	-10.5986
▁cop	-10.5986
▁county	-10.5986
▁cp	-10.5986
▁crack	-10.5986
▁cramp	-10.5986
▁cramped	-10.5986
▁creativity	-10.5986
▁creator	-10.5986
▁creep	-10.5986
▁creeping	-10.5986
▁crime	-10.5986
▁crossed	-10.5986
▁crowded	-10.5986
▁cruel	-10.5986
▁crumbled	-10.5986
▁crutch	-10.5986
▁ct	-10.5986
▁cuddle	-10.5986
▁cursed	-10.5986
▁damned	-10.5986
▁dancing	-10.5986
▁dang	-10.5986
▁deaf	-10.5986
▁decade	-10.5986
▁decaf	-10.5986
▁deciding	-10.5986
▁dedicated	-10.5986
▁defeated	-10.5986
▁defense	-10.5986
▁define	-10.5986
▁delusion	-10.5986
▁delusional	-10.5986
▁deny	-10.5986
▁dependent	-10.5986
▁depending	-10.5986
▁deprecating	-10.5986
▁depth	-10.5986
▁deserved	-10.5986
▁desk	-10.5986
▁diabetes	-10.5986
▁dig	-10.5986
▁dilemma	-10.5986
▁directed	-10.5986
▁dirty	-10.5986
▁disabled	-10.5986
▁disappoint	-10.5986
▁discouraged	-10.5986
▁discovering	-10.5986
▁discovery	-10.5986
▁disgusted	-10.5986
▁dish	-10.5986
▁disoriented	-10.5986
▁dissociation	-10.5986
▁divert	-10.5986
▁doll	-10.5986
▁donut	-10.5986
▁doubled	-10.5986
▁doubting	-10.5986
▁downward	-10.5986
▁draft	-10.5986
▁dragged	-10.5986
▁dragging	-10.5986
▁drastically	-10.5986
▁drawing	-10.5986
▁drifting	-10.5986
▁dropout	-10.5986
▁drunk	-10.5986
▁dug	-10.5986
▁dull	-10.5986
▁dumbest	-10.5986
▁dunno	-10.5986
▁duty	-10.5986
▁dwell	-10.5986
▁earning	-10.5986
▁effectively	-10.5986
▁effortless	-10.5986
▁electronics	-10.5986
▁embrace	-10.5986
▁emo	-10.5986
▁empathetic	-10.5986
▁employed	-10.5986
▁en	-10.5986
▁encouraged	-10.5986
▁engagement	-10.5986
▁enhanced	-10.5986
▁ent	-10.5986
▁entertainment	-10.5986
▁enthusiasm	-10.5986
▁entrusted	-10.5986
▁errand	-10.5986
▁escitalopram	-10.5986
▁essay	-10.5986
▁essence	-10.5986
▁ethic	-10.5986
▁evaluated	-10.5986
▁evil	-10.5986
▁evrything	-10.5986
▁exception	-10.5986
▁exceptionally	-10.5986
▁exchange	-10.5986
▁exciting	-10.5986
▁expire	-10.5986
▁exposed	-10.5986
▁exposure	-10.5986
▁expressed	-10.5986
▁eyelash	-10.5986
▁fade	-10.5986
▁faded	-10.5986
▁fading	-10.5986
▁fantastic	-10.5986
▁fate	-10.5986
▁fatigued	-10.5986
▁fed	-10.5986
▁fetal	-10.5986
▁fidgeting	-10.5986
▁fifteen	-10.5986
▁fishing	-10.5986
▁fixated	-10.5986
▁flash	-10.5986
▁flew	-10.5986
▁florida	-10.5986
▁fly	-10.5986
▁fond	-10.5986
▁fool	-10.5986
▁football	-10.5986
▁forgetting	-10.5986
▁fortunate	-10.5986
▁fortunately	-10.5986
▁forum	-10.5986
▁fraud	-10.5986
▁fulfill	-10.5986
▁fume	-10.5986
▁gerd	-10.5986
▁ghosted	-10.5986
▁gig	-10.5986
▁giggling	-10.5986
▁goodnight	-10.5986
▁grand	-10.5986
▁grieving	-10.5986
▁groggy	-10.5986
▁guard	-10.5986
▁halcion	-10.5986
▁handed	-10.5986
▁handful	-10.5986
▁handling	-10.5986
▁hangout	-10.5986
▁harshly	-10.5986
▁headphone	-10.5986
▁healing	-10.5986
▁healthily	-10.5986
▁heavier	-10.5986
▁heightened	-10.5986
▁hence	-10.5986
▁hermit	-10.5986
▁hiking	-10.5986
▁hollow	-10.5986
▁honesty	-10.5986
▁hoped	-10.5986
▁hotel	-10.5986
▁hotline	-10.5986
▁housemate	-10.5986
▁html	-10.5986
▁humble	-10.5986
▁humor	-10.5986
▁identified	-10.5986
▁identity	-10.5986
▁imaginary	-10.5986
▁imagined	-10.5986
▁immersive	-10.5986
▁imo	-10.5986
▁improving	-10.5986
▁impulse	-10.5986
▁impulsive	-10.5986
▁inappropriate	-10.5986
▁individual	-10.5986
▁inevitably	-10.5986
▁influence	-10.5986
▁influenced	-10.5986
▁inhale	-10.5986
▁initially	-10.5986
▁instance	-10.5986
▁intelligence	-10.5986
▁intensity	-10.5986
▁introduction	-10.5986
▁investigate	-10.5986
▁involves	-10.5986
▁iphones	-10.5986
▁itchy	-10.5986
▁iyo	-10.5986
▁jack	-10.5986
▁jacket	-10.5986
▁jealousy	-10.5986
▁jean	-10.5986
▁judgement	-10.5986
▁judgmental	-10.5986
▁juice	-10.5986
▁jumpy	-10.5986
▁jung	-10.5986
▁jury	-10.5986
▁justified	-10.5986
▁kicking	-10.5986
▁kindness	-10.5986
▁kiss	-10.5986
▁l	-10.5986
▁lady	-10.5986
▁layer	-10.5986
▁lb	-10.5986
▁leak	-10.5986
▁length	-10.5986
▁lessened	-10.5986
▁leukemia	-10.5986
▁library	-10.5986
▁lifelong	-10.5986
▁lifestyle	-10.5986
▁lifted	-10.5986
▁lightheaded	-10.5986
▁listed	-10.5986
▁litteraly	-10.5986
▁lmao	-10.5986
▁loathing	-10.5986
▁longest	-10.5986
▁lonlyness	-10.5986
▁loosing	-10.5986
▁lottery	-10.5986
▁loudness	-10.5986
▁lsd	-10.5986
▁lump	-10.5986
▁lurking	-10.5986
▁mac	-10.5986
▁magic	-10.5986
▁magnesium	-10.5986
▁magnus	-10.5986
▁mailto	-10.5986
▁maintained	-10.5986
▁maintaining	-10.5986
▁mam	-10.5986
▁manageable	-10.5986
▁manic	-10.5986
▁manifestation	-10.5986
▁manipulative	-10.5986
▁manner	-10.5986
▁maoi	-10.5986
▁masculine	-10.5986
▁mattered	-10.5986
▁melatonin	-10.5986
▁mike	-10.5986
▁mildly	-10.5986
▁miller	-10.5986
▁mindlessly	-10.5986
▁mini	-10.5986
▁miserably	-10.5986
▁misunderstood	-10.5986
▁moderna	-10.5986
▁moreover	-10.5986
▁moreso	-10.5986
▁mundane	-10.5986
▁mute	-10.5986
▁narrative	-10.5986
▁nickname	-10.5986
▁nighttime	-10.5986
▁nine	-10.5986
▁nofap	-10.5986
▁noon	-10.5986
▁normalcy	-10.5986
▁nyc	-10.5986
▁obese	-10.5986
▁objective	-10.5986
▁obligation	-10.5986
▁obsessive	-10.5986
▁obtained	-10.5986
▁occurrence	-10.5986
▁ocean	-10.5986
▁offline	-10.5986
▁oil	-10.5986
▁omg	-10.5986
▁ongoing	-10.5986
▁optometrist	-10.5986
▁oral	-10.5986
▁organ	-10.5986
▁organised	-10.5986
▁outgoing	-10.5986
▁overdose	-10.5986
▁overload	-10.5986
▁pace	-10.5986
▁paralyzed	-10.5986
▁paralyzing	-10.5986
▁passenger	-10.5986
▁passive	-10.5986
▁passively	-10.5986
▁patience	-10.5986
▁paycheck	-10.5986
▁pee	-10.5986
▁perceive	-10.5986
▁peripheral	-10.5986
▁persist	-10.5986
▁petty	-10.5986
▁pharmacy	-10.5986
▁picnic	-10.5986
▁piled	-10.5986
▁pillow	-10.5986
▁pitch	-10.5986
▁placed	-10.5986
▁plagued	-10.5986
▁plain	-10.5986
▁plane	-10.5986
▁plant	-10.5986
▁plastic	-10.5986
▁pls	-10.5986
▁potentially	-10.5986
▁powerful	-10.5986
▁prayed	-10.5986
▁predictable	-10.5986
▁preparing	-10.5986
▁prescribing	-10.5986
▁presume	-10.5986
▁preventing	-10.5986
▁pride	-10.5986
▁priority	-10.5986
▁pristiq	-10.5986
▁privilege	-10.5986
▁procrastinate	-10.5986
▁procrastination	-10.5986
▁professionally	-10.5986
▁profit	-10.5986
▁prolonged	-10.5986
▁prominent	-10.5986
▁prone	-10.5986
▁property	-10.5986
▁propranolol	-10.5986
▁prospect	-10.5986
▁provided	-10.5986
▁psyche	-10.5986
▁psychologically	-10.5986
▁psychology	-10.5986
▁psychosis	-10.5986
▁puppet	-10.5986
▁purple	-10.5986
▁qualification	-10.5986
▁quiz	-10.5986
▁rabbit	-10.5986
▁raped	-10.5986
▁rapidly	-10.5986
▁rationally	-10.5986
▁realising	-10.5986
▁realistic	-10.5986
▁realy	-10.5986
▁recommendation	-10.5986
▁recommending	-10.5986
▁recovered	-10.5986
▁regimen	-10.5986
▁regression	-10.5986
▁rejecting	-10.5986
▁relaxation	-10.5986
▁released	-10.5986
▁relieve	-10.5986
▁relive	-10.5986
▁remain	-10.5986
▁remaining	-10.5986
▁remembering	-10.5986
▁remorse	-10.5986
▁replaced	-10.5986
▁replied	-10.5986
▁replying	-10.5986
▁reschedule	-10.5986
▁researched	-10.5986
▁resilient	-10.5986
▁resort	-10.5986
▁responded	-10.5986
▁responder	-10.5986
▁restart	-10.5986
▁resting	-10.5986
▁restless	-10.5986
▁restriction	-10.5986
▁restroom	-10.5986
▁resulting	-10.5986
▁returned	-10.5986
▁returning	-10.5986
▁review	-10.5986
▁rib	-10.5986
▁ridiculously	-10.5986
▁ringing	-10.5986
▁rising	-10.5986
▁robot	-10.5986
▁romantic	-10.5986
▁romantically	-10.5986
▁rooted	-10.5986
▁rotting	-10.5986
▁rumor	-10.5986
▁sabotage	-10.5986
▁sabotaging	-10.5986
▁saddest	-10.5986
▁safely	-10.5986
▁sake	-10.5986
▁salvation	-10.5986
▁san	-10.5986
▁sandwich	-10.5986
▁sane	-10.5986
▁sanity	-10.5986
▁saturday	-10.5986
▁scaring	-10.5986
▁scheduling	-10.5986
▁script	-10.5986
▁scroll	-10.5986
▁search	-10.5986
▁season	-10.5986
▁seasonal	-10.5986
▁secondary	-10.5986
▁security	-10.5986
▁sell	-10.5986
▁senior	-10.5986
▁seroquel	-10.5986
▁setback	-10.5986
▁settle	-10.5986
▁settled	-10.5986
▁seven	-10.5986
▁sexuality	-10.5986
▁sheet	-10.5986
▁shelter	-10.5986
▁shivering	-10.5986
▁shouldnt	-10.5986
▁shouted	-10.5986
▁showed	-10.5986
▁showered	-10.5986
▁shuts	-10.5986
▁simulation	-10.5986
▁sink	-10.5986
▁sip	-10.5986
▁skipped	-10.5986
▁slap	-10.5986
▁slaving	-10.5986
▁sleeve	-10.5986
▁slipped	-10.5986
▁slipping	-10.5986
▁slower	-10.5986
▁smarter	-10.5986
▁smiling	-10.5986
▁snd	-10.5986
▁socialise	-10.5986
▁soda	-10.5986
▁soft	-10.5986
▁solid	-10.5986
▁soo	-10.5986
▁sooooo	-10.5986
▁soothe	-10.5986
▁sounded	-10.5986
▁south	-10.5986
▁specially	-10.5986
▁specie	-10.5986
▁spike	-10.5986
▁squeeze	-10.5986
▁stab	-10.5986
▁stability	-10.5986
▁stabilizer	-10.5986
▁stadium	-10.5986
▁startle	-10.5986
▁starve	-10.5986
▁stated	-10.5986
▁stemmed	-10.5986
▁stock	-10.5986
▁stool	-10.5986
▁storage	-10.5986
▁stray	-10.5986
▁structure	-10.5986
▁strung	-10.5986
▁studied	-10.5986
▁stuttering	-10.5986
▁style	-10.5986
▁submitted	-10.5986
▁submitting	-10.5986
▁suboxone	-10.5986
▁subsequently	-10.5986
▁sucking	-10.5986
▁sufficient	-10.5986
▁suffocating	-10.5986
▁suggests	-10.5986
▁superior	-10.5986
▁suppress	-10.5986
▁surprisingly	-10.5986
▁surroundings	-10.5986
▁swallowing	-10.5986
▁switching	-10.5986
▁swore	-10.5986
▁tab	-10.5986
▁table	-10.5986
▁talkative	-10.5986
▁tattoo	-10.5986
▁technical	-10.5986
▁teenage	-10.5986
▁temperature	-10.5986
▁tends	-10.5986
▁testing	-10.5986
▁texas	-10.5986
▁thc	-10.5986
▁thick	-10.5986
▁thigh	-10.5986
▁thin	-10.5986
▁threatening	-10.5986
▁thrive	-10.5986
▁throwaway	-10.5986
▁thumbnail	-10.5986
▁thus	-10.5986
▁ticket	-10.5986
▁tie	-10.5986
▁tied	-10.5986
▁tingly	-10.5986
▁tire	-10.5986
▁tiredness	-10.5986
▁tissue	-10.5986
▁toughest	-10.5986
▁toxicity	-10.5986
▁tracker	-10.5986
▁trazadone	-10.5986
▁tremor	-10.5986
▁trial	-10.5986
▁trichotillomania	-10.5986
▁tumor	-10.5986
▁twelve	-10.5986
▁ty	-10.5986
▁typo	-10.5986
▁unattractive	-10.5986
▁unaware	-10.5986
▁unconditionally	-10.5986
▁undergrad	-10.5986
▁undermine	-10.5986
▁unlucky	-10.5986
▁unpleasant	-10.5986
▁unrealistic	-10.5986
▁untill	-10.5986
▁unwell	-10.5986
▁upside	-10.5986
▁urgent	-10.5986
▁uti	-10.5986
▁vague	-10.5986
▁vehicle	-10.5986
▁violation	-10.5986
▁virgin	-10.5986
▁virtually	-10.5986
▁visa	-10.5986
▁wallet	-10.5986
▁wary	-10.5986
▁weaker	-10.5986
▁wednesday	-10.5986
▁weigh	-10.5986
▁weirdly	-10.5986
▁welp	-10.5986
▁whoever	-10.5986
▁wierd	-10.5986
▁wikipedia	-10.5986
▁wild	-10.5986
▁witness	-10.5986
▁workplace	-10.5986
▁worn	-10.5986
▁worsen	-10.5986
▁worthy	-10.5986
▁wrapped	-10.5986
▁xbox	-10.5986
▁xvideos	-10.5986
▁ya	-10.5986
▁yearly	-10.5986
▁yep	-10.5986
▁00am	-11.0041
▁1000	-11.0041
▁10pm	-11.0041
▁10th	-11.0041
▁10x	-11.0041
▁1199197395	-11.0041
▁130	-11.0041
▁13f	-11.0041
▁143	-11.0041
▁1950s	-11.0041
▁20kg	-11.0041
▁21m	-11.0041
▁23m	-11.0041
▁27m	-11.0041
▁29f	-11.0041
▁300	-11.0041
▁3000	-11.0041
▁30mg	-11.0041
▁31	-11.0041
▁34	-11.0041
▁37	-11.0041
▁3a4	-11.0041
▁3mg	-11.0041
▁3x	-11.0041
▁4pm	-11.0041
▁500	-11.0041
▁50mg	-11.0041
▁5am	-11.0041
▁5th	-11.0041
▁97	-11.0041
▁_petition	-11.0041
▁aa	-11.0041
▁aaaaaaa	-11.0041
▁abdominal	-11.0041
▁abnormal	-11.0041
▁abomination	-11.0041
▁abruptly	-11.0041
▁absorbed	-11.0041
▁absorbing	-11.0041
▁absurd	-11.0041
▁abysmal	-11.0041
▁acc	-11.0041
▁acceptable	-11.0041
▁accepts	-11.0041
▁accommodate	-11.0041
▁accommodation	-11.0041
▁accompanied	-11.0041
▁accomplishing	-11.0041
▁achievement	-11.0041
▁aching	-11.0041
▁acne	-11.0041
▁acquaintance	-11.0041
▁activism	-11.0041
▁actress	-11.0041
▁adapt	-11.0041
▁adapting	-11.0041
▁addict	-11.0041
▁additionally	-11.0041
▁adequate	-11.0041
▁administration	-11.0041
▁admittedly	-11.0041
▁admitting	-11.0041
▁adore	-11.0041
▁adulthood	-11.0041
▁advanced	-11.0041
▁adventure	-11.0041
▁aesthetic	-11.0041
▁affluent	-11.0041
▁affordable	-11.0041
▁afloat	-11.0041
▁aged	-11.0041
▁agriculture	-11.0041
▁aha	-11.0041
▁aim	-11.0041
▁ala	-11.0041
▁alarm	-11.0041
▁alienated	-11.0041
▁allocate	-11.0041
▁allot	-11.0041
▁allows	-11.0041
▁aloof	-11.0041
▁american	-11.0041
▁amitriptyline	-11.0041
▁amped	-11.0041
▁amplified	-11.0041
▁amygdala	-11.0041
▁analogy	-11.0041
▁analyzing	-11.0041
▁anchor	-11.0041
▁angel	-11.0041
▁aninjusticemag	-11.0041
▁anonymity	-11.0041
▁anonymously	-11.0041
▁antihistamine	-11.0041
▁antonio	-11.0041
▁appearing	-11.0041
▁appreciation	-11.0041
▁approached	-11.0041
▁approved	-11.0041
▁appt	-11.0041
▁arguing	-11.0041
▁armed	-11.0041
▁army	-11.0041
▁arrangement	-11.0041
▁artery	-11.0041
▁artist	-11.0041
▁asd	-11.0041
▁ass	-11.0041
▁asshat	-11.0041
▁assigned	-11.0041
▁associated	-11.0041
▁attach	-11.0041
▁attract	-11.0041
▁aussie	-11.0041
▁authentic	-11.0041
▁authoritative	-11.0041
▁autoimmune	-11.0041
▁avocado	-11.0041
▁b12	-11.0041
▁b9ac	-11.0041
▁babbling	-11.0041
▁backpack	-11.0041
▁backstory	-11.0041
▁badass	-11.0041
▁baker	-11.0041
▁bakery	-11.0041
▁bald	-11.0041
▁bam	-11.0041
▁band	-11.0041
▁barbie	-11.0041
▁bcs	-11.0041
▁beard	-11.0041
▁becouse	-11.0041
▁beef	-11.0041
▁behavioural	-11.0041
▁belonging	-11.0041
▁benzodiazepine	-11.0041
▁beqause	-11.0041
▁betrayed	-11.0041
▁biased	-11.0041
▁binge	-11.0041
▁bio	-11.0041
▁biology	-11.0041
▁biting	-11.0041
▁bitten	-11.0041
▁blacked	-11.0041
▁blackness	-11.0041
▁blanking	-11.0041
▁bleak	-11.0041
▁blessed	-11.0041
▁blurry	-11.0041
▁blushing	-11.0041
▁bodily	-11.0041
▁bodyimage	-11.0041
▁bomb	-11.0041
▁bombard	-11.0041
▁bombarded	-11.0041
▁bonus	-11.0041
▁booking	-11.0041
▁booze	-11.0041
▁borderline	-11.0041
▁boredom	-11.0041
▁bottling	-11.0041
▁brag	-11.0041
▁brainwashed	-11.0041
▁brew	-11.0041
▁brick	-11.0041
▁brighter	-11.0041
▁brown	-11.0041
▁bubble	-11.0041
▁bubbling	-11.0041
▁buck	-11.0041
▁bull	-11.0041
▁bullying	-11.0041
▁bum	-11.0041
▁burdening	-11.0041
▁burying	-11.0041
▁bust	-11.0041
▁butterfly	-11.0041
▁buzzing	-11.0041
▁ca	-11.0041
▁cabinet	-11.0041
▁calendar	-11.0041
▁caller	-11.0041
▁calorie	-11.0041
▁canada	-11.0041
▁cancelled	-11.0041
▁cancelling	-11.0041
▁capability	-11.0041
▁carried	-11.0041
▁cartoon	-11.0041
▁cast	-11.0041
▁cater	-11.0041
▁causality	-11.0041
▁cavity	-11.0041
▁cease	-11.0041
▁cemented	-11.0041
▁centered	-11.0041
▁central	-11.0041
▁certified	-11.0041
▁chair	-11.0041
▁charged	-11.0041
▁chart	-11.0041
▁chase	-11.0041
▁chased	-11.0041
▁chatter	-11.0041
▁cheaper	-11.0041
▁cheat	-11.0041
▁cheating	-11.0041
▁cheek	-11.0041
▁chemo	-11.0041
▁cherry	-11.0041
▁chicken	-11.0041
▁childish	-11.0041
▁chlonazapam	-11.0041
▁choosing	-11.0041
▁chosen	-11.0041
▁chunk	-11.0041
▁church	-11.0041
▁churning	-11.0041
▁circled	-11.0041
▁circumstance	-11.0041
▁clammy	-11.0041
▁clarify	-11.0041
▁classic	-11.0041
▁clearing	-11.0041
▁clerk	-11.0041
▁cliche	-11.0041
▁cliff	-11.0041
▁clinging	-11.0041
▁clipper	-11.0041
▁clock	-11.0041
▁clockwork	-11.0041
▁clown	-11.0041
▁clueless	-11.0041
▁co2	-11.0041
▁coach	-11.0041
▁codependent	-11.0041
▁coding	-11.0041
▁cognition	-11.0041
▁collection	-11.0041
▁colonoscopy	-11.0041
▁colour	-11.0041
▁combined	-11.0041
▁comeback	-11.0041
▁comedian	-11.0041
▁comfy	-11.0041
▁command	-11.0041
▁commented	-11.0041
▁commits	-11.0041
▁committee	-11.0041
▁compensation	-11.0041
▁competition	-11.0041
▁competitive	-11.0041
▁completing	-11.0041
▁complication	-11.0041
▁compliment	-11.0041
▁compulsion	-11.0041
▁compulsive	-11.0041
▁compulsively	-11.0041
▁concentrating	-11.0041
▁concerning	-11.0041
▁concluded	-11.0041
▁concur	-11.0041
▁conditional	-11.0041
▁conditioned	-11.0041
▁conducting	-11.0041
▁confessed	-11.0041
▁confidential	-11.0041
▁confusion	-11.0041
▁conservative	-11.0041
▁consideration	-11.0041
▁constipated	-11.0041
▁consulted	-11.0041
▁consumes	-11.0041
▁consumption	-11.0041
▁contemplated	-11.0041
▁continually	-11.0041
▁cooped	-11.0041
▁copylink	-11.0041
▁coronavirus	-11.0041
▁corpse	-11.0041
▁correlation	-11.0041
▁cough	-11.0041
▁coughing	-11.0041
▁counselling	-11.0041
▁counting	-11.0041
▁covered	-11.0041
▁cozy	-11.0041
▁cracker	-11.0041
▁crashed	-11.0041
▁crashing	-11.0041
▁crate	-11.0041
▁crave	-11.0041
▁creating	-11.0041
▁criminal	-11.0041
▁cringe	-11.0041
▁criticize	-11.0041
▁criticizing	-11.0041
▁crp	-11.0041
▁cruelty	-11.0041
▁cu	-11.0041
▁cuddled	-11.0041
▁cue	-11.0041
▁curled	-11.0041
▁currency	-11.0041
▁curse	-11.0041
▁cursing	-11.0041
▁cursor	-11.0041
▁custody	-11.0041
▁cw	-11.0041
▁cycling	-11.0041
▁da3225tu	-11.0041
▁dam	-11.0041
▁dancer	-11.0041
▁dare	-11.0041
▁darkest	-11.0041
▁daunting	-11.0041
▁david	-11.0041
▁davis	-11.0041
▁daytime	-11.0041
▁daze	-11.0041
▁declining	-11.0041
▁decrease	-11.0041
▁decreased	-11.0041
▁dedicate	-11.0041
▁deepest	-11.0041
▁defeat	-11.0041
▁defend	-11.0041
▁deficit	-11.0041
▁defies	-11.0041
▁deja	-11.0041
▁deliver	-11.0041
▁demand	-11.0041
▁democrat	-11.0041
▁denial	-11.0041
▁denied	-11.0041
▁dental	-11.0041
▁department	-11.0041
▁depends	-11.0041
▁depersonalization	-11.0041
▁depress	-11.0041
▁depresses	-11.0041
▁depression1	-11.0041
▁deserving	-11.0041
▁design	-11.0041
▁designer	-11.0041
▁desirable	-11.0041
▁despair	-11.0041
▁desperation	-11.0041
▁destroys	-11.0041
▁destructive	-11.0041
▁detailed	-11.0041
▁deteriorating	-11.0041
▁determine	-11.0041
▁detox	-11.0041
▁device	-11.0041
▁devil	-11.0041
▁diagnosing	-11.0041
▁diarrhea	-11.0041
▁diego	-11.0041
▁digital	-11.0041
▁dioxide	-11.0041
▁dip	-11.0041
▁dire	-11.0041
▁direct	-11.0041
▁director	-11.0041
▁dirt	-11.0041
▁disappears	-11.0041
▁disc	-11.0041
▁disclosed	-11.0041
▁disclosure	-11.0041
▁discover	-11.0041
▁disgust	-11.0041
▁disliked	-11.0041
▁dismissive	-11.0041
▁disordered	-11.0041
▁disowned	-11.0041
▁disregarded	-11.0041
▁disrespected	-11.0041
▁disrespectful	-11.0041
▁dissapeared	-11.0041
▁dissapoint	-11.0041
▁dissipated	-11.0041
▁dissociate	-11.0041
▁district	-11.0041
▁ditch	-11.0041
▁dive	-11.0041
▁dollar	-11.0041
▁domestic	-11.0041
▁domino	-11.0041
▁downer	-11.0041
▁download	-11.0041
▁downstairs	-11.0041
▁dragon	-11.0041
▁draining	-11.0041
▁dreaming	-11.0041
▁dress	-11.0041
▁dressing	-11.0041
▁driven	-11.0041
▁drum	-11.0041
▁du	-11.0041
▁dulled	-11.0041
▁dumbed	-11.0041
▁dwelling	-11.0041
▁dysmorphia	-11.0041
▁eachother	-11.0041
▁earliest	-11.0041
▁earned	-11.0041
▁earphone	-11.0041
▁eased	-11.0041
▁eats	-11.0041
▁ecg	-11.0041
▁echo	-11.0041
▁echocardiogram	-11.0041
▁ed	-11.0041
▁edible	-11.0041
▁editing	-11.0041
▁edu	-11.0041
▁eerily	-11.0041
▁effected	-11.0041
▁effexeor	-11.0041
▁eg	-11.0041
▁eggshell	-11.0041
▁eh	-11.0041
▁elbow	-11.0041
▁electric	-11.0041
▁elevate	-11.0041
▁elevated	-11.0041
▁emotionless	-11.0041
▁emphasise	-11.0041
▁encephalitis	-11.0041
▁encouraging	-11.0041
▁endlessly	-11.0041
▁endodontist	-11.0041
▁endured	-11.0041
▁enduring	-11.0041
▁energetic	-11.0041
▁engage	-11.0041
▁engineer	-11.0041
▁englisch	-11.0041
▁entered	-11.0041
▁enters	-11.0041
▁entertaining	-11.0041
▁equal	-11.0041
▁escalate	-11.0041
▁essential	-11.0041
▁eternal	-11.0041
▁eternally	-11.0041
▁everday	-11.0041
▁evicted	-11.0041
▁exacerbated	-11.0041
▁exaggeration	-11.0041
▁excellent	-11.0041
▁excess	-11.0041
▁excessively	-11.0041
▁excite	-11.0041
▁existent	-11.0041
▁expense	-11.0041
▁expert	-11.0041
▁explore	-11.0041
▁exploring	-11.0041
▁ext	-11.0041
▁extended	-11.0041
▁externally	-11.0041
▁eyelid	-11.0041
▁familiy	-11.0041
▁farewell	-11.0041
▁fathom	-11.0041
▁fatty	-11.0041
▁favour	-11.0041
▁favourite	-11.0041
▁fck	-11.0041
▁fdzw	-11.0041
▁fearing	-11.0041
▁feather	-11.0041
▁feature	-11.0041
▁feb	-11.0041
▁fee	-11.0041
▁feeding	-11.0041
▁feminime	-11.0041
▁feminine	-11.0041
▁fewer	-11.0041
▁fighter	-11.0041
▁figuring	-11.0041
▁filing	-11.0041
▁filling	-11.0041
▁financially	-11.0041
▁finishing	-11.0041
▁fish	-11.0041
▁fist	-11.0041
▁fixate	-11.0041
▁flag	-11.0041
▁flareups	-11.0041
▁flashing	-11.0041
▁fleeting	-11.0041
▁flesh	-11.0041
▁floater	-11.0041
▁fo	-11.0041
▁fooled	-11.0041
▁formal	-11.0041
▁formally	-11.0041
▁fortnight	-11.0041
▁fountain	-11.0041
▁fourth	-11.0041
▁fr	-11.0041
▁fragile	-11.0041
▁frame	-11.0041
▁france	-11.0041
▁freely	-11.0041
▁french	-11.0041
▁freshly	-11.0041
▁fridge	-11.0041
▁friendzoned	-11.0041
▁frightened	-11.0041
▁frightening	-11.0041
▁fucker	-11.0041
▁fuckin	-11.0041
▁fueled	-11.0041
▁fullest	-11.0041
▁fuming	-11.0041
▁fund	-11.0041
▁fundraising	-11.0041
▁funk	-11.0041
▁furloughed	-11.0041
▁fxxking	-11.0041
▁fyi	-11.0041
▁gag	-11.0041
▁gagging	-11.0041
▁gaining	-11.0041
▁gait	-11.0041
▁gal	-11.0041
▁gambler	-11.0041
▁gaping	-11.0041
▁garage	-11.0041
▁gaslighting	-11.0041
▁gasp	-11.0041
▁gastritis	-11.0041
▁gather	-11.0041
▁gaze	-11.0041
▁generous	-11.0041
▁genetic	-11.0041
▁gently	-11.0041
▁georgia	-11.0041
▁gesture	-11.0041
▁giant	-11.0041
▁gifted	-11.0041
▁glance	-11.0041
▁gle	-11.0041
▁globus	-11.0041
▁gloomy	-11.0041
▁goodwill	-11.0041
▁gorgeous	-11.0041
▁grant	-11.0041
▁grave	-11.0041
▁gray	-11.0041
▁greatest	-11.0041
▁greeting	-11.0041
▁grey	-11.0041
▁grieve	-11.0041
▁grinding	-11.0041
▁groupchat	-11.0041
▁grumpy	-11.0041
▁guaranteed	-11.0041
▁guideline	-11.0041
▁guitar	-11.0041
▁gum	-11.0041
▁gunna	-11.0041
▁gutter	-11.0041
▁hack	-11.0041
▁hall	-11.0041
▁hallway	-11.0041
▁hampered	-11.0041
▁handicapped	-11.0041
▁happend	-11.0041
▁happiest	-11.0041
▁harmful	-11.0041
▁harrassed	-11.0041
▁hassle	-11.0041
▁haunt	-11.0041
▁havnt	-11.0041
▁headspace	-11.0041
▁healed	-11.0041
▁healthier	-11.0041
▁hears	-11.0041
▁heaven	-11.0041
▁heaving	-11.0041
▁herbal	-11.0041
▁hernia	-11.0041
▁herniated	-11.0041
▁heyy	-11.0041
▁hilarious	-11.0041
▁hill	-11.0041
▁hinder	-11.0041
▁hired	-11.0041
▁hiring	-11.0041
▁hm	-11.0041
▁hmm	-11.0041
▁holter	-11.0041
▁homebody	-11.0041
▁homelessness	-11.0041
▁hometown	-11.0041
▁hood	-11.0041
▁horrified	-11.0041
▁horse	-11.0041
▁housing	-11.0041
▁humanity	-11.0041
▁hung	-11.0041
▁hunger	-11.0041
▁hunt	-11.0041
▁hurted	-11.0041
▁hurtful	-11.0041
▁hybrid	-11.0041
▁hydrated	-11.0041
▁hygiene	-11.0041
▁hyperventilate	-11.0041
▁hyperventilating	-11.0041
▁hypnotherapy	-11.0041
▁hypocrisy	-11.0041
▁iced	-11.0041
▁idealistic	-11.0041
▁identical	-11.0041
▁ig	-11.0041
▁ijfnaupe	-11.0041
▁illogical	-11.0041
▁imaging	-11.0041
▁impaired	-11.0041
▁implies	-11.0041
▁impression	-11.0041
▁improv	-11.0041
▁improves	-11.0041
▁inadequate	-11.0041
▁incapable	-11.0041
▁inch	-11.0041
▁included	-11.0041
▁incoherent	-11.0041
▁inconsolable	-11.0041
▁inconvenience	-11.0041
▁inconvenient	-11.0041
▁incorrectly	-11.0041
▁indecision	-11.0041
▁indefinite	-11.0041
▁inexperienced	-11.0041
▁infact	-11.0041
▁inferiority	-11.0041
▁infinite	-11.0041
▁informed	-11.0041
▁ing	-11.0041
▁inherently	-11.0041
▁inimical	-11.0041
▁innate	-11.0041
▁innocence	-11.0041
▁insignificant	-11.0041
▁insist	-11.0041
▁inspire	-11.0041
▁insta	-11.0041
▁instruction	-11.0041
▁instructor	-11.0041
▁insulin	-11.0041
▁intellectual	-11.0041
▁intellectually	-11.0041
▁intelligent	-11.0041
▁intended	-11.0041
▁intensely	-11.0041
▁intent	-11.0041
▁interacting	-11.0041
▁interferes	-11.0041
▁interfering	-11.0041
▁intermittent	-11.0041
▁internal	-11.0041
▁internally	-11.0041
▁international	-11.0041
▁interpretation	-11.0041
▁interruption	-11.0041
▁intimidating	-11.0041
▁introversion	-11.0041
▁invalidating	-11.0041
▁invitation	-11.0041
▁involuntary	-11.0041
▁involve	-11.0041
▁ironic	-11.0041
▁ironically	-11.0041
▁irony	-11.0041
▁itching	-11.0041
▁item	-11.0041
▁jaded	-11.0041
▁japan	-11.0041
▁jeopardy	-11.0041
▁jerking	-11.0041
▁jobless	-11.0041
▁johnson	-11.0041
▁joint	-11.0041
▁jumbled	-11.0041
▁jumped	-11.0041
▁justifiably	-11.0041
▁karma	-11.0041
▁kidnap	-11.0041
▁kidnapped	-11.0041
▁kissed	-11.0041
▁kit	-11.0041
▁knocked	-11.0041
▁labor	-11.0041
▁labored	-11.0041
▁lagging	-11.0041
▁landlord	-11.0041
▁lang	-11.0041
▁lap	-11.0041
▁larger	-11.0041
▁lash	-11.0041
▁lashed	-11.0041
▁ldrs	-11.0041
▁leadership	-11.0041
▁lean	-11.0041
▁leap	-11.0041
▁leash	-11.0041
▁leeching	-11.0041
▁lethargic	-11.0041
▁lexipro	-11.0041
▁lgbt	-11.0041
▁lifetime	-11.0041
▁lightly	-11.0041
▁linden	-11.0041
▁linear	-11.0041
▁lined	-11.0041
▁lingering	-11.0041
▁lining	-11.0041
▁linked	-11.0041
▁listens	-11.0041
▁listing	-11.0041
▁loathe	-11.0041
▁located	-11.0041
▁logging	-11.0041
▁looming	-11.0041
▁lorazepam	-11.0041
▁louder	-11.0041
▁lovely	-11.0041
▁lucid	-11.0041
▁lyric	-11.0041
▁machado	-11.0041
▁magical	-11.0041
▁mail	-11.0041
▁mandatory	-11.0041
▁manga	-11.0041
▁manifested	-11.0041
▁manifesting	-11.0041
▁marathon	-11.0041
▁marketing	-11.0041
▁masturbating	-11.0041
▁material	-11.0041
▁mathematics	-11.0041
▁mattress	-11.0041
▁maxed	-11.0041
▁mdd	-11.0041
▁meaninglessness	-11.0041
▁meanwhile	-11.0041
▁medicating	-11.0041
▁meh	-11.0041
▁menace	-11.0041
▁mentality	-11.0041
▁mere	-11.0041
▁messy	-11.0041
▁mh	-11.0041
▁midday	-11.0041
▁mindless	-11.0041
▁minecraft	-11.0041
▁minimize	-11.0041
▁minus	-11.0041
▁misunderstand	-11.0041
▁misunderstanding	-11.0041
▁mixed	-11.0041
▁ml	-11.0041
▁mo	-11.0041
▁mobility	-11.0041
▁mock	-11.0041
▁mod	-11.0041
▁moderately	-11.0041
▁moisturising	-11.0041
▁monthly	-11.0041
▁mountain	-11.0041
▁mouthwash	-11.0041
▁mr	-11.0041
▁mud	-11.0041
▁multiplayer	-11.0041
▁na	-11.0041
▁nakakapagod	-11.0041
▁naman	-11.0041
▁narcolepsy	-11.0041
▁national	-11.0041
▁nd	-11.0041
▁nearby	-11.0041
▁necessity	-11.0041
▁needy	-11.0041
▁neglecting	-11.0041
▁nest	-11.0041
▁net	-11.0041
▁netflix	-11.0041
▁neurological	-11.0041
▁neurosis	-11.0041
▁nevada	-11.0041
▁newly	-11.0041
▁nicely	-11.0041
▁nicest	-11.0041
▁nicotine	-11.0041
▁niveau	-11.0041
▁nodded	-11.0041
▁nonetheless	-11.0041
▁nonsense	-11.0041
▁nonsensical	-11.0041
▁nonstop	-11.0041
▁noticeable	-11.0041
▁novel	-11.0041
▁numbed	-11.0041
▁oblivion	-11.0041
▁observation	-11.0041
▁obsessed	-11.0041
▁obsessively	-11.0041
▁obstacle	-11.0041
▁obtain	-11.0041
▁occupy	-11.0041
▁occur	-11.0041
▁oddly	-11.0041
▁ofc	-11.0041
▁olanzapine	-11.0041
▁oldest	-11.0041
▁ontario	-11.0041
▁openly	-11.0041
▁operate	-11.0041
▁opposed	-11.0041
▁optional	-11.0041
▁orange	-11.0041
▁ordered	-11.0041
▁organising	-11.0041
▁organization	-11.0041
▁organized	-11.0041
▁orgasm	-11.0041
▁outcast	-11.0041
▁outing	-11.0041
▁outright	-11.0041
▁outta	-11.0041
▁overanalyzing	-11.0041
▁overcoming	-11.0041
▁overdosed	-11.0041
▁overeacting	-11.0041
▁overnight	-11.0041
▁overtime	-11.0041
▁oxymeter	-11.0041
▁paced	-11.0041
▁packed	-11.0041
▁packing	-11.0041
▁painfully	-11.0041
▁painkiller	-11.0041
▁painless	-11.0041
▁paint	-11.0041
▁pale	-11.0041
▁panick	-11.0041
▁paperwork	-11.0041
▁parallel	-11.0041
▁parasite	-11.0041
▁parenting	-11.0041
▁partake	-11.0041
▁partially	-11.0041
▁participant	-11.0041
▁participation	-11.0041
▁patch	-11.0041
▁peacefully	-11.0041
▁peel	-11.0041
▁peep	-11.0041
▁penis	-11.0041
▁penny	-11.0041
▁percent	-11.0041
▁perceptive	-11.0041
▁perfectionism	-11.0041
▁performance	-11.0041
▁performed	-11.0041
▁performing	-11.0041
▁pericoronitis	-11.0041
▁persona	-11.0041
▁petal	-11.0041
▁petrified	-11.0041
▁phased	-11.0041
▁phenomenon	-11.0041
▁phony	-11.0041
▁phrase	-11.0041
▁picturing	-11.0041
▁pinching	-11.0041
▁pink	-11.0041
▁placebo	-11.0041
▁plaque	-11.0041
▁plastered	-11.0041
▁pleasant	-11.0041
▁pleasing	-11.0041
▁pmo	-11.0041
▁pocd	-11.0041
▁pocket	-11.0041
▁podcasts	-11.0041
▁poem	-11.0041
▁pointing	-11.0041
▁poisoning	-11.0041
▁polite	-11.0041
▁political	-11.0041
▁popped	-11.0041
▁population	-11.0041
▁pore	-11.0041
▁portfolio	-11.0041
▁portion	-11.0041
▁portrays	-11.0041
▁pose	-11.0041
▁positively	-11.0041
▁posture	-11.0041
▁pot	-11.0041
▁pour	-11.0041
▁poverty	-11.0041
▁powerless	-11.0041
▁practical	-11.0041
▁praise	-11.0041
▁praised	-11.0041
▁predicted	-11.0041
▁premise	-11.0041
▁preschool	-11.0041
▁pressed	-11.0041
▁prestigious	-11.0041
▁price	-11.0041
▁primarily	-11.0041
▁prime	-11.0041
▁prisoner	-11.0041
▁private_contact	-11.0041
▁pro	-11.0041
▁problematic	-11.0041
▁proceed	-11.0041
▁proceeded	-11.0041
▁procrastinating	-11.0041
▁procrastinator	-11.0041
▁produce	-11.0041
▁produced	-11.0041
▁production	-11.0041
▁prof	-11.0041
▁profession	-11.0041
▁profile	-11.0041
▁profound	-11.0041
▁projecting	-11.0041
▁prospective	-11.0041
▁protect	-11.0041
▁protecting	-11.0041
▁protection	-11.0041
▁protracted	-11.0041
▁provides	-11.0041
▁proving	-11.0041
▁pseudo	-11.0041
▁psychic	-11.0041
▁psychosomatic	-11.0041
▁psyciatrist	-11.0041
▁pt	-11.0041
▁publish	-11.0041
▁pump	-11.0041
▁punched	-11.0041
▁punish	-11.0041
▁purely	-11.0041
▁quarter	-11.0041
▁queasy	-11.0041
▁questionable	-11.0041
▁quetiapine	-11.0041
▁queue	-11.0041
▁radio	-11.0041
▁rain	-11.0041
▁ramblings	-11.0041
▁ramping	-11.0041
▁range	-11.0041
▁rapid	-11.0041
▁rash	-11.0041
▁rat	-11.0041
▁reasoning	-11.0041
▁reassure	-11.0041
▁reassuring	-11.0041
▁receiving	-11.0041
▁recognise	-11.0041
▁reconnected	-11.0041
▁recording	-11.0041
▁recruiter	-11.0041
▁reddish	-11.0041
▁redditor	-11.0041
▁redo	-11.0041
▁reduce	-11.0041
▁refer	-11.0041
▁reference	-11.0041
▁reflects	-11.0041
▁reflux	-11.0041
▁refreshed	-11.0041
▁regaining	-11.0041
▁register	-11.0041
▁registered	-11.0041
▁regretful	-11.0041
▁regulation	-11.0041
▁reinstated	-11.0041
▁reinstating	-11.0041
▁relapsing	-11.0041
▁relation	-11.0041
▁releasing	-11.0041
▁reliable	-11.0041
▁reliving	-11.0041
▁remeron	-11.0041
▁remission	-11.0041
▁removed	-11.0041
▁removing	-11.0041
▁repay	-11.0041
▁replay	-11.0041
▁representative	-11.0041
▁repressed	-11.0041
▁require	-11.0041
▁requirement	-11.0041
▁reselling	-11.0041
▁resent	-11.0041
▁resentment	-11.0041
▁residual	-11.0041
▁resist	-11.0041
▁resistant	-11.0041
▁resisting	-11.0041
▁resolution	-11.0041
▁restlessness	-11.0041
▁restore	-11.0041
▁resulted	-11.0041
▁retarded	-11.0041
▁retirement	-11.0041
▁revert	-11.0041
▁revise	-11.0041
▁revolve	-11.0041
▁revolves	-11.0041
▁riding	-11.0041
▁rip	-11.0041
▁robbed	-11.0041
▁robbery	-11.0041
▁robin	-11.0041
▁roll	-11.0041
▁rolled	-11.0041
▁romance	-11.0041
▁rope	-11.0041
▁rubber	-11.0041
▁ruled	-11.0041
▁ruminating	-11.0041
▁runny	-11.0041
▁rupture	-11.0041
▁rural	-11.0041
▁rushing	-11.0041
▁safety	-11.0041
▁saliva	-11.0041
▁salt	-11.0041
▁salvage	-11.0041
▁sand	-11.0041
▁sarcasm	-11.0041
▁satisfaction	-11.0041
▁scene	-11.0041
▁scheme	-11.0041
▁scientifically	-11.0041
▁scoop	-11.0041
▁scooping	-11.0041
▁scraping	-11.0041
▁screwing	-11.0041
▁scripted	-11.0041
▁scrutiny	-11.0041
▁scum	-11.0041
▁searched	-11.0041
▁seat	-11.0041
▁sec	-11.0041
▁secure	-11.0041
▁selfharm	-11.0041
▁seller	-11.0041
▁sensitivity	-11.0041
▁sensory	-11.0041
▁separation	-11.0041
▁settling	-11.0041
▁shade	-11.0041
▁shadow	-11.0041
▁shamed	-11.0041
▁share_petition	-11.0041
▁shatter	-11.0041
▁shaved	-11.0041
▁shaving	-11.0041
▁shi	-11.0041
▁shifting	-11.0041
▁shining	-11.0041
▁ship	-11.0041
▁shitting	-11.0041
▁shocked	-11.0041
▁shocking	-11.0041
▁shook	-11.0041
▁shortest	-11.0041
▁shown	-11.0041
▁sickening	-11.0041
▁sicker	-11.0041
▁sidewalk	-11.0041
▁sighing	-11.0041
▁silhouette	-11.0041
▁similarly	-11.0041
▁singing	-11.0041
▁sitcom	-11.0041
▁situational	-11.0041
▁sixteen	-11.0041
▁sketchy	-11.0041
▁skilled	-11.0041
▁skull	-11.0041
▁sl	-11.0041
▁slack	-11.0041
▁slapped	-11.0041
▁sleepover	-11.0041
▁sleepy	-11.0041
▁slog	-11.0041
▁slumber	-11.0041
▁slump	-11.0041
▁smaller	-11.0041
▁smallest	-11.0041
▁smash	-11.0041
▁smashing	-11.0041
▁smell	-11.0041
▁smoked	-11.0041
▁snris	-11.0041
▁sob	-11.0041
▁soccer	-11.0041
▁sociable	-11.0041
▁software	-11.0041
▁somethings	-11.0041
▁soooo	-11.0041
▁soothing	-11.0041
▁sorrow	-11.0041
▁sorta	-11.0041
▁sour	-11.0041
▁southern	-11.0041
▁speaker	-11.0041
▁specialist	-11.0041
▁specify	-11.0041
▁spilled	-11.0041
▁spinning	-11.0041
▁spiralling	-11.0041
▁spiritual	-11.0041
▁spontaneous	-11.0041
▁spotlight	-11.0041
▁spray	-11.0041
▁spurt	-11.0041
▁stabbed	-11.0041
▁stain	-11.0041
▁stall	-11.0041
▁stamping	-11.0041
▁stared	-11.0041
▁static	-11.0041
▁stating	-11.0041
▁status	-11.0041
▁stepping	-11.0041
▁steroid	-11.0041
▁stiff	-11.0041
▁stimulant	-11.0041
▁stimulate	-11.0041
▁stimulation	-11.0041
▁stolen	-11.0041
▁stored	-11.0041
▁straightened	-11.0041
▁strangled	-11.0041
▁strengthen	-11.0041
▁stretched	-11.0041
▁strict	-11.0041
▁strike	-11.0041
▁struck	-11.0041
▁subconscious	-11.0041
▁subconsciously	-11.0041
▁subside	-11.0041
▁substitute	-11.0041
▁suffocation	-11.0041
▁suggesting	-11.0041
▁suitable	-11.0041
▁supply	-11.0041
▁suppressed	-11.0041
▁survivingantidepressants	-11.0041
▁survivor	-11.0041
▁sushi	-11.0041
▁suspended	-11.0041
▁sustainable	-11.0041
▁sv	-11.0041
▁swab	-11.0041
▁swiss	-11.0041
▁tachycardia	-11.0041
▁tackle	-11.0041
▁taco	-11.0041
▁tad	-11.0041
▁taller	-11.0041
▁tangent	-11.0041
▁targeting	-11.0041
▁taxing	-11.0041
▁ted	-11.0041
▁telephone	-11.0041
▁temp	-11.0041
▁temptation	-11.0041
▁territory	-11.0041
▁testosterone	-11.0041
▁textbook	-11.0041
▁thanking	-11.0041
▁theft	-11.0041
▁theme	-11.0041
▁theoretically	-11.0041
▁therapy_	-11.0041
▁thereby	-11.0041
▁theyre	-11.0041
▁thrilled	-11.0041
▁thriving	-11.0041
▁tia	-11.0041
▁tic	-11.0041
▁tiktoks	-11.0041
▁tile	-11.0041
▁timed	-11.0041
▁timer	-11.0041
▁toddler	-11.0041
▁toenail	-11.0041
▁tolerance	-11.0041
▁tolerate	-11.0041
▁tongue	-11.0041
▁topamax	-11.0041
▁torment	-11.0041
▁toronto	-11.0041
▁torwards	-11.0041
▁tossed	-11.0041
▁tought	-11.0041
▁trading	-11.0041
▁traditional	-11.0041
▁tragedy	-11.0041
▁trainee	-11.0041
▁trainer	-11.0041
▁transcranial	-11.0041
▁transition	-11.0041
▁traumatize	-11.0041
▁traumatizing	-11.0041
▁treading	-11.0041
▁trembly	-11.0041
▁tremendously	-11.0041
▁trend	-11.0041
▁tumblr	-11.0041
▁tumour	-11.0041
▁twin	-11.0041
▁twisting	-11.0041
▁tylenol	-11.0041
▁uc	-11.0041
▁ucsd	-11.0041
▁ultimate	-11.0041
▁ultrasound	-11.0041
▁unbeknownst	-11.0041
▁unconsciously	-11.0041
▁understandable	-11.0041
▁unexplained	-11.0041
▁unfair	-11.0041
▁unfairness	-11.0041
▁unfamiliar	-11.0041
▁unfortunate	-11.0041
▁unfulfilling	-11.0041
▁unhappiness	-11.0041
▁unheard	-11.0041
▁unhelpful	-11.0041
▁unintentionally	-11.0041
▁uninterested	-11.0041
▁unknowingly	-11.0041
▁unloveable	-11.0041
▁unmedicated	-11.0041
▁unnecessarily	-11.0041
▁unpack	-11.0041
▁unreasonable	-11.0041
▁unregulated	-11.0041
▁unrelated	-11.0041
▁unsafe	-11.0041
▁unstable	-11.0041
▁untrue	-11.0041
▁unwilling	-11.0041
▁upbringing	-11.0041
▁upcoming	-11.0041
▁uploaded	-11.0041
▁upping	-11.0041
▁upward	-11.0041
▁utm_medium	-11.0041
▁utm_source	-11.0041
▁validate	-11.0041
▁valuable	-11.0041
▁van	-11.0041
▁vanish	-11.0041
▁vapes	-11.0041
▁variety	-11.0041
▁vega	-11.0041
▁vegan	-11.0041
▁verbal	-11.0041
▁verified	-11.0041
▁viable	-11.0041
▁vibration	-11.0041
▁vic	-11.0041
▁vicious	-11.0041
▁vicodin	-11.0041
▁viewing	-11.0041
▁virginity	-11.0041
▁vit	-11.0041
▁voicemail	-11.0041
▁voluntary	-11.0041
▁vu	-11.0041
▁waist	-11.0041
▁waited	-11.0041
▁waitress	-11.0041
▁wallow	-11.0041
▁wane	-11.0041
▁warehouse	-11.0041
▁washer	-11.0041
▁washing	-11.0041
▁wealthy	-11.0041
▁weepy	-11.0041
▁weighed	-11.0041
▁weighing	-11.0041
▁weighs	-11.0041
▁weightlifting	-11.0041
▁weirdest	-11.0041
▁weirdo	-11.0041
▁wept	-11.0041
▁wet	-11.0041
▁whack	-11.0041
▁whatnot	-11.0041
▁wheel	-11.0041
▁whereas	-11.0041
▁whim	-11.0041
▁whine	-11.0041
▁whirlwind	-11.0041
▁wifi	-11.0041
▁williams	-11.0041
▁wine	-11.0041
▁wing	-11.0041
▁wire	-11.0041
▁wished	-11.0041
▁witch	-11.0041
▁witchcraft	-11.0041
▁withdrawls	-11.0041
▁withered	-11.0041
▁witnessed	-11.0041
▁woken	-11.0041
▁woohoo	-11.0041
▁worded	-11.0041
▁wore	-11.0041
▁workbook	-11.0041
▁worship	-11.0041
▁wrapping	-11.0041
▁wretched	-11.0041
▁writer	-11.0041
▁ww3	-11.0041
▁xl	-11.0041
▁yall	-11.0041
▁yan	-11.0041
▁yanked	-11.0041
▁yea	-11.0041
▁yearning	-11.0041
▁yk	-11.0041
▁yknow	-11.0041
▁yoga	-11.0041
▁yoke	-11.0041
▁youngest	-11.0041
▁youre	-11.0041
▁youth	-11.0041
▁youtu	-11.0041
▁yr	-11.0041
▁zap	-11.0041
▁02	-11.6973
▁03am	-11.6973
▁04	-11.6973
▁07	-11.6973
▁100k	-11.6973
▁100th	-11.6973
▁102	-11.6973
▁1099	-11.6973
▁10am	-11.6973
▁10bpm	-11.6973
▁10ish	-11.6973
▁10kg	-11.6973
▁112	-11.6973
▁11th	-11.6973
▁120	-11.6973
▁125	-11.6973
▁12hr	-11.6973
▁12hrs	-11.6973
▁12yo	-11.6973
▁1300	-11.6973
▁140mph	-11.6973
▁14f	-11.6973
▁14th	-11.6973
▁15m	-11.6973
▁17k	-11.6973
▁17m	-11.6973
▁17th	-11.6973
▁190	-11.6973
▁1am	-11.6973
▁1mm	-11.6973
▁2005	-11.6973
▁2007	-11.6973
▁2009	-11.6973
▁200mg	-11.6973
▁2014	-11.6973
▁2015	-11.6973
▁2022	-11.6973
▁20f	-11.6973
▁20lbs	-11.6973
▁20th	-11.6973
▁20years	-11.6973
▁20yrs	-11.6973
▁210	-11.6973
▁22yo	-11.6973
▁23cm	-11.6973
▁24h	-11.6973
▁24th	-11.6973
▁2500	-11.6973
▁255	-11.6973
▁25_rule_	-11.6973
▁25unweighted	-11.6973
▁27f	-11.6973
▁299	-11.6973
▁29m	-11.6973
▁2am	-11.6973
▁2appkoq	-11.6973
▁2pm	-11.6973
▁2x	-11.6973
▁30f	-11.6973
▁30lbs	-11.6973
▁30pm	-11.6973
▁321	-11.6973
▁32f	-11.6973
▁32m	-11.6973
▁32yo	-11.6973
▁33	-11.6973
▁330	-11.6973
▁33m	-11.6973
▁342	-11.6973
▁34y	-11.6973
▁37f	-11.6973
▁39	-11.6973
▁39f	-11.6973
▁3ish	-11.6973
▁3mgs	-11.6973
▁3months	-11.6973
▁3xonpa7	-11.6973
▁3y	-11.6973
▁400	-11.6973
▁41	-11.6973
▁4371	-11.6973
▁44	-11.6973
▁4am	-11.6973
▁4x	-11.6973
▁50am	-11.6973
▁50k	-11.6973
▁51k	-11.6973
▁530am	-11.6973
▁54321	-11.6973
▁5hours	-11.6973
▁5hrs	-11.6973
▁5k	-11.6973
▁700	-11.6973
▁72	-11.6973
▁7am	-11.6973
▁7pm	-11.6973
▁9am	-11.6973
▁9ish	-11.6973
▁9month	-11.6973
▁9pm	-11.6973
▁_____	-11.6973
▁_acceptance	-11.6973
▁_campaign	-11.6973
▁_cognitive	-11.6973
▁_content	-11.6973
▁_decaf_	-11.6973
▁_deep	-11.6973
▁_en	-11.6973
▁_everything	-11.6973
▁_magnetic	-11.6973
▁_medium	-11.6973
▁_meds_	-11.6973
▁_moyvi	-11.6973
▁_o	-11.6973
▁_sharecopy	-11.6973
▁_source	-11.6973
▁_stimulation	-11.6973
▁_this_	-11.6973
▁_xkma	-11.6973
▁_xkma_moyvi	-11.6973
▁aaaaaaaaa	-11.6973
▁aah	-11.6973
▁ab	-11.6973
▁aborted	-11.6973
▁abrupt	-11.6973
▁absorb	-11.6973
▁abstinence	-11.6973
▁abstract	-11.6973
▁abundantly	-11.6973
▁abuser	-11.6973
▁abyss	-11.6973
▁acacia	-11.6973
▁academia	-11.6973
▁accelerated	-11.6973
▁accented	-11.6973
▁acceptance	-11.6973
▁acceptancecommitment	-11.6973
▁accidently	-11.6973
▁accompanies	-11.6973
▁accord	-11.6973
▁accumulate	-11.6973
▁accumulation	-11.6973
▁accusing	-11.6973
▁aced	-11.6973
▁ached	-11.6973
▁achieving	-11.6973
▁achy	-11.6973
▁acidity	-11.6973
▁acknowledgement	-11.6973
▁activated	-11.6973
▁activation	-11.6973
▁actor	-11.6973
▁actovities	-11.6973
▁acussing	-11.6973
▁adamant	-11.6973
▁adamantly	-11.6973
▁adapted	-11.6973
▁adaptive	-11.6973
▁adaptogens	-11.6973
▁addicting	-11.6973
▁addictive	-11.6973
▁addressed	-11.6973
▁aderall	-11.6973
▁adjust	-11.6973
▁adjuster	-11.6973
▁adjustment	-11.6973
▁admin	-11.6973
▁administer	-11.6973
▁admiration	-11.6973
▁admire	-11.6973
▁admired	-11.6973
▁admission	-11.6973
▁adopt	-11.6973
▁adopts	-11.6973
▁adorable	-11.6973
▁adores	-11.6973
▁adresses	-11.6973
▁adrift	-11.6973
▁adverse	-11.6973
▁advertises	-11.6973
▁advertising	-11.6973
▁advisor	-11.6973
▁advocate	-11.6973
▁advocating	-11.6973
▁afflicts	-11.6973
▁aforementioned	-11.6973
▁african	-11.6973
▁againts	-11.6973
▁aggravate	-11.6973
▁aggressively	-11.6973
▁aggrevated	-11.6973
▁agitation	-11.6973
▁agony	-11.6973
▁agreeing	-11.6973
▁agreement	-11.6973
▁ah	-11.6973
▁ahold	-11.6973
▁ahsbxkxmskzhdjxbxbgd	-11.6973
▁aight	-11.6973
▁aimed	-11.6973
▁aiming	-11.6973
▁aimless	-11.6973
▁airbnbs	-11.6973
▁airpods	-11.6973
▁aisle	-11.6973
▁ak	-11.6973
▁al	-11.6973
▁alarmed	-11.6973
▁alarming	-11.6973
▁album	-11.6973
▁alcoholism	-11.6973
▁alienating	-11.6973
▁aligned	-11.6973
▁allegedly	-11.6973
▁allll	-11.6973
▁allowance	-11.6973
▁alphabet	-11.6973
▁alseep	-11.6973
▁alt	-11.6973
▁altered	-11.6973
▁altern	-11.6973
▁alternate	-11.6973
▁alternating	-11.6973
▁altho	-11.6973
▁alward	-11.6973
▁amazingly	-11.6973
▁ambiental	-11.6973
▁amd	-11.6973
▁america	-11.6973
▁amicable	-11.6973
▁amidst	-11.6973
▁amitryptaline	-11.6973
▁amongst	-11.6973
▁amphetamine	-11.6973
▁amplifies	-11.6973
▁amused	-11.6973
▁anal	-11.6973
▁analogously	-11.6973
▁analysing	-11.6973
▁analysis	-11.6973
▁ananya	-11.6973
▁anaphylactic	-11.6973
▁anaphylaxis	-11.6973
▁android_app	-11.6973
▁anecdotal	-11.6973
▁anecdotally	-11.6973
▁anecdote	-11.6973
▁anemia	-11.6973
▁anesthesia	-11.6973
▁angeles	-11.6973
▁angery	-11.6973
▁annotated	-11.6973
▁announcement	-11.6973
▁annoy	-11.6973
▁annual	-11.6973
▁anonymous	-11.6973
▁ant	-11.6973
▁antagonistic	-11.6973
▁antic	-11.6973
▁anticipatory	-11.6973
▁antiepelectic	-11.6973
▁antiperspirant	-11.6973
▁antipsychotic	-11.6973
▁antiseptic	-11.6973
▁antisocial	-11.6973
▁anxeties	-11.6973
▁anxiolytic	-11.6973
▁anxiousness	-11.6973
▁anxoius	-11.6973
▁anyresumes	-11.6973
▁apendicitis	-11.6973
▁apnea	-11.6973
▁apointment	-11.6973
▁apologetic	-11.6973
▁apologise	-11.6973
▁apologizing	-11.6973
▁appeal	-11.6973
▁appealing	-11.6973
▁apperantly	-11.6973
▁applies	-11.6973
▁apprehended	-11.6973
▁apprehensive	-11.6973
▁apprenticeship	-11.6973
▁approaching	-11.6973
▁appropriately	-11.6973
▁approximately	-11.6973
▁argue	-11.6973
▁argued	-11.6973
▁arises	-11.6973
▁arising	-11.6973
▁arkansas	-11.6973
▁armpit	-11.6973
▁arranging	-11.6973
▁arrest	-11.6973
▁arrgh	-11.6973
▁arrival	-11.6973
▁arrives	-11.6973
▁arrogant	-11.6973
▁arsenal	-11.6973
▁arte	-11.6973
▁artistic	-11.6973
▁artwork	-11.6973
▁ascendency	-11.6973
▁asf	-11.6973
▁ashwaghanda	-11.6973
▁asn	-11.6973
▁aspire	-11.6973
▁assault	-11.6973
▁assaulted	-11.6973
▁assed	-11.6973
▁assessor	-11.6973
▁assing	-11.6973
▁assist	-11.6973
▁assistant	-11.6973
▁associate	-11.6973
▁asst	-11.6973
▁assualt	-11.6973
▁assurance	-11.6973
▁assures	-11.6973
▁aswell	-11.6973
▁asylum	-11.6973
▁athlete	-11.6973
▁athletic	-11.6973
▁ati	-11.6973
▁atleaset	-11.6973
▁atmosphere	-11.6973
▁attacs	-11.6973
▁attended	-11.6973
▁attentive	-11.6973
▁attick	-11.6973
▁attributed	-11.6973
▁atypical	-11.6973
▁audacity	-11.6973
▁audible	-11.6973
▁audio	-11.6973
▁auditory	-11.6973
▁augment	-11.6973
▁authentically	-11.6973
▁author	-11.6973
▁authorization	-11.6973
▁autocompassion	-11.6973
▁automated	-11.6973
▁automation	-11.6973
▁autonomy	-11.6973
▁availability	-11.6973
▁averaging	-11.6973
▁aversion	-11.6973
▁avoidance	-11.6973
▁avoidant	-11.6973
▁avpd	-11.6973
▁awaiting	-11.6973
▁aways	-11.6973
▁awe	-11.6973
▁awfully	-11.6973
▁awkwardly	-11.6973
▁awkwardness	-11.6973
▁ayahuasca	-11.6973
▁baba	-11.6973
▁babble	-11.6973
▁babyface	-11.6973
▁baccalaureate	-11.6973
▁backed	-11.6973
▁backing	-11.6973
▁backrub	-11.6973
▁backtracking	-11.6973
▁backup	-11.6973
▁backwards	-11.6973
▁badge	-11.6973
▁badger	-11.6973
▁bahay	-11.6973
▁bail	-11.6973
▁bait	-11.6973
▁baked	-11.6973
▁bakit	-11.6973
▁baldness	-11.6973
▁balled	-11.6973
▁balloon	-11.6973
▁banana	-11.6973
▁bandage	-11.6973
▁bandaid	-11.6973
▁bandersnatch	-11.6973
▁bang	-11.6973
▁banned	-11.6973
▁banner	-11.6973
▁banter	-11.6973
▁barbaric	-11.6973
▁barbecue	-11.6973
▁barbiturate	-11.6973
▁bareable	-11.6973
▁barked	-11.6973
▁barley	-11.6973
▁barometric	-11.6973
▁barrage	-11.6973
▁base	-11.6973
▁baseball	-11.6973
▁bashed	-11.6973
▁bashing	-11.6973
▁basicly	-11.6973
▁basket	-11.6973
▁bastard	-11.6973
▁batchmates	-11.6973
▁bathe	-11.6973
▁batshit	-11.6973
▁battery	-11.6973
▁bay	-11.6973
▁bbq	-11.6973
▁bcst	-11.6973
▁beak	-11.6973
▁bean	-11.6973
▁beaten	-11.6973
▁beautifully	-11.6973
▁becaause	-11.6973
▁bedding	-11.6973
▁bedridden	-11.6973
▁bedtime	-11.6973
▁beecause	-11.6973
▁beeping	-11.6973
▁beer	-11.6973
▁befriend	-11.6973
▁befriended	-11.6973
▁befuddle	-11.6973
▁beg	-11.6973
▁behalf	-11.6973
▁behaving	-11.6973
▁beleive	-11.6973
▁belittle	-11.6973
▁belittled	-11.6973
▁belly	-11.6973
▁belonged	-11.6973
▁bending	-11.6973
▁beneath	-11.6973
▁beneficial	-11.6973
▁benificial	-11.6973
▁benjamin	-11.6973
▁berated	-11.6973
▁bereable	-11.6973
▁bereavement	-11.6973
▁bested	-11.6973
▁bestfriends	-11.6973
▁bestie	-11.6973
▁betrail	-11.6973
▁betrayal	-11.6973
▁bff	-11.6973
▁bicycle	-11.6973
▁bid	-11.6973
▁bigoted	-11.6973
▁bike	-11.6973
▁billionth	-11.6973
▁bings	-11.6973
▁bipolarism	-11.6973
▁bisexual	-11.6973
▁biter	-11.6973
▁bitterness	-11.6973
▁bizarre	-11.6973
▁blabbering	-11.6973
▁blackburn	-11.6973
▁bladder	-11.6973
▁blanked	-11.6973
▁blankly	-11.6973
▁blaring	-11.6973
▁bled	-11.6973
▁bless	-11.6973
▁blessing	-11.6973
▁blindsided	-11.6973
▁blink	-11.6973
▁blinking	-11.6973
▁bliss	-11.6973
▁blister	-11.6973
▁bloating	-11.6973
▁blockade	-11.6973
▁blog	-11.6973
▁blooded	-11.6973
▁bloody	-11.6973
▁bloom	-11.6973
▁blossom	-11.6973
▁blotchy	-11.6973
▁blouse	-11.6973
▁blowing	-11.6973
▁blowjob	-11.6973
▁bluntly	-11.6973
▁bmi	-11.6973
▁bodied	-11.6973
▁bodyache	-11.6973
▁boiling	-11.6973
▁bojack	-11.6973
▁bollock	-11.6973
▁bolster	-11.6973
▁bombing	-11.6973
▁bookshelf	-11.6973
▁bore	-11.6973
▁bosse	-11.6973
▁botched	-11.6973
▁bothersome	-11.6973
▁bottemless	-11.6973
▁bour	-11.6973
▁bowl	-11.6973
▁bowtie	-11.6973
▁brace	-11.6973
▁brad	-11.6973
▁braindead	-11.6973
▁brainwash	-11.6973
▁braking	-11.6973
▁branch	-11.6973
▁brandon	-11.6973
▁bratty	-11.6973
▁bread	-11.6973
▁breather	-11.6973
▁breathes	-11.6973
▁breathing_	-11.6973
▁breathless	-11.6973
▁breeze	-11.6973
▁bref	-11.6973
▁briefly	-11.6973
▁brighten	-11.6973
▁brightest	-11.6973
▁brilliance	-11.6973
▁brittle	-11.6973
▁bro	-11.6973
▁broad	-11.6973
▁brooklyn	-11.6973
▁browse	-11.6973
▁bruise	-11.6973
▁bruising	-11.6973
▁brutal	-11.6973
▁bsed	-11.6973
▁bsomething	-11.6973
▁btc	-11.6973
▁bubbly	-11.6973
▁bublineess	-11.6973
▁budgeting	-11.6973
▁buff	-11.6973
▁bugging	-11.6973
▁buildup	-11.6973
▁bulging	-11.6973
▁bulldog	-11.6973
▁bumbling	-11.6973
▁bummed	-11.6973
▁bummer	-11.6973
▁bumpy	-11.6973
▁bunting	-11.6973
▁bur	-11.6973
▁burdened	-11.6973
▁burdensome	-11.6973
▁burial	-11.6973
▁buried	-11.6973
▁bursting	-11.6973
▁bury	-11.6973
▁bush	-11.6973
▁busier	-11.6973
▁buspirone	-11.6973
▁busprione	-11.6973
▁bustling	-11.6973
▁buyin	-11.6973
▁buzzed	-11.6973
▁buzzfeed	-11.6973
▁bv	-11.6973
▁cabin	-11.6973
▁cable	-11.6973
▁calculator	-11.6973
▁calf	-11.6973
▁calisthenics	-11.6973
▁calmers	-11.6973
▁calming	-11.6973
▁calmly	-11.6973
▁calmness	-11.6973
▁campaign	-11.6973
▁canceling	-11.6973
▁candidate	-11.6973
▁candidly	-11.6973
▁candy	-11.6973
▁cannabis	-11.6973
▁captain	-11.6973
▁captcha	-11.6973
▁carbs	-11.6973
▁carefree	-11.6973
▁carl	-11.6973
▁carpal	-11.6973
▁carpe	-11.6973
▁carpentry	-11.6973
▁carpet	-11.6973
▁carpeted	-11.6973
▁carrier	-11.6973
▁cartilage	-11.6973
▁cartoony	-11.6973
▁cascade	-11.6973
▁cassian	-11.6973
▁castle	-11.6973
▁casuing	-11.6973
▁cataloging	-11.6973
▁catastrophic	-11.6973
▁catastrophizing	-11.6973
▁catharsis	-11.6973
▁catharticism	-11.6973
▁causevme	-11.6973
▁cba	-11.6973
▁celebrated	-11.6973
▁celebrating	-11.6973
▁celebrity	-11.6973
▁celiac	-11.6973
▁cell	-11.6973
▁ceo	-11.6973
▁certificate	-11.6973
▁cf	-11.6973
▁chained	-11.6973
▁challenged	-11.6973
▁chameleon	-11.6973
▁changer	-11.6973
▁channel	-11.6973
▁chaotic	-11.6973
▁chapped	-11.6973
▁charade	-11.6973
▁charcoal	-11.6973
▁charger	-11.6973
▁charisma	-11.6973
▁charismatic	-11.6973
▁charleston	-11.6973
▁chasing	-11.6973
▁chatted	-11.6973
▁chattering	-11.6973
▁chatting	-11.6973
▁chatty	-11.6973
▁chavy	-11.6973
▁cheesed	-11.6973
▁cheesy	-11.6973
▁chemically	-11.6973
▁cherish	-11.6973
▁chewy	-11.6973
▁chicago	-11.6973
▁chick	-11.6973
▁chickened	-11.6973
▁childlike	-11.6973
▁chilled	-11.6973
▁chime	-11.6973
▁chin	-11.6973
▁china	-11.6973
▁chinese	-11.6973
▁chipped	-11.6973
▁chipper	-11.6973
▁chirped	-11.6973
▁chirping	-11.6973
▁chit	-11.6973
▁chock	-11.6973
▁choke	-11.6973
▁christian	-11.6973
▁chuck	-11.6973
▁chugging	-11.6973
▁chummy	-11.6973
▁cico	-11.6973
▁cidal	-11.6973
▁cigs	-11.6973
▁cinco	-11.6973
▁cindy	-11.6973
▁cinematography	-11.6973
▁circling	-11.6973
▁circuiting	-11.6973
▁circuitry	-11.6973
▁circulating	-11.6973
▁circulation	-11.6973
▁circus	-11.6973
▁cited	-11.6973
▁citizenship	-11.6973
▁civic	-11.6973
▁cked	-11.6973
▁cl	-11.6973
▁clad	-11.6973
▁claimed	-11.6973
▁claiming	-11.6973
▁clarifying	-11.6973
▁cleanup	-11.6973
▁clearance	-11.6973
▁clearer	-11.6973
▁cleft	-11.6973
▁clenching	-11.6973
▁clg	-11.6973
▁clickbait	-11.6973
▁clicked	-11.6973
▁clientele	-11.6973
▁climbing	-11.6973
▁clip	-11.6973
▁clog	-11.6973
▁clonaxepam	-11.6973
▁clonazipam	-11.6973
▁clonopin	-11.6973
▁closet	-11.6973
▁closeted	-11.6973
▁closure	-11.6973
▁clothing	-11.6973
▁clotiazepam	-11.6973
▁clouding	-11.6973
▁clued	-11.6973
▁clutching	-11.6973
▁clutter	-11.6973
▁cmon	-11.6973
▁coached	-11.6973
▁coat	-11.6973
▁cocaine	-11.6973
▁cockatiel	-11.6973
▁codependency	-11.6973
▁cofe	-11.6973
▁cohesive	-11.6973
▁cohort	-11.6973
▁coin	-11.6973
▁coincidentally	-11.6973
▁coincides	-11.6973
▁coke	-11.6973
▁coldest	-11.6973
▁coleagues	-11.6973
▁collapsed	-11.6973
▁collected	-11.6973
▁collegue	-11.6973
▁comb	-11.6973
▁combo	-11.6973
▁comepete	-11.6973
▁comfortably	-11.6973
▁comforted	-11.6973
▁commended	-11.6973
▁commenting	-11.6973
▁commission	-11.6973
▁commiting	-11.6973
▁commonality	-11.6973
▁commonly	-11.6973
▁commotion	-11.6973
▁communicated	-11.6973
▁communist	-11.6973
▁comorbid	-11.6973
▁comparing	-11.6973
▁compassionate	-11.6973
▁compatible	-11.6973
▁compatiblism	-11.6973
▁compelled	-11.6973
▁compensate	-11.6973
▁compensated	-11.6973
▁compensating	-11.6973
▁competent	-11.6973
▁compilation	-11.6973
▁compile	-11.6973
▁complement	-11.6973
▁complicating	-11.6973
▁complimented	-11.6973
▁compny	-11.6973
▁component	-11.6973
▁compose	-11.6973
▁composure	-11.6973
▁comprehension	-11.6973
▁comprehensive	-11.6973
▁compressed	-11.6973
▁compressing	-11.6973
▁computational	-11.6973
▁comrade	-11.6973
▁con	-11.6973
▁conceive	-11.6973
▁concepted	-11.6973
▁conceptually	-11.6973
▁conclude	-11.6973
▁concoction	-11.6973
▁conducive	-11.6973
▁conduct	-11.6973
▁confession	-11.6973
▁confiding	-11.6973
▁confined	-11.6973
▁confines	-11.6973
▁confirmation	-11.6973
▁conformity	-11.6973
▁confort	-11.6973
▁confounded	-11.6973
▁confront	-11.6973
▁confusa	-11.6973
▁confuse	-11.6973
▁confusedly	-11.6973
▁congratulated	-11.6973
▁congregating	-11.6973
▁conjures	-11.6973
▁conquer	-11.6973
▁conscience	-11.6973
▁consented	-11.6973
▁consequential	-11.6973
▁consequently	-11.6973
▁considerable	-11.6973
▁considerably	-11.6973
▁considerate	-11.6973
▁considers	-11.6973
▁consist	-11.6973
▁consolation	-11.6973
▁consoling	-11.6973
▁constanlty	-11.6973
▁construction	-11.6973
▁consultation	-11.6973
▁consumerism	-11.6973
▁contains	-11.6973
▁contemplate	-11.6973
▁contemplation	-11.6973
▁contempt	-11.6973
▁contented	-11.6973
▁continent	-11.6973
▁continuous	-11.6973
▁contraceptive	-11.6973
▁contracted	-11.6973
▁contradicting	-11.6973
▁contrast	-11.6973
▁contributed	-11.6973
▁contributes	-11.6973
▁contributing	-11.6973
▁contribution	-11.6973
▁controll	-11.6973
▁contuniue	-11.6973
▁convalescensing	-11.6973
▁conveniently	-11.6973
▁converse	-11.6973
▁conversion	-11.6973
▁converted	-11.6973
▁convinces	-11.6973
▁convulsion	-11.6973
▁cooked	-11.6973
▁cooldown	-11.6973
▁coop	-11.6973
▁cooperating	-11.6973
▁coordinator	-11.6973
▁copd	-11.6973
▁copious	-11.6973
▁copy	-11.6973
▁corinne	-11.6973
▁corner	-11.6973
▁corona	-11.6973
▁corralled	-11.6973
▁correction	-11.6973
▁correlate	-11.6973
▁correlated	-11.6973
▁corresponding	-11.6973
▁corresponds	-11.6973
▁corsodyl	-11.6973
▁cortisol	-11.6973
▁cortizone	-11.6973
▁cosmic	-11.6973
▁cosmos	-11.6973
▁costochondritis	-11.6973
▁costume	-11.6973
▁counted	-11.6973
▁counteract	-11.6973
▁counteracts	-11.6973
▁countess	-11.6973
▁coupd	-11.6973
▁coupled	-11.6973
▁courtroom	-11.6973
▁cow	-11.6973
▁cowardice	-11.6973
▁coz	-11.6973
▁crackpot	-11.6973
▁craigslist	-11.6973
▁cram	-11.6973
▁cramping	-11.6973
▁craved	-11.6973
▁crawled	-11.6973
▁crawling	-11.6973
▁creates	-11.6973
▁creature	-11.6973
▁crept	-11.6973
▁cricket	-11.6973
▁crier	-11.6973
▁cringing	-11.6973
▁cringy	-11.6973
▁criticized	-11.6973
▁crohn	-11.6973
▁crown	-11.6973
▁cruelest	-11.6973
▁crumble	-11.6973
▁crumbling	-11.6973
▁crumple	-11.6973
▁crunch	-11.6973
▁crusty	-11.6973
▁csncer	-11.6973
▁cte	-11.6973
▁cubicle	-11.6973
▁culminated	-11.6973
▁culprit	-11.6973
▁cummerbund	-11.6973
▁cunt	-11.6973
▁cupboard	-11.6973
▁cupcake	-11.6973
▁cupid	-11.6973
▁curating	-11.6973
▁curator	-11.6973
▁curtain	-11.6973
▁curvier	-11.6973
▁cushion	-11.6973
▁cv	-11.6973
▁cw9	-11.6973
▁cyanide	-11.6973
▁cyst	-11.6973
▁d3	-11.6973
▁dab	-11.6973
▁dabbing	-11.6973
▁dae	-11.6973
▁damit	-11.6973
▁dana	-11.6973
▁danced	-11.6973
▁danielle	-11.6973
▁darker	-11.6973
▁darknet	-11.6973
▁darting	-11.6973
▁data	-11.6973
▁daw	-11.6973
▁dawned	-11.6973
▁daycare	-11.6973
▁daydream	-11.6973
▁daydreaming	-11.6973
▁daylight	-11.6973
▁deadlier	-11.6973
▁deafening	-11.6973
▁dealership	-11.6973
▁dear	-11.6973
▁dearly	-11.6973
▁deathly	-11.6973
▁debbie	-11.6973
▁deceitful	-11.6973
▁deceive	-11.6973
▁deceived	-11.6973
▁decently	-11.6973
▁deceptive	-11.6973
▁decor	-11.6973
▁dedepress	-11.6973
▁dedicating	-11.6973
▁deemed	-11.6973
▁deems	-11.6973
▁defeating	-11.6973
▁defecate	-11.6973
▁defecating	-11.6973
▁defect	-11.6973
▁defective	-11.6973
▁defended	-11.6973
▁defensive	-11.6973
▁defiantly	-11.6973
▁deficiency	-11.6973
▁defines	-11.6973
▁definite	-11.6973
▁definitively	-11.6973
▁defy	-11.6973
▁degenerate	-11.6973
▁degenerative	-11.6973
▁degrade	-11.6973
▁degraded	-11.6973
▁dehumanizing	-11.6973
▁dehydrate	-11.6973
▁deleterious	-11.6973
▁deleting	-11.6973
▁deliberate	-11.6973
▁deliberately	-11.6973
▁delightful	-11.6973
▁delirium	-11.6973
▁delivered	-11.6973
▁delude	-11.6973
▁deluge	-11.6973
▁delve	-11.6973
▁delving	-11.6973
▁demotivated	-11.6973
▁demotivating	-11.6973
▁dent	-11.6973
▁denying	-11.6973
▁deodorant	-11.6973
▁dependency	-11.6973
▁depersonalize	-11.6973
▁depersonalizing	-11.6973
▁depict	-11.6973
▁depiction	-11.6973
▁depleted	-11.6973
▁deploying	-11.6973
▁depo	-11.6973
▁deposit	-11.6973
▁depot	-11.6973
▁deppresion	-11.6973
▁depreciating	-11.6973
▁depresion	-11.6973
▁depressents	-11.6973
▁deprivation	-11.6973
▁deprived	-11.6973
▁depthless	-11.6973
▁derailed	-11.6973
▁derives	-11.6973
▁descartes	-11.6973
▁descends	-11.6973
▁descision	-11.6973
▁describes	-11.6973
▁desired	-11.6973
▁despondency	-11.6973
▁dessert	-11.6973
▁destined	-11.6973
▁destruction	-11.6973
▁desvenlafaxine	-11.6973
▁detailing	-11.6973
▁detect	-11.6973
▁detected	-11.6973
▁detector	-11.6973
▁deteriorate	-11.6973
▁deteriorates	-11.6973
▁determination	-11.6973
▁determinism	-11.6973
▁deterring	-11.6973
▁detoxing	-11.6973
▁detrimental	-11.6973
▁detritus	-11.6973
▁devastate	-11.6973
▁devastating	-11.6973
▁deviant	-11.6973
▁devise	-11.6973
▁devolve	-11.6973
▁devolved	-11.6973
▁devour	-11.6973
▁devout	-11.6973
▁dexterous	-11.6973
▁diabetic	-11.6973
▁diabolical	-11.6973
▁diagnostics	-11.6973
▁diaphragm	-11.6973
▁diaphragmatic	-11.6973
▁dicey	-11.6973
▁dicked	-11.6973
▁dickhead	-11.6973
▁dieing	-11.6973
▁diem	-11.6973
▁dietary	-11.6973
▁dieted	-11.6973
▁differ	-11.6973
▁dificult	-11.6973
▁digestion	-11.6973
▁digestive	-11.6973
▁dignity	-11.6973
▁diminish	-11.6973
▁ding	-11.6973
▁dining	-11.6973
▁diploma	-11.6973
▁dir	-11.6973
▁disabling	-11.6973
▁disagreement	-11.6973
▁disappearing	-11.6973
▁disarray	-11.6973
▁discharge	-11.6973
▁discharged	-11.6973
▁discipline	-11.6973
▁disclaimer	-11.6973
▁discomfort	-11.6973
▁disconnecting	-11.6973
▁disconneted	-11.6973
▁discontinuation	-11.6973
▁discontinue	-11.6973
▁discourage	-11.6973
▁discourages	-11.6973
▁discrediting	-11.6973
▁discust	-11.6973
▁disdain	-11.6973
▁disengaged	-11.6973
▁disfunctional	-11.6973
▁disgrace	-11.6973
▁disguise	-11.6973
▁disintegrating	-11.6973
▁disjointed	-11.6973
▁disliking	-11.6973
▁dismissing	-11.6973
▁disobedient	-11.6973
▁disorganized	-11.6973
▁disorientation	-11.6973
▁disparaging	-11.6973
▁dispense	-11.6973
▁displayed	-11.6973
▁displeasure	-11.6973
▁disproportionately	-11.6973
▁disprove	-11.6973
▁disrupts	-11.6973
▁dissability	-11.6973
▁dissapointed	-11.6973
▁dissappeared	-11.6973
▁dissatisfaction	-11.6973
▁dissection	-11.6973
▁dissociated	-11.6973
▁dissolve	-11.6973
▁distanced	-11.6973
▁distinguish	-11.6973
▁distort	-11.6973
▁distraught	-11.6973
▁distressed	-11.6973
▁distressing	-11.6973
▁distrust	-11.6973
▁disturb	-11.6973
▁ditched	-11.6973
▁ditching	-11.6973
▁diver	-11.6973
▁divide	-11.6973
▁divine	-11.6973
▁diving	-11.6973
▁division	-11.6973
▁dj	-11.6973
▁dl	-11.6973
▁dlc	-11.6973
▁dm	-11.6973
▁dmv	-11.6973
▁documentary	-11.6973
▁documented	-11.6973
▁dodged	-11.6973
▁dodgy	-11.6973
▁doens	-11.6973
▁dogecoin	-11.6973
▁dogshit	-11.6973
▁doi	-11.6973
▁dominant	-11.6973
▁dominated	-11.6973
▁dominating	-11.6973
▁donate	-11.6973
▁donated	-11.6973
▁donating	-11.6973
▁donor	-11.6973
▁doodle	-11.6973
▁doomscroll	-11.6973
▁doooo	-11.6973
▁doorway	-11.6973
▁dopamine	-11.6973
▁doped	-11.6973
▁dopey	-11.6973
▁dorky	-11.6973
▁dorm	-11.6973
▁doublechecking	-11.6973
▁doubling	-11.6973
▁downgrade	-11.6973
▁downloaded	-11.6973
▁downplay	-11.6973
▁downplaying	-11.6973
▁downside	-11.6973
▁downtown	-11.6973
▁downvotes	-11.6973
▁dp	-11.6973
▁dramamine	-11.6973
▁dramatically	-11.6973
▁drawer	-11.6973
▁drawl	-11.6973
▁drawn	-11.6973
▁dreamed	-11.6973
▁dredging	-11.6973
▁drenched	-11.6973
▁drew	-11.6973
▁drift	-11.6973
▁drifted	-11.6973
▁drill	-11.6973
▁drilling	-11.6973
▁driveway	-11.6973
▁drown	-11.6973
▁drowned	-11.6973
▁drowsy	-11.6973
▁drudgery	-11.6973
▁drunkard	-11.6973
▁dsm	-11.6973
▁duct	-11.6973
▁duh	-11.6973
▁dumbells	-11.6973
▁dumber	-11.6973
▁dumbfounded	-11.6973
▁dumbfuck	-11.6973
▁dump	-11.6973
▁dumping	-11.6973
▁dumpster	-11.6973
▁dunkin	-11.6973
▁dusty	-11.6973
▁dx	-11.6973
▁dyeing	-11.6973
▁dysthimia	-11.6973
▁dysthymia	-11.6973
▁eager	-11.6973
▁eardrum	-11.6973
▁earnestly	-11.6973
▁earnings	-11.6973
▁easter	-11.6973
▁ebay	-11.6973
▁ebb	-11.6973
▁ecc	-11.6973
▁economical	-11.6973
▁economy	-11.6973
▁eczema	-11.6973
▁edgy	-11.6973
▁educate	-11.6973
▁educated	-11.6973
▁educational	-11.6973
▁eff	-11.6973
▁effecting	-11.6973
▁effeminate	-11.6973
▁efffects	-11.6973
▁efilism	-11.6973
▁egk	-11.6973
▁eglonyl	-11.6973
▁ejaculating	-11.6973
▁electrical	-11.6973
▁electricity	-11.6973
▁electroconvulsive	-11.6973
▁electronic	-11.6973
▁element	-11.6973
▁elephant	-11.6973
▁eleventh	-11.6973
▁elicits	-11.6973
▁eligible	-11.6973
▁eliminate	-11.6973
▁em	-11.6973
▁emailed	-11.6973
▁embarased	-11.6973
▁embarass	-11.6973
▁embarassed	-11.6973
▁embarrass	-11.6973
▁embarrasses	-11.6973
▁embedded	-11.6973
▁embracing	-11.6973
▁emdr	-11.6973
▁emily	-11.6973
▁emoji	-11.6973
▁empanadas	-11.6973
▁empathiic	-11.6973
▁empathy	-11.6973
▁emphasize	-11.6973
▁empirical	-11.6973
▁empowered	-11.6973
▁emptied	-11.6973
▁emptyness	-11.6973
▁enable	-11.6973
▁enabled	-11.6973
▁enabling	-11.6973
▁enact	-11.6973
▁enclose	-11.6973
▁encountered	-11.6973
▁encourage	-11.6973
▁endangering	-11.6973
▁endometriosis	-11.6973
▁endopsychic	-11.6973
▁endorphin	-11.6973
▁endorse	-11.6973
▁enegy	-11.6973
▁energized	-11.6973
▁eng	-11.6973
▁engaged	-11.6973
▁engaging	-11.6973
▁engineering	-11.6973
▁england	-11.6973
▁engrained	-11.6973
▁engraved	-11.6973
▁enjoyable	-11.6973
▁enjoys	-11.6973
▁enlighten	-11.6973
▁enlightened	-11.6973
▁enlightenment	-11.6973
▁enormous	-11.6973
▁enrichment	-11.6973
▁enroll	-11.6973
▁ensued	-11.6973
▁entail	-11.6973
▁entering	-11.6973
▁enthusiastic	-11.6973
▁entirety	-11.6973
▁entitled	-11.6973
▁entrance	-11.6973
▁entrepreneur	-11.6973
▁enunciated	-11.6973
▁envious	-11.6973
▁envisioned	-11.6973
▁epilepsy	-11.6973
▁equate	-11.6973
▁equation	-11.6973
▁equipment	-11.6973
▁equipped	-11.6973
▁era	-11.6973
▁erase	-11.6973
▁erosion	-11.6973
▁erupt	-11.6973
▁erupting	-11.6973
▁escalated	-11.6973
▁escaped	-11.6973
▁escaping	-11.6973
▁escapism	-11.6973
▁escapist	-11.6973
▁escrow	-11.6973
▁essentaily	-11.6973
▁est	-11.6973
▁estate	-11.6973
▁estimate	-11.6973
▁estranged	-11.6973
▁et	-11.6973
▁eternity	-11.6973
▁ethical	-11.6973
▁europe	-11.6973
▁evaluate	-11.6973
▁evangelical	-11.6973
▁evaporating	-11.6973
▁eve	-11.6973
▁eventuality	-11.6973
▁eventualy	-11.6973
▁everithig	-11.6973
▁everydays	-11.6973
▁everyones	-11.6973
▁everythings	-11.6973
▁evey	-11.6973
▁eviction	-11.6973
▁evidenced	-11.6973
▁evident	-11.6973
▁evolution	-11.6973
▁exaggerated	-11.6973
▁exceedingly	-11.6973
▁excel	-11.6973
▁excell	-11.6973
▁excelled	-11.6973
▁excites	-11.6973
▁excluded	-11.6973
▁exclusive	-11.6973
▁exclusively	-11.6973
▁excusing	-11.6973
▁exemplary	-11.6973
▁exercised	-11.6973
▁exercisig	-11.6973
▁exhaustion	-11.6973
▁exhaustive	-11.6973
▁exiled	-11.6973
▁existentialism	-11.6973
▁exited	-11.6973
▁expained	-11.6973
▁expand	-11.6973
▁expanding	-11.6973
▁expanse	-11.6973
▁expecially	-11.6973
▁expected	-11.6973
▁expeditiously	-11.6973
▁expelled	-11.6973
▁experiances	-11.6973
▁experimenting	-11.6973
▁expired	-11.6973
▁explanantion	-11.6973
▁explicitly	-11.6973
▁exploded	-11.6973
▁exploding	-11.6973
▁exploit	-11.6973
▁exploited	-11.6973
▁explosion	-11.6973
▁explosive	-11.6973
▁exponentially	-11.6973
▁expressionless	-11.6973
▁extension	-11.6973
▁extinct	-11.6973
▁extracted	-11.6973
▁extraction	-11.6973
▁extraterrestrial	-11.6973
▁extroversion	-11.6973
▁extrovert	-11.6973
▁exuberance	-11.6973
▁eyebrow	-11.6973
▁eyeing	-11.6973
▁f17	-11.6973
▁f19	-11.6973
▁f24	-11.6973
▁f27	-11.6973
▁fabricate	-11.6973
▁faceless	-11.6973
▁facet	-11.6973
▁facial	-11.6973
▁faction	-11.6973
▁failling	-11.6973
▁fails	-11.6973
▁faining	-11.6973
▁fainting	-11.6973
▁fairness	-11.6973
▁fairy	-11.6973
▁fam	-11.6973
▁fancy	-11.6973
▁fantasizing	-11.6973
▁fascinates	-11.6973
▁fashion	-11.6973
▁fastest	-11.6973
▁fasting	-11.6973
▁fastworward	-11.6973
▁fav	-11.6973
▁fbs	-11.6973
▁fearful	-11.6973
▁feasible	-11.6973
▁federal	-11.6973
▁feeble	-11.6973
▁feeeeel	-11.6973
▁feelingd	-11.6973
▁feign	-11.6973
▁feld	-11.6973
▁felony	-11.6973
▁fermented	-11.6973
▁fester	-11.6973
▁fetish	-11.6973
▁feverish	-11.6973
▁ffs	-11.6973
▁fi	-11.6973
▁fiancee	-11.6973
▁fiber	-11.6973
▁fictional	-11.6973
▁fidget	-11.6973
▁fiercely	-11.6973
▁file	-11.6973
▁filed	-11.6973
▁filmed	-11.6973
▁filthy	-11.6973
▁finacial	-11.6973
▁finality	-11.6973
▁finasteride	-11.6973
▁fingertip	-11.6973
▁firefighter	-11.6973
▁firework	-11.6973
▁firing	-11.6973
▁firm	-11.6973
▁firmly	-11.6973
▁fitbit	-11.6973
▁fitness	-11.6973
▁fitted	-11.6973
▁fitter	-11.6973
▁fixable	-11.6973
▁flaked	-11.6973
▁flashy	-11.6973
▁flavor	-11.6973
▁flea	-11.6973
▁flexeril	-11.6973
▁flexibility	-11.6973
▁flick	-11.6973
▁flipped	-11.6973
▁flipping	-11.6973
▁flirting	-11.6973
▁float	-11.6973
▁floating	-11.6973
▁flood	-11.6973
▁flooded	-11.6973
▁flooding	-11.6973
▁flossing	-11.6973
▁flourishing	-11.6973
▁fluctuate	-11.6973
▁fluctuates	-11.6973
▁fluctuation	-11.6973
▁flunking	-11.6973
▁flush	-11.6973
▁flushing	-11.6973
▁flutter	-11.6973
▁fluttering	-11.6973
▁fml	-11.6973
▁fobia	-11.6973
▁fogged	-11.6973
▁fold	-11.6973
▁foliage	-11.6973
▁follower	-11.6973
▁follows	-11.6973
▁fomo	-11.6973
▁font	-11.6973
▁forbid	-11.6973
▁forceful	-11.6973
▁forcible	-11.6973
▁fore	-11.6973
▁forehead	-11.6973
▁forensic	-11.6973
▁forest	-11.6973
▁forested	-11.6973
▁foreveralone	-11.6973
▁forgave	-11.6973
▁forgetful	-11.6973
▁forgetfulness	-11.6973
▁forgets	-11.6973
▁forgiveable	-11.6973
▁forgiveness	-11.6973
▁forgivness	-11.6973
▁format	-11.6973
▁formatted	-11.6973
▁formed	-11.6973
▁forming	-11.6973
▁forreal	-11.6973
▁fose	-11.6973
▁fostering	-11.6973
▁fought	-11.6973
▁foward	-11.6973
▁fraction	-11.6973
▁fractured	-11.6973
▁fraid	-11.6973
▁franchise	-11.6973
▁francisco	-11.6973
▁frat	-11.6973
▁fraying	-11.6973
▁freakouts	-11.6973
▁freezer	-11.6973
▁freind	-11.6973
▁freinds	-11.6973
▁frequents	-11.6973
▁friggin	-11.6973
▁fright	-11.6973
▁frugal	-11.6973
▁frumpy	-11.6973
▁frustrates	-11.6973
▁fryer	-11.6973
▁fucin	-11.6973
▁fuckinv	-11.6973
▁fuckkkk	-11.6973
▁fuckkkkkk	-11.6973
▁fuel	-11.6973
▁fuelled	-11.6973
▁fukin	-11.6973
▁fulfilled	-11.6973
▁fulfillment	-11.6973
▁functionally	-11.6973
▁fur	-11.6973
▁furious	-11.6973
▁furniture	-11.6973
▁futile	-11.6973
▁futility	-11.6973
▁fuuuuuuuuuuuuuuuuuuuuuuuuuuuuuuuuuuuuuuuuuuuuuuuuuuuuuuuuuuuuuuuuuuuuuuuuuuuuuuuuuuuuuuuuuuuuuuuuuuuuuuuuuuuuuuuuuuuuuuuuuuuuuuuuuuuuuuuuuuuuuuuuuuuuuuuuuuuuuuuuuuuuuuuuuuuuuuuuuuuuuuuuuuuk	-11.6973
▁fuzziness	-11.6973
▁fwb	-11.6973
▁gaba	-11.6973
▁gamble	-11.6973
▁gamers	-11.6973
▁gamming	-11.6973
▁gardening	-11.6973
▁gaslight	-11.6973
▁gasping	-11.6973
▁gastric	-11.6973
▁gate	-11.6973
▁gated	-11.6973
▁gatekeep	-11.6973
▁gateway	-11.6973
▁gathering	-11.6973
▁gawd	-11.6973
▁gear	-11.6973
▁gee	-11.6973
▁generalised	-11.6973
▁generating	-11.6973
▁generation	-11.6973
▁generic	-11.6973
▁generosity	-11.6973
▁genetics	-11.6973
▁geniunely	-11.6973
▁genius	-11.6973
▁genshin	-11.6973
▁gentleman	-11.6973
▁geographically	-11.6973
▁geopolitical	-11.6973
▁germ	-11.6973
▁german	-11.6973
▁germany	-11.6973
▁gettinf	-11.6973
▁ghb	-11.6973
▁ghosting	-11.6973
▁gibberish	-11.6973
▁gice	-11.6973
▁giddiness	-11.6973
▁giddy	-11.6973
▁giftcards	-11.6973
▁gigantic	-11.6973
▁giggle	-11.6973
▁gingivitis	-11.6973
▁girlfirend	-11.6973
▁girth	-11.6973
▁gladly	-11.6973
▁glamour	-11.6973
▁gland	-11.6973
▁glare	-11.6973
▁glimpse	-11.6973
▁global	-11.6973
▁gloomiest	-11.6973
▁glorified	-11.6973
▁glorify	-11.6973
▁glorious	-11.6973
▁glove	-11.6973
▁glued	-11.6973
▁gnaw	-11.6973
▁gnawing	-11.6973
▁goddamnit	-11.6973
▁goldendoodle	-11.6973
▁goner	-11.6973
▁gong	-11.6973
▁goof	-11.6973
▁goofed	-11.6973
▁gordon	-11.6973
▁gorilla	-11.6973
▁gossip	-11.6973
▁gov	-11.6973
▁grabbing	-11.6973
▁grain	-11.6973
▁gramatical	-11.6973
▁grammatical	-11.6973
▁grandpa	-11.6973
▁grandparent	-11.6973
▁graph	-11.6973
▁grasping	-11.6973
▁grass	-11.6973
▁gravy	-11.6973
▁greece	-11.6973
▁greedy	-11.6973
▁greet	-11.6973
▁greeted	-11.6973
▁grid	-11.6973
▁grimaced	-11.6973
▁grind	-11.6973
▁grinded	-11.6973
▁grit	-11.6973
▁grossly	-11.6973
▁grotesque	-11.6973
▁grounded	-11.6973
▁grounding	-11.6973
▁guarantee	-11.6973
▁guardian	-11.6973
▁guessed	-11.6973
▁guide	-11.6973
▁gull	-11.6973
▁gummies	-11.6973
▁gurgling	-11.6973
▁gust	-11.6973
▁guus	-11.6973
▁hah	-11.6973
▁hahahahahaha	-11.6973
▁hahahahahahahahahahahahaha	-11.6973
▁hai	-11.6973
▁hail	-11.6973
▁hairdresser	-11.6973
▁hairline	-11.6973
▁hallucinate	-11.6973
▁halt	-11.6973
▁halter	-11.6973
▁halve	-11.6973
▁halved	-11.6973
▁hamster	-11.6973
▁handing	-11.6973
▁handled	-11.6973
▁handsome	-11.6973
▁hanged	-11.6973
▁harass	-11.6973
▁harassed	-11.6973
▁harasses	-11.6973
▁harassment	-11.6973
▁harbor	-11.6973
▁harbour	-11.6973
▁hardware	-11.6973
▁hardworking	-11.6973
▁harlequin	-11.6973
▁harmfulness	-11.6973
▁harry	-11.6973
▁harsh	-11.6973
▁hat	-11.6973
▁hatefully	-11.6973
▁hauling	-11.6973
▁havers	-11.6973
▁havoc	-11.6973
▁haze	-11.6973
▁hazy	-11.6973
▁headed	-11.6973
▁heading	-11.6973
▁heals	-11.6973
▁healthiest	-11.6973
▁hearning	-11.6973
▁heartbreaking	-11.6973
▁heartburn	-11.6973
▁hearted	-11.6973
▁heartless	-11.6973
▁heated	-11.6973
▁heaviness	-11.6973
▁hehe	-11.6973
▁heist	-11.6973
▁helath	-11.6973
▁hella	-11.6973
▁hellish	-11.6973
▁hellopoetry	-11.6973
▁help_me_pick_please	-11.6973
▁helplesness	-11.6973
▁helplessness	-11.6973
▁hemorrhagic	-11.6973
▁hemorrhoid	-11.6973
▁hesitate	-11.6973
▁heuristic	-11.6973
▁heve	-11.6973
▁hhah	-11.6973
▁hiatal	-11.6973
▁hid	-11.6973
▁hidden	-11.6973
▁hideous	-11.6973
▁hierarchy	-11.6973
▁highlighted	-11.6973
▁highschooling	-11.6973
▁hii	-11.6973
▁hiked	-11.6973
▁himym	-11.6973
▁hindering	-11.6973
▁hindsight	-11.6973
▁hipster	-11.6973
▁hirsutism	-11.6973
▁hitman	-11.6973
▁hive	-11.6973
▁hiya	-11.6973
▁hl	-11.6973
▁hoarse	-11.6973
▁hoff	-11.6973
▁holder	-11.6973
▁holed	-11.6973
▁holiday	-11.6973
▁hollowly	-11.6973
▁holy	-11.6973
▁holyyyyy	-11.6973
▁homeopathy	-11.6973
▁homepathic	-11.6973
▁homeschooled	-11.6973
▁homesickness	-11.6973
▁hominid	-11.6973
▁homophobe	-11.6973
▁homosexual	-11.6973
▁honda	-11.6973
▁honey	-11.6973
▁hoody	-11.6973
▁hooking	-11.6973
▁hooray	-11.6973
▁hopped	-11.6973
▁horizontal	-11.6973
▁hormonal	-11.6973
▁horny	-11.6973
▁horoscope	-11.6973
▁horrid	-11.6973
▁horrific	-11.6973
▁horrifies	-11.6973
▁hospitalised	-11.6973
▁host	-11.6973
▁hostile	-11.6973
▁hotlines	-11.6973
▁hourglass	-11.6973
▁hourly	-11.6973
▁hovered	-11.6973
▁hovering	-11.6973
▁hovever	-11.6973
▁hp	-11.6973
▁hpe	-11.6973
▁hpv	-11.6973
▁hugging	-11.6973
▁hugo	-11.6973
▁huh	-11.6973
▁humanly	-11.6973
▁humbling	-11.6973
▁humidifier	-11.6973
▁humidity	-11.6973
▁humiliating	-11.6973
▁humiliation	-11.6973
▁hunting	-11.6973
▁hurling	-11.6973
▁hvac	-11.6973
▁hw	-11.6973
▁hydrochloride	-11.6973
▁hydroxezine	-11.6973
▁hydroxyzene	-11.6973
▁hygienist	-11.6973
▁hyped	-11.6973
▁hyperarousal	-11.6973
▁hypersensitivity	-11.6973
▁hypersomnia	-11.6973
▁hyperverbal	-11.6973
▁hypochondriac	-11.6973
▁hypothetical	-11.6973
▁hysterectomy	-11.6973
▁ib	-11.6973
▁ibuprofen	-11.6973
▁ic	-11.6973
▁icy	-11.6973
▁ideally	-11.6973
▁idec	-11.6973
▁idiotic	-11.6973
▁idol	-11.6973
▁idontwanttogoooooo	-11.6973
▁ie	-11.6973
▁iffy	-11.6973
▁ignorance	-11.6973
▁ignores	-11.6973
▁illegal	-11.6973
▁illuminated	-11.6973
▁ilnesses	-11.6973
▁imaginable	-11.6973
▁imbalanced	-11.6973
▁imgur	-11.6973
▁imitate	-11.6973
▁imma	-11.6973
▁immature	-11.6973
▁immedietly	-11.6973
▁immerse	-11.6973
▁immigrant	-11.6973
▁immunity	-11.6973
▁immunocompromised	-11.6973
▁impactful	-11.6973
▁impacting	-11.6973
▁impatient	-11.6973
▁imperfect	-11.6973
▁imperfection	-11.6973
▁implied	-11.6973
▁imply	-11.6973
▁importantly	-11.6973
▁imposed	-11.6973
▁impostor	-11.6973
▁impotent	-11.6973
▁impressed	-11.6973
▁impromptu	-11.6973
▁improper	-11.6973
▁improv4health	-11.6973
▁impulsively	-11.6973
▁impurity	-11.6973
▁inaction	-11.6973
▁inactivity	-11.6973
▁inane	-11.6973
▁inattentive	-11.6973
▁inauthentic	-11.6973
▁inb4	-11.6973
▁inbetween	-11.6973
▁inbox	-11.6973
▁incapacitated	-11.6973
▁incarcerated	-11.6973
▁incase	-11.6973
▁incentive	-11.6973
▁incessantly	-11.6973
▁inconsiderate	-11.6973
▁inconsistent	-11.6973
▁incorrect	-11.6973
▁incurable	-11.6973
▁indeffinite	-11.6973
▁independence	-11.6973
▁independently	-11.6973
▁indicate	-11.6973
▁indicated	-11.6973
▁indicator	-11.6973
▁indigestion	-11.6973
▁induce	-11.6973
▁indulging	-11.6973
▁inescapable	-11.6973
▁inevitable	-11.6973
▁inexistant	-11.6973
▁inexplicably	-11.6973
▁infant	-11.6973
▁infect	-11.6973
▁infinity	-11.6973
▁inflamations	-11.6973
▁inflamed	-11.6973
▁inflation	-11.6973
▁inflict	-11.6973
▁inflicted	-11.6973
▁influx	-11.6973
▁inform	-11.6973
▁informal	-11.6973
▁informative	-11.6973
▁infrequent	-11.6973
▁infront	-11.6973
▁ingesting	-11.6973
▁ingrained	-11.6973
▁ingredient	-11.6973
▁inherit	-11.6973
▁inhertitance	-11.6973
▁inhuman	-11.6973
▁initiate	-11.6973
▁initiated	-11.6973
▁initiating	-11.6973
▁initiative	-11.6973
▁injected	-11.6973
▁injured	-11.6973
▁inlove	-11.6973
▁innovative	-11.6973
▁inparticular	-11.6973
▁inpatient	-11.6973
▁inquiring	-11.6973
▁inquiry	-11.6973
▁inquisition	-11.6973
▁insanely	-11.6973
▁insanity	-11.6973
▁insensitive	-11.6973
▁insert	-11.6973
▁insists	-11.6973
▁insomniac	-11.6973
▁inspected	-11.6973
▁inspector	-11.6973
▁inspired	-11.6973
▁inst	-11.6973
▁instability	-11.6973
▁instagrams	-11.6973
▁instinctive	-11.6973
▁instructed	-11.6973
▁instrument	-11.6973
▁insulted	-11.6973
▁insulting	-11.6973
▁insurmountable	-11.6973
▁integrated	-11.6973
▁integrating	-11.6973
▁intelligibly	-11.6973
▁intend	-11.6973
▁interactivity	-11.6973
▁interbound	-11.6973
▁interim	-11.6973
▁internalising	-11.6973
▁internet_culture	-11.6973
▁interpret	-11.6973
▁interpreted	-11.6973
▁interrupted	-11.6973
▁intersect	-11.6973
▁intervention	-11.6973
▁interviewer	-11.6973
▁interviewing	-11.6973
▁intimacy	-11.6973
▁intimate	-11.6973
▁intolerable	-11.6973
▁intrigued	-11.6973
▁introduce	-11.6973
▁introduced	-11.6973
▁introducing	-11.6973
▁intruding	-11.6973
▁inundated	-11.6973
▁invalid	-11.6973
▁invent	-11.6973
▁inverse	-11.6973
▁invested	-11.6973
▁iq	-11.6973
▁irb	-11.6973
▁irregular	-11.6973
▁irrelevant	-11.6973
▁irretrievably	-11.6973
▁irreversible	-11.6973
▁irrevocably	-11.6973
▁irritate	-11.6973
▁irritates	-11.6973
▁irritating	-11.6973
▁isip	-11.6973
▁isolate	-11.6973
▁isolationism	-11.6973
▁italian	-11.6973
▁ite	-11.6973
▁jackass	-11.6973
▁jacked	-11.6973
▁jacking	-11.6973
▁jail	-11.6973
▁james	-11.6973
▁jammed	-11.6973
▁jan	-11.6973
▁janeiro	-11.6973
▁janet	-11.6973
▁jarring	-11.6973
▁jehovas	-11.6973
▁jelly	-11.6973
▁jeopardised	-11.6973
▁jesus	-11.6973
▁jitter	-11.6973
▁jitteriness	-11.6973
▁jockeying	-11.6973
▁joe	-11.6973
▁jogged	-11.6973
▁joked	-11.6973
▁jokingly	-11.6973
▁journaled	-11.6973
▁joyful	-11.6973
▁joyless	-11.6973
▁julls	-11.6973
▁jumper	-11.6973
▁jungle	-11.6973
▁jusy	-11.6973
▁juvie	-11.6973
▁k	-11.6973
▁kale	-11.6973
▁keen	-11.6973
▁keeo	-11.6973
▁ketamine	-11.6973
▁keyboard	-11.6973
▁keyword	-11.6973
▁kickass	-11.6973
▁kicker	-11.6973
▁kiddos	-11.6973
▁kin	-11.6973
▁kinakain	-11.6973
▁kinder	-11.6973
▁kindergarten	-11.6973
▁kindly	-11.6973
▁kitten	-11.6973
▁klonipin	-11.6973
▁km	-11.6973
▁kneejerk	-11.6973
▁knifing	-11.6973
▁knocking	-11.6973
▁knowingly	-11.6973
▁knowledgeable	-11.6973
▁knowns	-11.6973
▁kpi	-11.6973
▁la	-11.6973
▁labeled	-11.6973
▁labyrinthitis	-11.6973
▁lactose	-11.6973
▁lake	-11.6973
▁lame	-11.6973
▁lamotrigine	-11.6973
▁lancashire	-11.6973
▁landing	-11.6973
▁landmark	-11.6973
▁landscaping	-11.6973
▁lane	-11.6973
▁langage	-11.6973
▁lapse	-11.6973
▁largely	-11.6973
▁latch	-11.6973
▁latching	-11.6973
▁latest	-11.6973
▁lawn	-11.6973
▁laziness	-11.6973
▁leaded	-11.6973
▁leader	-11.6973
▁leaning	-11.6973
▁learner	-11.6973
▁learnt	-11.6973
▁lease	-11.6973
▁leaved	-11.6973
▁ledge	-11.6973
▁leech	-11.6973
▁leeway	-11.6973
▁legally	-11.6973
▁legend	-11.6973
▁legged	-11.6973
▁legging	-11.6973
▁legitimacy	-11.6973
▁legitimate	-11.6973
▁lemme	-11.6973
▁lend	-11.6973
▁lengthy	-11.6973
▁lent	-11.6973
▁lesbian	-11.6973
▁lessen	-11.6973
▁lethal	-11.6973
▁lethargy	-11.6973
▁lettuce	-11.6973
▁leukaemia	-11.6973
▁leveling	-11.6973
▁lewd	-11.6973
▁lexepro	-11.6973
▁lgbtq	-11.6973
▁liar	-11.6973
▁liberal	-11.6973
▁librium	-11.6973
▁licensed	-11.6973
▁licked	-11.6973
▁lieu	-11.6973
▁lifeguard	-11.6973
▁lifeless	-11.6973
▁lifeline	-11.6973
▁lifespan	-11.6973
▁lifting	-11.6973
▁lightest	-11.6973
▁lighthead	-11.6973
▁lightheadedness	-11.6973
▁lightheadness	-11.6973
▁lighting	-11.6973
▁lightning	-11.6973
▁limb	-11.6973
▁limbic	-11.6973
▁limbo	-11.6973
▁limitation	-11.6973
▁lind	-11.6973
▁linger	-11.6973
▁lipstick	-11.6973
▁liquid	-11.6973
▁liquidy	-11.6973
▁lisiniprol	-11.6973
▁listener	-11.6973
▁listlessness	-11.6973
▁lit	-11.6973
▁litany	-11.6973
▁liter	-11.6973
▁litrally	-11.6973
▁litterally	-11.6973
▁littlest	-11.6973
▁lively	-11.6973
▁liver	-11.6973
▁lmaooo	-11.6973
▁loaded	-11.6973
▁locjers	-11.6973
▁locking	-11.6973
▁log	-11.6973
▁logged	-11.6973
▁logo	-11.6973
▁loke	-11.6973
▁london	-11.6973
▁lonelier	-11.6973
▁loneliest	-11.6973
▁lonley	-11.6973
▁lonleyness	-11.6973
▁lonlinees	-11.6973
▁loon	-11.6973
▁loooooong	-11.6973
▁loophole	-11.6973
▁los	-11.6973
▁loses	-11.6973
▁lousy	-11.6973
▁loveless	-11.6973
▁lovelife	-11.6973
▁lover	-11.6973
▁lowe	-11.6973
▁lowering	-11.6973
▁lowkey	-11.6973
▁lowtide	-11.6973
▁loyal	-11.6973
▁lr	-11.6973
▁lug	-11.6973
▁lumbar	-11.6973
▁lunatic	-11.6973
▁lund	-11.6973
▁lunesta	-11.6973
▁ly	-11.6973
▁lymph	-11.6973
▁lyrica	-11.6973
▁maddening	-11.6973
▁madman	-11.6973
▁magazine	-11.6973
▁magically	-11.6973
▁magnetic	-11.6973
▁magnificent	-11.6973
▁mainstream	-11.6973
▁maintenance	-11.6973
▁majorly	-11.6973
▁maked	-11.6973
▁maker	-11.6973
▁makeup	-11.6973
▁malfunction	-11.6973
▁malintent	-11.6973
▁malnourished	-11.6973
▁malnourishing	-11.6973
▁mama	-11.6973
▁manages	-11.6973
▁manbaby	-11.6973
▁manchester	-11.6973
▁mania	-11.6973
▁manipulate	-11.6973
▁manipulated	-11.6973
▁manipulation	-11.6973
▁manually	-11.6973
▁manufacture	-11.6973
▁manufacturing	-11.6973
▁mapansin	-11.6973
▁mapping	-11.6973
▁marijn	-11.6973
▁marked	-11.6973
▁marvelous	-11.6973
▁mary	-11.6973
▁mason	-11.6973
▁mass	-11.6973
▁mastered	-11.6973
▁mastery	-11.6973
▁masturbate	-11.6973
▁masturbated	-11.6973
▁masturbation	-11.6973
▁materialize	-11.6973
▁mature	-11.6973
▁maxer	-11.6973
▁maybey	-11.6973
▁mayo	-11.6973
▁mcdonagh	-11.6973
▁md	-11.6973
▁mdma	-11.6973
▁meamwhile	-11.6973
▁meanest	-11.6973
▁meaningfulness	-11.6973
▁mechanic	-11.6973
▁mediate	-11.6973
▁mediating	-11.6973
▁mediation	-11.6973
▁mediator	-11.6973
▁medicaid	-11.6973
▁medicament	-11.6973
▁medicate	-11.6973
▁meditating	-11.6973
▁mega	-11.6973
▁melbourne	-11.6973
▁melt	-11.6973
▁melted	-11.6973
▁melty	-11.6973
▁memo	-11.6973
▁memorable	-11.6973
▁menial	-11.6973
▁menstrual	-11.6973
▁mentor	-11.6973
▁menu	-11.6973
▁mercari	-11.6973
▁merciless	-11.6973
▁merger	-11.6973
▁merit	-11.6973
▁meshed	-11.6973
▁messin	-11.6973
▁messurd	-11.6973
▁metacognition	-11.6973
▁metallic	-11.6973
▁metally	-11.6973
▁meter	-11.6973
▁mexican	-11.6973
▁mgr	-11.6973
▁mhm	-11.6973
▁mi	-11.6973
▁mickey	-11.6973
▁micro	-11.6973
▁microbiology	-11.6973
▁microwave	-11.6973
▁middel	-11.6973
▁midodrine	-11.6973
▁midway	-11.6973
▁midwest	-11.6973
▁mighty	-11.6973
▁milder	-11.6973
▁milestone	-11.6973
▁milk	-11.6973
▁mill	-11.6973
▁millionth	-11.6973
▁mimicking	-11.6973
▁minded	-11.6973
▁minding	-11.6973
▁mindwork	-11.6973
▁miniscule	-11.6973
▁minority	-11.6973
▁mire	-11.6973
▁misar	-11.6973
▁miscarriage	-11.6973
▁misdiagnose	-11.6973
▁misfiring	-11.6973
▁misfortune	-11.6973
▁misheard	-11.6973
▁misinterpreted	-11.6973
▁mislead	-11.6973
▁misleading	-11.6973
▁misplace	-11.6973
▁misread	-11.6973
▁misreading	-11.6973
▁mission	-11.6973
▁misstep	-11.6973
▁mist	-11.6973
▁mistook	-11.6973
▁mistreated	-11.6973
▁mitigates	-11.6973
▁mmm	-11.6973
▁mnghgnmngh	-11.6973
▁moan	-11.6973
▁moaning	-11.6973
▁mob	-11.6973
▁mocking	-11.6973
▁modeling	-11.6973
▁moderate	-11.6973
▁moderation	-11.6973
▁modern	-11.6973
▁modest	-11.6973
▁mogul	-11.6973
▁mojar	-11.6973
▁molasses	-11.6973
▁molecular	-11.6973
▁mome	-11.6973
▁momentary	-11.6973
▁momentum	-11.6973
▁mon	-11.6973
▁mondo	-11.6973
▁monitored	-11.6973
▁monke	-11.6973
▁monotone	-11.6973
▁monotonous	-11.6973
▁monoxide	-11.6973
▁monter	-11.6973
▁monumental	-11.6973
▁moody	-11.6973
▁moping	-11.6973
▁moral	-11.6973
▁morality	-11.6973
▁morally	-11.6973
▁morbid	-11.6973
▁morbidity	-11.6973
▁morbidly	-11.6973
▁morgan	-11.6973
▁moroseness	-11.6973
▁morphine	-11.6973
▁mortgage	-11.6973
▁motel	-11.6973
▁motherly	-11.6973
▁motivates	-11.6973
▁motivating	-11.6973
▁motivational	-11.6973
▁motive	-11.6973
▁motorcycle	-11.6973
▁motto	-11.6973
▁mouldy	-11.6973
▁mourning	-11.6973
▁mouse	-11.6973
▁moutain	-11.6973
▁mowed	-11.6973
▁mra	-11.6973
▁msg	-11.6973
▁mt	-11.6973
▁multitask	-11.6973
▁multitasking	-11.6973
▁mumbling	-11.6973
▁murderous	-11.6973
▁murmur	-11.6973
▁museum	-11.6973
▁musical	-11.6973
▁mustache	-11.6973
▁mutism	-11.6973
▁mutual	-11.6973
▁myriad	-11.6973
▁mysekf	-11.6973
▁mysterious	-11.6973
▁myth	-11.6973
▁n0y1us	-11.6973
▁nagging	-11.6973
▁nailed	-11.6973
▁naive	-11.6973
▁naively	-11.6973
▁naltraxone	-11.6973
▁named	-11.6973
▁nap	-11.6973
▁naproxen	-11.6973
▁nardil	-11.6973
▁nasa	-11.6973
▁nastier	-11.6973
▁nausous	-11.6973
▁navigate	-11.6973
▁navigated	-11.6973
▁nay	-11.6973
▁nazi	-11.6973
▁nearest	-11.6973
▁neat	-11.6973
▁neatly	-11.6973
▁needlessly	-11.6973
▁neglect	-11.6973
▁neglected	-11.6973
▁neighborly	-11.6973
▁neighbour	-11.6973
▁nelly	-11.6973
▁neo	-11.6973
▁nephew	-11.6973
▁nerd	-11.6973
▁network	-11.6973
▁networking	-11.6973
▁neural	-11.6973
▁neurodegenerative	-11.6973
▁neurofeedback	-11.6973
▁neurology	-11.6973
▁neuronal	-11.6973
▁neuronally	-11.6973
▁neuropsychological	-11.6973
▁neurotypic	-11.6973
▁neurpsychologist	-11.6973
▁neutral	-11.6973
▁neutrality	-11.6973
▁newbie	-11.6973
▁nf	-11.6973
▁ng	-11.6973
▁ngl	-11.6973
▁nh	-11.6973
▁nicer	-11.6973
▁nicked	-11.6973
▁nightly	-11.6973
▁nightmarish	-11.6973
▁nightshifts	-11.6973
▁nightstand	-11.6973
▁nihilistic	-11.6973
▁nitrous	-11.6973
▁nod	-11.6973
▁node	-11.6973
▁noggin	-11.6973
▁noisy	-11.6973
▁nomore	-11.6973
▁nomorepanic	-11.6973
▁nonexistence	-11.6973
▁nonexistent	-11.6973
▁nonjudgmental	-11.6973
▁noone	-11.6973
▁noose	-11.6973
▁nootropics	-11.6973
▁nope	-11.6973
▁noramally	-11.6973
▁normalise	-11.6973
▁normality	-11.6973
▁north	-11.6973
▁notably	-11.6973
▁noted	-11.6973
▁notion	-11.6973
▁nots	-11.6973
▁nourishes	-11.6973
▁novice	-11.6973
▁noving	-11.6973
▁np	-11.6973
▁nsfw	-11.6973
▁nth	-11.6973
▁nugget	-11.6973
▁nuke	-11.6973
▁numbs	-11.6973
▁nurturing	-11.6973
▁nutritional	-11.6973
▁nv	-11.6973
▁nzs	-11.6973
▁obesity	-11.6973
▁objectifying	-11.6973
▁objectivity	-11.6973
▁obligated	-11.6973
▁obligatory	-11.6973
▁obliged	-11.6973
▁obliterated	-11.6973
▁obliteration	-11.6973
▁occupying	-11.6973
▁occurred	-11.6973
▁occurring	-11.6973
▁ocpd	-11.6973
▁offence	-11.6973
▁offend	-11.6973
▁offended	-11.6973
▁offering	-11.6973
▁officer	-11.6973
▁officially	-11.6973
▁offsite	-11.6973
▁ohh	-11.6973
▁ohhh	-11.6973
▁okayish	-11.6973
▁ol	-11.6973
▁om	-11.6973
▁omfg	-11.6973
▁omniprozol	-11.6973
▁oncoming	-11.6973
▁oneself	-11.6973
▁onset	-11.6973
▁ontological	-11.6973
▁onward	-11.6973
▁ooze	-11.6973
▁operates	-11.6973
▁opiate	-11.6973
▁oppressive	-11.6973
▁opted	-11.6973
▁opthalmologist	-11.6973
▁optimal	-11.6973
▁optimisim	-11.6973
▁ordeal	-11.6973
▁ordering	-11.6973
▁ordinary	-11.6973
▁oregon	-11.6973
▁oreo	-11.6973
▁organisation	-11.6973
▁organise	-11.6973
▁organizing	-11.6973
▁orientation	-11.6973
▁oriented	-11.6973
▁orphan	-11.6973
▁orthopedic	-11.6973
▁otr	-11.6973
▁ou	-11.6973
▁ought	-11.6973
▁ourself	-11.6973
▁ourselfs	-11.6973
▁outburst	-11.6973
▁outburts	-11.6973
▁outdated	-11.6973
▁outed	-11.6973
▁outputted	-11.6973
▁outset	-11.6973
▁outsourced	-11.6973
▁outweighs	-11.6973
▁oven	-11.6973
▁overactive	-11.6973
▁overanalyze	-11.6973
▁overanalyzed	-11.6973
▁overarching	-11.6973
▁overbearing	-11.6973
▁overcame	-11.6973
▁overcommitted	-11.6973
▁overcorrected	-11.6973
▁overdoes	-11.6973
▁overdramatise	-11.6973
▁overdrive	-11.6973
▁overeating	-11.6973
▁overestimated	-11.6973
▁overheard	-11.6973
▁overhyped	-11.6973
▁overlapping	-11.6973
▁overloaded	-11.6973
▁overpowering	-11.6973
▁overprescribed	-11.6973
▁overqualified	-11.6973
▁overseas	-11.6973
▁overshadows	-11.6973
▁oversleep	-11.6973
▁overslept	-11.6973
▁overstimulated	-11.6973
▁overtaken	-11.6973
▁overused	-11.6973
▁overvalued	-11.6973
▁overweighs	-11.6973
▁overwelm	-11.6973
▁overwhelm	-11.6973
▁overwhelms	-11.6973
▁overworked	-11.6973
▁ownership	-11.6973
▁owning	-11.6973
▁oxford	-11.6973
▁oxide	-11.6973
▁pad	-11.6973
▁padlock	-11.6973
▁painstakingly	-11.6973
▁painted	-11.6973
▁paired	-11.6973
▁pajama	-11.6973
▁pal	-11.6973
▁palace	-11.6973
▁palpatations	-11.6973
▁pan	-11.6973
▁pancreatic	-11.6973
▁pandemy	-11.6973
▁pander	-11.6973
▁pap	-11.6973
▁para	-11.6973
▁parade	-11.6973
▁paradise	-11.6973
▁paradoxical	-11.6973
▁paraphernalia	-11.6973
▁paraphrase	-11.6973
▁paraphrasing	-11.6973
▁parasympathetic	-11.6973
▁parked	-11.6973
▁parkinson	-11.6973
▁paroxetine	-11.6973
▁parted	-11.6973
▁particals	-11.6973
▁partly	-11.6973
▁partook	-11.6973
▁passably	-11.6973
▁passionale	-11.6973
▁paste	-11.6973
▁pastime	-11.6973
▁patched	-11.6973
▁pathologist	-11.6973
▁patriarchy	-11.6973
▁payed	-11.6973
▁payment	-11.6973
▁paypal	-11.6973
▁pc	-11.6973
▁pcod	-11.6973
▁pcos	-11.6973
▁pd	-11.6973
▁peaked	-11.6973
▁peanut	-11.6973
▁pedophile	-11.6973
▁peering	-11.6973
▁peeve	-11.6973
▁peg	-11.6973
▁peice	-11.6973
▁pen	-11.6973
▁pencil	-11.6973
▁pensacola	-11.6973
▁pep	-11.6973
▁pepper	-11.6973
▁perceives	-11.6973
▁perceptual	-11.6973
▁permanently	-11.6973
▁permeating	-11.6973
▁permision	-11.6973
▁permission	-11.6973
▁permit	-11.6973
▁perse	-11.6973
▁persists	-11.6973
▁perspire	-11.6973
▁pervasive	-11.6973
▁pessimistic	-11.6973
▁pestered	-11.6973
▁peticularily	-11.6973
▁petition	-11.6973
▁petrifies	-11.6973
▁petted	-11.6973
▁pf	-11.6973
▁pg	-11.6973
▁phantasmagoric	-11.6973
▁phantom	-11.6973
▁phew	-11.6973
▁philosopher	-11.6973
▁philosophical	-11.6973
▁phlegm	-11.6973
▁phoniness	-11.6973
▁photographer	-11.6973
▁photography	-11.6973
▁php	-11.6973
▁phrasing	-11.6973
▁phycologists	-11.6973
▁physic	-11.6973
▁physician	-11.6973
▁piano	-11.6973
▁pic	-11.6973
▁pieced	-11.6973
▁piecing	-11.6973
▁pigeonholed	-11.6973
▁piggybacking	-11.6973
▁piglet	-11.6973
▁pin	-11.6973
▁pinch	-11.6973
▁ping	-11.6973
▁pinkish	-11.6973
▁pinned	-11.6973
▁pinpoint	-11.6973
▁pinterest	-11.6973
▁pitched	-11.6973
▁pitfall	-11.6973
▁pixie	-11.6973
▁placate	-11.6973
▁plalstic	-11.6973
▁plank	-11.6973
▁plannin	-11.6973
▁plausible	-11.6973
▁player	-11.6973
▁plaything	-11.6973
▁pleads	-11.6973
▁pleaser	-11.6973
▁plotting	-11.6973
▁plywood	-11.6973
▁pnemonia	-11.6973
▁pneumonia	-11.6973
▁podcast	-11.6973
▁podcaster	-11.6973
▁poetic	-11.6973
▁pointed	-11.6973
▁pointer	-11.6973
▁poke	-11.6973
▁polar	-11.6973
▁politics	-11.6973
▁poll	-11.6973
▁pollen	-11.6973
▁pond	-11.6973
▁poo	-11.6973
▁poochy	-11.6973
▁pool	-11.6973
▁popcorn	-11.6973
▁popsicle	-11.6973
▁populated	-11.6973
▁porcelain	-11.6973
▁porch	-11.6973
▁portrait	-11.6973
▁portrayed	-11.6973
▁posh	-11.6973
▁positivity	-11.6973
▁possession	-11.6973
▁possessive	-11.6973
▁poster	-11.6973
▁postpartum	-11.6973
▁postural	-11.6973
▁potato	-11.6973
▁potatoe	-11.6973
▁potency	-11.6973
▁potent	-11.6973
▁potion	-11.6973
▁potter	-11.6973
▁pouch	-11.6973
▁poured	-11.6973
▁pouring	-11.6973
▁pov	-11.6973
▁powder	-11.6973
▁powering	-11.6973
▁ppls	-11.6973
▁practitioner	-11.6973
▁prayer	-11.6973
▁precaution	-11.6973
▁precieve	-11.6973
▁precious	-11.6973
▁precise	-11.6973
▁precisely	-11.6973
▁precursor	-11.6973
▁predicament	-11.6973
▁preety	-11.6973
▁preferable	-11.6973
▁preferred	-11.6973
▁pregabalin	-11.6973
▁prematurely	-11.6973
▁premier	-11.6973
▁prentedn	-11.6973
▁prentenious	-11.6973
▁prepares	-11.6973
▁preposterously	-11.6973
▁prerequisite	-11.6973
▁presaging	-11.6973
▁prescribes	-11.6973
▁presently	-11.6973
▁press	-11.6973
▁pressing	-11.6973
▁presssure	-11.6973
▁pressured	-11.6973
▁presumably	-11.6973
▁presumed	-11.6973
▁pretended	-11.6973
▁pretense	-11.6973
▁pretentious	-11.6973
▁prettiest	-11.6973
▁preventable	-11.6973
▁prevented	-11.6973
▁prevention	-11.6973
▁prework	-11.6973
▁priceless	-11.6973
▁pricier	-11.6973
▁prickly	-11.6973
▁primed	-11.6973
▁priming	-11.6973
▁primitive	-11.6973
▁prince	-11.6973
▁principal	-11.6973
▁prioritise	-11.6973
▁prioritize	-11.6973
▁prism	-11.6973
▁pristq	-11.6973
▁privacy	-11.6973
▁priveleged	-11.6973
▁privilaged	-11.6973
▁prn	-11.6973
▁proactive	-11.6973
▁probability	-11.6973
▁probaply	-11.6973
▁probation	-11.6973
▁proceded	-11.6973
▁proceeds	-11.6973
▁processed	-11.6973
▁procreating	-11.6973
▁productively	-11.6973
▁proffessional	-11.6973
▁profiting	-11.6973
▁profusely	-11.6973
▁prognosis	-11.6973
▁programmed	-11.6973
▁programmer	-11.6973
▁programming	-11.6973
▁progressed	-11.6973
▁progressing	-11.6973
▁projection	-11.6973
▁promote	-11.6973
▁promoted	-11.6973
▁promotes	-11.6973
▁promotion	-11.6973
▁prompt	-11.6973
▁promptly	-11.6973
▁proof	-11.6973
▁proofreading	-11.6973
▁propelling	-11.6973
▁prophecy	-11.6973
▁proposed	-11.6973
▁prosperity	-11.6973
▁protected	-11.6973
▁protein	-11.6973
▁proudest	-11.6973
▁proudly	-11.6973
▁proved	-11.6973
▁proven	-11.6973
▁provera	-11.6973
▁provider	-11.6973
▁psy	-11.6973
▁psyanin	-11.6973
▁psychanalist	-11.6973
▁psychatric	-11.6973
▁psychiatrictimes	-11.6973
▁psycho	-11.6973
▁psychoanalyst	-11.6973
▁psychogenic	-11.6973
▁psychopharmaca	-11.6973
▁psychotropic	-11.6973
▁puberty	-11.6973
▁pubes	-11.6973
▁publicly	-11.6973
▁published	-11.6973
▁publishing	-11.6973
▁puff	-11.6973
▁puking	-11.6973
▁pulmonologists	-11.6973
▁pulsating	-11.6973
▁pulsing	-11.6973
▁punctual	-11.6973
▁punctuation	-11.6973
▁puncture	-11.6973
▁punished	-11.6973
▁punishes	-11.6973
▁pupil	-11.6973
▁purchased	-11.6973
▁purge	-11.6973
▁purist	-11.6973
▁purposeful	-11.6973
▁purposeless	-11.6973
▁purposely	-11.6973
▁pursing	-11.6973
▁pwease	-11.6973
▁qualifies	-11.6973
▁qualify	-11.6973
▁quantify	-11.6973
▁quantity	-11.6973
▁quasimodo	-11.6973
▁queen	-11.6973
▁quentin	-11.6973
▁quest	-11.6973
▁questionnaire	-11.6973
▁quetamine	-11.6973
▁quicker	-11.6973
▁quicly	-11.6973
▁quieted	-11.6973
▁quinoa	-11.6973
▁quits	-11.6973
▁quitter	-11.6973
▁quora	-11.6973
▁quotation	-11.6973
▁rabid	-11.6973
▁racist	-11.6973
▁radar	-11.6973
▁radiate	-11.6973
▁radiating	-11.6973
▁radius	-11.6973
▁rail	-11.6973
▁railing	-11.6973
▁rainbow	-11.6973
▁raining	-11.6973
▁rainy	-11.6973
▁ramsey	-11.6973
▁ranged	-11.6973
▁ranger	-11.6973
▁ranking	-11.6973
▁ranty	-11.6973
▁rap	-11.6973
▁rape	-11.6973
▁rapist	-11.6973
▁rapport	-11.6973
▁rapunzled	-11.6973
▁rarer	-11.6973
▁ration	-11.6973
▁rationality	-11.6973
▁rationalizing	-11.6973
▁ravaging	-11.6973
▁raving	-11.6973
▁raynaud	-11.6973
▁razor	-11.6973
▁rdation	-11.6973
▁reader	-11.6973
▁realizes	-11.6973
▁realm	-11.6973
▁rear	-11.6973
▁rearing	-11.6973
▁reassess	-11.6973
▁reate	-11.6973
▁reawakens	-11.6973
▁reborn	-11.6973
▁rebounded	-11.6973
▁rebranded	-11.6973
▁rebutted	-11.6973
▁recalling	-11.6973
▁recap	-11.6973
▁receipt	-11.6973
▁receptive	-11.6973
▁recieve	-11.6973
▁recipe	-11.6973
▁reciprocated	-11.6973
▁reciting	-11.6973
▁recive	-11.6973
▁reckless	-11.6973
▁recluse	-11.6973
▁recognised	-11.6973
▁recognized	-11.6973
▁recoil	-11.6973
▁reconcile	-11.6973
▁reconnect	-11.6973
▁reconsider	-11.6973
▁recorded	-11.6973
▁recovers	-11.6973
▁recreate	-11.6973
▁recreationally	-11.6973
▁recruiting	-11.6973
▁redeemable	-11.6973
▁redeemed	-11.6973
▁redemption	-11.6973
▁redirect	-11.6973
▁reduces	-11.6973
▁reduction	-11.6973
▁reek	-11.6973
▁referring	-11.6973
▁reflected	-11.6973
▁reflection	-11.6973
▁reflex	-11.6973
▁reframing	-11.6973
▁refreshing	-11.6973
▁refusing	-11.6973
▁regarded	-11.6973
▁regenerates	-11.6973
▁registrar	-11.6973
▁registration	-11.6973
▁regressing	-11.6973
▁regretted	-11.6973
▁reground	-11.6973
▁regularity	-11.6973
▁regulating	-11.6973
▁rehab	-11.6973
▁reherniated	-11.6973
▁reherniation	-11.6973
▁reincarnation	-11.6973
▁reiterate	-11.6973
▁reject	-11.6973
▁rejoined	-11.6973
▁rejuvenate	-11.6973
▁relatable	-11.6973
▁relates	-11.6973
▁relaxes	-11.6973
▁relearning	-11.6973
▁relentless	-11.6973
▁relevant	-11.6973
▁relocate	-11.6973
▁reluctant	-11.6973
▁relying	-11.6973
▁remained	-11.6973
▁remains	-11.6973
▁remarried	-11.6973
▁remeber	-11.6973
▁remedial	-11.6973
▁reminding	-11.6973
▁reminisce	-11.6973
▁reminiscing	-11.6973
▁remnant	-11.6973
▁removal	-11.6973
▁rendered	-11.6973
▁rene	-11.6973
▁renewed	-11.6973
▁renovation	-11.6973
▁rental	-11.6973
▁reoccurring	-11.6973
▁repaired	-11.6973
▁repercussion	-11.6973
▁repetitive	-11.6973
▁repetitively	-11.6973
▁rephrase	-11.6973
▁replacement	-11.6973
▁replacing	-11.6973
▁repost	-11.6973
▁represent	-11.6973
▁repression	-11.6973
▁reproduction	-11.6973
▁repulsive	-11.6973
▁reputation	-11.6973
▁requisite	-11.6973
▁researcher	-11.6973
▁researching	-11.6973
▁resembled	-11.6973
▁resentful	-11.6973
▁reserve	-11.6973
▁reserved	-11.6973
▁resigned	-11.6973
▁resistance	-11.6973
▁resolve	-11.6973
▁resolved	-11.6973
▁resonate	-11.6973
▁respectable	-11.6973
▁respekt	-11.6973
▁respiratory	-11.6973
▁respite	-11.6973
▁responds	-11.6973
▁responsive	-11.6973
▁restaraunts	-11.6973
▁restored	-11.6973
▁restoril	-11.6973
▁restraint	-11.6973
▁restricted	-11.6973
▁restrictive	-11.6973
▁resubmitt	-11.6973
▁resurfacing	-11.6973
▁ret	-11.6973
▁retain	-11.6973
▁retained	-11.6973
▁retaining	-11.6973
▁retake	-11.6973
▁retaking	-11.6973
▁retard	-11.6973
▁rethink	-11.6973
▁rethinking	-11.6973
▁retrained	-11.6973
▁retreated	-11.6973
▁reunion	-11.6973
▁reunite	-11.6973
▁reunited	-11.6973
▁revealed	-11.6973
▁revered	-11.6973
▁reversed	-11.6973
▁reversible	-11.6973
▁reviewing	-11.6973
▁reviles	-11.6973
▁revolt	-11.6973
▁rewind	-11.6973
▁rework	-11.6973
▁ribbon	-11.6973
▁ridden	-11.6973
▁righthand	-11.6973
▁rigid	-11.6973
▁ringer	-11.6973
▁ringtone	-11.6973
▁rinse	-11.6973
▁rio	-11.6973
▁risen	-11.6973
▁risking	-11.6973
▁ritalin	-11.6973
▁rlly	-11.6973
▁rly	-11.6973
▁rm	-11.6973
▁roamed	-11.6973
▁roaming	-11.6973
▁robbin	-11.6973
▁robbing	-11.6973
▁robotic	-11.6973
▁robs	-11.6973
▁robust	-11.6973
▁rocd	-11.6973
▁rocket	-11.6973
▁rocketing	-11.6973
▁rodeo	-11.6973
▁rogaine	-11.6973
▁roleplay	-11.6973
▁roller	-11.6973
▁rollercoaster	-11.6973
▁romanticizes	-11.6973
▁roofied	-11.6973
▁roofing	-11.6973
▁roomie	-11.6973
▁rooting	-11.6973
▁roughest	-11.6973
▁roughly	-11.6973
▁royally	-11.6973
▁rubbing	-11.6973
▁rue	-11.6973
▁ruler	-11.6973
▁ruling	-11.6973
▁ruminate	-11.6973
▁rumination	-11.6973
▁rumour	-11.6973
▁runaway	-11.6973
▁runner	-11.6973
▁runt	-11.6973
▁rushed	-11.6973
▁rustled	-11.6973
▁rusty	-11.6973
▁ruthless	-11.6973
▁rutine	-11.6973
▁ruyle	-11.6973
▁rythm	-11.6973
▁sa	-11.6973
▁sacrifice	-11.6973
▁sacrificed	-11.6973
▁saga	-11.6973
▁saint	-11.6973
▁sang	-11.6973
▁sank	-11.6973
▁sap	-11.6973
▁satan	-11.6973
▁satisfied	-11.6973
▁satisfying	-11.6973
▁savescumming	-11.6973
▁sayin	-11.6973
▁scaly	-11.6973
▁scammed	-11.6973
▁scandal	-11.6973
▁scaping	-11.6973
▁scarier	-11.6973
▁scarred	-11.6973
▁scatterbrained	-11.6973
▁scheming	-11.6973
▁schiz	-11.6973
▁schizo	-11.6973
▁scholar	-11.6973
▁schooler	-11.6973
▁schooling	-11.6973
▁sci	-11.6973
▁sciatica	-11.6973
▁scientist	-11.6973
▁scissors	-11.6973
▁scoff	-11.6973
▁scolarships	-11.6973
▁scold	-11.6973
▁scolded	-11.6973
▁scolding	-11.6973
▁scouring	-11.6973
▁scramble	-11.6973
▁scrap	-11.6973
▁scraped	-11.6973
▁scratched	-11.6973
▁screening	-11.6973
▁scrolled	-11.6973
▁scrub	-11.6973
▁scrutinize	-11.6973
▁sea	-11.6973
▁secluding	-11.6973
▁seconding	-11.6973
▁secretly	-11.6973
▁securely	-11.6973
▁seed	-11.6973
▁seeked	-11.6973
▁seeming	-11.6973
▁segz	-11.6973
▁seize	-11.6973
▁selection	-11.6973
▁selective	-11.6973
▁selfie	-11.6973
▁selfriges	-11.6973
▁semantic	-11.6973
▁semen	-11.6973
▁seminar	-11.6973
▁sensibility	-11.6973
▁sentiment	-11.6973
▁separately	-11.6973
▁separating	-11.6973
▁sequence	-11.6973
▁seratonergic	-11.6973
▁seratonin	-11.6973
▁serf	-11.6973
▁serial	-11.6973
▁seriousness	-11.6973
▁serodeps	-11.6973
▁serqouil	-11.6973
▁sertralin	-11.6973
▁serum	-11.6973
▁served	-11.6973
▁servely	-11.6973
▁seventy	-11.6973
▁severance	-11.6973
▁severed	-11.6973
▁severity	-11.6973
▁shabby	-11.6973
▁shaken	-11.6973
▁shakiness	-11.6973
▁shall	-11.6973
▁shaman	-11.6973
▁shamble	-11.6973
▁shattering	-11.6973
▁shawshank	-11.6973
▁shed	-11.6973
▁sheeesh	-11.6973
▁sheep	-11.6973
▁sheer	-11.6973
▁shelf	-11.6973
▁sheltered	-11.6973
▁shepherd	-11.6973
▁shield	-11.6973
▁shiftrunner	-11.6973
▁shiftwork	-11.6973
▁shimmering	-11.6973
▁shiny	-11.6973
▁shipping	-11.6973
▁shitbags	-11.6973
▁shite	-11.6973
▁shitfaced	-11.6973
▁shitpost	-11.6973
▁shitshow	-11.6973
▁shittttt	-11.6973
▁shiver	-11.6973
▁shlock	-11.6973
▁shoddy	-11.6973
▁shoe	-11.6973
▁shoeing	-11.6973
▁shoplifting	-11.6973
▁shortage	-11.6973
▁shortcoming	-11.6973
▁shorter	-11.6973
▁shouting	-11.6973
▁shove	-11.6973
▁shoved	-11.6973
▁showthread	-11.6973
▁shrouding	-11.6973
▁shrug	-11.6973
▁shrugging	-11.6973
▁shutdown	-11.6973
▁shuteye	-11.6973
▁si	-11.6973
▁sidebar	-11.6973
▁sided	-11.6973
▁sideeffects	-11.6973
▁sideline	-11.6973
▁sidestep	-11.6973
▁sighed	-11.6973
▁sightline	-11.6973
▁signalling	-11.6973
▁silently	-11.6973
▁silver	-11.6973
▁sim	-11.6973
▁simpler	-11.6973
▁simplistic	-11.6973
▁simplistically	-11.6973
▁simultaneous	-11.6973
▁simultaneously	-11.6973
▁sin	-11.6973
▁sings	-11.6973
▁sisyphus	-11.6973
▁sitrust	-11.6973
▁sitter	-11.6973
▁skate	-11.6973
▁skeptical	-11.6973
▁sketch	-11.6973
▁skipper	-11.6973
▁skirt	-11.6973
▁skulll	-11.6973
▁skyline	-11.6973
▁skype	-11.6973
▁skyrocketed	-11.6973
▁slab	-11.6973
▁slacked	-11.6973
▁slackening	-11.6973
▁slam	-11.6973
▁slamming	-11.6973
▁slapping	-11.6973
▁slash	-11.6973
▁sleeo	-11.6973
▁sleeplessness	-11.6973
▁slice	-11.6973
▁slim	-11.6973
▁slob	-11.6973
▁slot	-11.6973
▁slowed	-11.6973
▁slows	-11.6973
▁slut	-11.6973
▁sm	-11.6973
▁smack	-11.6973
▁smear	-11.6973
▁smelling	-11.6973
▁smh	-11.6973
▁smiley	-11.6973
▁smith	-11.6973
▁smoker	-11.6973
▁smokin	-11.6973
▁smooth	-11.6973
▁smth	-11.6973
▁smug	-11.6973
▁snapchat	-11.6973
▁snapping	-11.6973
▁snatched	-11.6973
▁sneezed	-11.6973
▁sneezing	-11.6973
▁snide	-11.6973
▁snip	-11.6973
▁snitch	-11.6973
▁snl	-11.6973
▁snor	-11.6973
▁snow_selmon	-11.6973
▁snowballing	-11.6973
▁snowing	-11.6973
▁snri	-11.6973
▁snuffed	-11.6973
▁sobbed	-11.6973
▁sociability	-11.6973
▁socialanxiety	-11.6973
▁socialization	-11.6973
▁societal	-11.6973
▁sociopathic	-11.6973
▁socket	-11.6973
▁sodium	-11.6973
▁sofa	-11.6973
▁soil	-11.6973
▁solace	-11.6973
▁sole	-11.6973
▁solidarity	-11.6973
▁solidity	-11.6973
▁solo	-11.6973
▁solver	-11.6973
▁solves	-11.6973
▁somatic	-11.6973
▁somedays	-11.6973
▁somrthing	-11.6973
▁somthing	-11.6973
▁somtimes	-11.6973
▁somwhat	-11.6973
▁soonest	-11.6973
▁sooo	-11.6973
▁sophomore	-11.6973
▁soreness	-11.6973
▁sorted	-11.6973
▁sorting	-11.6973
▁spa	-11.6973
▁spamming	-11.6973
▁spanish	-11.6973
▁spared	-11.6973
▁spawn	-11.6973
▁spawned	-11.6973
▁speaks	-11.6973
▁specialization	-11.6973
▁speck	-11.6973
▁spectator	-11.6973
▁speeding	-11.6973
▁spelled	-11.6973
▁spelling	-11.6973
▁spelt	-11.6973
▁spended	-11.6973
▁spends	-11.6973
▁sperm	-11.6973
▁spews	-11.6973
▁spider	-11.6973
▁spineless	-11.6973
▁spiraled	-11.6973
▁spiralled	-11.6973
▁spit	-11.6973
▁spoiler	-11.6973
▁spoilt	-11.6973
▁sponge	-11.6973
▁spooked	-11.6973
▁spotting	-11.6973
▁spreading	-11.6973
▁spree	-11.6973
▁sprinkler	-11.6973
▁spying	-11.6973
▁squad	-11.6973
▁squared	-11.6973
▁squirming	-11.6973
▁squished	-11.6973
▁srry	-11.6973
▁sry	-11.6973
▁stabber	-11.6973
▁stabilised	-11.6973
▁stabilized	-11.6973
▁stabilizing	-11.6973
▁stagnate	-11.6973
▁stair	-11.6973
▁stake	-11.6973
▁stale	-11.6973
▁stalker	-11.6973
▁stalking	-11.6973
▁stamen	-11.6973
▁stammer	-11.6973
▁stammering	-11.6973
▁stance	-11.6973
▁standalone	-11.6973
▁standby	-11.6973
▁standpoint	-11.6973
▁stardom	-11.6973
▁starter	-11.6973
▁startling	-11.6973
▁starved	-11.6973
▁starving	-11.6973
▁statistic	-11.6973
▁std	-11.6973
▁steal	-11.6973
▁stealing	-11.6973
▁steam	-11.6973
▁steep	-11.6973
▁stellar	-11.6973
▁stepped	-11.6973
▁stereo	-11.6973
▁sternum	-11.6973
▁stethoscope	-11.6973
▁stfu	-11.6973
▁sticky	-11.6973
▁stiffness	-11.6973
▁stigma	-11.6973
▁sting	-11.6973
▁stipend	-11.6973
▁stir	-11.6973
▁stole	-11.6973
▁stomped	-11.6973
▁stoned	-11.6973
▁stoner	-11.6973
▁stopp	-11.6973
▁storming	-11.6973
▁straddled	-11.6973
▁strain	-11.6973
▁strained	-11.6973
▁strand	-11.6973
▁stranded	-11.6973
▁strangely	-11.6973
▁strap	-11.6973
▁strapped	-11.6973
▁strawberry	-11.6973
▁streaming	-11.6973
▁streesd	-11.6973
▁streetlight	-11.6973
▁strenght	-11.6973
▁strengthens	-11.6973
▁stressor	-11.6973
▁stretching	-11.6973
▁strewn	-11.6973
▁strictly	-11.6973
▁striker	-11.6973
▁stringy	-11.6973
▁stripping	-11.6973
▁strive	-11.6973
▁striving	-11.6973
▁strolling	-11.6973
▁strongest	-11.6973
▁stubborness	-11.6973
▁studio	-11.6973
▁stufd	-11.6973
▁stuffed	-11.6973
▁stuffy	-11.6973
▁stumble	-11.6973
▁stumbling	-11.6973
▁stunted	-11.6973
▁stupider	-11.6973
▁stupidest	-11.6973
▁stupidly	-11.6973
▁stuttered	-11.6973
▁styling	-11.6973
▁su	-11.6973
▁subdue	-11.6973
▁subjective	-11.6973
▁subjectively	-11.6973
▁submit	-11.6973
▁subreddits	-11.6973
▁subscribe	-11.6973
▁subtle	-11.6973
▁subtly	-11.6973
▁suburb	-11.6973
▁subway	-11.6973
▁subwoofer	-11.6973
▁succeeded	-11.6973
▁succeeding	-11.6973
▁succesful	-11.6973
▁succumbing	-11.6973
▁suceeded	-11.6973
▁sucide	-11.6973
▁sucky	-11.6973
▁sue	-11.6973
▁sued	-11.6973
▁sufder	-11.6973
▁suffocate	-11.6973
▁suffocated	-11.6973
▁suffocates	-11.6973
▁suggery	-11.6973
▁suggerys	-11.6973
▁suicidality	-11.6973
▁sulfuric	-11.6973
▁sulpiride	-11.6973
▁summarized	-11.6973
▁summary	-11.6973
▁summertime	-11.6973
▁summons	-11.6973
▁sunglass	-11.6973
▁sunk	-11.6973
▁sunken	-11.6973
▁sunny	-11.6973
▁sunod	-11.6973
▁sunset	-11.6973
▁sunshine	-11.6973
▁superficial	-11.6973
▁supporting	-11.6973
▁supportively	-11.6973
▁suppressing	-11.6973
▁surf	-11.6973
▁surficial	-11.6973
▁surge	-11.6973
▁surgieries	-11.6973
▁surname	-11.6973
▁surpassing	-11.6973
▁surprising	-11.6973
▁surreal	-11.6973
▁surrender	-11.6973
▁surround	-11.6973
▁susceptible	-11.6973
▁suspect	-11.6973
▁suspected	-11.6973
▁suspension	-11.6973
▁suspicion	-11.6973
▁swam	-11.6973
▁sway	-11.6973
▁sweared	-11.6973
▁swept	-11.6973
▁swirl	-11.6973
▁swirlies	-11.6973
▁swirling	-11.6973
▁sword	-11.6973
▁swung	-11.6973
▁symotoms	-11.6973
▁sympathize	-11.6973
▁symptos	-11.6973
▁syrian	-11.6973
▁syringe	-11.6973
▁t1	-11.6973
▁taboo	-11.6973
▁tactfully	-11.6973
▁tactic	-11.6973
▁taiwan	-11.6973
▁taked	-11.6973
▁takeout	-11.6973
▁tale	-11.6973
▁talented	-11.6973
▁talentless	-11.6973
▁talikg	-11.6973
▁talkativeness	-11.6973
▁tap	-11.6973
▁tape	-11.6973
▁tapered	-11.6973
▁taping	-11.6973
▁tarantino	-11.6973
▁targeted	-11.6973
▁tasting	-11.6973
▁tat	-11.6973
▁taunted	-11.6973
▁taunting	-11.6973
▁tca	-11.6973
▁td	-11.6973
▁teaching	-11.6973
▁teard	-11.6973
▁teariness	-11.6973
▁teary	-11.6973
▁teased	-11.6973
▁teasing	-11.6973
▁technically	-11.6973
▁telehealth	-11.6973
▁teleworking	-11.6973
▁temazepam	-11.6973
▁temesta	-11.6973
▁tempered	-11.6973
▁temple	-11.6973
▁tendances	-11.6973
▁tendon	-11.6973
▁tennis	-11.6973
▁tensing	-11.6973
▁tensity	-11.6973
▁tenured	-11.6973
▁terapist	-11.6973
▁terrain	-11.6973
▁terrific	-11.6973
▁terrifyingly	-11.6973
▁testify	-11.6973
▁tetanus	-11.6973
▁tethered	-11.6973
▁tge	-11.6973
▁tha	-11.6973
▁thanked	-11.6973
▁thankful	-11.6973
▁thanksgiving	-11.6973
▁thati	-11.6973
▁thd	-11.6973
▁theater	-11.6973
▁theet	-11.6973
▁theirkids	-11.6973
▁themself	-11.6973
▁therapeutic	-11.6973
▁thers	-11.6973
▁thesis	-11.6973
▁thief	-11.6973
▁thinker	-11.6973
▁thinner	-11.6973
▁thinning	-11.6973
▁thirsty	-11.6973
▁thomas	-11.6973
▁thorough	-11.6973
▁thoroughly	-11.6973
▁thoughtfulness	-11.6973
▁threaten	-11.6973
▁threatining	-11.6973
▁threatment	-11.6973
▁thrifting	-11.6973
▁thrill	-11.6973
▁throb	-11.6973
▁thrombosis	-11.6973
▁thruth	-11.6973
▁thumb	-11.6973
▁thunderstorm	-11.6973
▁tick	-11.6973
▁ticked	-11.6973
▁ticking	-11.6973
▁tidy	-11.6973
▁tidying	-11.6973
▁tiffany	-11.6973
▁tighten	-11.6973
▁tightening	-11.6973
▁tighter	-11.6973
▁tik	-11.6973
▁timely	-11.6973
▁timetable	-11.6973
▁timing	-11.6973
▁tincture	-11.6973
▁tingle	-11.6973
▁tiniest	-11.6973
▁tinnitus	-11.6973
▁tinted	-11.6973
▁tm	-11.6973
▁tmi	-11.6973
▁toaster	-11.6973
▁toks	-11.6973
▁tolerable	-11.6973
▁tolerated	-11.6973
▁tolstoy	-11.6973
▁tommorow	-11.6973
▁tonsil	-11.6973
▁tonus	-11.6973
▁topical	-11.6973
▁torchlight	-11.6973
▁tore	-11.6973
▁torso	-11.6973
▁tortilla	-11.6973
▁tortured	-11.6973
▁torturer	-11.6973
▁toss	-11.6973
▁tossing	-11.6973
▁totalled	-11.6973
▁toughen	-11.6973
▁tougher	-11.6973
▁towel	-11.6973
▁toy	-11.6973
▁trace	-11.6973
▁tracked	-11.6973
▁traded	-11.6973
▁tragic	-11.6973
▁trainwreck	-11.6973
▁trajectory	-11.6973
▁tranquility	-11.6973
▁trans	-11.6973
▁transcranial_magnetic_stimulation	-11.6973
▁transfer	-11.6973
▁transfered	-11.6973
▁transitioned	-11.6973
▁translated	-11.6973
▁translates	-11.6973
▁translating	-11.6973
▁transparently	-11.6973
▁transport	-11.6973
▁transportation	-11.6973
▁trap	-11.6973
▁trashed	-11.6973
▁trashy	-11.6973
▁traumatising	-11.6973
▁traying	-11.6973
▁trazodone	-11.6973
▁tread	-11.6973
▁tree	-11.6973
▁trek	-11.6973
▁tremble	-11.6973
▁tricky	-11.6973
▁tricyclic	-11.6973
▁trintellix	-11.6973
▁triple	-11.6973
▁tripled	-11.6973
▁trite	-11.6973
▁troath	-11.6973
▁tropic	-11.6973
▁troubled	-11.6973
▁trough	-11.6973
▁trouser	-11.6973
▁trudge	-11.6973
▁trudging	-11.6973
▁truest	-11.6973
▁trully	-11.6973
▁trumatized	-11.6973
▁trusting	-11.6973
▁trustworthy	-11.6973
▁tryna	-11.6973
▁tucking	-11.6973
▁tugged	-11.6973
▁tuition	-11.6973
▁tulsi	-11.6973
▁tuned	-11.6973
▁tunnel	-11.6973
▁turbulence	-11.6973
▁turmoil	-11.6973
▁turtle	-11.6973
▁twain	-11.6973
▁tweaked	-11.6973
▁tweaky	-11.6973
▁twinge	-11.6973
▁twink	-11.6973
▁twitchy	-11.6973
▁uck	-11.6973
▁uhh	-11.6973
▁uhs	-11.6973
▁um	-11.6973
▁ummm	-11.6973
▁ums	-11.6973
▁unassailable	-11.6973
▁unavailable	-11.6973
▁unbeatable	-11.6973
▁unbelievably	-11.6973
▁unbound	-11.6973
▁uncertain	-11.6973
▁uncommon	-11.6973
▁unconcern	-11.6973
▁unconcerned	-11.6973
▁unconditional	-11.6973
▁unconfident	-11.6973
▁uncontrollable	-11.6973
▁uncontrolled	-11.6973
▁und	-11.6973
▁underachievement	-11.6973
▁underaged	-11.6973
▁underestimated	-11.6973
▁underneath	-11.6973
▁understatement	-11.6973
▁underwater	-11.6973
▁undeserving	-11.6973
▁undo	-11.6973
▁unduly	-11.6973
▁uneasy	-11.6973
▁uneducated	-11.6973
▁unexpected	-11.6973
▁unexpectedly	-11.6973
▁unfinished	-11.6973
▁unfit	-11.6973
▁unflattering	-11.6973
▁unforeseen	-11.6973
▁unfulfilled	-11.6973
▁unfunny	-11.6973
▁unimportant	-11.6973
▁uninspiring	-11.6973
▁uninstalling	-11.6973
▁united	-11.6973
▁unity	-11.6973
▁universally	-11.6973
▁uniwersity	-11.6973
▁unjustifiably	-11.6973
▁unkown	-11.6973
▁unleashed	-11.6973
▁unlikely	-11.6973
▁unlocked	-11.6973
▁unlovable	-11.6973
▁unloved	-11.6973
▁unmanageable	-11.6973
▁unmoved	-11.6973
▁unnecessary	-11.6973
▁unnessesary	-11.6973
▁unorganised	-11.6973
▁unpacking	-11.6973
▁unpopular	-11.6973
▁unprepared	-11.6973
▁unproductive	-11.6973
▁unprofessional	-11.6973
▁unrelenting	-11.6973
▁unremarkable	-11.6973
▁unremitting	-11.6973
▁unrolled	-11.6973
▁unromantic	-11.6973
▁unseasoned	-11.6973
▁unshakable	-11.6973
▁unstressed	-11.6973
▁unsuccessful	-11.6973
▁unsweetened	-11.6973
▁untenable	-11.6973
▁untested	-11.6973
▁unto	-11.6973
▁unttill	-11.6973
▁unusual	-11.6973
▁unwillingly	-11.6973
▁unwise	-11.6973
▁unworthiness	-11.6973
▁update	-11.6973
▁updated	-11.6973
▁uphill	-11.6973
▁uplifting	-11.6973
▁upload	-11.6973
▁uploading	-11.6973
▁upped	-11.6973
▁upsetting	-11.6973
▁upstairs	-11.6973
▁upstate	-11.6973
▁upvote	-11.6973
▁upvots	-11.6973
▁ure	-11.6973
▁urgency	-11.6973
▁urine	-11.6973
▁us	-11.6973
▁usa	-11.6973
▁usefull	-11.6973
▁uso	-11.6973
▁usseles	-11.6973
▁utility	-11.6973
▁utm_campaign	-11.6973
▁utm_content	-11.6973
▁utmost	-11.6973
▁uve	-11.6973
▁vaca	-11.6973
▁valdoxan	-11.6973
▁valium	-11.6973
▁vampire	-11.6973
▁vast	-11.6973
▁vastly	-11.6973
▁vegetative	-11.6973
▁veggie	-11.6973
▁vehemently	-11.6973
▁veil	-11.6973
▁vein	-11.6973
▁venmo	-11.6973
▁vented	-11.6973
▁ventilated	-11.6973
▁verdant	-11.6973
▁verify	-11.6973
▁versus	-11.6973
▁vest	-11.6973
▁vestige	-11.6973
▁veteran	-11.6973
▁veterinary	-11.6973
▁victimizing	-11.6973
▁videogame	-11.6973
▁videogaming	-11.6973
▁videographer	-11.6973
▁vigilant	-11.6973
▁vile	-11.6973
▁vintage	-11.6973
▁viola	-11.6973
▁violate	-11.6973
▁violently	-11.6973
▁violin	-11.6973
▁vip	-11.6973
▁virus	-11.6973
▁viscous	-11.6973
▁visual	-11.6973
▁vital	-11.6973
▁vitals	-11.6973
▁vivid	-11.6973
▁vocal	-11.6973
▁vocational	-11.6973
▁voicing	-11.6973
▁volcanic	-11.6973
▁volcano	-11.6973
▁voltage	-11.6973
▁volume	-11.6973
▁voluntarily	-11.6973
▁volunteer	-11.6973
▁volunteered	-11.6973
▁vortioxetine	-11.6973
▁voted	-11.6973
▁vulnerably	-11.6973
▁wageslave	-11.6973
▁wail	-11.6973
▁waisted	-11.6973
▁waiter	-11.6973
▁waitlisted	-11.6973
▁waitstaff	-11.6973
▁wajt	-11.6973
▁wakeful	-11.6973
▁wakeup	-11.6973
▁wallowing	-11.6973
▁wallpaper	-11.6973
▁waltz	-11.6973
▁wandering	-11.6973
▁waned	-11.6973
▁warden	-11.6973
▁wardrobe	-11.6973
▁warmth	-11.6973
▁warrant	-11.6973
▁warranty	-11.6973
▁washed	-11.6973
