▁like	-4.15855
<s>	0
</s>	0
<unk>	0
▁feel	-4.21279
▁wa	-4.21943
▁anxiety	-4.60428
▁get	-4.63663
▁know	-4.6468
▁time	-4.79332
▁want	-4.82335
▁even	-4.90373
▁really	-4.99114
▁life	-5.00202
▁day	-5.03538
▁year	-5.10025
▁thing	-5.10968
▁people	-5.17539
▁think	-5.26293
▁one	-5.26609
▁ha	-5.27403
▁make	-5.30975
▁friend	-5.33316
▁go	-5.36235
▁help	-5.36409
▁would	-5.37815
▁going	-5.40688
▁much	-5.45158
▁something	-5.47665
▁never	-5.49638
▁feeling	-5.52671
▁thought	-5.54956
▁work	-5.57941
▁anyone	-5.63048
▁back	-5.64655
▁anything	-5.68189
▁got	-5.68429
▁still	-5.69153
▁also	-5.69882
▁always	-5.71604
▁job	-5.74627
▁bad	-5.74883
▁could	-5.76173
▁depression	-5.80689
▁take	-5.82333
▁good	-5.82887
▁way	-5.82887
▁getting	-5.84851
▁need	-5.85419
▁someone	-5.85704
▁better	-5.89193
▁every	-5.89787
▁since	-5.90683
▁week	-5.90984
▁month	-5.92502
▁_	-5.93115
▁everything	-5.95607
▁started	-5.95923
▁say	-5.96877
▁school	-5.9784
▁last	-5.98813
▁point	-6.01788
▁lot	-6.028
▁see	-6.028
▁attack	-6.0348
▁try	-6.04855
▁first	-6.12399
▁anxious	-6.12773
▁anymore	-6.12773
▁else	-6.13903
▁person	-6.13903
▁panic	-6.15429
▁hate	-6.16202
▁right	-6.18159
▁tell	-6.18952
▁ever	-6.19752
▁talk	-6.20155
▁family	-6.20964
▁nothing	-6.21372
▁long	-6.21781
▁thinking	-6.21781
▁trying	-6.21781
▁around	-6.23018
▁everyone	-6.23018
▁well	-6.23018
▁hard	-6.25539
▁stop	-6.26394
▁made	-6.26824
▁felt	-6.2769
▁keep	-6.28125
▁come	-6.3123
▁able	-6.32135
▁2	-6.3259
▁away	-6.3259
▁love	-6.33508
▁find	-6.3397
▁im	-6.3397
▁worse	-6.34434
▁new	-6.36787
▁ago	-6.37744
▁start	-6.3871
▁past	-6.39197
▁maybe	-6.39686
▁said	-6.40177
▁alone	-6.41167
▁actually	-6.42671
▁doe	-6.42671
▁went	-6.43686
▁sometimes	-6.44198
▁though	-6.44198
▁told	-6.44712
▁end	-6.45229
▁live	-6.45229
▁parent	-6.45229
▁sleep	-6.45229
▁sure	-6.4627
▁give	-6.47853
▁happy	-6.47853
▁best	-6.48923
▁look	-6.49462
▁night	-6.49462
▁home	-6.50004
▁reason	-6.50004
▁tried	-6.51648
▁care	-6.52202
▁little	-6.52202
▁enough	-6.52759
▁today	-6.52759
▁almost	-6.53319
▁mental	-6.53319
▁hour	-6.53883
▁two	-6.53883
▁problem	-6.54449
▁scared	-6.55019
▁many	-6.55592
▁mind	-6.56748
▁cry	-6.57918
▁therapy	-6.59101
▁without	-6.59101
▁health	-6.60903
▁fucking	-6.62123
▁issue	-6.62738
▁post	-6.62738
▁pain	-6.63357
▁head	-6.65238
▁shit	-6.65238
▁experience	-6.65873
▁done	-6.66512
▁making	-6.66512
▁medication	-6.67155
▁3	-6.67802
▁another	-6.67802
▁body	-6.68454
▁taking	-6.68454
▁wanted	-6.68454
▁heart	-6.6977
▁place	-6.6977
▁pretty	-6.6977
▁depressed	-6.70434
▁hope	-6.70434
▁used	-6.71103
▁doctor	-6.71776
▁wrong	-6.71776
▁let	-6.72454
▁relationship	-6.72454
▁self	-6.72454
▁dont	-6.73137
▁normal	-6.73137
▁social	-6.73137
▁wish	-6.73137
▁guy	-6.75915
▁med	-6.75915
▁advice	-6.7805
▁house	-6.80232
▁living	-6.80232
▁high	-6.82463
▁either	-6.83217
▁please	-6.83978
▁cause	-6.84744
▁tired	-6.85516
▁etc	-6.86295
▁understand	-6.87079
▁whole	-6.87079
▁amp	-6.87869
▁talking	-6.87869
▁left	-6.88666
▁symptom	-6.88666
▁recently	-6.89469
▁working	-6.89469
▁might	-6.90279
▁fear	-6.91096
▁put	-6.91096
▁happened	-6.91919
▁kind	-6.91919
▁die	-6.92748
▁next	-6.93585
▁bed	-6.94429
▁part	-6.9528
▁world	-6.96139
▁already	-6.97004
▁probably	-6.97004
▁literally	-6.97878
▁looking	-6.97878
▁lost	-6.97878
▁sick	-6.97878
▁brain	-6.98759
▁call	-6.98759
▁old	-6.98759
▁bit	-6.99648
▁fine	-6.99648
▁guess	-6.99648
▁situation	-6.99648
▁different	-7.00545
▁4	-7.0145
▁hurt	-7.0145
▁took	-7.0145
▁sad	-7.02363
▁5	-7.03285
▁real	-7.03285
▁college	-7.04215
▁due	-7.04215
▁finally	-7.04215
▁mom	-7.04215
▁constantly	-7.05154
▁seems	-7.05154
▁side	-7.05154
▁sorry	-7.06102
▁stuff	-7.06102
▁yet	-7.06102
▁gonna	-7.08025
▁mean	-7.08025
▁moment	-7.08025
▁leave	-7.09
▁therapist	-7.09
▁couple	-7.09986
▁honestly	-7.09986
▁least	-7.09986
▁saying	-7.09986
▁okay	-7.10981
▁stay	-7.10981
▁u	-7.13001
▁others	-7.15063
▁room	-7.15063
▁second	-7.15063
▁covid	-7.1611
▁matter	-7.1611
▁minute	-7.1611
▁remember	-7.1611
▁class	-7.17168
▁fuck	-7.17168
▁happen	-7.17168
▁completely	-7.18238
▁money	-7.18238
▁afraid	-7.19319
▁change	-7.19319
▁close	-7.19319
▁eat	-7.19319
▁found	-7.19319
▁ask	-7.21517
▁gotten	-7.22634
▁read	-7.22634
▁usually	-7.22634
▁diagnosed	-7.23764
▁seem	-7.23764
▁weird	-7.23764
▁kid	-7.24907
▁break	-7.26063
▁great	-7.26063
▁effect	-7.27233
▁dad	-7.28416
▁idea	-7.28416
▁starting	-7.28416
▁gone	-7.29614
▁question	-7.29614
▁stupid	-7.29614
▁together	-7.29614
▁worst	-7.29614
▁1	-7.30826
▁morning	-7.30826
▁wanna	-7.30826
▁basically	-7.32053
▁control	-7.32053
▁may	-7.32053
▁far	-7.33295
▁needed	-7.33295
▁worried	-7.33295
▁worry	-7.33295
▁face	-7.34553
▁hit	-7.34553
▁kill	-7.34553
▁soon	-7.34553
▁struggling	-7.34553
▁future	-7.35827
▁cant	-7.37117
▁everyday	-7.37117
▁reading	-7.37117
▁sound	-7.37117
▁stress	-7.37117
▁telling	-7.37117
▁asked	-7.38424
▁barely	-7.38424
▁game	-7.38424
▁sense	-7.38424
▁big	-7.39749
▁came	-7.39749
▁girl	-7.39749
▁believe	-7.41091
▁half	-7.41091
▁phone	-7.41091
▁stopped	-7.41091
▁thank	-7.41091
▁deal	-7.42452
▁extremely	-7.42452
▁hand	-7.42452
▁helped	-7.42452
▁idk	-7.42452
▁support	-7.42452
▁currently	-7.43831
▁outside	-7.43831
▁pay	-7.43831
▁10	-7.4523
▁decided	-7.4523
▁full	-7.4523
▁super	-7.4523
▁crazy	-7.46648
▁especially	-7.46648
▁seeing	-7.46648
▁later	-7.48087
▁thanks	-7.48087
▁grade	-7.49547
▁mother	-7.49547
▁become	-7.51028
▁eating	-7.51028
▁energy	-7.51028
▁fact	-7.51028
▁suicidal	-7.51028
▁death	-7.52532
▁disorder	-7.52532
▁gave	-7.52532
▁group	-7.52532
▁hear	-7.52532
▁online	-7.52532
▁x200b	-7.52532
▁chest	-7.54059
▁coming	-7.54059
▁eye	-7.54059
▁happens	-7.54059
▁test	-7.54059
▁emotion	-7.55609
▁kinda	-7.55609
▁suck	-7.55609
▁tip	-7.55609
▁use	-7.55609
▁severe	-7.57184
▁stuck	-7.57184
▁wake	-7.57184
▁word	-7.57184
▁ended	-7.58784
▁often	-7.58784
▁suicide	-7.58784
▁calm	-7.6041
▁move	-7.6041
▁open	-7.6041
▁psychiatrist	-7.6041
▁le	-7.62063
▁low	-7.62063
▁nice	-7.62063
▁sister	-7.62063
▁state	-7.62063
▁struggle	-7.62063
▁turn	-7.62063
▁walk	-7.62063
▁asking	-7.63744
▁called	-7.63744
▁conversation	-7.63744
▁course	-7.63744
▁focus	-7.63744
▁hell	-7.63744
▁instead	-7.63744
▁negative	-7.63744
▁watching	-7.63744
▁car	-7.65453
▁food	-7.65453
▁however	-7.65453
▁sit	-7.65453
▁girlfriend	-7.67193
▁hi	-7.67193
▁inside	-7.67193
▁show	-7.67193
▁single	-7.67193
▁whenever	-7.67193
▁age	-7.68962
▁cut	-7.68962
▁dead	-7.68962
▁fight	-7.68962
▁hey	-7.68962
▁mentally	-7.68962
▁video	-7.68962
▁answer	-7.70764
▁music	-7.70764
▁share	-7.70764
▁terrified	-7.70764
▁trigger	-7.70764
▁cannot	-7.72599
▁horrible	-7.72599
▁partner	-7.72599
▁story	-7.72599
▁suffer	-7.72599
▁terrible	-7.72599
▁worked	-7.72599
▁breathing	-7.74468
▁dealing	-7.74468
▁eventually	-7.74468
▁hold	-7.74468
▁nervous	-7.74468
▁nobody	-7.74468
▁noticed	-7.74468
▁physical	-7.74468
▁similar	-7.74468
▁tomorrow	-7.74468
▁whatever	-7.74468
▁20	-7.76373
▁child	-7.76373
▁knew	-7.76373
▁lately	-7.76373
▁man	-7.76373
▁stomach	-7.76373
▁stressed	-7.76373
▁wondering	-7.76373
▁absolutely	-7.78315
▁awful	-7.78315
▁early	-7.78315
▁happening	-7.78315
▁plan	-7.78315
▁quite	-7.78315
▁small	-7.78315
▁chance	-7.80295
▁daily	-7.80295
▁drive	-7.80295
▁fun	-7.80295
▁ive	-7.80295
▁pandemic	-7.80295
▁study	-7.80295
▁three	-7.80295
▁wanting	-7.80295
▁yesterday	-7.80295
▁30	-7.82316
▁miss	-7.82316
▁motivation	-7.82316
▁ok	-7.82316
▁rest	-7.82316
▁free	-7.84378
▁given	-7.84378
▁lonely	-7.84378
▁longer	-7.84378
▁saw	-7.84378
▁suffering	-7.84378
▁truly	-7.84378
▁anyway	-7.86483
▁boyfriend	-7.86483
▁dose	-7.86483
▁enjoy	-7.86483
▁episode	-7.86483
▁giving	-7.86483
▁late	-7.86483
▁play	-7.86483
▁seen	-7.86483
▁sleeping	-7.86483
▁taken	-7.86483
▁top	-7.86483
▁brother	-7.88633
▁fix	-7.88633
▁handle	-7.88633
▁mood	-7.88633
▁oh	-7.88633
▁supposed	-7.88633
▁worth	-7.88633
▁8	-7.90831
▁caused	-7.90831
▁empty	-7.90831
▁entire	-7.90831
▁fall	-7.90831
▁god	-7.90831
▁human	-7.90831
▁kept	-7.90831
▁ocd	-7.90831
▁short	-7.90831
▁spend	-7.90831
▁attention	-7.93079
▁difficult	-7.93079
▁experienced	-7.93079
▁must	-7.93079
▁rather	-7.93079
▁sort	-7.93079
▁watch	-7.93079
▁write	-7.93079
▁writing	-7.93079
▁angry	-7.95378
▁fast	-7.95378
▁healthy	-7.95378
▁helpful	-7.95378
▁listen	-7.95378
▁loved	-7.95378
▁message	-7.95378
▁pill	-7.95378
▁prescribed	-7.95378
▁spent	-7.95378
▁step	-7.95378
▁despite	-7.97731
▁forget	-7.97731
▁front	-7.97731
▁huge	-7.97731
▁knowing	-7.97731
▁lose	-7.97731
▁possible	-7.97731
▁term	-7.97731
▁uncomfortable	-7.97731
▁broke	-8.0014
▁comfortable	-8.0014
▁deep	-8.0014
▁dream	-8.0014
▁forward	-8.0014
▁moved	-8.0014
▁notice	-8.0014
▁reddit	-8.0014
▁seriously	-8.0014
▁weight	-8.0014
▁yes	-8.0014
▁behind	-8.0261
▁fucked	-8.0261
▁happiness	-8.0261
▁helping	-8.0261
▁illness	-8.0261
▁level	-8.0261
▁losing	-8.0261
▁met	-8.0261
▁run	-8.0261
▁sitting	-8.0261
▁talked	-8.0261
▁young	-8.0261
▁although	-8.05141
▁blood	-8.05141
▁definitely	-8.05141
▁driving	-8.05141
▁dying	-8.05141
▁example	-8.05141
▁playing	-8.05141
▁quit	-8.05141
▁safe	-8.05141
▁woke	-8.05141
▁alive	-8.07739
▁comment	-8.07739
▁cope	-8.07739
▁country	-8.07739
▁date	-8.07739
▁drug	-8.07739
▁except	-8.07739
▁explain	-8.07739
▁hole	-8.07739
▁learn	-8.07739
▁middle	-8.07739
▁pas	-8.07739
▁period	-8.07739
▁pressure	-8.07739
▁seemed	-8.07739
▁strong	-8.07739
▁waiting	-8.07739
▁act	-8.10406
▁birthday	-8.10406
▁case	-8.10406
▁father	-8.10406
▁general	-8.10406
▁important	-8.10406
▁mine	-8.10406
▁physically	-8.10406
▁related	-8.10406
▁speak	-8.10406
▁straight	-8.10406
▁suddenly	-8.10406
▁text	-8.10406
▁appointment	-8.13146
▁breathe	-8.13146
▁busy	-8.13146
▁drink	-8.13146
▁hello	-8.13146
▁hospital	-8.13146
▁leaving	-8.13146
▁mostly	-8.13146
▁numb	-8.13146
▁option	-8.13146
▁posting	-8.13146
▁present	-8.13146
▁reality	-8.13146
▁realize	-8.13146
▁result	-8.13146
▁simply	-8.13146
▁somehow	-8.13146
▁summer	-8.13146
▁voice	-8.13146
▁water	-8.13146
▁breath	-8.15963
▁bring	-8.15963
▁burden	-8.15963
▁deserve	-8.15963
▁dumb	-8.15963
▁easy	-8.15963
▁emotional	-8.15963
▁event	-8.15963
▁figure	-8.15963
▁genuinely	-8.15963
▁heard	-8.15963
▁joke	-8.15963
▁lie	-8.15963
▁listening	-8.15963
▁lol	-8.15963
▁managed	-8.15963
▁meet	-8.15963
▁moving	-8.15963
▁running	-8.15963
▁shitty	-8.15963
▁student	-8.15963
▁type	-8.15963
▁became	-8.18862
▁company	-8.18862
▁contact	-8.18862
▁exercise	-8.18862
▁finding	-8.18862
▁form	-8.18862
▁looked	-8.18862
▁major	-8.18862
▁manage	-8.18862
▁none	-8.18862
▁positive	-8.18862
▁realized	-8.18862
▁sign	-8.18862
▁triggered	-8.18862
▁whether	-8.18862
▁exhausted	-8.21847
▁forever	-8.21847
▁fully	-8.21847
▁medical	-8.21847
▁memory	-8.21847
▁near	-8.21847
▁sent	-8.21847
▁several	-8.21847
▁towards	-8.21847
▁treat	-8.21847
▁true	-8.21847
▁trust	-8.21847
▁worrying	-8.21847
▁adult	-8.24924
▁avoid	-8.24924
▁certain	-8.24924
▁cold	-8.24924
▁constant	-8.24924
▁continue	-8.24924
▁dog	-8.24924
▁drinking	-8.24924
▁er	-8.24924
▁escape	-8.24924
▁extreme	-8.24924
▁leg	-8.24924
▁miserable	-8.24924
▁mistake	-8.24924
▁reach	-8.24924
▁tough	-8.24924
▁upset	-8.24924
▁zoloft	-8.24924
▁24	-8.28099
▁along	-8.28099
▁area	-8.28099
▁aware	-8.28099
▁choice	-8.28099
▁fault	-8.28099
▁killing	-8.28099
▁movie	-8.28099
▁passed	-8.28099
▁process	-8.28099
▁relax	-8.28099
▁serious	-8.28099
▁task	-8.28099
▁toxic	-8.28099
▁university	-8.28099
▁using	-8.28099
▁wait	-8.28099
▁waking	-8.28099
▁wife	-8.28099
▁apart	-8.31378
▁appreciate	-8.31378
▁book	-8.31378
▁check	-8.31378
▁damn	-8.31378
▁door	-8.31378
▁exactly	-8.31378
▁fake	-8.31378
▁force	-8.31378
▁guilty	-8.31378
▁hair	-8.31378
▁hang	-8.31378
▁hobby	-8.31378
▁http	-8.31378
▁imagine	-8.31378
▁lack	-8.31378
▁lexapro	-8.31378
▁nausea	-8.31378
▁paranoid	-8.31378
▁personal	-8.31378
▁quickly	-8.31378
▁set	-8.31378
▁simple	-8.31378
▁somewhere	-8.31378
▁stand	-8.31378
▁stressful	-8.31378
▁teacher	-8.31378
▁throughout	-8.31378
▁turned	-8.31378
▁weak	-8.31378
▁15	-8.34768
▁actual	-8.34768
▁amazing	-8.34768
▁amount	-8.34768
▁annoying	-8.34768
▁attempt	-8.34768
▁becoming	-8.34768
▁breakdown	-8.34768
▁comfort	-8.34768
▁fit	-8.34768
▁gad	-8.34768
▁hoping	-8.34768
▁immediately	-8.34768
▁incredibly	-8.34768
▁mad	-8.34768
▁mess	-8.34768
▁older	-8.34768
▁overwhelmed	-8.34768
▁throat	-8.34768
▁tonight	-8.34768
▁truth	-8.34768
▁unable	-8.34768
▁yeah	-8.34768
▁anger	-8.38277
▁asleep	-8.38277
▁cancer	-8.38277
▁career	-8.38277
▁confidence	-8.38277
▁decision	-8.38277
▁experiencing	-8.38277
▁ill	-8.38277
▁intrusive	-8.38277
▁lazy	-8.38277
▁liked	-8.38277
▁multiple	-8.38277
▁normally	-8.38277
▁personality	-8.38277
▁random	-8.38277
▁selfish	-8.38277
▁slow	-8.38277
▁sub	-8.38277
▁subreddit	-8.38277
▁system	-8.38277
▁useless	-8.38277
▁vaccine	-8.38277
▁walking	-8.38277
▁wonder	-8.38277
▁abusive	-8.41914
▁adhd	-8.41914
▁antidepressant	-8.41914
▁bc	-8.41914
▁bos	-8.41914
▁causing	-8.41914
▁confused	-8.41914
▁coping	-8.41914
▁dealt	-8.41914
▁degree	-8.41914
▁diagnosis	-8.41914
▁died	-8.41914
▁effort	-8.41914
▁exam	-8.41914
▁fighting	-8.41914
▁foot	-8.41914
▁hopefully	-8.41914
▁overcome	-8.41914
▁perfect	-8.41914
▁push	-8.41914
▁relate	-8.41914
▁sadness	-8.41914
▁semester	-8.41914
▁shaking	-8.41914
▁skill	-8.41914
▁spiral	-8.41914
▁tear	-8.41914
▁understanding	-8.41914
▁unfortunately	-8.41914
▁within	-8.41914
▁anybody	-8.45688
▁app	-8.45688
▁arm	-8.45688
▁beat	-8.45688
▁born	-8.45688
▁cat	-8.45688
▁childhood	-8.45688
▁dark	-8.45688
▁depressive	-8.45688
▁describe	-8.45688
▁ex	-8.45688
▁excited	-8.45688
▁exist	-8.45688
▁finish	-8.45688
▁function	-8.45688
▁guilt	-8.45688
▁habit	-8.45688
▁improve	-8.45688
▁interested	-8.45688
▁keeping	-8.45688
▁loss	-8.45688
▁offer	-8.45688
▁painful	-8.45688
▁professional	-8.45688
▁proud	-8.45688
▁purpose	-8.45688
▁ready	-8.45688
▁shut	-8.45688
▁slowly	-8.45688
▁space	-8.45688
▁younger	-8.45688
▁18	-8.4961
▁anyways	-8.4961
▁appreciated	-8.4961
▁began	-8.4961
▁edit	-8.4961
▁emotionally	-8.4961
▁gym	-8.4961
▁harm	-8.4961
▁impossible	-8.4961
▁known	-8.4961
▁laugh	-8.4961
▁nightmare	-8.4961
▁per	-8.4961
▁psychologist	-8.4961
▁smile	-8.4961
▁studying	-8.4961
▁teeth	-8.4961
▁twice	-8.4961
▁waste	-8.4961
▁worthless	-8.4961
▁50	-8.53692
▁across	-8.53692
▁alcohol	-8.53692
▁badly	-8.53692
▁bother	-8.53692
▁calling	-8.53692
▁cycle	-8.53692
▁dating	-8.53692
▁detail	-8.53692
▁excuse	-8.53692
▁falling	-8.53692
▁goal	-8.53692
▁honest	-8.53692
▁husband	-8.53692
▁including	-8.53692
▁interest	-8.53692
▁interview	-8.53692
▁lead	-8.53692
▁meeting	-8.53692
▁mg	-8.53692
▁nearly	-8.53692
▁noise	-8.53692
▁office	-8.53692
▁peace	-8.53692
▁piece	-8.53692
▁response	-8.53692
▁return	-8.53692
▁sensation	-8.53692
▁sibling	-8.53692
▁skin	-8.53692
▁tho	-8.53692
▁trouble	-8.53692
▁weekend	-8.53692
▁accept	-8.57948
▁bunch	-8.57948
▁changed	-8.57948
▁common	-8.57948
▁conscious	-8.57948
▁dr	-8.57948
▁easier	-8.57948
▁email	-8.57948
▁failed	-8.57948
▁forgot	-8.57948
▁friendship	-8.57948
▁ignore	-8.57948
▁light	-8.57948
▁luck	-8.57948
▁missed	-8.57948
▁name	-8.57948
▁overthinking	-8.57948
▁plus	-8.57948
▁practice	-8.57948
▁putting	-8.57948
▁rate	-8.57948
▁shake	-8.57948
▁shot	-8.57948
▁specific	-8.57948
▁thats	-8.57948
▁throw	-8.57948
▁title	-8.57948
▁urge	-8.57948
▁usual	-8.57948
▁vent	-8.57948
▁woman	-8.57948
▁2020	-8.62393
▁apartment	-8.62393
▁baby	-8.62393
▁bill	-8.62393
▁community	-8.62393
▁desire	-8.62393
▁doubt	-8.62393
▁english	-8.62393
▁failure	-8.62393
▁freaking	-8.62393
▁harder	-8.62393
▁interaction	-8.62393
▁lay	-8.62393
▁letting	-8.62393
▁lockdown	-8.62393
▁loud	-8.62393
▁lying	-8.62393
▁male	-8.62393
▁manager	-8.62393
▁meant	-8.62393
▁mentioned	-8.62393
▁mouth	-8.62393
▁obviously	-8.62393
▁order	-8.62393
▁passing	-8.62393
▁progress	-8.62393
▁regret	-8.62393
▁rough	-8.62393
▁session	-8.62393
▁smoke	-8.62393
▁solution	-8.62393
▁son	-8.62393
▁speaking	-8.62393
▁trapped	-8.62393
▁treatment	-8.62393
▁21	-8.67045
▁accepted	-8.67045
▁action	-8.67045
▁begin	-8.67045
▁blame	-8.67045
▁breaking	-8.67045
▁broken	-8.67045
▁caring	-8.67045
▁current	-8.67045
▁dread	-8.67045
▁easily	-8.67045
▁failing	-8.67045
▁forced	-8.67045
▁freak	-8.67045
▁hated	-8.67045
▁headache	-8.67045
▁hearing	-8.67045
▁likely	-8.67045
▁medicine	-8.67045
▁missing	-8.67045
▁nowhere	-8.67045
▁scary	-8.67045
▁site	-8.67045
▁suggestion	-8.67045
▁trauma	-8.67045
▁11	-8.71924
▁advance	-8.71924
▁anti	-8.71924
▁awkward	-8.71924
▁beginning	-8.71924
▁beyond	-8.71924
▁complete	-8.71924
▁condition	-8.71924
▁confident	-8.71924
▁emptypost	-8.71924
▁learning	-8.71924
▁main	-8.71924
▁mask	-8.71924
▁member	-8.71924
▁mention	-8.71924
▁overall	-8.71924
▁panicking	-8.71924
▁pick	-8.71924
▁prescription	-8.71924
▁risk	-8.71924
▁scare	-8.71924
▁society	-8.71924
▁staying	-8.71924
▁store	-8.71924
▁suffered	-8.71924
▁totally	-8.71924
▁ugly	-8.71924
▁unless	-8.71924
▁violent	-8.71924
▁visit	-8.71924
▁wall	-8.71924
▁withdrawal	-8.71924
▁wonderful	-8.71924
▁12	-8.77054
▁22	-8.77054
▁25	-8.77054
▁add	-8.77054
▁affect	-8.77054
▁allowed	-8.77054
▁alright	-8.77054
▁background	-8.77054
▁choose	-8.77054
▁clear	-8.77054
▁cried	-8.77054
▁cutting	-8.77054
▁cuz	-8.77054
▁developed	-8.77054
▁doc	-8.77054
▁final	-8.77054
▁funny	-8.77054
▁gain	-8.77054
▁information	-8.77054
▁insane	-8.77054
▁irrational	-8.77054
▁judge	-8.77054
▁possibly	-8.77054
▁productive	-8.77054
▁quiet	-8.77054
▁racing	-8.77054
▁reaction	-8.77054
▁rn	-8.77054
▁sex	-8.77054
▁smoking	-8.77054
▁soul	-8.77054
▁ssri	-8.77054
▁struggled	-8.77054
▁throwing	-8.77054
▁topic	-8.77054
▁trip	-8.77054
▁afford	-8.8246
▁black	-8.8246
▁chronic	-8.8246
▁city	-8.8246
▁commit	-8.8246
▁consider	-8.8246
▁considered	-8.8246
▁considering	-8.8246
▁difference	-8.8246
▁drop	-8.8246
▁edge	-8.8246
▁ending	-8.8246
▁everytime	-8.8246
▁existence	-8.8246
▁expect	-8.8246
▁fell	-8.8246
▁generally	-8.8246
▁grew	-8.8246
▁hide	-8.8246
▁intense	-8.8246
▁lived	-8.8246
▁lower	-8.8246
▁messed	-8.8246
▁muscle	-8.8246
▁opening	-8.8246
▁opinion	-8.8246
▁planned	-8.8246
▁pretend	-8.8246
▁project	-8.8246
▁ptsd	-8.8246
▁r	-8.8246
▁rude	-8.8246
▁save	-8.8246
▁shower	-8.8246
▁somebody	-8.8246
▁song	-8.8246
▁specifically	-8.8246
▁strange	-8.8246
▁success	-8.8246
▁supportive	-8.8246
▁weed	-8.8246
▁youtube	-8.8246
▁23	-8.88176
▁abuse	-8.88176
▁account	-8.88176
▁anywhere	-8.88176
▁apparently	-8.88176
▁battle	-8.88176
▁besides	-8.88176
▁bipolar	-8.88176
▁brings	-8.88176
▁brought	-8.88176
▁build	-8.88176
▁buy	-8.88176
▁clean	-8.88176
▁com	-8.88176
▁connect	-8.88176
▁daughter	-8.88176
▁deeper	-8.88176
▁didnt	-8.88176
▁distract	-8.88176
▁earlier	-8.88176
▁everybody	-8.88176
▁extra	-8.88176
▁fair	-8.88176
▁google	-8.88176
▁grateful	-8.88176
▁growing	-8.88176
▁heavy	-8.88176
▁insurance	-8.88176
▁joy	-8.88176
▁learned	-8.88176
▁medium	-8.88176
▁mid	-8.88176
▁mum	-8.88176
▁nail	-8.88176
▁opportunity	-8.88176
▁opposite	-8.88176
▁paid	-8.88176
▁poor	-8.88176
▁ran	-8.88176
▁reply	-8.88176
▁responsibility	-8.88176
▁road	-8.88176
▁scream	-8.88176
▁seek	-8.88176
▁shoulder	-8.88176
▁smart	-8.88176
▁somewhat	-8.88176
▁spot	-8.88176
▁stayed	-8.88176
▁till	-8.88176
▁touch	-8.88176
▁view	-8.88176
▁wellbutrin	-8.88176
▁13	-8.94239
▁ability	-8.94239
▁absolute	-8.94239
▁april	-8.94239
▁assignment	-8.94239
▁ball	-8.94239
▁building	-8.94239
▁bullshit	-8.94239
▁caught	-8.94239
▁chat	-8.94239
▁closer	-8.94239
▁compared	-8.94239
▁context	-8.94239
▁courage	-8.94239
▁disease	-8.94239
▁dropped	-8.94239
▁fail	-8.94239
▁fat	-8.94239
▁following	-8.94239
▁greatly	-8.94239
▁hot	-8.94239
▁hurting	-8.94239
▁laying	-8.94239
▁loving	-8.94239
▁majority	-8.94239
▁massive	-8.94239
▁neck	-8.94239
▁note	-8.94239
▁numbness	-8.94239
▁onto	-8.94239
▁opened	-8.94239
▁pathetic	-8.94239
▁potential	-8.94239
▁previous	-8.94239
▁pull	-8.94239
▁pushed	-8.94239
▁rant	-8.94239
▁rarely	-8.94239
▁relief	-8.94239
▁shift	-8.94239
▁sudden	-8.94239
▁tl	-8.94239
▁ton	-8.94239
▁treated	-8.94239
▁wrote	-8.94239
▁xanax	-8.94239
▁yelled	-8.94239
▁zero	-8.94239
▁14	-9.00693
▁accepting	-9.00693
▁admit	-9.00693
▁apologize	-9.00693
▁argument	-9.00693
▁art	-9.00693
▁aspect	-9.00693
▁asshole	-9.00693
▁assume	-9.00693
▁beautiful	-9.00693
▁closest	-9.00693
▁computer	-9.00693
▁crap	-9.00693
▁depressing	-9.00693
▁dinner	-9.00693
▁dosage	-9.00693
▁drained	-9.00693
▁embarrassed	-9.00693
▁everywhere	-9.00693
▁expecting	-9.00693
▁express	-9.00693
▁field	-9.00693
▁four	-9.00693
▁functioning	-9.00693
▁hanging	-9.00693
▁hardly	-9.00693
▁id	-9.00693
▁image	-9.00693
▁increase	-9.00693
▁infection	-9.00693
▁insecurity	-9.00693
▁internet	-9.00693
▁large	-9.00693
▁list	-9.00693
▁mechanism	-9.00693
▁mild	-9.00693
▁mode	-9.00693
▁odd	-9.00693
▁overwhelming	-9.00693
▁particularly	-9.00693
▁personally	-9.00693
▁pointless	-9.00693
▁position	-9.00693
▁public	-9.00693
▁reaching	-9.00693
▁recent	-9.00693
▁responsible	-9.00693
▁rid	-9.00693
▁ruin	-9.00693
▁rule	-9.00693
▁saving	-9.00693
▁send	-9.00693
▁september	-9.00693
▁stick	-9.00693
▁tense	-9.00693
▁tingling	-9.00693
▁various	-9.00693
▁wear	-9.00693
▁wearing	-9.00693
▁willing	-9.00693
▁worker	-9.00693
▁yelling	-9.00693
▁acting	-9.07592
▁animal	-9.07592
▁anytime	-9.07592
▁bored	-9.07592
▁bottom	-9.07592
▁catch	-9.07592
▁cbt	-9.07592
▁checked	-9.07592
▁clearly	-9.07592
▁convinced	-9.07592
▁distance	-9.07592
▁dizzy	-9.07592
▁e	-9.07592
▁environment	-9.07592
▁explained	-9.07592
▁faith	-9.07592
▁frequently	-9.07592
▁frustrated	-9.07592
▁gf	-9.07592
▁hopeless	-9.07592
▁hug	-9.07592
▁hungry	-9.07592
▁ignored	-9.07592
▁instantly	-9.07592
▁judged	-9.07592
▁mainly	-9.07592
▁math	-9.07592
▁method	-9.07592
▁monday	-9.07592
▁october	-9.07592
▁p	-9.07592
▁paper	-9.07592
▁passion	-9.07592
▁picture	-9.07592
▁posted	-9.07592
▁program	-9.07592
▁recognize	-9.07592
▁repeat	-9.07592
▁restaurant	-9.07592
▁routine	-9.07592
▁schedule	-9.07592
▁sexual	-9.07592
▁silence	-9.07592
▁spiraling	-9.07592
▁stable	-9.07592
▁staring	-9.07592
▁successful	-9.07592
▁suggested	-9.07592
▁sunday	-9.07592
▁surgery	-9.07592
▁taste	-9.07592
▁tend	-9.07592
▁toll	-9.07592
▁travel	-9.07592
▁uni	-9.07592
▁welcome	-9.07592
▁wont	-9.07592
▁www	-9.07592
▁100	-9.15003
▁access	-9.15003
▁ache	-9.15003
▁active	-9.15003
▁affecting	-9.15003
▁bathroom	-9.15003
▁benefit	-9.15003
▁bf	-9.15003
▁bigger	-9.15003
▁bitch	-9.15003
▁bothering	-9.15003
▁camera	-9.15003
▁card	-9.15003
▁chore	-9.15003
▁co	-9.15003
▁concerned	-9.15003
▁content	-9.15003
▁convince	-9.15003
▁cover	-9.15003
▁crippling	-9.15003
▁crush	-9.15003
▁debt	-9.15003
▁disgusting	-9.15003
▁distraction	-9.15003
▁dry	-9.15003
▁enjoyed	-9.15003
▁fill	-9.15003
▁finished	-9.15003
▁floor	-9.15003
▁focusing	-9.15003
▁fog	-9.15003
▁follow	-9.15003
▁followed	-9.15003
▁frustrating	-9.15003
▁graduate	-9.15003
▁graduated	-9.15003
▁grandma	-9.15003
▁haha	-9.15003
▁held	-9.15003
▁higher	-9.15003
▁hr	-9.15003
▁insomnia	-9.15003
▁isnt	-9.15003
▁isolated	-9.15003
▁kick	-9.15003
▁laughing	-9.15003
▁lesson	-9.15003
▁limited	-9.15003
▁line	-9.15003
▁loneliness	-9.15003
▁lucky	-9.15003
▁managing	-9.15003
▁march	-9.15003
▁married	-9.15003
▁nauseous	-9.15003
▁obsessing	-9.15003
▁party	-9.15003
▁pop	-9.15003
▁properly	-9.15003
▁psych	-9.15003
▁quick	-9.15003
▁regarding	-9.15003
▁role	-9.15003
▁root	-9.15003
▁scenario	-9.15003
▁sensitive	-9.15003
▁significant	-9.15003
▁silent	-9.15003
▁slightly	-9.15003
▁stranger	-9.15003
▁switched	-9.15003
▁syndrome	-9.15003
▁tall	-9.15003
▁tested	-9.15003
▁texted	-9.15003
▁tightness	-9.15003
▁tv	-9.15003
▁unbearable	-9.15003
▁vaccinated	-9.15003
▁wasting	-9.15003
▁wound	-9.15003
▁1st	-9.23007
▁af	-9.23007
▁allow	-9.23007
▁application	-9.23007
▁ashamed	-9.23007
▁aside	-9.23007
▁ate	-9.23007
▁awareness	-9.23007
▁b	-9.23007
▁believing	-9.23007
▁biggest	-9.23007
▁boring	-9.23007
▁bottle	-9.23007
▁brief	-9.23007
▁built	-9.23007
▁bullied	-9.23007
▁buying	-9.23007
▁c	-9.23007
▁center	-9.23007
▁checking	-9.23007
▁closed	-9.23007
▁cost	-9.23007
▁couch	-9.23007
▁crisis	-9.23007
▁damage	-9.23007
▁deeply	-9.23007
▁depressant	-9.23007
▁disappointment	-9.23007
▁ease	-9.23007
▁faking	-9.23007
▁false	-9.23007
▁filled	-9.23007
▁flat	-9.23007
▁fresh	-9.23007
▁heavily	-9.23007
▁history	-9.23007
▁interesting	-9.23007
▁j	-9.23007
▁january	-9.23007
▁journey	-9.23007
▁logic	-9.23007
▁motivated	-9.23007
▁naturally	-9.23007
▁otherwise	-9.23007
▁planning	-9.23007
▁played	-9.23007
▁pm	-9.23007
▁questioning	-9.23007
▁react	-9.23007
▁religion	-9.23007
▁research	-9.23007
▁respect	-9.23007
▁rock	-9.23007
▁rush	-9.23007
▁sale	-9.23007
▁sat	-9.23007
▁sentence	-9.23007
▁showing	-9.23007
▁source	-9.23007
▁stopping	-9.23007
▁strength	-9.23007
▁stressing	-9.23007
▁stronger	-9.23007
▁surface	-9.23007
▁teen	-9.23007
▁thousand	-9.23007
▁track	-9.23007
▁turning	-9.23007
▁understands	-9.23007
▁value	-9.23007
▁vision	-9.23007
▁wasted	-9.23007
▁0	-9.31708
▁00	-9.31708
▁accident	-9.31708
▁addicted	-9.31708
▁ahead	-9.31708
▁air	-9.31708
▁assessment	-9.31708
▁based	-9.31708
▁basic	-9.31708
▁bird	-9.31708
▁bought	-9.31708
▁business	-9.31708
▁bye	-9.31708
▁caffeine	-9.31708
▁carry	-9.31708
▁changing	-9.31708
▁character	-9.31708
▁concern	-9.31708
▁connection	-9.31708
▁cool	-9.31708
▁counselor	-9.31708
▁counter	-9.31708
▁create	-9.31708
▁creative	-9.31708
▁debilitating	-9.31708
▁decent	-9.31708
▁dentist	-9.31708
▁desperate	-9.31708
▁destroyed	-9.31708
▁difficulty	-9.31708
▁doom	-9.31708
▁dressed	-9.31708
▁drowning	-9.31708
▁embarrassing	-9.31708
▁endless	-9.31708
▁enjoying	-9.31708
▁esteem	-9.31708
▁fairly	-9.31708
▁fever	-9.31708
▁financial	-9.31708
▁finger	-9.31708
▁flight	-9.31708
▁friday	-9.31708
▁gained	-9.31708
▁genuine	-9.31708
▁gift	-9.31708
▁grow	-9.31708
▁gut	-9.31708
▁hating	-9.31708
▁hatred	-9.31708
▁ignoring	-9.31708
▁impact	-9.31708
▁increased	-9.31708
▁industry	-9.31708
▁jealous	-9.31708
▁knee	-9.31708
▁law	-9.31708
▁leading	-9.31708
▁meaning	-9.31708
▁meditation	-9.31708
▁minimum	-9.31708
▁nerve	-9.31708
▁news	-9.31708
▁noticing	-9.31708
▁nurse	-9.31708
▁obvious	-9.31708
▁paranoia	-9.31708
▁patient	-9.31708
▁perfectly	-9.31708
▁pissed	-9.31708
▁procedure	-9.31708
▁randomly	-9.31708
▁reached	-9.31708
▁realised	-9.31708
▁relaxed	-9.31708
▁requires	-9.31708
▁roof	-9.31708
▁scar	-9.31708
▁seeking	-9.31708
▁sending	-9.31708
▁service	-9.31708
▁sh	-9.31708
▁shaky	-9.31708
▁shame	-9.31708
▁shy	-9.31708
▁six	-9.31708
▁sore	-9.31708
▁sport	-9.31708
▁standing	-9.31708
▁stroke	-9.31708
▁sweating	-9.31708
▁tension	-9.31708
▁terrifying	-9.31708
▁thread	-9.31708
▁tooth	-9.31708
▁total	-9.31708
▁town	-9.31708
▁triggering	-9.31708
▁typing	-9.31708
▁upon	-9.31708
▁venting	-9.31708
▁walked	-9.31708
▁watched	-9.31708
▁wave	-9.31708
▁win	-9.31708
▁yell	-9.31708
▁zone	-9.31708
▁3rd	-9.41239
▁40	-9.41239
▁5mg	-9.41239
▁actively	-9.41239
▁appetite	-9.41239
▁applying	-9.41239
▁attempted	-9.41239
▁available	-9.41239
▁becomes	-9.41239
▁bringing	-9.41239
▁burn	-9.41239
▁buspar	-9.41239
▁cared	-9.41239
▁clothes	-9.41239
▁clue	-9.41239
▁communication	-9.41239
▁continued	-9.41239
▁correct	-9.41239
▁coworker	-9.41239
▁cure	-9.41239
▁customer	-9.41239
▁danger	-9.41239
▁desperately	-9.41239
▁destroy	-9.41239
▁disability	-9.41239
▁effective	-9.41239
▁exact	-9.41239
▁exhausting	-9.41239
▁expectation	-9.41239
▁f	-9.41239
▁figured	-9.41239
▁fire	-9.41239
▁fired	-9.41239
▁friendly	-9.41239
▁gosh	-9.41239
▁halfway	-9.41239
▁heal	-9.41239
▁impending	-9.41239
▁introvert	-9.41239
▁isolation	-9.41239
▁jake	-9.41239
▁language	-9.41239
▁local	-9.41239
▁loop	-9.41239
▁marry	-9.41239
▁mile	-9.41239
▁minor	-9.41239
▁mirror	-9.41239
▁natural	-9.41239
▁non	-9.41239
▁overthink	-9.41239
▁palpitation	-9.41239
▁paying	-9.41239
▁perspective	-9.41239
▁pet	-9.41239
▁picked	-9.41239
▁pound	-9.41239
▁pregnant	-9.41239
▁pretending	-9.41239
▁private	-9.41239
▁proper	-9.41239
▁quarantine	-9.41239
▁refuse	-9.41239
▁regular	-9.41239
▁rely	-9.41239
▁respond	-9.41239
▁ruining	-9.41239
▁scan	-9.41239
▁screaming	-9.41239
▁series	-9.41239
▁socially	-9.41239
▁solve	-9.41239
▁sooner	-9.41239
▁speed	-9.41239
▁spending	-9.41239
▁sun	-9.41239
▁swear	-9.41239
▁sweat	-9.41239
▁taper	-9.41239
▁team	-9.41239
▁technique	-9.41239
▁therefore	-9.41239
▁unconscious	-9.41239
▁understood	-9.41239
▁unhappy	-9.41239
▁v	-9.41239
▁vacation	-9.41239
▁wishing	-9.41239
▁10mg	-9.51775
▁accidentally	-9.51775
▁accomplish	-9.51775
▁according	-9.51775
▁activity	-9.51775
▁afterwards	-9.51775
▁appearance	-9.51775
▁approach	-9.51775
▁ativan	-9.51775
▁august	-9.51775
▁avoiding	-9.51775
▁bare	-9.51775
▁behavior	-9.51775
▁believed	-9.51775
▁bond	-9.51775
▁bothered	-9.51775
▁brush	-9.51775
▁btw	-9.51775
▁circle	-9.51775
▁client	-9.51775
▁colleague	-9.51775
▁complicated	-9.51775
▁counseling	-9.51775
▁count	-9.51775
▁curious	-9.51775
▁deadline	-9.51775
▁decide	-9.51775
▁direction	-9.51775
▁distant	-9.51775
▁dizziness	-9.51775
▁drove	-9.51775
▁earth	-9.51775
▁effexor	-9.51775
▁employee	-9.51775
▁encouragement	-9.51775
▁existential	-9.51775
▁focused	-9.51775
▁folk	-9.51775
▁forcing	-9.51775
▁forgotten	-9.51775
▁freedom	-9.51775
▁gabapentin	-9.51775
▁gaming	-9.51775
▁garbage	-9.51775
▁glad	-9.51775
▁glass	-9.51775
▁gotta	-9.51775
▁gt	-9.51775
▁hardest	-9.51775
▁havent	-9.51775
▁heat	-9.51775
▁hiding	-9.51775
▁highly	-9.51775
▁hyper	-9.51775
▁ideal	-9.51775
▁idiot	-9.51775
▁imposter	-9.51775
▁increasing	-9.51775
▁insult	-9.51775
▁irritated	-9.51775
▁juli	-9.51775
▁junior	-9.51775
▁kitchen	-9.51775
▁knock	-9.51775
▁knot	-9.51775
▁knowledge	-9.51775
▁leaf	-9.51775
▁literal	-9.51775
▁luckily	-9.51775
▁lunch	-9.51775
▁lung	-9.51775
▁marfans	-9.51775
▁meal	-9.51775
▁meaningless	-9.51775
▁midnight	-9.51775
▁misery	-9.51775
▁nasty	-9.51775
▁neither	-9.51775
▁occasionally	-9.51775
▁official	-9.51775
▁paragraph	-9.51775
▁particular	-9.51775
▁plenty	-9.51775
▁porn	-9.51775
▁power	-9.51775
▁prove	-9.51775
▁pursue	-9.51775
▁raise	-9.51775
▁raised	-9.51775
▁realizing	-9.51775
▁reassurance	-9.51775
▁received	-9.51775
▁regard	-9.51775
▁religious	-9.51775
▁remark	-9.51775
▁seizure	-9.51775
▁semi	-9.51775
▁severely	-9.51775
▁shirt	-9.51775
▁shock	-9.51775
▁shout	-9.51775
▁socializing	-9.51775
▁spread	-9.51775
▁stage	-9.51775
▁subject	-9.51775
▁supplement	-9.51775
▁surrounded	-9.51775
▁sweet	-9.51775
▁tbh	-9.51775
▁ten	-9.51775
▁texting	-9.51775
▁thankfully	-9.51775
▁third	-9.51775
▁tldr	-9.51775
▁toe	-9.51775
▁train	-9.51775
▁training	-9.51775
▁trick	-9.51775
▁universe	-9.51775
▁verge	-9.51775
▁version	-9.51775
▁vet	-9.51775
▁void	-9.51775
▁w	-9.51775
▁warning	-9.51775
▁written	-9.51775
▁x	-9.51775
▁2nd	-9.63553
▁80	-9.63553
▁abused	-9.63553
▁academic	-9.63553
▁acted	-9.63553
▁added	-9.63553
▁affected	-9.63553
▁affirmation	-9.63553
▁agree	-9.63553
▁agreed	-9.63553
▁alternative	-9.63553
▁ambition	-9.63553
▁annoyed	-9.63553
▁appeared	-9.63553
▁article	-9.63553
▁attracted	-9.63553
▁autism	-9.63553
▁average	-9.63553
▁awake	-9.63553
▁bedroom	-9.63553
▁blue	-9.63553
▁bone	-9.63553
▁box	-9.63553
▁boy	-9.63553
▁bpd	-9.63553
▁burst	-9.63553
▁capable	-9.63553
▁cardiologist	-9.63553
▁cbd	-9.63553
▁cheated	-9.63553
▁chemical	-9.63553
▁cleaning	-9.63553
▁complain	-9.63553
▁conclusion	-9.63553
▁confusing	-9.63553
▁consistently	-9.63553
▁consuming	-9.63553
▁coworkers	-9.63553
▁credit	-9.63553
▁cute	-9.63553
▁darkness	-9.63553
▁derealization	-9.63553
▁disappear	-9.63553
▁disappointed	-9.63553
▁discus	-9.63553
▁drain	-9.63553
▁dropping	-9.63553
▁dude	-9.63553
▁education	-9.63553
▁evening	-9.63553
▁explaining	-9.63553
▁faced	-9.63553
▁faint	-9.63553
▁fantasy	-9.63553
▁faster	-9.63553
▁february	-9.63553
▁female	-9.63553
▁fiance	-9.63553
▁five	-9.63553
▁grammar	-9.63553
▁ground	-9.63553
▁guessing	-9.63553
▁harming	-9.63553
▁hitting	-9.63553
▁holding	-9.63553
▁homework	-9.63553
▁hopeful	-9.63553
▁ideation	-9.63553
▁impacted	-9.63553
▁improvement	-9.63553
▁incident	-9.63553
▁increasingly	-9.63553
▁info	-9.63553
▁insecure	-9.63553
▁iv	-9.63553
▁led	-9.63553
▁license	-9.63553
▁locked	-9.63553
▁logical	-9.63553
▁loser	-9.63553
▁machine	-9.63553
▁mark	-9.63553
▁meantime	-9.63553
▁million	-9.63553
▁model	-9.63553
▁nature	-9.63553
▁necessarily	-9.63553
▁necessary	-9.63553
▁nose	-9.63553
▁number	-9.63553
▁occasion	-9.63553
▁pass	-9.63553
▁path	-9.63553
▁pattern	-9.63553
▁pleasure	-9.63553
▁possibility	-9.63553
▁pre	-9.63553
▁primary	-9.63553
▁prior	-9.63553
▁provide	-9.63553
▁pulling	-9.63553
▁pure	-9.63553
▁pushing	-9.63553
▁quality	-9.63553
▁quitting	-9.63553
▁receive	-9.63553
▁recommended	-9.63553
▁recovery	-9.63553
▁red	-9.63553
▁rich	-9.63553
▁ruined	-9.63553
▁saved	-9.63553
▁science	-9.63553
▁screen	-9.63553
▁screw	-9.63553
▁scrolling	-9.63553
▁shes	-9.63553
▁sigh	-9.63553
▁silly	-9.63553
▁size	-9.63553
▁slight	-9.63553
▁sobbing	-9.63553
▁sober	-9.63553
▁socialize	-9.63553
▁spark	-9.63553
▁special	-9.63553
▁split	-9.63553
▁street	-9.63553
▁suppose	-9.63553
▁survive	-9.63553
▁teach	-9.63553
▁temporary	-9.63553
▁terribly	-9.63553
▁thru	-9.63553
▁tight	-9.63553
▁toilet	-9.63553
▁touching	-9.63553
▁twenty	-9.63553
▁unemployed	-9.63553
▁unmotivated	-9.63553
▁unsure	-9.63553
▁ur	-9.63553
▁vitamin	-9.63553
▁vulnerable	-9.63553
▁wise	-9.63553
▁wondered	-9.63553
▁workout	-9.63553
▁wreck	-9.63553
▁2021	-9.76907
▁accomplishment	-9.76907
▁acknowledge	-9.76907
▁ad	-9.76907
▁adventure	-9.76907
▁agoraphobia	-9.76907
▁allergic	-9.76907
▁anime	-9.76907
▁apathetic	-9.76907
▁apology	-9.76907
▁appear	-9.76907
▁apps	-9.76907
▁assuming	-9.76907
▁attacked	-9.76907
▁attractive	-9.76907
▁awesome	-9.76907
▁basis	-9.76907
▁bear	-9.76907
▁bearable	-9.76907
▁begging	-9.76907
▁belief	-9.76907
▁bite	-9.76907
▁bitter	-9.76907
▁blamed	-9.76907
▁blind	-9.76907
▁blown	-9.76907
▁bout	-9.76907
▁cheer	-9.76907
▁cigarette	-9.76907
▁clinical	-9.76907
▁coffee	-9.76907
▁cognitive	-9.76907
▁commitment	-9.76907
▁committed	-9.76907
▁complaining	-9.76907
▁conflict	-9.76907
▁continues	-9.76907
▁controlled	-9.76907
▁cooking	-9.76907
▁coward	-9.76907
▁crawl	-9.76907
▁created	-9.76907
▁crushing	-9.76907
▁demanding	-9.76907
▁destroying	-9.76907
▁diet	-9.76907
▁differently	-9.76907
▁directly	-9.76907
▁discussion	-9.76907
▁distracted	-9.76907
▁divorced	-9.76907
▁downhill	-9.76907
▁dozen	-9.76907
▁draining	-9.76907
▁draw	-9.76907
▁dreading	-9.76907
▁drunk	-9.76907
▁emetophobia	-9.76907
▁entirely	-9.76907
▁essentially	-9.76907
▁existing	-9.76907
▁explains	-9.76907
▁factor	-9.76907
▁fallen	-9.76907
▁familiar	-9.76907
▁fatigue	-9.76907
▁former	-9.76907
▁gas	-9.76907
▁generalized	-9.76907
▁goodbye	-9.76907
▁gp	-9.76907
▁graduating	-9.76907
▁grandfather	-9.76907
▁grandmother	-9.76907
▁heck	-9.76907
▁homeless	-9.76907
▁identify	-9.76907
▁instagram	-9.76907
▁investing	-9.76907
▁jaw	-9.76907
▁joined	-9.76907
▁joking	-9.76907
▁jump	-9.76907
▁jumping	-9.76907
▁june	-9.76907
▁kicked	-9.76907
▁killed	-9.76907
▁land	-9.76907
▁lip	-9.76907
▁lowest	-9.76907
▁maintain	-9.76907
▁management	-9.76907
▁master	-9.76907
▁match	-9.76907
▁messaged	-9.76907
▁min	-9.76907
▁mindfulness	-9.76907
▁mindset	-9.76907
▁moderator	-9.76907
▁ob	-9.76907
▁offered	-9.76907
▁originally	-9.76907
▁overreacting	-9.76907
▁package	-9.76907
▁panicked	-9.76907
▁park	-9.76907
▁peaceful	-9.76907
▁perform	-9.76907
▁permanent	-9.76907
▁picking	-9.76907
▁pit	-9.76907
▁pity	-9.76907
▁planet	-9.76907
▁practically	-9.76907
▁prozac	-9.76907
▁pulled	-9.76907
▁pussy	-9.76907
▁rare	-9.76907
▁reasonable	-9.76907
▁receptionist	-9.76907
▁recommend	-9.76907
▁recovering	-9.76907
▁regardless	-9.76907
▁relatively	-9.76907
▁rent	-9.76907
▁rescue	-9.76907
▁ridiculous	-9.76907
▁ring	-9.76907
▁round	-9.76907
▁rut	-9.76907
▁salary	-9.76907
▁searching	-9.76907
▁secret	-9.76907
▁selling	-9.76907
▁sharing	-9.76907
▁shattered	-9.76907
▁shell	-9.76907
▁sight	-9.76907
▁slept	-9.76907
▁snap	-9.76907
▁someday	-9.76907
▁speech	-9.76907
▁spoke	-9.76907
▁storm	-9.76907
▁strongly	-9.76907
▁suffers	-9.76907
▁surprise	-9.76907
▁target	-9.76907
▁tech	-9.76907
▁teenager	-9.76907
▁tendency	-9.76907
▁threat	-9.76907
▁thrown	-9.76907
▁thursday	-9.76907
▁til	-9.76907
▁tool	-9.76907
▁trained	-9.76907
▁twitch	-9.76907
▁twitching	-9.76907
▁typically	-9.76907
▁ultimately	-9.76907
▁uncle	-9.76907
▁undiagnosed	-9.76907
▁unit	-9.76907
▁useful	-9.76907
▁wage	-9.76907
▁warm	-9.76907
▁white	-9.76907
▁whose	-9.76907
▁150	-9.92322
▁45	-9.92322
▁4th	-9.92322
▁abandoned	-9.92322
▁addiction	-9.92322
▁address	-9.92322
▁advise	-9.92322
▁afternoon	-9.92322
▁agency	-9.92322
▁alot	-9.92322
▁ap	-9.92322
▁asian	-9.92322
▁atleast	-9.92322
▁attached	-9.92322
▁attend	-9.92322
▁attitude	-9.92322
▁autopilot	-9.92322
▁award	-9.92322
▁bag	-9.92322
▁bank	-9.92322
▁beating	-9.92322
▁begged	-9.92322
▁behaviour	-9.92322
▁belong	-9.92322
▁benadryl	-9.92322
▁benzos	-9.92322
▁blah	-9.92322
▁blank	-9.92322
▁block	-9.92322
▁blur	-9.92322
▁booked	-9.92322
▁boom	-9.92322
▁boss	-9.92322
▁breakup	-9.92322
▁bright	-9.92322
▁burning	-9.92322
▁burnt	-9.92322
▁cage	-9.92322
▁celebration	-9.92322
▁certainly	-9.92322
▁chaos	-9.92322
▁chill	-9.92322
▁chose	-9.92322
▁classmate	-9.92322
▁combat	-9.92322
▁combination	-9.92322
▁comforting	-9.92322
▁concentrate	-9.92322
▁consistent	-9.92322
▁conspiracy	-9.92322
▁continuing	-9.92322
▁countless	-9.92322
▁crippled	-9.92322
▁crushed	-9.92322
▁depend	-9.92322
▁described	-9.92322
▁develop	-9.92322
▁digging	-9.92322
▁discord	-9.92322
▁doesnt	-9.92322
▁dos	-9.92322
▁double	-9.92322
▁dramatic	-9.92322
▁ear	-9.92322
▁eaten	-9.92322
▁ect	-9.92322
▁ekg	-9.92322
▁elsewhere	-9.92322
▁emptiness	-9.92322
▁enter	-9.92322
▁excessive	-9.92322
▁exercising	-9.92322
▁expensive	-9.92322
▁exposed	-9.92322
▁extent	-9.92322
▁facade	-9.92322
▁factory	-9.92322
▁fan	-9.92322
▁film	-9.92322
▁forgive	-9.92322
▁frustration	-9.92322
▁functional	-9.92322
▁gay	-9.92322
▁ghost	-9.92322
▁gle	-9.92322
▁gpa	-9.92322
▁graduation	-9.92322
▁grown	-9.92322
▁guidance	-9.92322
▁hangout	-9.92322
▁happier	-9.92322
▁highschool	-9.92322
▁highway	-9.92322
▁hire	-9.92322
▁honor	-9.92322
▁horribly	-9.92322
▁ignorant	-9.92322
▁include	-9.92322
▁incredible	-9.92322
▁infected	-9.92322
▁insight	-9.92322
▁interact	-9.92322
▁invited	-9.92322
▁involved	-9.92322
▁journal	-9.92322
▁judging	-9.92322
▁knife	-9.92322
▁l	-9.92322
▁lamictal	-9.92322
▁lasted	-9.92322
▁lastly	-9.92322
▁latter	-9.92322
▁legal	-9.92322
▁lil	-9.92322
▁limit	-9.92322
▁lock	-9.92322
▁logically	-9.92322
▁mall	-9.92322
▁manifest	-9.92322
▁marriage	-9.92322
▁meditate	-9.92322
▁minimal	-9.92322
▁mirtazapine	-9.92322
▁mixed	-9.92322
▁monitor	-9.92322
▁monster	-9.92322
▁needing	-9.92322
▁needle	-9.92322
▁negativity	-9.92322
▁neighbor	-9.92322
▁neighborhood	-9.92322
▁niece	-9.92322
▁nothingness	-9.92322
▁numbing	-9.92322
▁numerous	-9.92322
▁object	-9.92322
▁obsessive	-9.92322
▁occasional	-9.92322
▁odds	-9.92322
▁offmychest	-9.92322
▁optimistic	-9.92322
▁original	-9.92322
▁pant	-9.92322
▁passionate	-9.92322
▁perhaps	-9.92322
▁phd	-9.92322
▁photo	-9.92322
▁pile	-9.92322
▁piling	-9.92322
▁plate	-9.92322
▁police	-9.92322
▁potentially	-9.92322
▁prepared	-9.92322
▁presentation	-9.92322
▁prevent	-9.92322
▁product	-9.92322
▁promise	-9.92322
▁promised	-9.92322
▁purchase	-9.92322
▁quote	-9.92322
▁race	-9.92322
▁rage	-9.92322
▁ramble	-9.92322
▁ray	-9.92322
▁record	-9.92322
▁recover	-9.92322
▁reflux	-9.92322
▁refused	-9.92322
▁rejected	-9.92322
▁relieved	-9.92322
▁remedy	-9.92322
▁remembering	-9.92322
▁remind	-9.92322
▁remove	-9.92322
▁replaying	-9.92322
▁replied	-9.92322
▁reported	-9.92322
▁responded	-9.92322
▁returned	-9.92322
▁romantic	-9.92322
▁roommate	-9.92322
▁row	-9.92322
▁rv	-9.92322
▁scalp	-9.92322
▁scheduled	-9.92322
▁scratch	-9.92322
▁screwed	-9.92322
▁season	-9.92322
▁sertraline	-9.92322
▁server	-9.92322
▁setting	-9.92322
▁shop	-9.92322
▁shortness	-9.92322
▁showed	-9.92322
▁shuts	-9.92322
▁signed	-9.92322
▁sky	-9.92322
▁snack	-9.92322
▁spam	-9.92322
▁spell	-9.92322
▁spoken	-9.92322
▁stare	-9.92322
▁steal	-9.92322
▁stood	-9.92322
▁strategy	-9.92322
▁succeed	-9.92322
▁sucked	-9.92322
▁sufferer	-9.92322
▁surely	-9.92322
▁swing	-9.92322
▁tea	-9.92322
▁theory	-9.92322
▁threw	-9.92322
▁tiring	-9.92322
▁tone	-9.92322
▁touched	-9.92322
▁trans	-9.92322
▁trash	-9.92322
▁traveling	-9.92322
▁tremor	-9.92322
▁typical	-9.92322
▁uk	-9.92322
▁ungrateful	-9.92322
▁unhealthy	-9.92322
▁vegetable	-9.92322
▁via	-9.92322
▁vibe	-9.92322
▁victim	-9.92322
▁visited	-9.92322
▁vomit	-9.92322
▁vomiting	-9.92322
▁waited	-9.92322
▁whats	-9.92322
▁wherever	-9.92322
▁winter	-9.92322
▁wisdom	-9.92322
▁wow	-9.92322
▁yawn	-9.92322
▁zombie	-9.92322
▁2018	-10.1055
▁25mg	-10.1055
▁34	-10.1055
▁abilify	-10.1055
▁achieve	-10.1055
▁acid	-10.1055
▁adderall	-10.1055
▁additional	-10.1055
▁adopted	-10.1055
▁advantage	-10.1055
▁aggressive	-10.1055
▁allowing	-10.1055
▁annoys	-10.1055
▁answered	-10.1055
▁apologized	-10.1055
▁appears	-10.1055
▁apple	-10.1055
▁apply	-10.1055
▁asks	-10.1055
▁asthma	-10.1055
▁awhile	-10.1055
▁balance	-10.1055
▁band	-10.1055
▁bar	-10.1055
▁bass	-10.1055
▁bat	-10.1055
▁beforehand	-10.1055
▁behavioral	-10.1055
▁blaming	-10.1055
▁blanket	-10.1055
▁bleak	-10.1055
▁blocked	-10.1055
▁boost	-10.1055
▁bpm	-10.1055
▁breakfast	-10.1055
▁browsing	-10.1055
▁capacity	-10.1055
▁cashier	-10.1055
▁casual	-10.1055
▁casually	-10.1055
▁celexa	-10.1055
▁challenge	-10.1055
▁christmas	-10.1055
▁citalopram	-10.1055
▁click	-10.1055
▁clock	-10.1055
▁clot	-10.1055
▁cloud	-10.1055
▁collapse	-10.1055
▁compare	-10.1055
▁complaint	-10.1055
▁complex	-10.1055
▁concrete	-10.1055
▁concussion	-10.1055
▁confrontation	-10.1055
▁confronted	-10.1055
▁connected	-10.1055
▁consciousness	-10.1055
▁consequence	-10.1055
▁continuously	-10.1055
▁corner	-10.1055
▁costume	-10.1055
▁couldnt	-10.1055
▁court	-10.1055
▁crack	-10.1055
▁crawling	-10.1055
▁cruel	-10.1055
▁ct	-10.1055
▁curl	-10.1055
▁damaged	-10.1055
▁dangerous	-10.1055
▁debating	-10.1055
▁deciding	-10.1055
▁deed	-10.1055
▁demon	-10.1055
▁dense	-10.1055
▁detached	-10.1055
▁determined	-10.1055
▁devastated	-10.1055
▁developing	-10.1055
▁disaster	-10.1055
▁dismiss	-10.1055
▁dismissed	-10.1055
▁distracting	-10.1055
▁divorce	-10.1055
▁dollar	-10.1055
▁downright	-10.1055
▁downstairs	-10.1055
▁drama	-10.1055
▁driver	-10.1055
▁dunno	-10.1055
▁duty	-10.1055
▁dy	-10.1055
▁emergency	-10.1055
▁employer	-10.1055
▁enjoyable	-10.1055
▁enjoyment	-10.1055
▁error	-10.1055
▁essay	-10.1055
▁excitement	-10.1055
▁excruciating	-10.1055
▁exhale	-10.1055
▁existed	-10.1055
▁expose	-10.1055
▁exposure	-10.1055
▁expressed	-10.1055
▁expressing	-10.1055
▁external	-10.1055
▁facing	-10.1055
▁famous	-10.1055
▁fatigued	-10.1055
▁fed	-10.1055
▁fellow	-10.1055
▁filling	-10.1055
▁finance	-10.1055
▁finishing	-10.1055
▁flaw	-10.1055
▁flow	-10.1055
▁flying	-10.1055
▁fool	-10.1055
▁foreign	-10.1055
▁fortunate	-10.1055
▁freaked	-10.1055
▁freeze	-10.1055
▁froze	-10.1055
▁frozen	-10.1055
▁funeral	-10.1055
▁gap	-10.1055
▁ghosted	-10.1055
▁goddamn	-10.1055
▁googling	-10.1055
▁government	-10.1055
▁grabbed	-10.1055
▁grad	-10.1055
▁grocery	-10.1055
▁gun	-10.1055
▁healing	-10.1055
▁healthcare	-10.1055
▁horror	-10.1055
▁hospitalized	-10.1055
▁household	-10.1055
▁humiliated	-10.1055
▁hundred	-10.1055
▁hurtful	-10.1055
▁hydroxyzine	-10.1055
▁hydroxzine	-10.1055
▁ice	-10.1055
▁idek	-10.1055
▁identity	-10.1055
▁ik	-10.1055
▁imagining	-10.1055
▁immediate	-10.1055
▁income	-10.1055
▁indeed	-10.1055
▁independent	-10.1055
▁induced	-10.1055
▁inducing	-10.1055
▁inflammation	-10.1055
▁injury	-10.1055
▁inner	-10.1055
▁innocent	-10.1055
▁insisted	-10.1055
▁instance	-10.1055
▁instant	-10.1055
▁intentionally	-10.1055
▁invalidate	-10.1055
▁irl	-10.1055
▁irrationally	-10.1055
▁irritable	-10.1055
▁ish	-10.1055
▁isolating	-10.1055
▁item	-10.1055
▁jerk	-10.1055
▁join	-10.1055
▁juice	-10.1055
▁laid	-10.1055
▁laughed	-10.1055
▁layer	-10.1055
▁legit	-10.1055
▁libido	-10.1055
▁lied	-10.1055
▁lightheaded	-10.1055
▁link	-10.1055
▁lmao	-10.1055
▁load	-10.1055
▁loudly	-10.1055
▁lt	-10.1055
▁mate	-10.1055
▁meaningful	-10.1055
▁measure	-10.1055
▁mediocre	-10.1055
▁men	-10.1055
▁messaging	-10.1055
▁messing	-10.1055
▁metal	-10.1055
▁midst	-10.1055
▁moon	-10.1055
▁motivate	-10.1055
▁mri	-10.1055
▁n	-10.1055
▁naked	-10.1055
▁narcissistic	-10.1055
▁negatively	-10.1055
▁norm	-10.1055
▁notebook	-10.1055
▁notification	-10.1055
▁november	-10.1055
▁nowadays	-10.1055
▁nursing	-10.1055
▁objectively	-10.1055
▁org	-10.1055
▁outcome	-10.1055
▁outfit	-10.1055
▁outsider	-10.1055
▁overdose	-10.1055
▁overweight	-10.1055
▁oxygen	-10.1055
▁page	-10.1055
▁panicky	-10.1055
▁parking	-10.1055
▁participate	-10.1055
▁partying	-10.1055
▁passive	-10.1055
▁perceived	-10.1055
▁petty	-10.1055
▁pfizer	-10.1055
▁phobia	-10.1055
▁policy	-10.1055
▁popular	-10.1055
▁pounding	-10.1055
▁pray	-10.1055
▁praying	-10.1055
▁preface	-10.1055
▁prepare	-10.1055
▁presence	-10.1055
▁previously	-10.1055
▁prison	-10.1055
▁pristiq	-10.1055
▁promising	-10.1055
▁provided	-10.1055
▁psychological	-10.1055
▁pulse	-10.1055
▁punch	-10.1055
▁pursuing	-10.1055
▁qualified	-10.1055
▁rambling	-10.1055
▁rational	-10.1055
▁realisation	-10.1055
▁realization	-10.1055
▁reduced	-10.1055
▁reflecting	-10.1055
▁regularly	-10.1055
▁rejection	-10.1055
▁relapse	-10.1055
▁relative	-10.1055
▁relaxing	-10.1055
▁remaining	-10.1055
▁reminded	-10.1055
▁reminder	-10.1055
▁reminds	-10.1055
▁repeated	-10.1055
▁repeatedly	-10.1055
▁report	-10.1055
▁respectful	-10.1055
▁resume	-10.1055
▁ride	-10.1055
▁ripped	-10.1055
▁robot	-10.1055
▁rolling	-10.1055
▁romantically	-10.1055
▁route	-10.1055
▁ruminating	-10.1055
▁salad	-10.1055
▁sarah	-10.1055
▁scene	-10.1055
▁schizophrenia	-10.1055
▁score	-10.1055
▁scratching	-10.1055
▁screamed	-10.1055
▁search	-10.1055
▁security	-10.1055
▁seemingly	-10.1055
▁sexually	-10.1055
▁sharp	-10.1055
▁shelf	-10.1055
▁shooting	-10.1055
▁shouldnt	-10.1055
▁shutting	-10.1055
▁significantly	-10.1055
▁skinny	-10.1055
▁skip	-10.1055
▁sleepy	-10.1055
▁slipped	-10.1055
▁slipping	-10.1055
▁slowing	-10.1055
▁soft	-10.1055
▁sold	-10.1055
▁solved	-10.1055
▁span	-10.1055
▁spare	-10.1055
▁spectrum	-10.1055
▁spin	-10.1055
▁spring	-10.1055
▁square	-10.1055
▁stabbing	-10.1055
▁star	-10.1055
▁status	-10.1055
▁stem	-10.1055
▁string	-10.1055
▁subsided	-10.1055
▁substance	-10.1055
▁suit	-10.1055
▁sum	-10.1055
▁surgeon	-10.1055
▁surprised	-10.1055
▁survival	-10.1055
▁swallow	-10.1055
▁swollen	-10.1055
▁temper	-10.1055
▁threatened	-10.1055
▁thus	-10.1055
▁tinder	-10.1055
▁tiny	-10.1055
▁tissue	-10.1055
▁torture	-10.1055
▁trade	-10.1055
▁trait	-10.1055
▁truthfully	-10.1055
▁tuesday	-10.1055
▁un	-10.1055
▁unlucky	-10.1055
▁unrealistic	-10.1055
▁untreated	-10.1055
▁unwanted	-10.1055
▁upper	-10.1055
▁ups	-10.1055
▁valid	-10.1055
▁validation	-10.1055
▁verbally	-10.1055
▁violence	-10.1055
▁virtual	-10.1055
▁virus	-10.1055
▁wash	-10.1055
▁weather	-10.1055
▁website	-10.1055
▁whatsoever	-10.1055
▁whilst	-10.1055
▁willpower	-10.1055
▁wood	-10.1055
▁worn	-10.1055
▁worsened	-10.1055
▁wtf	-10.1055
▁yellow	-10.1055
▁yep	-10.1055
▁000	-10.3287
▁15mg	-10.3287
▁18f	-10.3287
▁1mg	-10.3287
▁28	-10.3287
▁35	-10.3287
▁8th	-10.3287
▁abandonment	-10.3287
▁acute	-10.3287
▁adam	-10.3287
▁addition	-10.3287
▁admitted	-10.3287
▁adrenaline	-10.3287
▁aid	-10.3287
▁alcoholic	-10.3287
▁alleviate	-10.3287
▁allows	-10.3287
▁alongside	-10.3287
▁amazon	-10.3287
▁america	-10.3287
▁among	-10.3287
▁amt	-10.3287
▁ankle	-10.3287
▁arrived	-10.3287
▁arrogant	-10.3287
▁aspergers	-10.3287
▁aspiration	-10.3287
▁assistance	-10.3287
▁attachment	-10.3287
▁attending	-10.3287
▁aunt	-10.3287
▁autistic	-10.3287
▁bachelor	-10.3287
▁baseline	-10.3287
▁bath	-10.3287
▁battling	-10.3287
▁bet	-10.3287
▁birth	-10.3287
▁blocking	-10.3287
▁blow	-10.3287
▁bob	-10.3287
▁bomb	-10.3287
▁bound	-10.3287
▁boundary	-10.3287
▁bp	-10.3287
▁brave	-10.3287
▁bridge	-10.3287
▁bubble	-10.3287
▁bug	-10.3287
▁bullet	-10.3287
▁bump	-10.3287
▁bumped	-10.3287
▁burned	-10.3287
▁bus	-10.3287
▁buspirone	-10.3287
▁butt	-10.3287
▁button	-10.3287
▁camp	-10.3287
▁canal	-10.3287
▁cancel	-10.3287
▁cash	-10.3287
▁cautious	-10.3287
▁celebrate	-10.3287
▁certified	-10.3287
▁chanel	-10.3287
▁charity	-10.3287
▁choosing	-10.3287
▁christ	-10.3287
▁claim	-10.3287
▁clarity	-10.3287
▁classroom	-10.3287
▁cleaned	-10.3287
▁clinic	-10.3287
▁closely	-10.3287
▁closing	-10.3287
▁coincidence	-10.3287
▁communicate	-10.3287
▁comparison	-10.3287
▁compete	-10.3287
▁comprehend	-10.3287
▁concentration	-10.3287
▁concept	-10.3287
▁connecting	-10.3287
▁consume	-10.3287
▁contemplating	-10.3287
▁contract	-10.3287
▁contribute	-10.3287
▁controlling	-10.3287
▁convincing	-10.3287
▁core	-10.3287
▁correctly	-10.3287
▁county	-10.3287
▁cousin	-10.3287
▁craving	-10.3287
▁creating	-10.3287
▁creativity	-10.3287
▁creator	-10.3287
▁creep	-10.3287
▁creeping	-10.3287
▁crohn	-10.3287
▁cross	-10.3287
▁crossed	-10.3287
▁cuddle	-10.3287
▁culture	-10.3287
▁cymbalta	-10.3287
▁daytime	-10.3287
▁de	-10.3287
▁decade	-10.3287
▁december	-10.3287
▁decency	-10.3287
▁defeated	-10.3287
▁define	-10.3287
▁definition	-10.3287
▁delete	-10.3287
▁deleted	-10.3287
▁dependent	-10.3287
▁depression1	-10.3287
▁destructive	-10.3287
▁diary	-10.3287
▁dick	-10.3287
▁direct	-10.3287
▁director	-10.3287
▁disappointing	-10.3287
▁disconnected	-10.3287
▁discouraged	-10.3287
▁disgust	-10.3287
▁disgusted	-10.3287
▁dislike	-10.3287
▁disregard	-10.3287
▁distress	-10.3287
▁dm	-10.3287
▁downward	-10.3287
▁drawing	-10.3287
▁dreaded	-10.3287
▁dull	-10.3287
▁dysfunctional	-10.3287
▁dyspnea	-10.3287
▁earn	-10.3287
▁edible	-10.3287
▁egg	-10.3287
▁emotionless	-10.3287
▁encounter	-10.3287
▁endure	-10.3287
▁enemy	-10.3287
▁entertainment	-10.3287
▁entrance	-10.3287
▁escitalopram	-10.3287
▁ethic	-10.3287
▁evaluating	-10.3287
▁evidence	-10.3287
▁evrything	-10.3287
▁exists	-10.3287
▁expects	-10.3287
▁explanation	-10.3287
▁eyelash	-10.3287
▁facebook	-10.3287
▁facility	-10.3287
▁fantastic	-10.3287
▁favor	-10.3287
▁favorite	-10.3287
▁fb	-10.3287
▁fee	-10.3287
▁feed	-10.3287
▁feedback	-10.3287
▁flame	-10.3287
▁flared	-10.3287
▁flu	-10.3287
▁foggy	-10.3287
▁fomo	-10.3287
▁fortunately	-10.3287
▁fragile	-10.3287
▁frequent	-10.3287
▁fulfill	-10.3287
▁fuzzy	-10.3287
▁g	-10.3287
▁gaslighting	-10.3287
▁gloomy	-10.3287
▁googled	-10.3287
▁grab	-10.3287
▁gradually	-10.3287
▁granted	-10.3287
▁greedy	-10.3287
▁grief	-10.3287
▁grip	-10.3287
▁gross	-10.3287
▁guard	-10.3287
▁h	-10.3287
▁handful	-10.3287
▁hangover	-10.3287
▁happily	-10.3287
▁heartbreak	-10.3287
▁heaven	-10.3287
▁height	-10.3287
▁helpless	-10.3287
▁hero	-10.3287
▁hesitant	-10.3287
▁hike	-10.3287
▁hip	-10.3287
▁hiv	-10.3287
▁hive	-10.3287
▁holiday	-10.3287
▁hollow	-10.3287
▁hopelessness	-10.3287
▁hospitalization	-10.3287
▁hotline	-10.3287
▁humanity	-10.3287
▁humor	-10.3287
▁hung	-10.3287
▁hypochondria	-10.3287
▁hypocrite	-10.3287
▁icu	-10.3287
▁illusion	-10.3287
▁imaginary	-10.3287
▁immense	-10.3287
▁improving	-10.3287
▁impulse	-10.3287
▁inability	-10.3287
▁incapable	-10.3287
▁incompetent	-10.3287
▁indifference	-10.3287
▁individual	-10.3287
▁inevitable	-10.3287
▁influence	-10.3287
▁instinct	-10.3287
▁intention	-10.3287
▁internship	-10.3287
▁invite	-10.3287
▁involve	-10.3287
▁irritability	-10.3287
▁jealousy	-10.3287
▁joint	-10.3287
▁judgment	-10.3287
▁july	-10.3287
▁jumped	-10.3287
▁kindly	-10.3287
▁klonopin	-10.3287
▁lady	-10.3287
▁laptop	-10.3287
▁legitimately	-10.3287
▁length	-10.3287
▁letter	-10.3287
▁lighter	-10.3287
▁lightheadedness	-10.3287
▁limb	-10.3287
▁loan	-10.3287
▁loathing	-10.3287
▁longest	-10.3287
▁loose	-10.3287
▁lowered	-10.3287
▁manageable	-10.3287
▁manner	-10.3287
▁market	-10.3287
▁marketing	-10.3287
▁medicated	-10.3287
▁meh	-10.3287
▁meltdown	-10.3287
▁mere	-10.3287
▁military	-10.3287
▁mindlessly	-10.3287
▁minecraft	-10.3287
▁misunderstood	-10.3287
▁mix	-10.3287
▁mobile	-10.3287
▁motion	-10.3287
▁muster	-10.3287
▁native	-10.3287
▁nighttime	-10.3287
▁nonetheless	-10.3287
▁objective	-10.3287
▁obsession	-10.3287
▁occupied	-10.3287
▁ofc	-10.3287
▁op	-10.3287
▁organ	-10.3287
▁outlet	-10.3287
▁owe	-10.3287
▁owner	-10.3287
▁palm	-10.3287
▁pause	-10.3287
▁paxil	-10.3287
▁paycheck	-10.3287
▁pcp	-10.3287
▁peak	-10.3287
▁peer	-10.3287
▁perception	-10.3287
▁persist	-10.3287
▁phase	-10.3287
▁philosophy	-10.3287
▁piss	-10.3287
▁pizza	-10.3287
▁plane	-10.3287
▁platform	-10.3287
▁pleaded	-10.3287
▁pls	-10.3287
▁polite	-10.3287
▁pot	-10.3287
▁ppl	-10.3287
▁prefer	-10.3287
▁pregnancy	-10.3287
▁preparing	-10.3287
▁pressuring	-10.3287
▁prevents	-10.3287
▁pride	-10.3287
▁privileged	-10.3287
▁processing	-10.3287
▁procrastination	-10.3287
▁psychologically	-10.3287
▁punish	-10.3287
▁pushy	-10.3287
▁rabbit	-10.3287
▁ranting	-10.3287
▁raped	-10.3287
▁rationally	-10.3287
▁reacting	-10.3287
▁reacts	-10.3287
▁realistically	-10.3287
▁recommending	-10.3287
▁reducing	-10.3287
▁reference	-10.3287
▁referral	-10.3287
▁refill	-10.3287
▁reflect	-10.3287
▁remembered	-10.3287
▁remorse	-10.3287
▁remote	-10.3287
▁replace	-10.3287
▁replying	-10.3287
▁repressed	-10.3287
▁request	-10.3287
▁required	-10.3287
▁reset	-10.3287
▁resilient	-10.3287
▁restart	-10.3287
▁restroom	-10.3287
▁retail	-10.3287
▁ridiculously	-10.3287
▁rise	-10.3287
▁rotten	-10.3287
▁rub	-10.3287
▁sadly	-10.3287
▁safety	-10.3287
▁sake	-10.3287
▁sand	-10.3287
▁scaring	-10.3287
▁schoolwork	-10.3287
▁section	-10.3287
▁sell	-10.3287
▁separate	-10.3287
▁separated	-10.3287
▁serotonin	-10.3287
▁serving	-10.3287
▁settle	-10.3287
▁seven	-10.3287
▁shallow	-10.3287
▁shape	-10.3287
▁shared	-10.3287
▁sheet	-10.3287
▁shortly	-10.3287
▁shutdown	-10.3287
▁sickness	-10.3287
▁sinking	-10.3287
▁skyrocket	-10.3287
▁slightest	-10.3287
▁slip	-10.3287
▁smiled	-10.3287
▁snapped	-10.3287
▁sought	-10.3287
▁sounded	-10.3287
▁sounding	-10.3287
▁standard	-10.3287
▁stated	-10.3287
▁statement	-10.3287
▁steroid	-10.3287
▁sticking	-10.3287
▁strung	-10.3287
▁stubborn	-10.3287
▁subconsciously	-10.3287
▁submitted	-10.3287
▁submitting	-10.3287
▁successfully	-10.3287
▁sugar	-10.3287
▁suggest	-10.3287
▁supervisor	-10.3287
▁surrounding	-10.3287
▁survived	-10.3287
▁switch	-10.3287
▁switching	-10.3287
▁table	-10.3287
▁talent	-10.3287
▁tank	-10.3287
▁tantrum	-10.3287
▁tapering	-10.3287
▁tearing	-10.3287
▁temperature	-10.3287
▁temporarily	-10.3287
▁terror	-10.3287
▁thankful	-10.3287
▁thin	-10.3287
▁threatening	-10.3287
▁thriving	-10.3287
▁thyroid	-10.3287
▁tie	-10.3287
▁tornado	-10.3287
▁toward	-10.3287
▁traffic	-10.3287
▁traumatic	-10.3287
▁traumatized	-10.3287
▁travelling	-10.3287
▁treating	-10.3287
▁tree	-10.3287
▁tremendously	-10.3287
▁trivial	-10.3287
▁truck	-10.3287
▁trusting	-10.3287
▁tummy	-10.3287
▁turkey	-10.3287
▁tw	-10.3287
▁twisted	-10.3287
▁ugh	-10.3287
▁ultrasound	-10.3287
▁unattractive	-10.3287
▁uncontrollably	-10.3287
▁underage	-10.3287
▁uneasy	-10.3287
▁unknown	-10.3287
▁unpleasant	-10.3287
▁unstable	-10.3287
▁unstoppable	-10.3287
▁user	-10.3287
▁utm	-10.3287
▁vanish	-10.3287
▁wander	-10.3287
▁ward	-10.3287
▁weakness	-10.3287
▁weekly	-10.3287
▁weirdly	-10.3287
▁wfh	-10.3287
▁wide	-10.3287
▁wind	-10.3287
▁window	-10.3287
▁witnessed	-10.3287
▁worsening	-10.3287
▁wrap	-10.3287
▁yay	-10.3287
▁zoom	-10.3287
▁00am	-10.6164
▁140	-10.6164
▁150mg	-10.6164
▁180	-10.6164
▁20mg	-10.6164
▁21f	-10.6164
▁23f	-10.6164
▁23m	-10.6164
▁300mg	-10.6164
▁30mg	-10.6164
▁31	-10.6164
▁3am	-10.6164
▁40mg	-10.6164
▁abaissement	-10.6164
▁abandon	-10.6164
▁abdomen	-10.6164
▁absorbed	-10.6164
▁accomplished	-10.6164
▁accounting	-10.6164
▁accumulated	-10.6164
▁accurate	-10.6164
▁achievement	-10.6164
▁adding	-10.6164
▁adequate	-10.6164
▁admission	-10.6164
▁advised	-10.6164
▁affection	-10.6164
▁afterlife	-10.6164
▁aftermath	-10.6164
▁afterward	-10.6164
▁airport	-10.6164
▁aisle	-10.6164
▁ala	-10.6164
▁albeit	-10.6164
▁album	-10.6164
▁alert	-10.6164
▁alternate	-10.6164
▁ambitious	-10.6164
▁ambulance	-10.6164
▁amends	-10.6164
▁android	-10.6164
▁antibiotic	-10.6164
▁antihistamine	-10.6164
▁anxiousness	-10.6164
▁appearing	-10.6164
▁applied	-10.6164
▁asap	-10.6164
▁assistant	-10.6164
▁assumed	-10.6164
▁assure	-10.6164
▁attract	-10.6164
▁automatically	-10.6164
▁avail	-10.6164
▁bacteria	-10.6164
▁baking	-10.6164
▁balanced	-10.6164
▁balding	-10.6164
▁barrier	-10.6164
▁bartender	-10.6164
▁basketball	-10.6164
▁battled	-10.6164
▁beach	-10.6164
▁behave	-10.6164
▁behavioural	-10.6164
▁belly	-10.6164
▁bent	-10.6164
▁benzo	-10.6164
▁betrayed	-10.6164
▁bettering	-10.6164
▁bin	-10.6164
▁binge	-10.6164
▁bio	-10.6164
▁biological	-10.6164
▁biology	-10.6164
▁bla	-10.6164
▁bleed	-10.6164
▁blink	-10.6164
▁blueberry	-10.6164
▁blurry	-10.6164
▁booking	-10.6164
▁booze	-10.6164
▁boredom	-10.6164
▁bottled	-10.6164
▁bounced	-10.6164
▁bowel	-10.6164
▁bowl	-10.6164
▁brand	-10.6164
▁brat	-10.6164
▁breathed	-10.6164
▁brink	-10.6164
▁bruh	-10.6164
▁brushing	-10.6164
▁buddy	-10.6164
▁bully	-10.6164
▁burdening	-10.6164
▁burnout	-10.6164
▁calmed	-10.6164
▁campus	-10.6164
▁canceled	-10.6164
▁cancelled	-10.6164
▁caretaker	-10.6164
▁carried	-10.6164
▁carrying	-10.6164
▁category	-10.6164
▁cathartic	-10.6164
▁ceiling	-10.6164
▁central	-10.6164
▁chapter	-10.6164
▁charged	-10.6164
▁chart	-10.6164
▁checkup	-10.6164
▁cheese	-10.6164
▁chemistry	-10.6164
▁chew	-10.6164
▁chilling	-10.6164
▁chocolate	-10.6164
▁christian	-10.6164
▁claimed	-10.6164
▁clarify	-10.6164
▁clash	-10.6164
▁claw	-10.6164
▁cleared	-10.6164
▁clearing	-10.6164
▁clench	-10.6164
▁clerk	-10.6164
▁closure	-10.6164
▁coach	-10.6164
▁coding	-10.6164
▁cognitively	-10.6164
▁color	-10.6164
▁comfy	-10.6164
▁comma	-10.6164
▁commented	-10.6164
▁communicating	-10.6164
▁comparing	-10.6164
▁competitive	-10.6164
▁complacent	-10.6164
▁concentrating	-10.6164
▁concerning	-10.6164
▁condescending	-10.6164
▁confessed	-10.6164
▁confirm	-10.6164
▁consciously	-10.6164
▁consent	-10.6164
▁consultation	-10.6164
▁consumed	-10.6164
▁contacting	-10.6164
▁contained	-10.6164
▁convulsing	-10.6164
▁cook	-10.6164
▁cooped	-10.6164
▁cop	-10.6164
▁counselling	-10.6164
▁counsellor	-10.6164
▁cp	-10.6164
▁cptsd	-10.6164
▁cramp	-10.6164
▁cramped	-10.6164
▁crash	-10.6164
▁crashed	-10.6164
▁crave	-10.6164
▁cream	-10.6164
▁critical	-10.6164
▁cup	-10.6164
▁cured	-10.6164
▁curled	-10.6164
▁cursed	-10.6164
▁cursing	-10.6164
▁dance	-10.6164
▁dang	-10.6164
▁dated	-10.6164
▁deaf	-10.6164
▁dedicated	-10.6164
▁deepest	-10.6164
▁defend	-10.6164
▁defense	-10.6164
▁delay	-10.6164
▁delusional	-10.6164
▁denial	-10.6164
▁denied	-10.6164
▁deny	-10.6164
▁depends	-10.6164
▁depersonalization	-10.6164
▁deserved	-10.6164
▁deserves	-10.6164
▁deserving	-10.6164
▁despair	-10.6164
▁despise	-10.6164
▁determine	-10.6164
▁diagnose	-10.6164
▁dig	-10.6164
▁dilemma	-10.6164
▁directed	-10.6164
▁dirt	-10.6164
▁dirty	-10.6164
▁disappoint	-10.6164
▁discussing	-10.6164
▁disgrace	-10.6164
▁dish	-10.6164
▁disposable	-10.6164
▁distressing	-10.6164
▁ditched	-10.6164
▁divert	-10.6164
▁doll	-10.6164
▁dominant	-10.6164
▁donut	-10.6164
▁doubting	-10.6164
▁drank	-10.6164
▁dress	-10.6164
▁drifting	-10.6164
▁driven	-10.6164
▁dropout	-10.6164
▁dug	-10.6164
▁dumped	-10.6164
▁dust	-10.6164
▁echocardiogram	-10.6164
▁editing	-10.6164
▁effortless	-10.6164
▁eight	-10.6164
▁elderly	-10.6164
▁electronics	-10.6164
▁elementary	-10.6164
▁emailed	-10.6164
▁embarrassment	-10.6164
▁embrace	-10.6164
▁emo	-10.6164
▁empathetic	-10.6164
▁empathy	-10.6164
▁employed	-10.6164
▁employment	-10.6164
▁engage	-10.6164
▁enhanced	-10.6164
▁ent	-10.6164
▁entertaining	-10.6164
▁equal	-10.6164
▁equipment	-10.6164
▁essence	-10.6164
▁established	-10.6164
▁evaluation	-10.6164
▁evil	-10.6164
▁exaggerating	-10.6164
▁excellent	-10.6164
▁excess	-10.6164
▁exchange	-10.6164
▁exciting	-10.6164
▁existent	-10.6164
▁expected	-10.6164
▁expense	-10.6164
▁explode	-10.6164
▁exploring	-10.6164
▁extended	-10.6164
▁extrovert	-10.6164
▁eyelid	-10.6164
▁fading	-10.6164
▁fate	-10.6164
▁favour	-10.6164
▁feared	-10.6164
▁fetal	-10.6164
▁financially	-10.6164
▁fishing	-10.6164
▁fixed	-10.6164
▁flair	-10.6164
▁flare	-10.6164
▁flash	-10.6164
▁fleeting	-10.6164
▁flirt	-10.6164
▁florida	-10.6164
▁flowing	-10.6164
▁fluoxetine	-10.6164
▁fly	-10.6164
▁fond	-10.6164
▁football	-10.6164
▁formally	-10.6164
▁forth	-10.6164
▁fought	-10.6164
▁fourth	-10.6164
▁frankly	-10.6164
▁freeway	-10.6164
▁freshman	-10.6164
▁frightening	-10.6164
▁fuckin	-10.6164
▁fulfilling	-10.6164
▁fundraising	-10.6164
▁generalised	-10.6164
▁gentle	-10.6164
▁gentleness	-10.6164
▁gerd	-10.6164
▁gig	-10.6164
▁giggling	-10.6164
▁globe	-10.6164
▁goodnight	-10.6164
▁grandparent	-10.6164
▁grieving	-10.6164
▁groggy	-10.6164
▁growth	-10.6164
▁guaranteed	-10.6164
▁guideline	-10.6164
▁halcion	-10.6164
▁hallway	-10.6164
▁handling	-10.6164
▁harmed	-10.6164
▁hat	-10.6164
▁haunting	-10.6164
▁headspace	-10.6164
▁healed	-10.6164
▁heartbeat	-10.6164
▁heavier	-10.6164
▁hence	-10.6164
▁hermit	-10.6164
▁highest	-10.6164
▁hiking	-10.6164
▁hoped	-10.6164
▁horrendous	-10.6164
▁hotel	-10.6164
▁housemate	-10.6164
▁humble	-10.6164
▁ibs	-10.6164
▁ideally	-10.6164
▁identifying	-10.6164
▁ig	-10.6164
▁imbalance	-10.6164
▁immensely	-10.6164
▁immersive	-10.6164
▁immune	-10.6164
▁inadequate	-10.6164
▁inappropriate	-10.6164
▁inbox	-10.6164
▁inch	-10.6164
▁includes	-10.6164
▁inconvenience	-10.6164
▁incorrectly	-10.6164
▁india	-10.6164
▁inevitably	-10.6164
▁infinite	-10.6164
▁influenced	-10.6164
▁input	-10.6164
▁insanely	-10.6164
▁inspiration	-10.6164
▁intelligent	-10.6164
▁interacting	-10.6164
▁interfering	-10.6164
▁interviewed	-10.6164
▁introduce	-10.6164
▁introverted	-10.6164
▁inverse	-10.6164
▁invisible	-10.6164
▁involves	-10.6164
▁iphones	-10.6164
▁ironically	-10.6164
▁isolate	-10.6164
▁itch	-10.6164
▁iyo	-10.6164
▁jittery	-10.6164
▁journaling	-10.6164
▁judgmental	-10.6164
▁jumbled	-10.6164
▁jung	-10.6164
▁junk	-10.6164
▁jury	-10.6164
▁justified	-10.6164
▁key	-10.6164
▁kindness	-10.6164
▁kiss	-10.6164
▁label	-10.6164
▁landed	-10.6164
▁lane	-10.6164
▁lasting	-10.6164
▁laundry	-10.6164
▁laziness	-10.6164
▁learnt	-10.6164
▁lethargic	-10.6164
▁lifestyle	-10.6164
▁lift	-10.6164
▁lifted	-10.6164
▁linked	-10.6164
▁litteraly	-10.6164
▁loathe	-10.6164
▁locking	-10.6164
▁lonlyness	-10.6164
▁looming	-10.6164
▁loosing	-10.6164
▁lottery	-10.6164
▁loudness	-10.6164
▁lsd	-10.6164
▁lump	-10.6164
▁mac	-10.6164
▁magnesium	-10.6164
▁mam	-10.6164
▁manic	-10.6164
▁manifesting	-10.6164
▁manipulative	-10.6164
▁maoi	-10.6164
▁masculine	-10.6164
▁material	-10.6164
▁mattered	-10.6164
▁max	-10.6164
▁mdd	-10.6164
▁melatonin	-10.6164
▁meme	-10.6164
▁messy	-10.6164
▁migraine	-10.6164
▁mike	-10.6164
▁miller	-10.6164
▁mini	-10.6164
▁miracle	-10.6164
▁misdiagnosed	-10.6164
▁moody	-10.6164
▁murder	-10.6164
▁mute	-10.6164
▁nearby	-10.6164
▁neurotypical	-10.6164
▁nickname	-10.6164
▁nine	-10.6164
▁nofap	-10.6164
▁noon	-10.6164
▁normalcy	-10.6164
▁numbed	-10.6164
▁nyc	-10.6164
▁obligation	-10.6164
▁obsessed	-10.6164
▁obsessively	-10.6164
▁obstacle	-10.6164
▁obtained	-10.6164
▁occurred	-10.6164
▁occurrence	-10.6164
▁ocean	-10.6164
▁offline	-10.6164
▁oil	-10.6164
▁oldest	-10.6164
▁onset	-10.6164
▁operation	-10.6164
▁optometrist	-10.6164
▁oral	-10.6164
▁ordered	-10.6164
▁organise	-10.6164
▁organised	-10.6164
▁outgoing	-10.6164
▁outright	-10.6164
▁outta	-10.6164
▁overload	-10.6164
▁overly	-10.6164
▁overtime	-10.6164
▁pace	-10.6164
▁pacing	-10.6164
▁pair	-10.6164
▁panick	-10.6164
▁paralyzing	-10.6164
▁passively	-10.6164
▁patch	-10.6164
▁pb	-10.6164
▁pc	-10.6164
▁peacefully	-10.6164
▁pee	-10.6164
▁performance	-10.6164
▁peripheral	-10.6164
▁persistent	-10.6164
▁pharmacy	-10.6164
▁photography	-10.6164
▁piled	-10.6164
▁pillow	-10.6164
▁pin	-10.6164
▁plagued	-10.6164
▁plain	-10.6164
▁plant	-10.6164
▁plastic	-10.6164
▁plea	-10.6164
▁pocd	-10.6164
▁political	-10.6164
▁portion	-10.6164
▁powerful	-10.6164
▁praise	-10.6164
▁praised	-10.6164
▁prayed	-10.6164
▁predictable	-10.6164
▁prescribe	-10.6164
▁pressed	-10.6164
▁pressured	-10.6164
▁privilege	-10.6164
▁problematic	-10.6164
▁proceeded	-10.6164
▁procrastinate	-10.6164
▁produce	-10.6164
▁prof	-10.6164
▁professionally	-10.6164
▁prominent	-10.6164
▁prone	-10.6164
▁property	-10.6164
▁propranolol	-10.6164
▁protect	-10.6164
▁psyche	-10.6164
▁psychology	-10.6164
▁psychosis	-10.6164
▁psychotic	-10.6164
▁puberty	-10.6164
▁puke	-10.6164
▁purely	-10.6164
▁purple	-10.6164
▁qualification	-10.6164
▁queasy	-10.6164
▁questionnaire	-10.6164
▁quiz	-10.6164
▁raising	-10.6164
▁realise	-10.6164
▁reasoning	-10.6164
▁recall	-10.6164
▁receiving	-10.6164
▁recommendation	-10.6164
▁recurring	-10.6164
▁reduce	-10.6164
▁register	-10.6164
▁regretting	-10.6164
▁rejecting	-10.6164
▁relaxation	-10.6164
▁relieve	-10.6164
▁relive	-10.6164
▁remain	-10.6164
▁removed	-10.6164
▁replaced	-10.6164
▁replay	-10.6164
▁researched	-10.6164
▁resolution	-10.6164
▁resort	-10.6164
▁resource	-10.6164
▁resting	-10.6164
▁restless	-10.6164
▁resulted	-10.6164
▁resulting	-10.6164
▁retarded	-10.6164
▁returning	-10.6164
▁rib	-10.6164
▁ringing	-10.6164
▁rooted	-10.6164
▁rope	-10.6164
▁roughly	-10.6164
▁rubber	-10.6164
▁rumor	-10.6164
▁rural	-10.6164
▁rushing	-10.6164
▁saddest	-10.6164
▁safely	-10.6164
▁safer	-10.6164
▁salvage	-10.6164
▁salvation	-10.6164
▁san	-10.6164
▁sanity	-10.6164
▁satisfaction	-10.6164
▁satisfied	-10.6164
▁saturday	-10.6164
▁scheduling	-10.6164
▁scholarship	-10.6164
▁script	-10.6164
▁scroll	-10.6164
▁seasonal	-10.6164
▁secondary	-10.6164
▁seeker	-10.6164
▁seeming	-10.6164
▁senior	-10.6164
▁separation	-10.6164
▁seroquel	-10.6164
▁serve	-10.6164
▁setback	-10.6164
▁sexuality	-10.6164
▁shameful	-10.6164
▁shelter	-10.6164
▁shoe	-10.6164
▁shoot	-10.6164
▁shopping	-10.6164
▁shorter	-10.6164
▁shouted	-10.6164
▁showered	-10.6164
▁showering	-10.6164
▁simplest	-10.6164
▁simulation	-10.6164
▁singing	-10.6164
▁sink	-10.6164
▁sinus	-10.6164
▁sits	-10.6164
▁skipped	-10.6164
▁slave	-10.6164
▁sleeve	-10.6164
▁slower	-10.6164
▁slump	-10.6164
▁smarter	-10.6164
▁smell	-10.6164
▁smiling	-10.6164
▁snd	-10.6164
▁sneeze	-10.6164
▁socialising	-10.6164
▁soda	-10.6164
▁solid	-10.6164
▁sometime	-10.6164
▁soo	-10.6164
▁sooo	-10.6164
▁spaced	-10.6164
▁specialist	-10.6164
▁specially	-10.6164
▁specie	-10.6164
▁spoiled	-10.6164
▁stability	-10.6164
▁stadium	-10.6164
▁stall	-10.6164
▁starve	-10.6164
▁stimulus	-10.6164
▁stock	-10.6164
▁stream	-10.6164
▁stretch	-10.6164
▁strict	-10.6164
▁stricture	-10.6164
▁strongest	-10.6164
▁structure	-10.6164
▁studio	-10.6164
▁stuttering	-10.6164
▁style	-10.6164
▁subsequently	-10.6164
▁subside	-10.6164
▁sucking	-10.6164
▁sufficient	-10.6164
▁suffocating	-10.6164
▁suggests	-10.6164
▁suicidewatch	-10.6164
▁superior	-10.6164
▁supported	-10.6164
▁suppress	-10.6164
▁surprisingly	-10.6164
▁surroundings	-10.6164
▁surviving	-10.6164
▁swallowing	-10.6164
▁swelling	-10.6164
▁sympathy	-10.6164
▁tab	-10.6164
▁tablet	-10.6164
▁talkative	-10.6164
▁tattoo	-10.6164
▁taught	-10.6164
▁tax	-10.6164
▁taxing	-10.6164
▁technical	-10.6164
▁teenage	-10.6164
▁tender	-10.6164
▁terrifies	-10.6164
▁testing	-10.6164
▁texas	-10.6164
▁tf	-10.6164
▁thc	-10.6164
▁thick	-10.6164
▁thigh	-10.6164
▁thrive	-10.6164
▁throwaway	-10.6164
▁thumbnail	-10.6164
▁ticket	-10.6164
▁tied	-10.6164
▁tightly	-10.6164
▁tiktok	-10.6164
▁tingly	-10.6164
▁tiredness	-10.6164
▁toddler	-10.6164
▁tolerance	-10.6164
▁toughest	-10.6164
▁tracker	-10.6164
▁traditional	-10.6164
▁transphobic	-10.6164
▁trazadone	-10.6164
▁trial	-10.6164
▁tumor	-10.6164
▁typed	-10.6164
▁typo	-10.6164
▁uh	-10.6164
▁unaware	-10.6164
▁unbelievably	-10.6164
▁uncertainty	-10.6164
▁unconditionally	-10.6164
▁unconsciously	-10.6164
▁undergrad	-10.6164
▁underlying	-10.6164
▁undermine	-10.6164
▁unemployment	-10.6164
▁unfair	-10.6164
▁unlike	-10.6164
▁unreasonable	-10.6164
▁unsafe	-10.6164
▁untill	-10.6164
▁upcoming	-10.6164
▁uti	-10.6164
▁utter	-10.6164
▁valued	-10.6164
▁vanished	-10.6164
▁vaping	-10.6164
▁vicious	-10.6164
▁victory	-10.6164
▁violation	-10.6164
▁virtually	-10.6164
▁war	-10.6164
▁warned	-10.6164
▁wary	-10.6164
▁wasnt	-10.6164
▁weaker	-10.6164
▁wedding	-10.6164
▁weighed	-10.6164
▁welding	-10.6164
▁welp	-10.6164
▁whereas	-10.6164
▁wierd	-10.6164
▁wished	-10.6164
▁worthy	-10.6164
▁wrapped	-10.6164
▁wrist	-10.6164
▁writes	-10.6164
▁xvideos	-10.6164
▁ya	-10.6164
▁yard	-10.6164
▁yawning	-10.6164
▁yea	-10.6164
▁yo	-10.6164
▁yoga	-10.6164
▁youngest	-10.6164
▁1000	-11.0218
▁10am	-11.0218
▁10pm	-11.0218
▁10x	-11.0218
▁11pm	-11.0218
▁13f	-11.0218
▁143	-11.0218
▁14f	-11.0218
▁2000	-11.0218
▁21m	-11.0218
▁21st	-11.0218
▁24th	-11.0218
▁25f	-11.0218
▁2mg	-11.0218
▁300	-11.0218
▁3000	-11.0218
▁30ish	-11.0218
▁33	-11.0218
▁3a4	-11.0218
▁3x	-11.0218
▁4pm	-11.0218
▁50mg	-11.0218
▁5th	-11.0218
▁80bpm	-11.0218
▁_petition	-11.0218
▁aa	-11.0218
▁aaaaaaa	-11.0218
▁abdominal	-11.0218
▁abnormal	-11.0218
▁abomination	-11.0218
▁abroad	-11.0218
▁absent	-11.0218
▁absorbing	-11.0218
▁absurd	-11.0218
▁abt	-11.0218
▁abusing	-11.0218
▁abysmal	-11.0218
▁ac	-11.0218
▁academically	-11.0218
▁acceptable	-11.0218
▁acceptance	-11.0218
▁accommodate	-11.0218
▁accused	-11.0218
▁accustomed	-11.0218
▁acquaintance	-11.0218
▁activism	-11.0218
▁actress	-11.0218
▁adapt	-11.0218
▁adapting	-11.0218
▁adderal	-11.0218
▁addict	-11.0218
▁adjusting	-11.0218
▁administration	-11.0218
▁admittedly	-11.0218
▁admitting	-11.0218
▁adore	-11.0218
▁adulthood	-11.0218
▁advanced	-11.0218
▁advil	-11.0218
▁advisor	-11.0218
▁aesthetic	-11.0218
▁affordable	-11.0218
▁aged	-11.0218
▁agitated	-11.0218
▁agony	-11.0218
▁agriculture	-11.0218
▁aha	-11.0218
▁aka	-11.0218
▁al	-11.0218
▁alarm	-11.0218
▁alarming	-11.0218
▁alien	-11.0218
▁allergy	-11.0218
▁alley	-11.0218
▁aloof	-11.0218
▁altered	-11.0218
▁amd	-11.0218
▁amitriptyline	-11.0218
▁amongst	-11.0218
▁amped	-11.0218
▁amplifies	-11.0218
▁analogy	-11.0218
▁analyze	-11.0218
▁analyzing	-11.0218
▁anaphylaxis	-11.0218
▁anchor	-11.0218
▁angel	-11.0218
▁aninjusticemag	-11.0218
▁announced	-11.0218
▁anonymity	-11.0218
▁anonymously	-11.0218
▁answering	-11.0218
▁antagonize	-11.0218
▁apologetic	-11.0218
▁apparent	-11.0218
▁apprentice	-11.0218
▁appropriate	-11.0218
▁approved	-11.0218
▁arent	-11.0218
▁arguing	-11.0218
▁arise	-11.0218
▁armed	-11.0218
▁arranged	-11.0218
▁arrangement	-11.0218
▁arrested	-11.0218
▁arrive	-11.0218
▁articulate	-11.0218
▁artist	-11.0218
▁asd	-11.0218
▁ass	-11.0218
▁asshat	-11.0218
▁assumption	-11.0218
▁assured	-11.0218
▁aswell	-11.0218
▁attach	-11.0218
▁attempting	-11.0218
▁authoritative	-11.0218
▁autoimmune	-11.0218
▁aversion	-11.0218
▁avocado	-11.0218
▁avoidance	-11.0218
▁avoided	-11.0218
▁b12	-11.0218
▁ba	-11.0218
▁babbling	-11.0218
▁backstory	-11.0218
▁backyard	-11.0218
▁badass	-11.0218
▁baker	-11.0218
▁bakery	-11.0218
▁bald	-11.0218
▁bam	-11.0218
▁banned	-11.0218
▁barbie	-11.0218
▁basket	-11.0218
▁bcs	-11.0218
▁bean	-11.0218
▁beard	-11.0218
▁bearing	-11.0218
▁beauty	-11.0218
▁becouse	-11.0218
▁becuase	-11.0218
▁beef	-11.0218
▁belongs	-11.0218
▁beneficial	-11.0218
▁benzodiazepine	-11.0218
▁beqause	-11.0218
▁billion	-11.0218
▁blacked	-11.0218
▁blackness	-11.0218
▁blade	-11.0218
▁blanking	-11.0218
▁blinking	-11.0218
▁bloody	-11.0218
▁board	-11.0218
▁bodily	-11.0218
▁bodyimage	-11.0218
▁bombard	-11.0218
▁borderline	-11.0218
▁bore	-11.0218
▁bottling	-11.0218
▁brag	-11.0218
▁breast	-11.0218
▁breather	-11.0218
▁breeze	-11.0218
▁brew	-11.0218
▁brick	-11.0218
▁brown	-11.0218
▁brushed	-11.0218
▁bubbling	-11.0218
▁bubbly	-11.0218
▁bullying	-11.0218
▁bumble	-11.0218
▁bupropion	-11.0218
▁burger	-11.0218
▁buried	-11.0218
▁bust	-11.0218
▁butterfly	-11.0218
▁buzz	-11.0218
▁buzzing	-11.0218
▁ca	-11.0218
▁cabinet	-11.0218
▁cake	-11.0218
▁calendar	-11.0218
▁calf	-11.0218
▁california	-11.0218
▁calmly	-11.0218
▁canada	-11.0218
▁candle	-11.0218
▁candy	-11.0218
▁capability	-11.0218
▁capitalism	-11.0218
▁carbon	-11.0218
▁careful	-11.0218
▁cartoon	-11.0218
▁cast	-11.0218
▁castle	-11.0218
▁causality	-11.0218
▁chain	-11.0218
▁chair	-11.0218
▁challenged	-11.0218
▁chase	-11.0218
▁cheat	-11.0218
▁cheek	-11.0218
▁cheesy	-11.0218
▁chemo	-11.0218
▁cherry	-11.0218
▁chewbacca	-11.0218
▁childish	-11.0218
▁chin	-11.0218
▁chlonazapam	-11.0218
▁choking	-11.0218
▁chosen	-11.0218
▁chunk	-11.0218
▁circled	-11.0218
▁circumstance	-11.0218
▁civilized	-11.0218
▁ck	-11.0218
▁clammy	-11.0218
▁classic	-11.0218
▁clearer	-11.0218
▁clever	-11.0218
▁cliche	-11.0218
▁clinging	-11.0218
▁clipper	-11.0218
▁clockwork	-11.0218
▁clonazepam	-11.0218
▁clothing	-11.0218
▁clown	-11.0218
▁club	-11.0218
▁clueless	-11.0218
▁co2	-11.0218
▁coat	-11.0218
▁codependent	-11.0218
▁cognition	-11.0218
▁coherent	-11.0218
▁colitis	-11.0218
▁collection	-11.0218
▁colonoscopy	-11.0218
▁colour	-11.0218
▁combined	-11.0218
▁comeback	-11.0218
▁comedian	-11.0218
▁committee	-11.0218
▁committing	-11.0218
▁commonality	-11.0218
▁communicated	-11.0218
▁compassion	-11.0218
▁compensation	-11.0218
▁competition	-11.0218
▁completing	-11.0218
▁compulsion	-11.0218
▁compulsive	-11.0218
▁compulsively	-11.0218
▁concur	-11.0218
▁conditional	-11.0218
▁conditioned	-11.0218
▁confirmation	-11.0218
▁confusion	-11.0218
▁conservative	-11.0218
▁consideration	-11.0218
▁consist	-11.0218
▁consists	-11.0218
▁constipated	-11.0218
▁consumption	-11.0218
▁contacted	-11.0218
▁contemplated	-11.0218
▁contest	-11.0218
▁continually	-11.0218
▁contributing	-11.0218
▁copylink	-11.0218
▁coronavirus	-11.0218
▁corpse	-11.0218
▁correlation	-11.0218
▁corsage	-11.0218
▁cough	-11.0218
▁covered	-11.0218
▁cowardice	-11.0218
▁cozy	-11.0218
▁crappy	-11.0218
▁crashing	-11.0218
▁crate	-11.0218
▁crime	-11.0218
▁criticize	-11.0218
▁criticizing	-11.0218
▁cruelty	-11.0218
▁crumbled	-11.0218
▁crutch	-11.0218
▁cuddled	-11.0218
▁currency	-11.0218
▁cursor	-11.0218
▁cw	-11.0218
▁cycling	-11.0218
▁dam	-11.0218
▁darkest	-11.0218
▁daunting	-11.0218
▁davis	-11.0218
▁daze	-11.0218
▁deadly	-11.0218
▁dear	-11.0218
▁decrease	-11.0218
▁decreased	-11.0218
▁defeat	-11.0218
▁deferred	-11.0218
▁deficit	-11.0218
▁defies	-11.0218
▁deja	-11.0218
▁deleting	-11.0218
▁demand	-11.0218
▁democrat	-11.0218
▁dental	-11.0218
▁deodorant	-11.0218
▁department	-11.0218
▁depending	-11.0218
▁deprecating	-11.0218
▁depreciating	-11.0218
▁depresses	-11.0218
▁deprivation	-11.0218
▁depth	-11.0218
▁describing	-11.0218
▁description	-11.0218
▁design	-11.0218
▁designer	-11.0218
▁desirable	-11.0218
▁desk	-11.0218
▁desperation	-11.0218
▁detailed	-11.0218
▁deteriorating	-11.0218
▁detox	-11.0218
▁developer	-11.0218
▁development	-11.0218
▁devil	-11.0218
▁diabetic	-11.0218
▁diagnosing	-11.0218
▁diaphragm	-11.0218
▁diarrhea	-11.0218
▁diego	-11.0218
▁differentiate	-11.0218
▁dire	-11.0218
▁disabled	-11.0218
▁disabling	-11.0218
▁disclosed	-11.0218
▁discover	-11.0218
▁discovered	-11.0218
▁discovery	-11.0218
▁disliked	-11.0218
▁dismissive	-11.0218
▁disordered	-11.0218
▁disowned	-11.0218
▁disrespected	-11.0218
▁disrespectful	-11.0218
▁dissapeared	-11.0218
▁dissapoint	-11.0218
▁dissappeared	-11.0218
▁dissipated	-11.0218
▁dissociate	-11.0218
▁dissociated	-11.0218
▁dissociating	-11.0218
▁dissociation	-11.0218
▁distancing	-11.0218
▁distinguish	-11.0218
▁distorted	-11.0218
▁district	-11.0218
▁dive	-11.0218
▁dming	-11.0218
▁document	-11.0218
▁documentary	-11.0218
▁domestic	-11.0218
▁domino	-11.0218
▁doomed	-11.0218
▁dorm	-11.0218
▁dot	-11.0218
▁doubled	-11.0218
▁doubling	-11.0218
▁downloaded	-11.0218
▁downvotes	-11.0218
▁dragged	-11.0218
▁dragon	-11.0218
▁drawn	-11.0218
▁dreadful	-11.0218
▁drifted	-11.0218
▁drowsy	-11.0218
▁du	-11.0218
▁dulled	-11.0218
▁dumbass	-11.0218
▁dumbed	-11.0218
▁dumbest	-11.0218
▁dump	-11.0218
▁dysfunction	-11.0218
▁dysmorphia	-11.0218
▁eachother	-11.0218
▁earliest	-11.0218
▁earned	-11.0218
▁earphone	-11.0218
▁eased	-11.0218
▁easiest	-11.0218
▁easter	-11.0218
▁ecg	-11.0218
▁echo	-11.0218
▁ed	-11.0218
▁edu	-11.0218
▁eerily	-11.0218
▁effected	-11.0218
▁effecting	-11.0218
▁effectively	-11.0218
▁eggshell	-11.0218
▁eh	-11.0218
▁elbow	-11.0218
▁elevate	-11.0218
▁emphasise	-11.0218
▁encephalitis	-11.0218
▁encourage	-11.0218
▁encouraged	-11.0218
▁encouraging	-11.0218
▁endlessly	-11.0218
▁endodontist	-11.0218
▁endorphin	-11.0218
▁endured	-11.0218
▁enduring	-11.0218
▁energetic	-11.0218
▁engaged	-11.0218
▁engagement	-11.0218
▁engine	-11.0218
▁englisch	-11.0218
▁entered	-11.0218
▁enters	-11.0218
▁enthusiasm	-11.0218
▁entry	-11.0218
▁envious	-11.0218
▁environmental	-11.0218
▁equipped	-11.0218
▁escrow	-11.0218
▁essential	-11.0218
▁eternal	-11.0218
▁eternally	-11.0218
▁everday	-11.0218
▁exceeding	-11.0218
▁exception	-11.0218
▁exceptionally	-11.0218
▁excessively	-11.0218
▁excite	-11.0218
▁experiment	-11.0218
▁experimenting	-11.0218
▁exploded	-11.0218
▁extension	-11.0218
▁externally	-11.0218
▁eyed	-11.0218
▁fade	-11.0218
▁faded	-11.0218
▁fails	-11.0218
▁farewell	-11.0218
▁fashion	-11.0218
▁fathom	-11.0218
▁favourite	-11.0218
▁fck	-11.0218
▁fdzw	-11.0218
▁feather	-11.0218
▁feature	-11.0218
▁feeding	-11.0218
▁feminine	-11.0218
▁fetzima	-11.0218
▁fictional	-11.0218
▁fidgeting	-11.0218
▁fifteen	-11.0218
▁fifth	-11.0218
▁fighter	-11.0218
▁filing	-11.0218
▁finn	-11.0218
▁firing	-11.0218
▁firmly	-11.0218
▁fish	-11.0218
▁fixate	-11.0218
▁flag	-11.0218
▁flashing	-11.0218
▁flesh	-11.0218
▁flew	-11.0218
▁flood	-11.0218
▁fluctuates	-11.0218
▁follower	-11.0218
▁fooled	-11.0218
▁forcefully	-11.0218
▁forearm	-11.0218
▁forehead	-11.0218
▁forgetting	-11.0218
▁formal	-11.0218
▁format	-11.0218
▁formed	-11.0218
▁fortnight	-11.0218
▁forum	-11.0218
▁fr	-11.0218
▁france	-11.0218
▁french	-11.0218
▁freshly	-11.0218
▁frickin	-11.0218
▁friendzoned	-11.0218
▁frightened	-11.0218
▁fruit	-11.0218
▁fucker	-11.0218
▁fuel	-11.0218
▁fueled	-11.0218
▁fullest	-11.0218
▁fume	-11.0218
▁fuming	-11.0218
▁funk	-11.0218
▁furloughed	-11.0218
▁furniture	-11.0218
▁futile	-11.0218
▁fxxking	-11.0218
▁fyi	-11.0218
▁gag	-11.0218
▁gagging	-11.0218
▁gaining	-11.0218
▁gait	-11.0218
▁gal	-11.0218
▁galaxy	-11.0218
▁gambler	-11.0218
▁gaping	-11.0218
▁garage	-11.0218
▁garden	-11.0218
▁gastritis	-11.0218
▁gaze	-11.0218
▁generating	-11.0218
▁genetic	-11.0218
▁genius	-11.0218
▁gently	-11.0218
▁gesture	-11.0218
▁ghosting	-11.0218
▁giant	-11.0218
▁glance	-11.0218
▁gland	-11.0218
▁global	-11.0218
▁globus	-11.0218
▁glove	-11.0218
▁goof	-11.0218
▁gordon	-11.0218
▁gossip	-11.0218
▁grand	-11.0218
▁grandpa	-11.0218
▁grant	-11.0218
▁grave	-11.0218
▁gravitate	-11.0218
▁gray	-11.0218
▁grey	-11.0218
▁grieve	-11.0218
▁grind	-11.0218
▁grounding	-11.0218
▁groupchat	-11.0218
▁grudge	-11.0218
▁grumpy	-11.0218
▁guessed	-11.0218
▁guide	-11.0218
▁guitar	-11.0218
▁gum	-11.0218
▁hack	-11.0218
▁hail	-11.0218
▁haircut	-11.0218
▁hall	-11.0218
▁hallucination	-11.0218
▁hampered	-11.0218
▁handed	-11.0218
▁happiest	-11.0218
▁harmful	-11.0218
▁harsh	-11.0218
▁harshly	-11.0218
▁havnt	-11.0218
▁headed	-11.0218
▁heading	-11.0218
▁heals	-11.0218
▁healthily	-11.0218
▁hears	-11.0218
▁heartbreaking	-11.0218
▁heartbroken	-11.0218
▁heaving	-11.0218
▁helper	-11.0218
▁hemeopathy	-11.0218
▁hernia	-11.0218
▁hilarious	-11.0218
▁hill	-11.0218
▁hinder	-11.0218
▁hint	-11.0218
▁hired	-11.0218
▁hiring	-11.0218
▁hiya	-11.0218
▁hm	-11.0218
▁hoarse	-11.0218
▁holed	-11.0218
▁holter	-11.0218
▁homebody	-11.0218
▁homeopathy	-11.0218
▁hometown	-11.0218
▁honesty	-11.0218
▁hood	-11.0218
▁hopping	-11.0218
▁hormone	-11.0218
▁horrid	-11.0218
▁horrified	-11.0218
▁horse	-11.0218
▁housing	-11.0218
▁humour	-11.0218
▁hunger	-11.0218
▁hygiene	-11.0218
▁hyperventilate	-11.0218
▁hyperventilating	-11.0218
▁hypnotherapy	-11.0218
▁hypocrisy	-11.0218
▁idealistic	-11.0218
▁identical	-11.0218
▁identified	-11.0218
▁illogical	-11.0218
▁ilnesses	-11.0218
▁imagination	-11.0218
▁imagined	-11.0218
▁imaging	-11.0218
▁impaired	-11.0218
▁importantly	-11.0218
▁improv	-11.0218
▁improved	-11.0218
▁improves	-11.0218
▁impulsive	-11.0218
▁inauthentic	-11.0218
▁included	-11.0218
▁incoherent	-11.0218
▁inconvenient	-11.0218
▁indecision	-11.0218
▁indefinite	-11.0218
▁indicate	-11.0218
▁inexperienced	-11.0218
▁infact	-11.0218
▁inferiority	-11.0218
▁inflation	-11.0218
▁informed	-11.0218
▁ing	-11.0218
▁inhale	-11.0218
▁inimical	-11.0218
▁initial	-11.0218
▁initially	-11.0218
▁initiate	-11.0218
▁innate	-11.0218
▁innocence	-11.0218
▁insignificant	-11.0218
▁insists	-11.0218
▁inspection	-11.0218
▁insta	-11.0218
▁insulin	-11.0218
▁intake	-11.0218
▁intellectual	-11.0218
▁intellectually	-11.0218
▁intelligence	-11.0218
▁intended	-11.0218
▁intensely	-11.0218
▁intensity	-11.0218
▁intent	-11.0218
▁interferes	-11.0218
▁intermittent	-11.0218
▁internal	-11.0218
▁internally	-11.0218
▁international	-11.0218
▁interviewer	-11.0218
▁intestine	-11.0218
▁intimate	-11.0218
▁intimidating	-11.0218
▁introduction	-11.0218
▁introversion	-11.0218
▁invalidating	-11.0218
▁investigate	-11.0218
▁involuntary	-11.0218
▁jack	-11.0218
▁jacket	-11.0218
▁jail	-11.0218
▁james	-11.0218
▁japan	-11.0218
▁jean	-11.0218
▁jerking	-11.0218
▁jitteriness	-11.0218
▁judgement	-11.0218
▁jumpy	-11.0218
▁keen	-11.0218
▁ketamine	-11.0218
▁kicker	-11.0218
▁kicking	-11.0218
▁kidding	-11.0218
▁kidnap	-11.0218
▁kidnapped	-11.0218
▁killer	-11.0218
▁kindergarten	-11.0218
▁kissed	-11.0218
▁km	-11.0218
▁knocked	-11.0218
▁kylo	-11.0218
▁labor	-11.0218
▁labored	-11.0218
▁lagging	-11.0218
▁larger	-11.0218
▁lash	-11.0218
▁lb	-11.0218
▁ldrs	-11.0218
▁leadership	-11.0218
▁leak	-11.0218
▁lean	-11.0218
▁lecture	-11.0218
▁leeching	-11.0218
▁legitimate	-11.0218
▁lessened	-11.0218
▁lgbt	-11.0218
▁lgbtq	-11.0218
▁library	-11.0218
▁lifelong	-11.0218
▁lifetime	-11.0218
▁lightly	-11.0218
▁lined	-11.0218
▁lingering	-11.0218
▁lingers	-11.0218
▁lining	-11.0218
▁liquid	-11.0218
▁listens	-11.0218
▁listing	-11.0218
▁located	-11.0218
▁logging	-11.0218
▁lord	-11.0218
▁loses	-11.0218
▁louder	-11.0218
▁lovely	-11.0218
▁lucid	-11.0218
▁lurking	-11.0218
▁lymph	-11.0218
▁lyric	-11.0218
▁magic	-11.0218
▁magical	-11.0218
▁magically	-11.0218
▁mail	-11.0218
▁maintained	-11.0218
▁maintaining	-11.0218
▁manga	-11.0218
▁manifested	-11.0218
▁manipulate	-11.0218
▁manipulation	-11.0218
▁marceline	-11.0218
▁massively	-11.0218
▁matching	-11.0218
▁meat	-11.0218
▁mechanic	-11.0218
▁mentor	-11.0218
▁metally	-11.0218
▁mh	-11.0218
▁midday	-11.0218
▁mildly	-11.0218
▁milk	-11.0218
▁minded	-11.0218
▁mindless	-11.0218
▁minimize	-11.0218
▁minus	-11.0218
▁miserably	-11.0218
▁mishap	-11.0218
▁ml	-11.0218
▁mobility	-11.0218
▁mock	-11.0218
▁mod	-11.0218
▁moderately	-11.0218
▁modern	-11.0218
▁moderna	-11.0218
▁monotone	-11.0218
▁monthly	-11.0218
▁moreover	-11.0218
▁moreso	-11.0218
▁mortgage	-11.0218
▁mountain	-11.0218
▁mr	-11.0218
▁mud	-11.0218
▁multiplayer	-11.0218
▁mundane	-11.0218
▁nailed	-11.0218
▁named	-11.0218
▁nap	-11.0218
▁narcissist	-11.0218
▁narcolepsy	-11.0218
▁national	-11.0218
▁necessity	-11.0218
▁needlessly	-11.0218
▁needy	-11.0218
▁neglecting	-11.0218
▁nerd	-11.0218
▁nervousness	-11.0218
▁nest	-11.0218
▁net	-11.0218
▁netflix	-11.0218
▁network	-11.0218
▁neurological	-11.0218
▁neurologist	-11.0218
▁neurosis	-11.0218
▁neutral	-11.0218
▁newer	-11.0218
▁nh	-11.0218
▁niveau	-11.0218
▁nodded	-11.0218
▁node	-11.0218
▁nonsensical	-11.0218
▁nut	-11.0218
▁nutrient	-11.0218
▁oblivion	-11.0218
▁obtain	-11.0218
▁oddly	-11.0218
▁officially	-11.0218
▁ongoing	-11.0218
▁ontario	-11.0218
▁openly	-11.0218
▁opposed	-11.0218
▁optional	-11.0218
▁orange	-11.0218
▁ordinary	-11.0218
▁organising	-11.0218
▁organization	-11.0218
▁organized	-11.0218
▁orgasm	-11.0218
▁outcast	-11.0218
▁outdoor	-11.0218
▁outing	-11.0218
▁outweighs	-11.0218
▁overanalyzing	-11.0218
▁overbearing	-11.0218
▁overcame	-11.0218
▁overcoming	-11.0218
▁overeacting	-11.0218
▁overnight	-11.0218
▁oxycodone	-11.0218
▁paced	-11.0218
▁pack	-11.0218
▁packaging	-11.0218
▁painfully	-11.0218
▁painkiller	-11.0218
▁painless	-11.0218
▁painting	-11.0218
▁paired	-11.0218
▁pajama	-11.0218
▁pale	-11.0218
▁paralyzed	-11.0218
▁parenting	-11.0218
▁parked	-11.0218
▁partially	-11.0218
▁participant	-11.0218
▁participation	-11.0218
▁passenger	-11.0218
▁patience	-11.0218
▁pcr	-11.0218
▁peel	-11.0218
▁peep	-11.0218
▁percentage	-11.0218
▁perceptive	-11.0218
▁performing	-11.0218
▁pericoronitis	-11.0218
▁permanently	-11.0218
▁persona	-11.0218
▁petrified	-11.0218
▁phased	-11.0218
▁phlegm	-11.0218
▁phoning	-11.0218
▁phony	-11.0218
▁photograph	-11.0218
▁phrase	-11.0218
▁phrasing	-11.0218
▁physician	-11.0218
▁picturing	-11.0218
▁pink	-11.0218
▁pinpoint	-11.0218
▁pinworm	-11.0218
▁pitch	-11.0218
▁placebo	-11.0218
▁placed	-11.0218
▁plastered	-11.0218
▁playlist	-11.0218
▁pleasant	-11.0218
▁pleasing	-11.0218
▁plot	-11.0218
▁pmo	-11.0218
▁pocket	-11.0218
▁poem	-11.0218
▁pointing	-11.0218
▁poke	-11.0218
▁poop	-11.0218
▁poorly	-11.0218
▁pore	-11.0218
▁portfolio	-11.0218
▁portrays	-11.0218
▁possession	-11.0218
▁poster	-11.0218
▁posture	-11.0218
▁pour	-11.0218
▁poverty	-11.0218
▁practical	-11.0218
▁precious	-11.0218
▁predicted	-11.0218
▁premise	-11.0218
▁prepares	-11.0218
▁preschool	-11.0218
▁press	-11.0218
▁prestigious	-11.0218
▁presume	-11.0218
▁prevented	-11.0218
▁preventing	-11.0218
▁price	-11.0218
▁primarily	-11.0218
▁priority	-11.0218
▁prisoner	-11.0218
▁pro	-11.0218
▁proceed	-11.0218
▁procrastinator	-11.0218
▁production	-11.0218
▁profession	-11.0218
▁professionnal	-11.0218
▁profile	-11.0218
▁programmer	-11.0218
▁progressing	-11.0218
▁projecting	-11.0218
▁promoted	-11.0218
▁promotion	-11.0218
▁propelling	-11.0218
▁prospect	-11.0218
▁prospective	-11.0218
▁protected	-11.0218
▁protecting	-11.0218
▁protection	-11.0218
▁protracted	-11.0218
▁proved	-11.0218
▁proven	-11.0218
▁provider	-11.0218
▁pseudo	-11.0218
▁psychic	-11.0218
▁psychosomatic	-11.0218
▁psyciatrist	-11.0218
▁pump	-11.0218
▁punished	-11.0218
▁puppet	-11.0218
▁puppy	-11.0218
▁purposeful	-11.0218
▁purse	-11.0218
▁pursuit	-11.0218
▁queen	-11.0218
▁questionable	-11.0218
▁quits	-11.0218
▁rabies	-11.0218
▁racking	-11.0218
▁radio	-11.0218
▁rail	-11.0218
▁rain	-11.0218
▁raining	-11.0218
▁ramblings	-11.0218
▁ramp	-11.0218
▁range	-11.0218
▁rapidly	-11.0218
▁realising	-11.0218
▁realistic	-11.0218
▁realy	-11.0218
▁reassure	-11.0218
▁reassuring	-11.0218
▁reciprocated	-11.0218
▁reckless	-11.0218
▁recognized	-11.0218
▁reconnected	-11.0218
▁recording	-11.0218
▁recovered	-11.0218
▁recruiter	-11.0218
▁reddish	-11.0218
▁redirect	-11.0218
▁redo	-11.0218
▁reflex	-11.0218
▁refreshed	-11.0218
▁refusing	-11.0218
▁regain	-11.0218
▁regaining	-11.0218
▁regimen	-11.0218
▁registered	-11.0218
▁regression	-11.0218
▁regretful	-11.0218
▁regretted	-11.0218
▁reinstated	-11.0218
▁reinstating	-11.0218
▁relapsing	-11.0218
▁release	-11.0218
▁relevant	-11.0218
▁reluctant	-11.0218
▁remained	-11.0218
▁remeron	-11.0218
▁remission	-11.0218
▁remotely	-11.0218
▁removing	-11.0218
▁ren	-11.0218
▁repeating	-11.0218
▁representative	-11.0218
▁repulsive	-11.0218
▁reputation	-11.0218
▁require	-11.0218
▁requirement	-11.0218
▁reselling	-11.0218
▁residential	-11.0218
▁resist	-11.0218
▁resistant	-11.0218
▁resolve	-11.0218
▁respiratory	-11.0218
▁restricted	-11.0218
▁restriction	-11.0218
▁retirement	-11.0218
▁revealed	-11.0218
▁revert	-11.0218
▁review	-11.0218
▁revolves	-11.0218
▁ridden	-11.0218
▁riddled	-11.0218
▁riding	-11.0218
▁righteous	-11.0218
▁rip	-11.0218
▁rising	-11.0218
▁roadblock	-11.0218
▁robbed	-11.0218
▁robbery	-11.0218
▁robin	-11.0218
▁roll	-11.0218
▁rolled	-11.0218
▁rota	-11.0218
▁rotting	-11.0218
▁ruled	-11.0218
▁rupture	-11.0218
▁rushed	-11.0218
▁s8mwbi	-11.0218
▁sabotaging	-11.0218
▁sacrifice	-11.0218
▁saliva	-11.0218
▁sandwich	-11.0218
▁sane	-11.0218
▁scarier	-11.0218
▁scariest	-11.0218
▁scientifically	-11.0218
▁scoop	-11.0218
▁scraping	-11.0218
▁screwing	-11.0218
▁scripted	-11.0218
▁scrutiny	-11.0218
▁scum	-11.0218
▁se	-11.0218
▁seat	-11.0218
▁secretly	-11.0218
▁secure	-11.0218
▁seize	-11.0218
▁seller	-11.0218
▁semster	-11.0218
▁sensory	-11.0218
▁settled	-11.0218
▁shadow	-11.0218
▁shamed	-11.0218
▁share_petition	-11.0218
▁shatter	-11.0218
▁shaved	-11.0218
▁shi	-11.0218
▁shifting	-11.0218
▁shining	-11.0218
▁shiny	-11.0218
▁ship	-11.0218
▁shivering	-11.0218
▁shocked	-11.0218
▁shocking	-11.0218
▁shook	-11.0218
▁shortest	-11.0218
▁shown	-11.0218
▁sicker	-11.0218
▁sidewalk	-11.0218
▁sighing	-11.0218
▁silhouette	-11.0218
▁silver	-11.0218
▁similarly	-11.0218
▁sin	-11.0218
▁sing	-11.0218
▁sitcom	-11.0218
▁sixteen	-11.0218
▁skull	-11.0218
▁skype	-11.0218
▁sl	-11.0218
▁slack	-11.0218
▁slap	-11.0218
▁slapped	-11.0218
▁slavery	-11.0218
▁slaving	-11.0218
▁sliced	-11.0218
▁slim	-11.0218
▁smallest	-11.0218
▁smash	-11.0218
▁smelling	-11.0218
▁smoker	-11.0218
▁smooth	-11.0218
▁snapchat	-11.0218
▁snow	-11.0218
▁sob	-11.0218
▁sociable	-11.0218
▁socialise	-11.0218
▁soften	-11.0218
▁software	-11.0218
▁solidarity	-11.0218
▁solo	-11.0218
▁sooooo	-11.0218
▁soothing	-11.0218
▁sorrow	-11.0218
▁sorta	-11.0218
▁sorting	-11.0218
▁sour	-11.0218
▁south	-11.0218
▁southern	-11.0218
▁speaker	-11.0218
▁specify	-11.0218
▁spends	-11.0218
▁spinning	-11.0218
▁spiritual	-11.0218
▁spit	-11.0218
▁spontaneous	-11.0218
▁spotlight	-11.0218
▁spray	-11.0218
▁squad	-11.0218
▁squared	-11.0218
▁squeeze	-11.0218
▁stab	-11.0218
▁stabbed	-11.0218
▁stabilizer	-11.0218
▁staff	-11.0218
▁stain	-11.0218
▁stair	-11.0218
▁stake	-11.0218
▁stamping	-11.0218
▁stared	-11.0218
▁stating	-11.0218
▁stellar	-11.0218
▁stemmed	-11.0218
▁stepping	-11.0218
▁stfu	-11.0218
▁stiff	-11.0218
▁stimulant	-11.0218
▁stolen	-11.0218
▁stoned	-11.0218
▁storage	-11.0218
▁straightened	-11.0218
▁strangled	-11.0218
▁streaming	-11.0218
▁strengthen	-11.0218
▁stretched	-11.0218
▁strike	-11.0218
▁striving	-11.0218
▁struck	-11.0218
▁studied	-11.0218
▁stupidly	-11.0218
▁stuttered	-11.0218
▁subreddits	-11.0218
▁subtly	-11.0218
▁succeeded	-11.0218
▁succesful	-11.0218
▁suffocation	-11.0218
▁suitable	-11.0218
▁supporting	-11.0218
▁surpress	-11.0218
▁survey	-11.0218
▁survivingantidepressants	-11.0218
▁survivor	-11.0218
▁sushi	-11.0218
▁suspected	-11.0218
▁sustainable	-11.0218
▁sway	-11.0218
▁swimming	-11.0218
▁swirling	-11.0218
▁swiss	-11.0218
▁swore	-11.0218
▁tachycardia	-11.0218
▁taco	-11.0218
▁tad	-11.0218
▁tangent	-11.0218
▁tapered	-11.0218
▁targeting	-11.0218
▁teary	-11.0218
▁ted	-11.0218
▁telephone	-11.0218
▁temptation	-11.0218
▁tends	-11.0218
▁tensing	-11.0218
▁territory	-11.0218
▁thanking	-11.0218
▁theft	-11.0218
▁theme	-11.0218
▁theoretically	-11.0218
▁theyre	-11.0218
▁thinning	-11.0218
▁thrash	-11.0218
▁thrilled	-11.0218
▁throbbing	-11.0218
▁tia	-11.0218
▁tick	-11.0218
▁tidy	-11.0218
▁tiktoks	-11.0218
▁timed	-11.0218
▁timer	-11.0218
▁tingle	-11.0218
▁tinted	-11.0218
▁tire	-11.0218
▁toenail	-11.0218
▁tolerable	-11.0218
▁tongue	-11.0218
▁topamax	-11.0218
▁tossed	-11.0218
▁tought	-11.0218
▁toxicity	-11.0218
▁trace	-11.0218
▁trading	-11.0218
▁tragedy	-11.0218
▁trainer	-11.0218
▁transition	-11.0218
▁trashed	-11.0218
▁treading	-11.0218
▁trichotillomania	-11.0218
▁troubled	-11.0218
▁trough	-11.0218
▁tumbler	-11.0218
▁tumblr	-11.0218
▁tumour	-11.0218
▁twelve	-11.0218
▁twin	-11.0218
▁twitter	-11.0218
▁ty	-11.0218
▁tylenol	-11.0218
▁uc	-11.0218
▁ucsd	-11.0218
▁unbeknownst	-11.0218
▁uncontrollable	-11.0218
▁understandable	-11.0218
▁underweight	-11.0218
▁unexplained	-11.0218
▁unfairness	-11.0218
▁unfortunate	-11.0218
▁unfulfilled	-11.0218
▁unfulfilling	-11.0218
▁unheard	-11.0218
▁unintentionally	-11.0218
▁unknowingly	-11.0218
▁unlikely	-11.0218
▁unloveable	-11.0218
▁unloved	-11.0218
▁unmedicated	-11.0218
▁unproductive	-11.0218
▁unregulated	-11.0218
▁unrelated	-11.0218
▁unrolled	-11.0218
▁unwell	-11.0218
▁unwilling	-11.0218
▁upbringing	-11.0218
▁updated	-11.0218
▁uploaded	-11.0218
▁uploading	-11.0218
▁upped	-11.0218
▁upstairs	-11.0218
▁utm_medium	-11.0218
▁utm_source	-11.0218
▁vague	-11.0218
▁validate	-11.0218
▁vampire	-11.0218
▁van	-11.0218
▁vapes	-11.0218
▁vega	-11.0218
▁vegan	-11.0218
▁vehicle	-11.0218
▁veil	-11.0218
▁vein	-11.0218
▁venlafaxine	-11.0218
▁vented	-11.0218
▁verified	-11.0218
▁vertigo	-11.0218
▁viable	-11.0218
▁vibration	-11.0218
▁vicodin	-11.0218
▁viewing	-11.0218
▁virgin	-11.0218
▁visiting	-11.0218
▁vit	-11.0218
▁vivid	-11.0218
▁voicemail	-11.0218
▁voluntary	-11.0218
▁vow	-11.0218
▁vu	-11.0218
▁waist	-11.0218
▁waitress	-11.0218
▁wallow	-11.0218
▁wane	-11.0218
▁warehouse	-11.0218
▁washed	-11.0218
▁washer	-11.0218
▁wealthy	-11.0218
▁weaning	-11.0218
▁web	-11.0218
▁webcam	-11.0218
▁wednesday	-11.0218
▁weighing	-11.0218
▁weirdo	-11.0218
▁wet	-11.0218
▁whack	-11.0218
▁whatnot	-11.0218
▁wheel	-11.0218
▁whine	-11.0218
▁whiny	-11.0218
▁whirlwind	-11.0218
▁whiskey	-11.0218
▁whoever	-11.0218
▁wifi	-11.0218
▁wild	-11.0218
▁williams	-11.0218
▁wine	-11.0218
▁wing	-11.0218
▁wire	-11.0218
▁witchcraft	-11.0218
▁withdraw	-11.0218
▁witness	-11.0218
▁woohoo	-11.0218
▁woozy	-11.0218
▁worded	-11.0218
▁wore	-11.0218
▁workbook	-11.0218
▁workplace	-11.0218
▁worm	-11.0218
▁worsens	-11.0218
▁wrecking	-11.0218
▁wretched	-11.0218
▁writer	-11.0218
▁ww3	-11.0218
▁xbox	-11.0218
▁xl	-11.0218
▁yall	-11.0218
▁yearning	-11.0218
▁yk	-11.0218
▁yknow	-11.0218
▁yoke	-11.0218
▁york	-11.0218
▁youth	-11.0218
▁youtu	-11.0218
▁yr	-11.0218
▁02	-11.715
▁04	-11.715
▁08	-11.715
▁10000	-11.715
▁1000mph	-11.715
▁100k	-11.715
▁100th	-11.715
▁102	-11.715
▁10bpm	-11.715
▁10ish	-11.715
▁10kg	-11.715
▁10th	-11.715
▁112	-11.715
▁118kg	-11.715
▁11am	-11.715
▁120	-11.715
▁124p	-11.715
▁125	-11.715
▁128	-11.715
▁12hr	-11.715
▁12hrs	-11.715
▁12ish	-11.715
▁12mg	-11.715
▁12yo	-11.715
▁1300	-11.715
▁138	-11.715
▁140mph	-11.715
▁14th	-11.715
▁1500	-11.715
▁15mins	-11.715
▁18m	-11.715
▁18th	-11.715
▁1am	-11.715
▁200	-11.715
▁2005	-11.715
▁200mg	-11.715
▁2011	-11.715
▁2014	-11.715
▁2015	-11.715
▁2022	-11.715
▁20kg	-11.715
▁20lbs	-11.715
▁20th	-11.715
▁20x	-11.715
▁20years	-11.715
▁20yrs	-11.715
▁210	-11.715
▁22m	-11.715
▁22yo	-11.715
▁23cm	-11.715
▁24h	-11.715
▁24m	-11.715
▁2500	-11.715
▁255	-11.715
▁25unweighted	-11.715
▁28f	-11.715
▁28years	-11.715
▁2am	-11.715
▁2appkoq	-11.715
▁2pm	-11.715
▁2x	-11.715
▁30f	-11.715
▁30lbs	-11.715
▁30pm	-11.715
▁32f	-11.715
▁32m	-11.715
▁32yo	-11.715
▁33m	-11.715
▁342	-11.715
▁34y	-11.715
▁38m	-11.715
▁3ish	-11.715
▁3months	-11.715
▁3y	-11.715
▁400	-11.715
▁41	-11.715
▁4am	-11.715
▁500	-11.715
▁50am	-11.715
▁50k	-11.715
▁530am	-11.715
▁54321	-11.715
▁5f	-11.715
▁5hours	-11.715
▁5in	-11.715
▁5ish	-11.715
▁5k	-11.715
▁5minutes	-11.715
▁5pm	-11.715
▁858	-11.715
▁85bpm	-11.715
▁88	-11.715
▁8pm	-11.715
▁8yo	-11.715
▁_____	-11.715
▁_campaign	-11.715
▁_content	-11.715
▁_en	-11.715
▁_everything	-11.715
▁_i	-11.715
▁_medium	-11.715
▁_moyvi	-11.715
▁_o	-11.715
▁_sharecopy	-11.715
▁_source	-11.715
▁_this_	-11.715
▁_tpost	-11.715
▁_tposting	-11.715
▁_xkma	-11.715
▁_xkma_moyvi	-11.715
▁aaaaaaaaa	-11.715
▁ab	-11.715
▁abc	-11.715
▁abit	-11.715
▁abrupt	-11.715
▁abruptly	-11.715
▁abundantly	-11.715
▁abuser	-11.715
▁abyss	-11.715
▁acacia	-11.715
▁academia	-11.715
▁acc	-11.715
▁accelerated	-11.715
▁accented	-11.715
▁accentuate	-11.715
▁accepts	-11.715
▁accidently	-11.715
▁accommodation	-11.715
▁accompanies	-11.715
▁accompany	-11.715
▁accord	-11.715
▁accumulation	-11.715
▁accusing	-11.715
▁achieved	-11.715
▁achieving	-11.715
▁aching	-11.715
▁acidity	-11.715
▁acknowledgement	-11.715
▁acne	-11.715
▁acquire	-11.715
▁acrosd	-11.715
▁acrossthe	-11.715
▁activated	-11.715
▁activation	-11.715
▁actor	-11.715
▁acussing	-11.715
▁adamant	-11.715
▁adamantly	-11.715
▁adapted	-11.715
▁adaptive	-11.715
▁addictive	-11.715
▁additionally	-11.715
▁adequately	-11.715
▁admin	-11.715
▁administer	-11.715
▁admiration	-11.715
▁admire	-11.715
▁admired	-11.715
▁adopt	-11.715
▁adopts	-11.715
▁adorable	-11.715
▁adored	-11.715
▁adores	-11.715
▁adrenalin	-11.715
▁adresses	-11.715
▁adrift	-11.715
▁advertises	-11.715
▁advertising	-11.715
▁advocate	-11.715
▁advocating	-11.715
▁afflicts	-11.715
▁afloat	-11.715
▁aforementioned	-11.715
▁african	-11.715
▁aggravate	-11.715
▁aggrevated	-11.715
▁agitation	-11.715
▁agreeing	-11.715
▁ah	-11.715
▁ahah	-11.715
▁ahsbxkxmskzhdjxbxbgd	-11.715
▁aight	-11.715
▁aimed	-11.715
▁aiming	-11.715
▁aimless	-11.715
▁aimlessly	-11.715
▁airplane	-11.715
▁airpods	-11.715
▁ak	-11.715
▁alarmed	-11.715
▁alcholism	-11.715
▁alcoholism	-11.715
▁alienated	-11.715
▁alienating	-11.715
▁aligned	-11.715
▁allegedly	-11.715
▁allowance	-11.715
▁aloneness	-11.715
▁alphabet	-11.715
▁alternately	-11.715
▁altho	-11.715
▁altough	-11.715
▁alward	-11.715
▁amazingly	-11.715
▁ambiental	-11.715
▁amicable	-11.715
▁amitryptaline	-11.715
▁amphetamine	-11.715
▁amplified	-11.715
▁amused	-11.715
▁amusing	-11.715
▁anal	-11.715
▁analysing	-11.715
▁analysis	-11.715
▁ananya	-11.715
▁anaphylactic	-11.715
▁anecdotal	-11.715
▁anecdotally	-11.715
▁anecdote	-11.715
▁anemia	-11.715
▁anesthesia	-11.715
▁angery	-11.715
▁angle	-11.715
▁angst	-11.715
▁anniversary	-11.715
▁annotated	-11.715
▁announcement	-11.715
▁annoy	-11.715
▁ant	-11.715
▁antagonistic	-11.715
▁antic	-11.715
▁anticipation	-11.715
▁anticipatory	-11.715
▁antiepelectic	-11.715
▁antiperspirant	-11.715
▁antipsychotic	-11.715
▁antipyschotic	-11.715
▁antiseptic	-11.715
▁antisocial	-11.715
▁anxeties	-11.715
▁anxiolytic	-11.715
▁anxoius	-11.715
▁aorta	-11.715
▁apendicitis	-11.715
▁apnea	-11.715
▁apologise	-11.715
▁apologizing	-11.715
▁appeal	-11.715
▁appealing	-11.715
▁apperantly	-11.715
▁appereance	-11.715
▁appreciates	-11.715
▁appreciating	-11.715
▁appreciation	-11.715
▁apprehended	-11.715
▁apprehensive	-11.715
▁approachable	-11.715
▁approaching	-11.715
▁appropriately	-11.715
▁approximately	-11.715
▁appt	-11.715
▁archive	-11.715
▁arguably	-11.715
▁argue	-11.715
▁argued	-11.715
▁arises	-11.715
▁arising	-11.715
▁arkansas	-11.715
▁armpit	-11.715
▁army	-11.715
▁arogent	-11.715
▁arranging	-11.715
▁array	-11.715
▁arrest	-11.715
▁arrgh	-11.715
▁arrives	-11.715
▁arsed	-11.715
▁arsenal	-11.715
▁artistic	-11.715
▁artwork	-11.715
▁ascendency	-11.715
▁ash	-11.715
▁ashwaghanda	-11.715
▁asmr	-11.715
▁asn	-11.715
▁assault	-11.715
▁assaulted	-11.715
▁assed	-11.715
▁assessor	-11.715
▁assigned	-11.715
▁assing	-11.715
▁assisted	-11.715
▁associate	-11.715
▁asst	-11.715
▁assualt	-11.715
▁assurance	-11.715
▁assures	-11.715
▁asylum	-11.715
▁athlete	-11.715
▁ati	-11.715
▁atleaset	-11.715
▁atm	-11.715
▁atmosphere	-11.715
▁atp	-11.715
▁atrophy	-11.715
▁attacking	-11.715
▁attacs	-11.715
▁attended	-11.715
▁attentive	-11.715
▁attick	-11.715
▁attributed	-11.715
▁audacity	-11.715
▁audible	-11.715
▁audio	-11.715
▁audit	-11.715
▁augment	-11.715
▁authentic	-11.715
▁authentically	-11.715
▁author	-11.715
▁authority	-11.715
▁authorization	-11.715
▁automatic	-11.715
▁automation	-11.715
▁availability	-11.715
▁averse	-11.715
▁avoidant	-11.715
▁avpd	-11.715
▁await	-11.715
▁awaiting	-11.715
▁awakens	-11.715
▁aways	-11.715
▁awe	-11.715
▁awfully	-11.715
▁awkwardness	-11.715
▁ay	-11.715
▁ayahuasca	-11.715
▁baba	-11.715
▁babble	-11.715
▁babyface	-11.715
▁backed	-11.715
▁backing	-11.715
▁backpack	-11.715
▁backup	-11.715
▁backward	-11.715
▁backwards	-11.715
▁baclofen	-11.715
▁badge	-11.715
▁badger	-11.715
▁bail	-11.715
▁baked	-11.715
▁baldness	-11.715
▁balled	-11.715
▁banana	-11.715
▁bandage	-11.715
▁bandaid	-11.715
▁bandcamp	-11.715
▁bandersnatch	-11.715
▁banner	-11.715
▁banter	-11.715
▁barbaric	-11.715
▁barber	-11.715
▁barbiturate	-11.715
▁bareable	-11.715
▁barista	-11.715
▁barium	-11.715
▁bark	-11.715
▁barked	-11.715
▁barley	-11.715
▁barometric	-11.715
▁barrage	-11.715
▁base	-11.715
▁baseball	-11.715
▁basement	-11.715
▁bashed	-11.715
▁bashing	-11.715
▁basicly	-11.715
▁bastard	-11.715
▁batch	-11.715
▁bathe	-11.715
▁batshit	-11.715
▁battery	-11.715
▁bawling	-11.715
▁bay	-11.715
▁bbq	-11.715
▁bcst	-11.715
▁bdd	-11.715
▁bead	-11.715
▁beak	-11.715
▁beast	-11.715
▁beaten	-11.715
▁beautifully	-11.715
▁becaause	-11.715
▁bedridden	-11.715
▁bedrock	-11.715
▁bedsheets	-11.715
▁beecause	-11.715
▁beeing	-11.715
▁beeping	-11.715
▁beer	-11.715
▁befriend	-11.715
▁befriended	-11.715
▁beginner	-11.715
▁begun	-11.715
▁behaving	-11.715
▁beleive	-11.715
▁believer	-11.715
▁belittle	-11.715
▁belittled	-11.715
▁belive	-11.715
▁belonging	-11.715
▁bending	-11.715
▁beneath	-11.715
▁benificial	-11.715
▁benjamin	-11.715
▁berated	-11.715
▁bereable	-11.715
▁bereavement	-11.715
▁bested	-11.715
▁bestfriend	-11.715
▁bestfriends	-11.715
▁beta	-11.715
▁betrail	-11.715
▁betray	-11.715
▁betrayal	-11.715
▁bff	-11.715
▁bias	-11.715
▁bible	-11.715
▁bicycle	-11.715
▁bid	-11.715
▁bigoted	-11.715
▁bike	-11.715
▁bile	-11.715
▁billed	-11.715
▁billionth	-11.715
▁bings	-11.715
▁bipolarism	-11.715
▁bisexual	-11.715
▁bispurone	-11.715
▁biter	-11.715
▁biting	-11.715
▁bitten	-11.715
▁bitterness	-11.715
▁blackburn	-11.715
▁bladder	-11.715
▁blandest	-11.715
▁blanked	-11.715
▁blankly	-11.715
▁blast	-11.715
▁bled	-11.715
▁bleeding	-11.715
▁blend	-11.715
▁blending	-11.715
▁blessed	-11.715
▁blew	-11.715
▁blindsided	-11.715
▁bliss	-11.715
▁blister	-11.715
▁bloating	-11.715
▁blob	-11.715
▁blockade	-11.715
▁blockage	-11.715
▁blocker	-11.715
▁blog	-11.715
▁blooded	-11.715
▁blossom	-11.715
▁blotchy	-11.715
▁blouse	-11.715
▁blowing	-11.715
▁blowjob	-11.715
▁blushing	-11.715
▁bmi	-11.715
▁bmo	-11.715
▁boast	-11.715
▁boat	-11.715
▁bodied	-11.715
▁boiling	-11.715
▁bojack	-11.715
▁bollock	-11.715
▁bolster	-11.715
▁bombarded	-11.715
▁bonding	-11.715
▁bonus	-11.715
▁boosted	-11.715
▁boot	-11.715
▁botched	-11.715
▁bothersome	-11.715
▁bottemless	-11.715
▁bottomless	-11.715
▁boulder	-11.715
▁bow	-11.715
▁bowtie	-11.715
▁boxer	-11.715
▁brace	-11.715
▁brad	-11.715
▁bragging	-11.715
▁braindead	-11.715
▁brainwashed	-11.715
▁braking	-11.715
▁branch	-11.715
▁brandon	-11.715
▁bratty	-11.715
▁bread	-11.715
▁breakthrough	-11.715
▁breathless	-11.715
▁breathtaking	-11.715
▁bref	-11.715
▁brian	-11.715
▁briefly	-11.715
▁brighten	-11.715
▁brighter	-11.715
▁brightest	-11.715
▁brilliance	-11.715
▁brilliant	-11.715
▁brittle	-11.715
▁broad	-11.715
▁brooklyn	-11.715
▁bros	-11.715
▁browse	-11.715
▁bruise	-11.715
▁brunt	-11.715
▁brutal	-11.715
▁bsomething	-11.715
▁bu	-11.715
▁bublineess	-11.715
▁buck	-11.715
▁buff	-11.715
▁bugged	-11.715
▁bugging	-11.715
▁buildup	-11.715
▁bull	-11.715
▁bulldog	-11.715
▁bum	-11.715
▁bumbling	-11.715
▁bummed	-11.715
▁bummer	-11.715
▁bumpy	-11.715
▁bunting	-11.715
▁bur	-11.715
▁burdened	-11.715
▁burdensome	-11.715
▁burial	-11.715
▁bursting	-11.715
▁burying	-11.715
▁bush	-11.715
▁busprione	-11.715
▁buyin	-11.715
▁buzzed	-11.715
▁cabin	-11.715
▁cable	-11.715
▁calculate	-11.715
▁calculator	-11.715
▁calmer	-11.715
▁calmers	-11.715
▁calming	-11.715
▁calmness	-11.715
▁calorie	-11.715
▁cam	-11.715
▁campaign	-11.715
▁camping	-11.715
▁canceling	-11.715
▁cancelling	-11.715
▁candidly	-11.715
▁cannabinoid	-11.715
▁cannabis	-11.715
▁canyon	-11.715
▁capsule	-11.715
▁captain	-11.715
▁captcha	-11.715
▁carbs	-11.715
▁carefree	-11.715
▁carefully	-11.715
▁caregiver	-11.715
▁carl	-11.715
▁carpe	-11.715
▁carpentry	-11.715
▁carpet	-11.715
▁carpeted	-11.715
▁carrier	-11.715
▁cartilage	-11.715
▁cascade	-11.715
▁cassian	-11.715
▁catastrophic	-11.715
▁catastrophizing	-11.715
▁catching	-11.715
▁catfish	-11.715
▁catfished	-11.715
▁catharsis	-11.715
▁catharticism	-11.715
▁causevme	-11.715
▁cave	-11.715
▁caved	-11.715
▁cavity	-11.715
▁cba	-11.715
▁ceased	-11.715
▁celebrating	-11.715
▁celebrity	-11.715
▁celiac	-11.715
▁cell	-11.715
▁cemented	-11.715
▁censentually	-11.715
▁centered	-11.715
▁cereal	-11.715
▁certainty	-11.715
▁certificate	-11.715
▁chained	-11.715
▁challenging	-11.715
▁chameleon	-11.715
▁changer	-11.715
▁channel	-11.715
▁chaotic	-11.715
▁characteristic	-11.715
▁charade	-11.715
▁charcoal	-11.715
▁charge	-11.715
▁charger	-11.715
▁charleston	-11.715
▁chased	-11.715
▁chasing	-11.715
▁chastising	-11.715
▁chatted	-11.715
▁chatter	-11.715
▁chatting	-11.715
▁chatty	-11.715
▁chavy	-11.715
▁cheap	-11.715
▁cheaper	-11.715
▁cheaply	-11.715
▁cheating	-11.715
▁cheesed	-11.715
▁chemically	-11.715
▁cherish	-11.715
▁cherished	-11.715
▁chewy	-11.715
▁chicago	-11.715
▁chick	-11.715
▁chicken	-11.715
▁chickened	-11.715
▁childlike	-11.715
▁chime	-11.715
▁china	-11.715
▁chipper	-11.715
▁chirped	-11.715
▁chirping	-11.715
▁chit	-11.715
▁chock	-11.715
▁chronically	-11.715
▁chugging	-11.715
▁chummy	-11.715
▁church	-11.715
▁churning	-11.715
▁cicada	-11.715
▁cigs	-11.715
▁cinco	-11.715
▁cindy	-11.715
▁circling	-11.715
▁circuiting	-11.715
▁circuitry	-11.715
▁circulating	-11.715
▁cited	-11.715
▁civic	-11.715
▁cl	-11.715
▁clad	-11.715
▁claiming	-11.715
▁clasp	-11.715
▁class8s	-11.715
▁cleanliness	-11.715
▁cleanup	-11.715
▁cleft	-11.715
▁clenched	-11.715
▁clenching	-11.715
▁clg	-11.715
▁clickbait	-11.715
▁clicked	-11.715
▁clientele	-11.715
▁cliff	-11.715
▁climbing	-11.715
▁cling	-11.715
▁clip	-11.715
▁clog	-11.715
▁clonazipam	-11.715
▁clonidine	-11.715
▁clonopin	-11.715
▁closeted	-11.715
▁cloth	-11.715
▁clotiazepam	-11.715
▁clouding	-11.715
▁clued	-11.715
▁cluster	-11.715
▁clutching	-11.715
▁cmon	-11.715
▁cnn	-11.715
▁coached	-11.715
▁coaching	-11.715
▁coast	-11.715
▁cockatiel	-11.715
▁codependency	-11.715
▁cofe	-11.715
▁cognizant	-11.715
▁coherently	-11.715
▁cohesive	-11.715
▁cohort	-11.715
▁coin	-11.715
▁coincidentally	-11.715
▁coincides	-11.715
▁cola	-11.715
▁coldest	-11.715
▁collapsed	-11.715
▁collect	-11.715
▁collective	-11.715
▁collegue	-11.715
▁coma	-11.715
▁comb	-11.715
▁combo	-11.715
▁comepete	-11.715
▁comfortably	-11.715
▁command	-11.715
▁commended	-11.715
▁commenting	-11.715
▁comming	-11.715
▁commiseration	-11.715
▁commission	-11.715
▁commiting	-11.715
▁commits	-11.715
▁commonly	-11.715
▁commotion	-11.715
▁communist	-11.715
▁companionship	-11.715
▁compatible	-11.715
▁compatiblism	-11.715
▁compelled	-11.715
▁compensate	-11.715
▁compensated	-11.715
▁compensating	-11.715
▁competent	-11.715
▁compilation	-11.715
▁compile	-11.715
▁complains	-11.715
▁complement	-11.715
▁complication	-11.715
▁compliment	-11.715
▁complimented	-11.715
▁compny	-11.715
▁component	-11.715
▁compose	-11.715
▁composed	-11.715
▁composure	-11.715
▁comprehension	-11.715
▁comprehensive	-11.715
▁comprises	-11.715
▁computational	-11.715
▁comrade	-11.715
▁con	-11.715
▁conceive	-11.715
▁concepted	-11.715
▁conceptually	-11.715
▁concluded	-11.715
▁concoction	-11.715
▁condo	-11.715
▁conducive	-11.715
▁conduct	-11.715
▁conducting	-11.715
▁confession	-11.715
▁confided	-11.715
▁confidential	-11.715
▁confined	-11.715
▁confines	-11.715
▁confirmed	-11.715
▁confirms	-11.715
▁conformity	-11.715
▁confort	-11.715
▁confront	-11.715
▁confusa	-11.715
▁confuse	-11.715
▁congratulate	-11.715
▁congratulated	-11.715
▁congratulating	-11.715
▁congregating	-11.715
▁conjures	-11.715
▁conquer	-11.715
▁conscience	-11.715
▁consented	-11.715
▁consequently	-11.715
▁considerably	-11.715
▁considerate	-11.715
▁considers	-11.715
▁consolation	-11.715
▁consoling	-11.715
▁construction	-11.715
▁consultant	-11.715
▁consulted	-11.715
▁consults	-11.715
▁consumerism	-11.715
▁consumes	-11.715
▁containing	-11.715
▁contains	-11.715
▁contemplate	-11.715
▁contemplation	-11.715
▁contented	-11.715
▁continent	-11.715
▁continuous	-11.715
▁contraceptive	-11.715
▁contracted	-11.715
▁contradicting	-11.715
▁contrary	-11.715
▁contrast	-11.715
▁contributes	-11.715
▁contribution	-11.715
▁controll	-11.715
▁controller	-11.715
▁contuniue	-11.715
▁convalescensing	-11.715
▁conveniently	-11.715
▁conversational	-11.715
▁converse	-11.715
▁converted	-11.715
▁convulsion	-11.715
▁cooked	-11.715
▁cooldown	-11.715
▁cooperate	-11.715
▁coordinator	-11.715
▁copd	-11.715
▁copious	-11.715
▁copy	-11.715
▁corinne	-11.715
▁corolla	-11.715
▁corralled	-11.715
▁correction	-11.715
▁corresponding	-11.715
▁corresponds	-11.715
▁cortisol	-11.715
▁cosmic	-11.715
▁cosmos	-11.715
▁costly	-11.715
▁costochondritis	-11.715
▁coughed	-11.715
▁coughing	-11.715
▁couldve	-11.715
▁counsious	-11.715
▁counted	-11.715
▁counteracts	-11.715
▁countess	-11.715
▁counting	-11.715
▁coupd	-11.715
▁coupled	-11.715
▁coursework	-11.715
▁courtroom	-11.715
▁coz	-11.715
▁crackdown	-11.715
▁cracked	-11.715
▁cracker	-11.715
▁crackpot	-11.715
▁craigslist	-11.715
▁cram	-11.715
▁cramping	-11.715
▁craved	-11.715
▁crawled	-11.715
▁creates	-11.715
▁creature	-11.715
▁credibility	-11.715
▁crept	-11.715
▁cricket	-11.715
▁crier	-11.715
▁cringe	-11.715
▁cringing	-11.715
▁cringy	-11.715
▁criterion	-11.715
▁criticism	-11.715
▁criticized	-11.715
▁crm	-11.715
▁crowded	-11.715
▁crown	-11.715
▁cruelest	-11.715
▁crumble	-11.715
▁crumbling	-11.715
▁crumple	-11.715
▁crunch	-11.715
▁crusty	-11.715
▁crypto	-11.715
▁csgo	-11.715
▁csncer	-11.715
▁cte	-11.715
▁cu	-11.715
▁cubicle	-11.715
▁cue	-11.715
▁culminated	-11.715
▁culprit	-11.715
▁cultivating	-11.715
▁cummerbund	-11.715
▁cunt	-11.715
▁cupcake	-11.715
▁cupid	-11.715
▁curating	-11.715
▁curator	-11.715
▁curdling	-11.715
▁curse	-11.715
▁curtain	-11.715
▁curvier	-11.715
▁cushion	-11.715
▁cushy	-11.715
▁custom	-11.715
▁cutaneous	-11.715
▁cutesy	-11.715
▁cv	-11.715
▁cyanide	-11.715
▁cyclical	-11.715
▁cyst	-11.715
▁d3	-11.715
▁dabbing	-11.715
▁dae	-11.715
▁damaging	-11.715
▁damned	-11.715
▁dancer	-11.715
▁dancing	-11.715
▁dangerously	-11.715
▁danielle	-11.715
▁dare	-11.715
▁darken	-11.715
▁darker	-11.715
▁darting	-11.715
▁data	-11.715
▁daw	-11.715
▁dawned	-11.715
▁daydream	-11.715
▁daydreaming	-11.715
▁daylight	-11.715
▁dazed	-11.715
▁dea	-11.715
▁deadlier	-11.715
▁deafening	-11.715
▁dealer	-11.715
▁dealership	-11.715
▁deathbed	-11.715
▁deathly	-11.715
▁debbie	-11.715
▁debilitated	-11.715
▁debunk	-11.715
▁deceitful	-11.715
▁deceive	-11.715
▁deceived	-11.715
▁decently	-11.715
▁decipher	-11.715
▁decline	-11.715
▁declining	-11.715
▁deconstruct	-11.715
▁dedicate	-11.715
▁dedicating	-11.715
▁deemed	-11.715
▁defeating	-11.715
▁defecate	-11.715
▁defect	-11.715
▁defective	-11.715
▁defencesive	-11.715
▁defended	-11.715
▁defensive	-11.715
▁defiantly	-11.715
▁deficiency	-11.715
▁deficient	-11.715
▁defines	-11.715
▁definetely	-11.715
▁definite	-11.715
▁definitively	-11.715
▁deflect	-11.715
▁defo	-11.715
▁defy	-11.715
▁degenerate	-11.715
▁degenerative	-11.715
▁degrade	-11.715
▁degraded	-11.715
▁dehumanizing	-11.715
▁dehydrate	-11.715
▁delayed	-11.715
▁deleterious	-11.715
▁deliberate	-11.715
▁deliberately	-11.715
▁delicate	-11.715
▁delirious	-11.715
▁delirium	-11.715
▁deliver	-11.715
▁deluge	-11.715
▁delusion	-11.715
▁delve	-11.715
▁delving	-11.715
▁demanded	-11.715
▁demeanor	-11.715
▁democracy	-11.715
▁demonstrate	-11.715
▁demotivated	-11.715
▁demotivating	-11.715
▁dent	-11.715
▁dented	-11.715
▁dentistry	-11.715
▁denying	-11.715
▁dependency	-11.715
▁depersonalisation	-11.715
▁depict	-11.715
▁depiction	-11.715
▁depleted	-11.715
▁deploying	-11.715
▁depo	-11.715
▁deposit	-11.715
▁depot	-11.715
▁depress	-11.715
▁deprived	-11.715
▁depthless	-11.715
▁derealisation	-11.715
▁derives	-11.715
▁dermatologist	-11.715
▁descartes	-11.715
▁descends	-11.715
▁descision	-11.715
▁describes	-11.715
▁desired	-11.715
▁despondency	-11.715
▁dessert	-11.715
▁destination	-11.715
▁destined	-11.715
▁destiny	-11.715
▁destruction	-11.715
▁desvenlafaxine	-11.715
▁detailing	-11.715
▁detect	-11.715
▁detector	-11.715
▁deteriorate	-11.715
▁deteriorates	-11.715
▁determinism	-11.715
▁detoxing	-11.715
▁detriment	-11.715
▁detrimental	-11.715
▁detritus	-11.715
▁devastate	-11.715
▁devastating	-11.715
▁developper	-11.715
▁deviant	-11.715
▁devise	-11.715
▁devolve	-11.715
▁devolved	-11.715
▁devote	-11.715
▁devour	-11.715
▁dexterous	-11.715
▁diabetes	-11.715
▁diagnostic	-11.715
▁diazepam	-11.715
▁dice	-11.715
▁dicey	-11.715
▁dicked	-11.715
▁dickhead	-11.715
▁dieing	-11.715
▁diem	-11.715
▁dietary	-11.715
▁differ	-11.715
▁dificult	-11.715
▁digestion	-11.715
▁digestive	-11.715
▁digit	-11.715
▁digital	-11.715
▁dilaudid	-11.715
▁diminish	-11.715
▁diminished	-11.715
▁ding	-11.715
▁dining	-11.715
▁dioxide	-11.715
▁dip	-11.715
▁diploma	-11.715
▁dir	-11.715
▁disagreement	-11.715
▁disappeared	-11.715
▁disappears	-11.715
▁disarray	-11.715
▁disbelief	-11.715
▁disc	-11.715
▁discharge	-11.715
▁discharged	-11.715
▁disciplined	-11.715
▁disclaimer	-11.715
▁disclosure	-11.715
▁discomfort	-11.715
▁disconnecting	-11.715
▁disconneted	-11.715
▁discontinuation	-11.715
▁discontinue	-11.715
▁discontinued	-11.715
▁discourage	-11.715
▁discouragement	-11.715
▁discourages	-11.715
▁discouraging	-11.715
▁discovering	-11.715
▁discrediting	-11.715
▁discust	-11.715
▁disdain	-11.715
▁diseased	-11.715
▁disengaged	-11.715
▁disguise	-11.715
▁disheartening	-11.715
▁dishwasher	-11.715
▁disintegrating	-11.715
▁disliking	-11.715
▁dismissal	-11.715
▁dismissing	-11.715
▁disobedient	-11.715
▁disorganized	-11.715
▁disorientation	-11.715
▁disoriented	-11.715
▁disparaging	-11.715
▁displayed	-11.715
▁displeasure	-11.715
▁disproportionately	-11.715
▁disprove	-11.715
▁disrupts	-11.715
▁dissability	-11.715
▁dissapointed	-11.715
▁dissapoints	-11.715
▁dissappear	-11.715
▁dissatisfaction	-11.715
▁dissection	-11.715
▁dissipate	-11.715
▁dissonance	-11.715
▁distanced	-11.715
▁distinct	-11.715
▁distinction	-11.715
▁distort	-11.715
▁distraught	-11.715
▁distressed	-11.715
▁distrust	-11.715
▁disturb	-11.715
▁disturbance	-11.715
▁disturbed	-11.715
▁disturbing	-11.715
▁disturbs	-11.715
▁ditch	-11.715
▁ditching	-11.715
▁diva	-11.715
▁diver	-11.715
▁divide	-11.715
▁divine	-11.715
▁division	-11.715
▁dizzyness	-11.715
▁dl	-11.715
▁dlc	-11.715
▁dmv	-11.715
▁documented	-11.715
▁dodged	-11.715
▁dodging	-11.715
▁dodgy	-11.715
▁doens	-11.715
▁dogecoin	-11.715
▁doi	-11.715
▁dominated	-11.715
▁dominating	-11.715
▁donate	-11.715
▁donated	-11.715
▁donating	-11.715
▁donor	-11.715
▁doodle	-11.715
▁doomscroll	-11.715
▁doomsday	-11.715
▁doooo	-11.715
▁doorknob	-11.715
▁doped	-11.715
▁dopey	-11.715
▁dorky	-11.715
▁dosent	-11.715
▁doublechecking	-11.715
▁downer	-11.715
▁downgrade	-11.715
▁download	-11.715
▁downplay	-11.715
▁downplaying	-11.715
▁downtown	-11.715
▁dp	-11.715
▁draft	-11.715
▁dragging	-11.715
▁dramamine	-11.715
▁drastically	-11.715
▁drawl	-11.715
▁dreamed	-11.715
▁dreaming	-11.715
▁dreamt	-11.715
▁dredging	-11.715
▁drenched	-11.715
▁dressing	-11.715
▁drew	-11.715
▁drift	-11.715
▁drill	-11.715
▁drilled	-11.715
▁drilling	-11.715
▁driveway	-11.715
▁drone	-11.715
▁drool	-11.715
▁drooping	-11.715
▁drown	-11.715
▁drowned	-11.715
▁drowns	-11.715
▁drs	-11.715
▁drudgery	-11.715
▁drugstore	-11.715
▁drum	-11.715
▁drunkard	-11.715
▁dsm	-11.715
▁duct	-11.715
▁duh	-11.715
▁dumbells	-11.715
▁dumber	-11.715
▁dumbfounded	-11.715
▁dumbfuck	-11.715
▁dumpster	-11.715
▁dunkin	-11.715
▁duo	-11.715
▁dusty	-11.715
▁dwell	-11.715
▁dwelling	-11.715
▁dwindling	-11.715
▁dx	-11.715
▁dyeing	-11.715
▁dyslexic	-11.715
▁dysthimia	-11.715
▁dysthymia	-11.715
▁eager	-11.715
▁eagled	-11.715
▁earnestly	-11.715
▁earning	-11.715
▁eats	-11.715
▁ebay	-11.715
▁ebb	-11.715
▁edgy	-11.715
▁educated	-11.715
▁educational	-11.715
▁effeminate	-11.715
▁efffects	-11.715
▁efilism	-11.715
▁eg	-11.715
▁eggar	-11.715
▁egk	-11.715
▁eglonyl	-11.715
▁egocentric	-11.715
▁eighth	-11.715
▁el	-11.715
▁electric	-11.715
▁electrical	-11.715
▁electricity	-11.715
▁electroconvulsive	-11.715
▁electronic	-11.715
▁element	-11.715
▁elephant	-11.715
▁elevated	-11.715
▁eleventh	-11.715
▁eligible	-11.715
▁elliot	-11.715
▁em	-11.715
▁embarased	-11.715
▁embarassed	-11.715
▁embarisning	-11.715
▁embarrass	-11.715
▁embarrasses	-11.715
▁embarssing	-11.715
▁embracing	-11.715
▁emdr	-11.715
▁emily	-11.715
▁emoji	-11.715
▁emojis	-11.715
▁empanadas	-11.715
▁empathiic	-11.715
▁emphasize	-11.715
▁empirical	-11.715
▁emptyness	-11.715
▁enable	-11.715
▁enabled	-11.715
▁enabling	-11.715
▁enact	-11.715
▁enagie	-11.715
▁encountered	-11.715
▁endometriosis	-11.715
▁endopsychic	-11.715
▁endorse	-11.715
▁energized	-11.715
▁enforce	-11.715
▁eng	-11.715
▁engaging	-11.715
▁engineer	-11.715
▁engineering	-11.715
▁england	-11.715
▁engraved	-11.715
▁enjoys	-11.715
▁enlighten	-11.715
▁enlightened	-11.715
▁enlightenment	-11.715
▁enormous	-11.715
▁enormously	-11.715
▁enquired	-11.715
▁enrichment	-11.715
▁enroll	-11.715
▁enrolled	-11.715
▁ensued	-11.715
▁entail	-11.715
▁enthusiastic	-11.715
▁entirety	-11.715
▁entrusted	-11.715
▁enunciated	-11.715
▁envisioned	-11.715
▁envy	-11.715
▁envying	-11.715
▁epidemic	-11.715
▁epilepsy	-11.715
▁equate	-11.715
▁equation	-11.715
▁era	-11.715
▁erectile	-11.715
▁erosion	-11.715
▁errand	-11.715
▁escalate	-11.715
▁escalated	-11.715
▁escalating	-11.715
▁escaped	-11.715
▁escaping	-11.715
▁escapism	-11.715
▁escapist	-11.715
▁essentia	-11.715
▁est	-11.715
▁estate	-11.715
▁estimate	-11.715
▁estranged	-11.715
▁et	-11.715
▁etcetera	-11.715
▁eternity	-11.715
▁ethical	-11.715
▁etsy	-11.715
▁euphoric	-11.715
▁evaluate	-11.715
▁evaluated	-11.715
▁evangelical	-11.715
▁evaporating	-11.715
▁eve	-11.715
▁eventuality	-11.715
▁eventualy	-11.715
▁everithig	-11.715
▁everydays	-11.715
▁everyones	-11.715
▁everythings	-11.715
▁evey	-11.715
▁eveyones	-11.715
▁eveything	-11.715
▁evicted	-11.715
▁evident	-11.715
▁evolution	-11.715
▁evolve	-11.715
▁eww	-11.715
▁exacerbated	-11.715
▁exagerated	-11.715
▁exaggerated	-11.715
▁exaggeration	-11.715
▁examen	-11.715
▁exceedingly	-11.715
▁excell	-11.715
▁excelled	-11.715
▁exclusive	-11.715
▁exclusively	-11.715
▁excusing	-11.715
▁exemplary	-11.715
▁exemple	-11.715
▁exercised	-11.715
▁exercisig	-11.715
▁exert	-11.715
▁exhaustion	-11.715
▁exhaustive	-11.715
▁exhuasted	-11.715
▁exiled	-11.715
▁existance	-11.715
▁existentialism	-11.715
▁exit	-11.715
▁exited	-11.715
▁expained	-11.715
▁expanding	-11.715
▁expanse	-11.715
▁expecially	-11.715
▁expelled	-11.715
▁experiances	-11.715
▁experienc	-11.715
▁expert	-11.715
▁expire	-11.715
▁expired	-11.715
▁explanantion	-11.715
▁exploding	-11.715
▁exploited	-11.715
▁explore	-11.715
▁explosion	-11.715
▁explosive	-11.715
▁exponentially	-11.715
▁expressionless	-11.715
▁extends	-11.715
▁extinct	-11.715
▁extracted	-11.715
▁extraction	-11.715
▁extraordinarily	-11.715
▁extraterrestrial	-11.715
▁extroversion	-11.715
▁exuberance	-11.715
▁eyebrow	-11.715
▁eyeing	-11.715
▁f24	-11.715
▁faceless	-11.715
▁faction	-11.715
▁failling	-11.715
▁faining	-11.715
▁fainting	-11.715
▁fairness	-11.715
▁fairy	-11.715
▁faithfully	-11.715
▁fallout	-11.715
▁falsely	-11.715
▁fam	-11.715
▁familiy	-11.715
▁fancy	-11.715
▁fantasizing	-11.715
▁fascinates	-11.715
▁fastest	-11.715
▁fasting	-11.715
▁fatty	-11.715
▁fav	-11.715
▁fearful	-11.715
▁fearing	-11.715
▁feasible	-11.715
▁feb	-11.715
▁feeble	-11.715
▁feeeeel	-11.715
▁feelingd	-11.715
▁feign	-11.715
▁felony	-11.715
▁fent	-11.715
▁fermented	-11.715
▁fester	-11.715
▁fetish	-11.715
▁ffs	-11.715
▁fi	-11.715
▁fiancee	-11.715
▁fib	-11.715
▁fiber	-11.715
▁fidget	-11.715
▁fiercely	-11.715
▁figuring	-11.715
▁file	-11.715
▁filed	-11.715
▁filmed	-11.715
▁filter	-11.715
▁finality	-11.715
▁finasteride	-11.715
▁fingertip	-11.715
▁firefighter	-11.715
▁firework	-11.715
▁firstly	-11.715
▁fischer	-11.715
▁fistula	-11.715
▁fitbit	-11.715
▁fitness	-11.715
▁fitted	-11.715
▁fitter	-11.715
▁fixated	-11.715
▁fk	-11.715
▁fl	-11.715
▁flaired	-11.715
▁flaked	-11.715
▁flashy	-11.715
▁flatters	-11.715
▁flavor	-11.715
▁flawed	-11.715
▁flea	-11.715
▁flexeril	-11.715
▁flexibility	-11.715
▁flipped	-11.715
▁flipping	-11.715
▁flirted	-11.715
▁flirting	-11.715
▁flirty	-11.715
▁floater	-11.715
▁flooded	-11.715
▁flooding	-11.715
▁floral	-11.715
▁flourishing	-11.715
▁flower	-11.715
▁fluanxol	-11.715
▁fluctuation	-11.715
▁fluent	-11.715
▁fluid	-11.715
▁flunking	-11.715
▁flutter	-11.715
▁fluttering	-11.715
▁fml	-11.715
▁fo	-11.715
▁fobia	-11.715
▁fogged	-11.715
▁fold	-11.715
▁foliage	-11.715
▁follows	-11.715
▁followup	-11.715
▁footstep	-11.715
▁forbid	-11.715
▁forcible	-11.715
▁fore	-11.715
▁forensic	-11.715
▁forest	-11.715
▁forested	-11.715
▁foreveralone	-11.715
▁forgave	-11.715
▁forgetful	-11.715
▁forgetfulness	-11.715
▁forgets	-11.715
▁forgiveable	-11.715
▁forgiven	-11.715
▁forgiveness	-11.715
▁formatted	-11.715
▁formatting	-11.715
▁forming	-11.715
▁formulate	-11.715
▁forreal	-11.715
▁fose	-11.715
▁fostering	-11.715
▁fraction	-11.715
▁fracture	-11.715
▁fraid	-11.715
▁frame	-11.715
▁franchise	-11.715
▁francisco	-11.715
▁frantically	-11.715
▁frat	-11.715
▁fraud	-11.715
▁fraying	-11.715
▁freakouts	-11.715
▁freelance	-11.715
▁freely	-11.715
▁freezer	-11.715
▁freezing	-11.715
▁freind	-11.715
▁freinds	-11.715
▁frequents	-11.715
▁fretting	-11.715
▁fridge	-11.715
▁friggin	-11.715
▁fright	-11.715
▁fron	-11.715
▁frowing	-11.715
▁frowned	-11.715
▁frugal	-11.715
▁fruitful	-11.715
▁frumpy	-11.715
▁frustrates	-11.715
▁frustratingly	-11.715
▁fryer	-11.715
▁fucin	-11.715
▁fuckkkk	-11.715
▁fuckkkkkk	-11.715
▁fuelled	-11.715
▁fulfillment	-11.715
▁functionally	-11.715
▁fund	-11.715
▁fundamental	-11.715
▁funniest	-11.715
▁furious	-11.715
▁furthering	-11.715
▁fuuuuuuuuuuuuuuuuuuuuuuuuuuuuuuuuuuuuuuuuuuuuuuuuuuuuuuuuuuuuuuuuuuuuuuuuuuuuuuuuuuuuuuuuuuuuuuuuuuuuuuuuuuuuuuuuuuuuuuuuuuuuuuuuuuuuuuuuuuuuuuuuuuuuuuuuuuuuuuuuuuuuuuuuuuuuuuuuuuuuuuuuuuuk	-11.715
▁fuzziness	-11.715
▁fwb	-11.715
▁fx	-11.715
▁gaba	-11.715
▁gamers	-11.715
▁gamming	-11.715
▁gardening	-11.715
▁gasp	-11.715
▁gasping	-11.715
▁gastric	-11.715
▁gated	-11.715
▁gatekeep	-11.715
▁gateway	-11.715
▁gather	-11.715
▁gathering	-11.715
▁gazillion	-11.715
▁gd	-11.715
▁gee	-11.715
▁gel	-11.715
▁gen	-11.715
▁gender	-11.715
▁generation	-11.715
▁generic	-11.715
▁generosity	-11.715
▁generous	-11.715
▁generously	-11.715
▁genetics	-11.715
▁geniunely	-11.715
▁genshin	-11.715
▁gentleman	-11.715
▁geopolitical	-11.715
▁georgia	-11.715
▁germ	-11.715
▁german	-11.715
▁germany	-11.715
▁gettinf	-11.715
▁getup	-11.715
▁gice	-11.715
▁giddiness	-11.715
▁giddy	-11.715
▁giftcard	-11.715
▁giftcards	-11.715
▁gifted	-11.715
▁gigantic	-11.715
▁giggle	-11.715
▁girth	-11.715
▁glam	-11.715
▁glamour	-11.715
▁glancing	-11.715
▁glare	-11.715
▁glorified	-11.715
▁glorify	-11.715
▁glorious	-11.715
▁gnaw	-11.715
▁gnawing	-11.715
▁goddamnit	-11.715
▁gold	-11.715
▁goldendoodle	-11.715
▁goner	-11.715
▁gong	-11.715
▁goodness	-11.715
▁goodwill	-11.715
▁gop	-11.715
▁gorgeous	-11.715
▁gorilla	-11.715
▁grabbing	-11.715
▁grace	-11.715
▁gramatical	-11.715
▁grammatical	-11.715
▁grandchild	-11.715
▁graph	-11.715
▁grapple	-11.715
▁grasp	-11.715
▁grasping	-11.715
▁grass	-11.715
▁gratitude	-11.715
▁gravely	-11.715
▁gravity	-11.715
▁gravy	-11.715
▁greasy	-11.715
▁greatest	-11.715
▁greediness	-11.715
▁greeting	-11.715
▁grid	-11.715
▁grim	-11.715
▁grimaced	-11.715
▁grinding	-11.715
▁grit	-11.715
▁grossly	-11.715
▁grotesque	-11.715
▁grounded	-11.715
▁guardian	-11.715
▁gull	-11.715
▁gunna	-11.715
▁gurgling	-11.715
▁gust	-11.715
▁gutter	-11.715
▁guus	-11.715
▁hah	-11.715
▁hahaha	-11.715
▁hahahahahahahahahahahahaha	-11.715
▁hai	-11.715
▁hairdresser	-11.715
▁hairline	-11.715
▁halloween	-11.715
▁hallucinate	-11.715
▁halt	-11.715
▁halter	-11.715
▁halve	-11.715
▁hammer	-11.715
▁hamster	-11.715
▁handicap	-11.715
▁handled	-11.715
▁handshake	-11.715
▁handsome	-11.715
▁hanged	-11.715
▁hangnail	-11.715
▁happend	-11.715
▁harass	-11.715
▁harassed	-11.715
▁harasses	-11.715
▁harassment	-11.715
▁harbour	-11.715
▁hardcore	-11.715
▁hardened	-11.715
▁hardship	-11.715
▁hardware	-11.715
▁hardworking	-11.715
▁harlequin	-11.715
▁harmfulness	-11.715
▁harrassed	-11.715
▁harry	-11.715
▁hassle	-11.715
▁hatefully	-11.715
▁hauler	-11.715
▁hauling	-11.715
▁haunt	-11.715
▁havers	-11.715
▁havoc	-11.715
▁haze	-11.715
▁hazy	-11.715
▁headeache	-11.715
▁headphone	-11.715
▁healthier	-11.715
▁heap	-11.715
▁heartburn	-11.715
▁hearted	-11.715
▁heartless	-11.715
▁heaviness	-11.715
▁hehe	-11.715
▁heightened	-11.715
▁heist	-11.715
▁helath	-11.715
▁hella	-11.715
▁hellbent	-11.715
▁hellish	-11.715
▁helplesness	-11.715
▁hemorrhagic	-11.715
▁herbal	-11.715
▁hereditary	-11.715
▁herniated	-11.715
▁heroic	-11.715
▁hesistating	-11.715
▁hesitate	-11.715
▁heyy	-11.715
▁hhah	-11.715
▁hiatal	-11.715
▁hidden	-11.715
▁hideous	-11.715
▁hierarchy	-11.715
▁highlight	-11.715
▁highlighted	-11.715
▁hii	-11.715
▁hijack	-11.715
▁himym	-11.715
▁hindsight	-11.715
▁hirsutism	-11.715
▁hitman	-11.715
▁hl	-11.715
▁hmm	-11.715
▁hoff	-11.715
▁holler	-11.715
▁hollowly	-11.715
▁homelessness	-11.715
▁homely	-11.715
▁homepathic	-11.715
▁homeschooled	-11.715
▁homesickness	-11.715
▁hominid	-11.715
▁homophobe	-11.715
▁homosexual	-11.715
▁honda	-11.715
▁honey	-11.715
▁hoody	-11.715
▁hooking	-11.715
▁hooray	-11.715
▁hopped	-11.715
▁horizontal	-11.715
▁hormonal	-11.715
▁horny	-11.715
▁horoscope	-11.715
▁horrific	-11.715
▁horrifies	-11.715
▁hospice	-11.715
▁hospitalised	-11.715
▁hospitalize	-11.715
▁host	-11.715
▁hostile	-11.715
▁hostility	-11.715
▁hourglass	-11.715
▁hourly	-11.715
▁hovered	-11.715
▁hovering	-11.715
▁hovers	-11.715
▁hovever	-11.715
▁hp	-11.715
▁hpe	-11.715
▁html	-11.715
▁hugged	-11.715
▁hugging	-11.715
▁hugo	-11.715
▁huh	-11.715
▁humanly	-11.715
▁humbling	-11.715
▁humbly	-11.715
▁humidity	-11.715
▁humiliating	-11.715
▁humiliation	-11.715
▁hun	-11.715
▁hungover	-11.715
▁hungrier	-11.715
▁hunt	-11.715
▁hunting	-11.715
▁hurhur	-11.715
▁hurling	-11.715
▁hurricane	-11.715
▁hurted	-11.715
▁hvac	-11.715
▁hw	-11.715
▁hybrid	-11.715
▁hydrated	-11.715
▁hydroxezine	-11.715
▁hyped	-11.715
▁hyperemesis	-11.715
▁hyperfixated	-11.715
▁hypersensitivity	-11.715
▁hypersomnia	-11.715
▁hyperventilated	-11.715
▁hyperverbal	-11.715
▁hypervigilant	-11.715
▁hypochondriac	-11.715
▁hypothetical	-11.715
▁hysterectomy	-11.715
▁ib	-11.715
▁ibuprofen	-11.715
▁ic	-11.715
▁iced	-11.715
▁icy	-11.715
▁idec	-11.715
▁idiotic	-11.715
▁idky	-11.715
▁idol	-11.715
▁ie	-11.715
▁iffy	-11.715
▁ignorance	-11.715
▁ignores	-11.715
▁ileostomy	-11.715
▁illegal	-11.715
▁illuminated	-11.715
▁imaginable	-11.715
▁imbalanced	-11.715
▁imessages	-11.715
▁imgur	-11.715
▁imitate	-11.715
▁imma	-11.715
▁immature	-11.715
▁immerse	-11.715
▁immunocompromised	-11.715
▁imo	-11.715
▁impactful	-11.715
▁impatient	-11.715
▁imperfect	-11.715
▁imperfection	-11.715
▁imply	-11.715
▁implying	-11.715
▁imposed	-11.715
▁impotent	-11.715
▁impressed	-11.715
▁impression	-11.715
▁impromptu	-11.715
▁improper	-11.715
▁improv4health	-11.715
▁impulsively	-11.715
▁impurity	-11.715
▁inaction	-11.715
▁inactivity	-11.715
▁inane	-11.715
▁inattention	-11.715
▁inb4	-11.715
▁inbetween	-11.715
▁incapacitated	-11.715
▁incessantly	-11.715
▁inching	-11.715
▁incision	-11.715
▁incoming	-11.715
▁inconsiderate	-11.715
▁inconsistent	-11.715
▁inconsolable	-11.715
▁incurable	-11.715
▁indefinitely	-11.715
▁independence	-11.715
▁independently	-11.715
▁indescribable	-11.715
▁indicator	-11.715
▁indigestion	-11.715
▁individualist	-11.715
▁induce	-11.715
▁ineffective	-11.715
▁inexcusable	-11.715
▁inexplicably	-11.715
▁infant	-11.715
▁infect	-11.715
▁infinitely	-11.715
▁infinity	-11.715
▁inflict	-11.715
▁inflicting	-11.715
▁inform	-11.715
▁informative	-11.715
▁infrequent	-11.715
▁infront	-11.715
▁infusion	-11.715
▁ingesting	-11.715
▁inhaling	-11.715
▁inherit	-11.715
▁inhertitance	-11.715
▁inhuman	-11.715
▁initiated	-11.715
▁initiating	-11.715
▁initiative	-11.715
▁inlove	-11.715
▁innovative	-11.715
▁inparticular	-11.715
▁inpatient	-11.715
▁inquisition	-11.715
▁insanity	-11.715
▁insensitive	-11.715
▁insert	-11.715
▁insightful	-11.715
▁insist	-11.715
▁insole	-11.715
▁insomniac	-11.715
▁inspected	-11.715
▁inspired	-11.715
▁inst	-11.715
▁instability	-11.715
▁instinctive	-11.715
▁instruction	-11.715
▁instructor	-11.715
▁insulted	-11.715
▁insurmountable	-11.715
▁integrated	-11.715
▁integrating	-11.715
▁intelligibly	-11.715
▁intend	-11.715
▁intensified	-11.715
▁intensifying	-11.715
▁interactivity	-11.715
▁interbound	-11.715
▁interim	-11.715
▁internalising	-11.715
▁interpret	-11.715
▁intersect	-11.715
▁intervention	-11.715
▁interviewing	-11.715
▁intimacy	-11.715
▁intolerable	-11.715
▁intoxicated	-11.715
▁intricacy	-11.715
▁intrigued	-11.715
▁intriguing	-11.715
▁intruding	-11.715
▁inundated	-11.715
▁invalid	-11.715
▁invasion	-11.715
▁invent	-11.715
▁invest	-11.715
▁invested	-11.715
▁invident	-11.715
▁involed	-11.715
▁invovled	-11.715
▁ios_app	-11.715
▁iossmf	-11.715
▁iq	-11.715
▁ir	-11.715
▁irb	-11.715
▁ironic	-11.715
▁irony	-11.715
▁irregular	-11.715
▁irresponsible	-11.715
▁irretrievably	-11.715
▁irreversible	-11.715
▁irritate	-11.715
▁irritates	-11.715
▁irritating	-11.715
▁italian	-11.715
▁itching	-11.715
▁itchy	-11.715
▁ite	-11.715
▁jab	-11.715
▁jackass	-11.715
▁jacked	-11.715
▁jaded	-11.715
▁jakes	-11.715
▁jammed	-11.715
▁jan	-11.715
▁janeiro	-11.715
▁janet	-11.715
▁jarring	-11.715
▁jaycon	-11.715
▁jehovas	-11.715
▁jelly	-11.715
▁jeopardised	-11.715
▁jeopardy	-11.715
▁jesus	-11.715
▁jobless	-11.715
▁jockeying	-11.715
▁joe	-11.715
▁jogged	-11.715
▁joked	-11.715
▁jokingly	-11.715
▁jolt	-11.715
▁joyful	-11.715
▁joyless	-11.715
▁julls	-11.715
▁jumper	-11.715
▁jungle	-11.715
▁justifiably	-11.715
▁jusy	-11.715
▁juvie	-11.715
▁k	-11.715
▁kale	-11.715
▁karma	-11.715
▁keenly	-11.715
▁keeo	-11.715
▁keepsake	-11.715
▁kennel	-11.715
▁keyboard	-11.715
▁kickass	-11.715
▁kiddos	-11.715
▁kin	-11.715
▁kindve	-11.715
▁kingdom	-11.715
▁kit	-11.715
▁klonapin	-11.715
▁klonipin	-11.715
▁kneejerk	-11.715
▁knocking	-11.715
▁knoe	-11.715
▁know_	-11.715
▁knowingly	-11.715
▁knowns	-11.715
▁kpi	-11.715
▁la	-11.715
▁labeled	-11.715
▁labixten	-11.715
▁lactose	-11.715
▁lame	-11.715
▁lamotrigine	-11.715
▁lancashire	-11.715
▁landing	-11.715
▁landlady	-11.715
▁landlord	-11.715
▁landmark	-11.715
▁landscaping	-11.715
▁lapse	-11.715
▁largely	-11.715
▁lashed	-11.715
▁latch	-11.715
▁latching	-11.715
▁latest	-11.715
▁laughter	-11.715
▁lawn	-11.715
▁layed	-11.715
▁ldr	-11.715
▁leaded	-11.715
▁leader	-11.715
▁leap	-11.715
▁leaped	-11.715
▁learner	-11.715
▁lease	-11.715
▁leash	-11.715
▁leaved	-11.715
▁lecturer	-11.715
▁ledge	-11.715
▁leech	-11.715
▁leeway	-11.715
▁legally	-11.715
▁legend	-11.715
▁legged	-11.715
▁legging	-11.715
▁legitimacy	-11.715
▁lemme	-11.715
▁lend	-11.715
▁lengthy	-11.715
▁lens	-11.715
▁lesbian	-11.715
▁lessen	-11.715
▁lethal	-11.715
▁lethargy	-11.715
▁lettuce	-11.715
▁leukaemia	-11.715
▁leveling	-11.715
▁lewd	-11.715
▁lexipro	-11.715
▁lf	-11.715
▁liar	-11.715
▁liberal	-11.715
▁licensed	-11.715
▁lieu	-11.715
▁lifeguard	-11.715
▁lifeline	-11.715
▁lifespan	-11.715
▁lifting	-11.715
▁lightest	-11.715
▁lighthead	-11.715
▁lightheadness	-11.715
▁lighting	-11.715
▁lightning	-11.715
▁lightsaber	-11.715
▁liking	-11.715
▁limbic	-11.715
▁lind	-11.715
▁linear	-11.715
▁linger	-11.715
▁lipstick	-11.715
▁listed	-11.715
▁listened	-11.715
▁listener	-11.715
▁listlessness	-11.715
▁lit	-11.715
▁liter	-11.715
▁litrally	-11.715
▁litterally	-11.715
▁littlest	-11.715
▁lively	-11.715
▁liver	-11.715
▁lll	-11.715
▁lmaooo	-11.715
▁lmfao	-11.715
▁loaded	-11.715
▁location	-11.715
▁locjers	-11.715
▁locker	-11.715
▁log	-11.715
▁logged	-11.715
▁logo	-11.715
▁loke	-11.715
▁lonelier	-11.715
▁loneliest	-11.715
▁lonley	-11.715
▁lonleyness	-11.715
▁lonlinees	-11.715
▁lonliness	-11.715
▁loooooong	-11.715
▁looots	-11.715
▁lorazepam	-11.715
▁lotion	-11.715
▁loveless	-11.715
▁lovelife	-11.715
▁lover	-11.715
▁lowe	-11.715
▁lowering	-11.715
▁lowkey	-11.715
▁lowtide	-11.715
▁loyal	-11.715
▁lr	-11.715
▁lumbar	-11.715
▁lunatic	-11.715
▁lunesta	-11.715
▁lurker	-11.715
▁ly	-11.715
▁lynch	-11.715
▁lyrica	-11.715
▁m23	-11.715
▁maddening	-11.715
▁magazine	-11.715
▁magnet	-11.715
▁magnificent	-11.715
▁maid	-11.715
▁mailto	-11.715
▁mainstream	-11.715
▁maintenance	-11.715
▁majorly	-11.715
▁maked	-11.715
▁maker	-11.715
▁makeup	-11.715
▁malfunction	-11.715
▁malfunctioning	-11.715
▁malnourished	-11.715
▁malnourishing	-11.715
▁mama	-11.715
▁manages	-11.715
▁manbaby	-11.715
▁manchester	-11.715
▁mandatory	-11.715
▁mania	-11.715
▁manifestation	-11.715
▁manifestly	-11.715
▁manipulated	-11.715
▁mantain	-11.715
▁manteinance	-11.715
▁manually	-11.715
▁manufacture	-11.715
▁mapping	-11.715
▁marathon	-11.715
▁marine	-11.715
▁marvelous	-11.715
▁mary	-11.715
▁mason	-11.715
▁massage	-11.715
▁mastered	-11.715
▁mastery	-11.715
▁masturbate	-11.715
▁masturbated	-11.715
▁masturbation	-11.715
▁materialize	-11.715
▁mathematics	-11.715
▁mattress	-11.715
▁mature	-11.715
▁maxed	-11.715
▁maxer	-11.715
▁maximum	-11.715
▁maybey	-11.715
▁mayo	-11.715
▁mcyt	-11.715
▁mdma	-11.715
▁meamwhile	-11.715
▁meanest	-11.715
▁meaningfulness	-11.715
▁meaninglessness	-11.715
▁meanwhile	-11.715
▁medcu	-11.715
▁mediation	-11.715
▁medicaid	-11.715
▁medicament	-11.715
▁medicate	-11.715
▁medieval	-11.715
▁meditating	-11.715
▁mega	-11.715
▁melbourne	-11.715
▁melenials	-11.715
▁melt	-11.715
▁melted	-11.715
▁memo	-11.715
▁menial	-11.715
▁menstrual	-11.715
▁mentality	-11.715
▁menu	-11.715
▁mercari	-11.715
▁merciless	-11.715
▁mercy	-11.715
▁merely	-11.715
▁merger	-11.715
▁merit	-11.715
▁meshed	-11.715
▁messenger	-11.715
▁messin	-11.715
▁messurd	-11.715
▁metacognition	-11.715
▁metallic	-11.715
▁metaphor	-11.715
▁meter	-11.715
▁mexican	-11.715
▁mgr	-11.715
▁mhm	-11.715
▁mickey	-11.715
▁micro	-11.715
▁microphone	-11.715
▁microwave	-11.715
▁middel	-11.715
▁middleschool	-11.715
▁midodrine	-11.715
▁midway	-11.715
▁midwest	-11.715
▁milder	-11.715
▁milestone	-11.715
▁mill	-11.715
▁millionth	-11.715
▁mimicking	-11.715
▁mindful	-11.715
▁minding	-11.715
▁mindwork	-11.715
▁miniscule	-11.715
▁minority	-11.715
▁mire	-11.715
▁misar	-11.715
▁misbehaving	-11.715
▁miscarriage	-11.715
▁misdiagnose	-11.715
▁misdirect	-11.715
▁misfortune	-11.715
▁misheard	-11.715
▁misinterpreted	-11.715
▁mislead	-11.715
▁misleading	-11.715
▁mismanagement	-11.715
▁misplace	-11.715
▁misplaced	-11.715
▁misread	-11.715
▁misreading	-11.715
▁mist	-11.715
▁mistreated	-11.715
▁misunderstand	-11.715
▁misunderstanding	-11.715
▁mmm	-11.715
▁mnghgnmngh	-11.715
▁moan	-11.715
▁moaning	-11.715
▁mob	-11.715
▁mocked	-11.715
▁modeling	-11.715
▁modest	-11.715
▁modmail	-11.715
▁modqueue	-11.715
▁mogul	-11.715
▁mojar	-11.715
▁molecular	-11.715
▁momentary	-11.715
▁mommy	-11.715
▁mondo	-11.715
▁monotony	-11.715
▁monoxide	-11.715
▁monumental	-11.715
▁moping	-11.715
▁moral	-11.715
▁morale	-11.715
▁morality	-11.715
▁morally	-11.715
▁morgan	-11.715
▁moroseness	-11.715
▁morphine	-11.715
▁mortally	-11.715
▁moth	-11.715
▁motherly	-11.715
▁motivating	-11.715
▁motivational	-11.715
▁motive	-11.715
▁motto	-11.715
▁mourning	-11.715
▁mouse	-11.715
▁moutain	-11.715
▁mouthwash	-11.715
▁movement	-11.715
▁mowed	-11.715
▁mra	-11.715
▁msg	-11.715
▁mt	-11.715
▁mu	-11.715
▁mucus	-11.715
▁multilane	-11.715
▁multitasking	-11.715
▁multivitamin	-11.715
▁mumbling	-11.715
▁murderous	-11.715
▁murmur	-11.715
▁museum	-11.715
▁musical	-11.715
▁musician	-11.715
▁mustache	-11.715
▁mustve	-11.715
▁mutated	-11.715
▁mutism	-11.715
▁mutuals	-11.715
▁mydayis	-11.715
▁myriad	-11.715
▁myth	-11.715
▁n4hpcb	-11.715
▁nag	-11.715
▁naive	-11.715
▁naively	-11.715
▁naltraxone	-11.715
▁nanny	-11.715
▁naproxen	-11.715
▁nardil	-11.715
▁narrative	-11.715
▁nausous	-11.715
▁navigate	-11.715
▁navigated	-11.715
▁nay	-11.715
▁nazi	-11.715
▁nbsp	-11.715
▁nearer	-11.715
▁nearest	-11.715
▁neat	-11.715
▁neatly	-11.715
▁neglectful	-11.715
▁neighborly	-11.715
▁neighbour	-11.715
▁nelly	-11.715
▁neo	-11.715
▁nephew	-11.715
▁neural	-11.715
▁neurodegenerative	-11.715
▁neurofeedback	-11.715
▁neurology	-11.715
▁neuronal	-11.715
▁neuronally	-11.715
▁neutrality	-11.715
▁newbie	-11.715
▁newly	-11.715
▁nf	-11.715
▁ng	-11.715
▁ngl	-11.715
▁nibble	-11.715
▁nicely	-11.715
▁nicer	-11.715
▁nicest	-11.715
▁nicked	-11.715
▁nicotine	-11.715
▁nightine	-11.715
▁nightly	-11.715
▁nightmarish	-11.715
▁nightshifts	-11.715
▁nightstand	-11.715
▁nihilistic	-11.715
▁nitrous	-11.715
▁nod	-11.715
▁noggin	-11.715
▁noisy	-11.715
▁nomorepanic	-11.715
▁nonexistent	-11.715
▁nonjudgmental	-11.715
▁noone	-11.715
▁noose	-11.715
▁nootropics	-11.715
▁noramally	-11.715
▁normalise	-11.715
▁normality	-11.715
▁nostalgia	-11.715
▁nots	-11.715
▁nourishes	-11.715
▁novel	-11.715
▁noving	-11.715
▁nsfw	-11.715
▁nth	-11.715
▁nugget	-11.715
▁nuke	-11.715
▁numbs	-11.715
▁nutrition	-11.715
▁nutritional	-11.715
▁nutritionist	-11.715
▁nv	-11.715
▁nzs	-11.715
▁obese	-11.715
▁objectifying	-11.715
▁objectivity	-11.715
▁obligated	-11.715
▁obligatory	-11.715
▁obliterated	-11.715
▁obscure	-11.715
▁observation	-11.715
▁observing	-11.715
▁obsessional	-11.715
▁obtainable	-11.715
▁occupational	-11.715
▁occupy	-11.715
▁occurring	-11.715
▁odn	-11.715
▁odor	-11.715
▁offence	-11.715
▁offering	-11.715
▁officer	-11.715
▁okayish	-11.715
▁okey	-11.715
▁ol	-11.715
▁olanzapine	-11.715
▁om	-11.715
▁omfg	-11.715
▁omg	-11.715
▁omniprozol	-11.715
▁oncoming	-11.715
▁oneself	-11.715
▁ontological	-11.715
▁onward	-11.715
▁ooze	-11.715
▁openner	-11.715
▁operates	-11.715
▁oppressive	-11.715
▁ops	-11.715
▁opted	-11.715
▁opthalmologist	-11.715
▁optimal	-11.715
▁optimisim	-11.715
▁optimism	-11.715
▁optmistic	-11.715
▁ordeal	-11.715
▁oregon	-11.715
▁oreo	-11.715
▁orfidal	-11.715
▁organisation	-11.715
▁organizing	-11.715
▁orientation	-11.715
▁oriented	-11.715
▁origin	-11.715
▁orphan	-11.715
▁orthodox	-11.715
▁orthopedic	-11.715
▁osteopathic	-11.715
▁otherwse	-11.715
▁otr	-11.715
▁ou	-11.715
▁ought	-11.715
▁ourself	-11.715
▁ourselfs	-11.715
▁outburts	-11.715
▁outdated	-11.715
▁outdoors	-11.715
▁outed	-11.715
▁outlandish	-11.715
▁outputted	-11.715
▁outset	-11.715
▁ovary	-11.715
▁oven	-11.715
▁overactive	-11.715
▁overanalyze	-11.715
▁overanalyzed	-11.715
▁overcommitted	-11.715
▁overcorrected	-11.715
▁overdid	-11.715
▁overdoes	-11.715
▁overdosed	-11.715
▁overdramatise	-11.715
▁overdrive	-11.715
▁overdue	-11.715
▁overestimated	-11.715
▁overheard	-11.715
▁overlapping	-11.715
▁overloaded	-11.715
▁overnights	-11.715
▁overpass	-11.715
▁overqualified	-11.715
▁oversleep	-11.715
▁overslept	-11.715
▁overtaken	-11.715
▁overused	-11.715
▁overvalued	-11.715
▁overweighs	-11.715
▁overwhelm	-11.715
▁overworked	-11.715
▁owed	-11.715
▁ownership	-11.715
▁owning	-11.715
▁oxide	-11.715
▁oxymeter	-11.715
▁packing	-11.715
▁pad	-11.715
▁padlock	-11.715
▁painstakingly	-11.715
▁paint	-11.715
▁painted	-11.715
▁pal	-11.715
▁palace	-11.715
▁palpatations	-11.715
▁pan	-11.715
▁pancreatic	-11.715
▁pandemy	-11.715
▁pander	-11.715
▁pap	-11.715
▁paperwork	-11.715
▁parade	-11.715
▁paradoxical	-11.715
▁paralized	-11.715
▁parallel	-11.715
▁paraphernalia	-11.715
▁paraphrase	-11.715
▁parasite	-11.715
▁parental	-11.715
▁parkinson	-11.715
▁partake	-11.715
▁parted	-11.715
▁partook	-11.715
▁passably	-11.715
▁passionale	-11.715
▁pastime	-11.715
▁pat	-11.715
▁patched	-11.715
▁pathologist	-11.715
▁patriarchy	-11.715
▁payed	-11.715
▁payment	-11.715
▁paypal	-11.715
▁pcod	-11.715
▁pcos	-11.715
▁pd	-11.715
▁pdf	-11.715
▁peaked	-11.715
▁peanut	-11.715
▁pedophile	-11.715
▁peek	-11.715
▁peering	-11.715
▁peeve	-11.715
▁peg	-11.715
▁peice	-11.715
▁pen	-11.715
▁pencil	-11.715
▁penis	-11.715
▁penny	-11.715
▁pensacola	-11.715
▁pep	-11.715
▁pepper	-11.715
▁pepsi	-11.715
▁pepto	-11.715
▁perceive	-11.715
▁perceives	-11.715
▁percent	-11.715
▁perfectionism	-11.715
▁perfectionist	-11.715
▁performer	-11.715
▁permabanned	-11.715
▁permision	-11.715
▁permission	-11.715
▁perpetual	-11.715
▁perse	-11.715
▁persisted	-11.715
▁persists	-11.715
▁personsl	-11.715
▁perspire	-11.715
▁persuade	-11.715
▁pessimistic	-11.715
▁pestered	-11.715
▁peticularily	-11.715
▁petition	-11.715
▁petrifies	-11.715
▁petrol	-11.715
▁pf	-11.715
▁pg	-11.715
▁phantasmagoric	-11.715
▁phantom	-11.715
▁pharma	-11.715
▁pharmacist	-11.715
▁phenomenon	-11.715
▁phew	-11.715
▁philosopher	-11.715
▁philosophical	-11.715
▁phoenix	-11.715
▁phoniness	-11.715
▁photographer	-11.715
▁photographing	-11.715
▁php	-11.715
▁phsycially	-11.715
▁phycologists	-11.715
▁physicality	-11.715
▁piano	-11.715
▁pic	-11.715
▁picnic	-11.715
▁pieced	-11.715
▁pigeon	-11.715
▁piglet	-11.715
▁pinch	-11.715
▁pinching	-11.715
▁ping	-11.715
▁pinkish	-11.715
▁pinned	-11.715
▁pitched	-11.715
▁pitfall	-11.715
▁pitying	-11.715
▁pixie	-11.715
▁plague	-11.715
▁plalstic	-11.715
▁plank	-11.715
▁plannin	-11.715
▁platonic	-11.715
▁plausibly	-11.715
▁player	-11.715
▁pleads	-11.715
▁pleaser	-11.715
▁pleasw	-11.715
▁plotting	-11.715
▁plugged	-11.715
▁plywood	-11.715
▁pmdd	-11.715
▁pnemonia	-11.715
▁pneumonia	-11.715
▁podcast	-11.715
▁podcaster	-11.715
▁podcasts	-11.715
▁poetic	-11.715
▁pointed	-11.715
▁poisoning	-11.715
▁poked	-11.715
▁poking	-11.715
▁polar	-11.715
▁policing	-11.715
▁politely	-11.715
▁politics	-11.715
▁polution	-11.715
▁pond	-11.715
▁poochy	-11.715
▁pool	-11.715
▁poorer	-11.715
▁popcorn	-11.715
▁popped	-11.715
▁popping	-11.715
▁popsicle	-11.715
▁population	-11.715
▁porcelain	-11.715
▁porch	-11.715
▁porg	-11.715
▁portrait	-11.715
▁portrayed	-11.715
▁pose	-11.715
▁posh	-11.715
▁positioned	-11.715
▁posse	-11.715
▁possessive	-11.715
▁postgrad	-11.715
▁potato	-11.715
▁potatoe	-11.715
▁potency	-11.715
▁potent	-11.715
▁potion	-11.715
▁potter	-11.715
▁pouch	-11.715
▁poured	-11.715
▁pouring	-11.715
▁pov	-11.715
▁powder	-11.715
▁powering	-11.715
▁powerless	-11.715
▁practitioner	-11.715
▁prayer	-11.715
▁precaution	-11.715
▁precieve	-11.715
▁precipice	-11.715
▁precisely	-11.715
▁precursor	-11.715
▁predicament	-11.715
▁prednisone	-11.715
▁preety	-11.715
▁prefaced	-11.715
▁preferable	-11.715
▁preferred	-11.715
▁pregabalin	-11.715
▁prematurely	-11.715
▁premier	-11.715
▁prentenious	-11.715
▁preposterously	-11.715
▁prerequisite	-11.715
▁presaging	-11.715
▁prescribes	-11.715
▁presently	-11.715
▁preserve	-11.715
▁presumably	-11.715
▁pretended	-11.715
▁pretentious	-11.715
▁prettiest	-11.715
▁preventable	-11.715
▁preventative	-11.715
▁prevention	-11.715
▁priceless	-11.715
▁prick	-11.715
▁pricking	-11.715
▁prickly	-11.715
▁prime	-11.715
▁primitive	-11.715
▁prince	-11.715
▁princess	-11.715
▁principal	-11.715
▁prioritise	-11.715
▁prioritize	-11.715
▁prism	-11.715
▁pristq	-11.715
▁private_contact	-11.715
▁priveleged	-11.715
▁privilaged	-11.715
▁prize	-11.715
▁prn	-11.715
▁proactive	-11.715
▁probability	-11.715
▁probaply	-11.715
▁probation	-11.715
▁proceeding	-11.715
▁proceeds	-11.715
▁prochlorperazine	-11.715
▁procrastinating	-11.715
▁procreating	-11.715
▁prod	-11.715
▁prodded	-11.715
▁produced	-11.715
▁productively	-11.715
▁professor	-11.715
▁proffessional	-11.715
▁profit	-11.715
▁profiting	-11.715
▁profound	-11.715
▁profusely	-11.715
▁programming	-11.715
▁progressed	-11.715
▁progressively	-11.715
▁projection	-11.715
▁prolonged	-11.715
▁promo	-11.715
▁promote	-11.715
▁promotes	-11.715
▁prompt	-11.715
▁promptly	-11.715
▁proofreading	-11.715
▁propanolol	-11.715
▁prophecy	-11.715
▁proposed	-11.715
▁prosperity	-11.715
▁prostitute	-11.715
▁proudest	-11.715
▁proudly	-11.715
▁provera	-11.715
▁provides	-11.715
▁providing	-11.715
▁proving	-11.715
▁psy	-11.715
▁psyanin	-11.715
▁psychatric	-11.715
▁psychiatric	-11.715
▁psychiatrictimes	-11.715
▁psychiatry	-11.715
▁psycho	-11.715
▁psychoanalyst	-11.715
▁psychogenic	-11.715
▁psychologied	-11.715
▁psychopath	-11.715
▁psychopharmaca	-11.715
▁psychotropic	-11.715
▁pt	-11.715
▁pubes	-11.715
▁publicly	-11.715
▁published	-11.715
▁puff	-11.715
▁puked	-11.715
▁puking	-11.715
▁pulmonologists	-11.715
▁pulsating	-11.715
▁pulsing	-11.715
▁punching	-11.715
▁punctual	-11.715
▁punctuation	-11.715
▁puncture	-11.715
▁punishes	-11.715
▁pupil	-11.715
▁purchased	-11.715
▁purge	-11.715
▁purist	-11.715
▁purposeless	-11.715
▁purposely	-11.715
▁pursing	-11.715
▁q	-11.715
▁qualifies	-11.715
▁qualify	-11.715
▁quantify	-11.715
▁quantity	-11.715
▁quarter	-11.715
▁quasimodo	-11.715
▁quentin	-11.715
▁quest	-11.715
▁questioned	-11.715
▁quetamine	-11.715
▁quetiapine	-11.715
▁quickbooks	-11.715
▁quicker	-11.715
▁quieted	-11.715
▁quinoa	-11.715
▁quiting	-11.715
▁quitter	-11.715
▁quo	-11.715
▁quora	-11.715
▁quotation	-11.715
▁rabid	-11.715
▁racist	-11.715
▁radar	-11.715
▁radiate	-11.715
▁radiating	-11.715
▁radiologist	-11.715
▁railing	-11.715
▁rainbow	-11.715
▁rainy	-11.715
▁rambly	-11.715
▁ramping	-11.715
▁ramsey	-11.715
▁rando	-11.715
▁rang	-11.715
▁ranged	-11.715
▁ranger	-11.715
▁rank	-11.715
▁ranking	-11.715
▁ranty	-11.715
▁rap	-11.715
▁rape	-11.715
▁rapid	-11.715
▁rapist	-11.715
▁rapunzled	-11.715
▁rarer	-11.715
▁rash	-11.715
▁rat	-11.715
▁rationalised	-11.715
▁rationality	-11.715
▁rationalizing	-11.715
▁raving	-11.715
▁raw	-11.715
▁raynaud	-11.715
▁razor	-11.715
▁rdation	-11.715
▁reacted	-11.715
▁reader	-11.715
▁realizes	-11.715
▁realm	-11.715
▁rear	-11.715
▁rearing	-11.715
▁reasonably	-11.715
▁reassess	-11.715
▁reate	-11.715
▁reawakens	-11.715
▁rebirth	-11.715
▁rebounded	-11.715
▁rebranded	-11.715
▁rebutted	-11.715
▁recalling	-11.715
▁recap	-11.715
▁receipt	-11.715
▁recenntly	-11.715
▁receptive	-11.715
▁recieve	-11.715
▁recipe	-11.715
▁reciting	-11.715
▁recive	-11.715
▁recluse	-11.715
▁recognise	-11.715
▁recognised	-11.715
▁recognising	-11.715
▁recognition	-11.715
▁recollection	-11.715
▁reconcile	-11.715
▁reconnect	-11.715
▁reconsider	-11.715
▁recorded	-11.715
▁recovers	-11.715
▁recreate	-11.715
▁recruiting	-11.715
▁redditor	-11.715
▁redeem	-11.715
▁redeemable	-11.715
▁redeemed	-11.715
▁redemption	-11.715
▁reduction	-11.715
▁reek	-11.715
▁refer	-11.715
▁referred	-11.715
▁referring	-11.715
▁refers	-11.715
▁reflected	-11.715
▁reflects	-11.715
▁reframing	-11.715
▁refreshing	-11.715
▁regal	-11.715
▁regarded	-11.715
▁regenerates	-11.715
▁registration	-11.715
▁regressing	-11.715
▁reground	-11.715
▁regularity	-11.715
▁regulating	-11.715
▁regulation	-11.715
▁rehab	-11.715
▁rehabilitation	-11.715
▁reinforced	-11.715
▁reinforcement	-11.715
▁reject	-11.715
▁relatable	-11.715
▁relates	-11.715
▁relation	-11.715
▁relay	-11.715
▁relearning	-11.715
▁released	-11.715
▁releasing	-11.715
▁relentless	-11.715
▁reliable	-11.715
▁reliably	-11.715
▁relies	-11.715
▁reluctance	-11.715
▁relying	-11.715
▁remains	-11.715
▁remarried	-11.715
▁remeber	-11.715
▁reminding	-11.715
▁reminisce	-11.715
▁reminiscing	-11.715
▁remnant	-11.715
▁removal	-11.715
▁rendered	-11.715
▁rene	-11.715
▁renovation	-11.715
▁rental	-11.715
▁renting	-11.715
▁repaired	-11.715
▁repay	-11.715
▁repaying	-11.715
▁repercussion	-11.715
▁repetitive	-11.715
▁repetitively	-11.715
▁rephrase	-11.715
▁replacing	-11.715
▁repression	-11.715
▁reproduction	-11.715
▁requisite	-11.715
▁reread	-11.715
▁reschedule	-11.715
▁researching	-11.715
▁resembled	-11.715
▁resent	-11.715
▁resentment	-11.715
▁reserve	-11.715
▁reserved	-11.715
▁reshape	-11.715
▁residence	-11.715
▁residual	-11.715
▁resigned	-11.715
▁resistance	-11.715
▁resisted	-11.715
▁resolved	-11.715
▁resonate	-11.715
▁respectable	-11.715
▁respekt	-11.715
▁respite	-11.715
▁respondin	-11.715
▁responding	-11.715
▁responds	-11.715
▁responsability	-11.715
▁responsive	-11.715
▁restaraunts	-11.715
▁restlessness	-11.715
▁restore	-11.715
▁restored	-11.715
▁restoril	-11.715
▁restrictive	-11.715
▁resurfacing	-11.715
▁ret	-11.715
▁retain	-11.715
▁retained	-11.715
▁retaining	-11.715
▁retard	-11.715
▁retested	-11.715
▁rethinking	-11.715
▁retraced	-11.715
▁retrained	-11.715
▁retreated	-11.715
▁reunion	-11.715
▁reunite	-11.715
▁revered	-11.715
▁reverse	-11.715
▁reversed	-11.715
▁reviewing	-11.715
▁reviles	-11.715
▁revise	-11.715
▁revolt	-11.715
▁revolve	-11.715
▁rewind	-11.715
▁rework	-11.715
▁ribbon	-11.715
▁richer	-11.715
▁ridiculed	-11.715
▁righthand	-11.715
▁rigid	-11.715
▁ringer	-11.715
▁ringtone	-11.715
▁rinse	-11.715
▁rio	-11.715
▁risen	-11.715
▁risking	-11.715
▁river	-11.715
▁rlly	-11.715
▁rly	-11.715
▁rm	-11.715
▁robbin	-11.715
▁robbing	-11.715
▁robotic	-11.715
▁robs	-11.715
▁robust	-11.715
▁rocd	-11.715
▁rocket	-11.715
▁rocketed	-11.715
▁rocketing	-11.715
▁rodeo	-11.715
▁rogaine	-11.715
▁rollercoaster	-11.715
▁romanticizes	-11.715
▁roofied	-11.715
▁roofing	-11.715
▁rooting	-11.715
▁rose	-11.715
▁rot	-11.715
▁roughest	-11.715
▁rpm	-11.715
▁rt	-11.715
▁rubbed	-11.715
▁rudely	-11.715
▁rue	-11.715
▁ruler	-11.715
▁ruling	-11.715
▁ruminate	-11.715
▁rumour	-11.715
▁runaway	-11.715
▁runner	-11.715
▁runny	-11.715
▁runt	-11.715
▁rustled	-11.715
▁rusty	-11.715
▁ruthless	-11.715
▁rutine	-11.715
▁ruyle	-11.715
▁rx	-11.715
▁rythm	-11.715
▁sa	-11.715
▁sabotage	-11.715
▁sacrificed	-11.715
▁sadden	-11.715
▁saddening	-11.715
▁sadder	-11.715
▁saga	-11.715
▁saint	-11.715
▁salesperson	-11.715
▁salt	-11.715
▁sample	-11.715
▁sank	-11.715
▁sap	-11.715
▁sarted	-11.715
▁satan	-11.715
▁satisfying	-11.715
▁savage	-11.715
▁savescumming	-11.715
▁savior	-11.715
▁sayin	-11.715
▁scaly	-11.715
▁scammed	-11.715
▁scandal	-11.715
▁scanning	-11.715
▁scape	-11.715
▁scaping	-11.715
▁scarce	-11.715
▁scarred	-11.715
▁scatterbrained	-11.715
▁scented	-11.715
▁scheme	-11.715
▁schiz	-11.715
▁schizo	-11.715
▁scholar	-11.715
▁schooled	-11.715
▁schooler	-11.715
▁schooling	-11.715
▁sci	-11.715
▁scoff	-11.715
▁scold	-11.715
▁scolded	-11.715
▁scolding	-11.715
▁scooping	-11.715
▁scouring	-11.715
▁scout	-11.715
▁scrap	-11.715
▁scraped	-11.715
▁scratched	-11.715
▁screening	-11.715
▁scrolled	-11.715
▁scrutinising	-11.715
▁sea	-11.715
▁seam	-11.715
▁searched	-11.715
▁sec	-11.715
▁secluding	-11.715
▁seconding	-11.715
▁securely	-11.715
▁seed	-11.715
▁seeked	-11.715
▁seeping	-11.715
▁selection	-11.715
▁selective	-11.715
▁selfharm	-11.715
▁selfie	-11.715
▁selfishness	-11.715
▁selled	-11.715
▁semantic	-11.715
▁semblance	-11.715
▁seminar	-11.715
▁sen	-11.715
▁sends	-11.715
▁sensibility	-11.715
▁sensitivity	-11.715
▁sentient	-11.715
▁sentiment	-11.715
▁separately	-11.715
▁separating	-11.715
▁seperated	-11.715
▁sequence	-11.715
▁seratonergic	-11.715
▁seratonin	-11.715
▁serf	-11.715
▁serial	-11.715
▁seriousness	-11.715
▁serqouil	-11.715
▁sertaline	-11.715
▁serum	-11.715
▁sesh	-11.715
▁settling	-11.715
▁severance	-11.715
▁severed	-11.715
▁shade	-11.715
▁shaken	-11.715
▁shakiness	-11.715
▁shall	-11.715
▁shallowest	-11.715
▁shaman	-11.715
▁sharpens	-11.715
▁shaving	-11.715
▁shawshank	-11.715
▁shed	-11.715
▁sheep	-11.715
▁sheer	-11.715
▁sheltering	-11.715
▁shepherd	-11.715
▁shield	-11.715
▁shiftrunner	-11.715
▁shiftwork	-11.715
▁shimmering	-11.715
▁shine	-11.715
▁shipping	-11.715
▁shitbags	-11.715
▁shite	-11.715
▁shitfaced	-11.715
▁shitpost	-11.715
▁shitted	-11.715
▁shitting	-11.715
▁shittttt	-11.715
▁shiver	-11.715
▁shlock	-11.715
▁shoddy	-11.715
▁shoeing	-11.715
▁shoplifting	-11.715
▁shortage	-11.715
▁shortcoming	-11.715
▁shouting	-11.715
▁showthread	-11.715
▁shrink	-11.715
▁shrouding	-11.715
▁shrugging	-11.715
▁shtposting	-11.715
▁shuteye	-11.715
▁si	-11.715
▁sickening	-11.715
▁sidebar	-11.715
▁sided	-11.715
▁sideeffects	-11.715
▁sideline	-11.715
▁sidestep	-11.715
▁sighed	-11.715
▁sightline	-11.715
▁signalling	-11.715
▁silently	-11.715
▁sim	-11.715
▁similair	-11.715
▁simpler	-11.715
▁simplistic	-11.715
▁simplistically	-11.715
▁simultaneously	-11.715
▁sings	-11.715
▁sisyphus	-11.715
▁sitter	-11.715
▁situational	-11.715
▁skeptical	-11.715
▁sketch	-11.715
▁sketchy	-11.715
▁skilled	-11.715
▁skimmed	-11.715
▁skipper	-11.715
▁skirt	-11.715
▁skulll	-11.715
▁skyline	-11.715
▁skyrocketed	-11.715
▁slab	-11.715
▁slacked	-11.715
▁slackening	-11.715
▁slam	-11.715
▁slammed	-11.715
▁slapping	-11.715
▁slash	-11.715
▁sleeo	-11.715
▁sleepless	-11.715
▁sleeplessness	-11.715
▁sleepover	-11.715
▁slice	-11.715
▁slicing	-11.715
▁slob	-11.715
▁slog	-11.715
▁slows	-11.715
▁slumber	-11.715
▁slung	-11.715
▁slurred	-11.715
▁slut	-11.715
▁smack	-11.715
▁smaller	-11.715
▁smartphone	-11.715
▁smear	-11.715
▁smh	-11.715
▁smiley	-11.715
▁smith	-11.715
▁smoked	-11.715
▁smokin	-11.715
▁smoldering	-11.715
▁smoothy	-11.715
▁smug	-11.715
▁snapping	-11.715
▁snatched	-11.715
▁sneezing	-11.715
▁snide	-11.715
▁snip	-11.715
▁snitch	-11.715
▁snor	-11.715
▁snowballed	-11.715
▁snowballing	-11.715
▁snowflake	-11.715
▁snowing	-11.715
▁snris	-11.715
▁snuck	-11.715
▁snuffed	-11.715
▁snuggle	-11.715
▁soak	-11.715
▁sobbed	-11.715
▁sociability	-11.715
▁socialization	-11.715
▁societal	-11.715
▁sociopathic	-11.715
▁socket	-11.715
▁sodium	-11.715
▁sofa	-11.715
▁soil	-11.715
▁solace	-11.715
▁sole	-11.715
▁solely	-11.715
▁solves	-11.715
▁somedays	-11.715
▁somethings	-11.715
▁somrthing	-11.715
▁somwhat	-11.715
▁songwriting	-11.715
▁soooo	-11.715
▁soot	-11.715
▁soothe	-11.715
▁sophomore	-11.715
▁sopped	-11.715
▁soreness	-11.715
▁sorted	-11.715
▁soulmate	-11.715
▁spa	-11.715
▁spacing	-11.715
▁spamming	-11.715
▁spanish	-11.715
▁sparkly	-11.715
▁spasm	-11.715
▁spawn	-11.715
▁spawned	-11.715
▁speach	-11.715
▁speaks	-11.715
▁specialization	-11.715
▁spectator	-11.715
▁speeding	-11.715
▁spelled	-11.715
▁spelling	-11.715
▁sperm	-11.715
▁spews	-11.715
▁spider	-11.715
▁spike	-11.715
▁spill	-11.715
▁spilled	-11.715
▁spineless	-11.715
▁spiraled	-11.715
▁spiralling	-11.715
▁spirit	-11.715
▁spite	-11.715
▁spoiler	-11.715
▁sponge	-11.715
▁spooked	-11.715
▁spotting	-11.715
▁spreading	-11.715
▁sprinkler	-11.715
▁spurt	-11.715
▁spying	-11.715
▁squirming	-11.715
▁sry	-11.715
▁stabber	-11.715
▁stabilised	-11.715
▁stabilized	-11.715
▁stagnate	-11.715
▁stale	-11.715
▁stalk	-11.715
▁stalker	-11.715
▁stalking	-11.715
▁stamen	-11.715
▁stammer	-11.715
▁stammering	-11.715
▁stance	-11.715
▁standalone	-11.715
▁standby	-11.715
▁standpoint	-11.715
▁stardom	-11.715
▁starter	-11.715
▁startle	-11.715
▁starved	-11.715
▁starving	-11.715
▁static	-11.715
▁statistic	-11.715
▁stbxw	-11.715
▁std	-11.715
▁steadily	-11.715
▁stealing	-11.715
▁steam	-11.715
▁steep	-11.715
▁stepped	-11.715
▁stereo	-11.715
▁stereotype	-11.715
▁sternum	-11.715
▁stethoscope	-11.715
▁sticky	-11.715
▁stiffen	-11.715
▁stiffness	-11.715
▁stigma	-11.715
▁stimulate	-11.715
▁stimulated	-11.715
▁stimulation	-11.715
▁stipend	-11.715
▁stir	-11.715
▁stomped	-11.715
▁stoner	-11.715
▁stool	-11.715
▁stopgap	-11.715
▁stored	-11.715
▁storming	-11.715
▁storyline	-11.715
▁straddled	-11.715
▁strained	-11.715
▁strand	-11.715
▁stranded	-11.715
▁strap	-11.715
▁strapped	-11.715
▁stray	-11.715
▁streesd	-11.715
▁streetlight	-11.715
▁strenght	-11.715
▁strengthens	-11.715
▁stressor	-11.715
▁stretching	-11.715
▁strewn	-11.715
▁strictly	-11.715
▁stringy	-11.715
▁stripped	-11.715
▁strive	-11.715
▁stroll	-11.715
▁stubborness	-11.715
▁stuffed	-11.715
▁stuffy	-11.715
▁stuggle	-11.715
▁stumble	-11.715
▁stumbled	-11.715
▁stumbling	-11.715
▁stunted	-11.715
▁stupider	-11.715
▁stupidest	-11.715
▁stutter	-11.715
▁styling	-11.715
▁su1c1de	-11.715
▁subconscious	-11.715
▁subdue	-11.715
▁subjectively	-11.715
▁sublime	-11.715
▁submission	-11.715
▁subscribe	-11.715
▁subsides	-11.715
▁substantial	-11.715
▁suburb	-11.715
▁subway	-11.715
▁subwoofer	-11.715
▁succeeding	-11.715
▁succes	-11.715
▁succumbing	-11.715
▁sucker	-11.715
▁sue	-11.715
▁suffocate	-11.715
▁suffocated	-11.715
▁suffocates	-11.715
▁suggery	-11.715
▁suggerys	-11.715
▁suggesting	-11.715
▁sulfuric	-11.715
▁sulpiride	-11.715
▁summarize	-11.715
▁summarized	-11.715
▁summary	-11.715
▁summertime	-11.715
▁summit	-11.715
▁summons	-11.715
▁sunglass	-11.715
▁sunlight	-11.715
▁sunny	-11.715
▁sunshine	-11.715
▁superficial	-11.715
▁supersonic	-11.715
▁supervision	-11.715
▁supply	-11.715
▁suppressing	-11.715
▁surf	-11.715
▁surficial	-11.715
▁surge	-11.715
▁surgieries	-11.715
▁surname	-11.715
▁surpassing	-11.715
▁surprising	-11.715
▁surrender	-11.715
▁surround	-11.715
▁sus	-11.715
▁suspect	-11.715
▁suspended	-11.715
▁suspension	-11.715
▁suspicion	-11.715
▁suspicious	-11.715
▁sustain	-11.715
▁sustained	-11.715
▁sustaining	-11.715
▁swap	-11.715
▁swapped	-11.715
▁swaying	-11.715
▁sweaty	-11.715
▁swept	-11.715
▁swinging	-11.715
▁swipe	-11.715
▁swirl	-11.715
▁swirlies	-11.715
▁sword	-11.715
▁symotoms	-11.715
▁sympathize	-11.715
▁symptos	-11.715
▁sync	-11.715
▁syrian	-11.715
▁syringe	-11.715
▁syrup	-11.715
▁systematically	-11.715
▁t1	-11.715
▁taboo	-11.715
▁tackle	-11.715
▁tactfully	-11.715
▁tactic	-11.715
▁taiwan	-11.715
▁taked	-11.715
▁takeout	-11.715
▁tale	-11.715
▁talented	-11.715
▁talentless	-11.715
▁talikg	-11.715
▁talkativeness	-11.715
▁taller	-11.715
▁tape	-11.715
▁taping	-11.715
▁tarantino	-11.715
▁targeted	-11.715
▁tarnished	-11.715
▁tasting	-11.715
▁taunted	-11.715
▁tca	-11.715
▁tcas	-11.715
▁td	-11.715
▁teaching	-11.715
▁teard	-11.715
▁teased	-11.715
▁teasing	-11.715
▁technically	-11.715
▁teeter	-11.715
▁telehealth	-11.715
▁teleport	-11.715
▁temazepam	-11.715
▁temp	-11.715
▁tempered	-11.715
▁temple	-11.715
▁tenant	-11.715
▁tendances	-11.715
▁tenderness	-11.715
▁tending	-11.715
▁tendon	-11.715
▁tennis	-11.715
▁tensity	-11.715
▁tenuously	-11.715
▁tenured	-11.715
▁terapist	-11.715
▁terrain	-11.715
▁terrific	-11.715
▁terrifyingly	-11.715
▁terrrifying	-11.715
▁tether	-11.715
▁tethered	-11.715
▁textbook	-11.715
▁tge	-11.715
▁tha	-11.715
▁thanked	-11.715
▁thanksgiving	-11.715
▁thankyou	-11.715
▁thati	-11.715
▁thd	-11.715
▁theater	-11.715
▁theet	-11.715
▁themself	-11.715
▁theorising	-11.715
▁theorist	-11.715
▁theorize	-11.715
▁therapeutic	-11.715
▁thereby	-11.715
▁thesis	-11.715
▁thickest	-11.715
▁thief	-11.715
▁thinker	-11.715
▁thinner	-11.715
▁thirsty	-11.715
▁thomas	-11.715
▁thorough	-11.715
▁thorugh	-11.715
▁thoughtful	-11.715
▁thoughtfully	-11.715
▁thoughtfulness	-11.715
▁threaten	-11.715
▁threatining	-11.715
▁thrill	-11.715
▁throb	-11.715
▁thrombosis	-11.715
▁thruth	-11.715
▁tht	-11.715
▁thud	-11.715
▁thumb	-11.715
▁thunderstorm	-11.715
▁thwarted	-11.715
▁tic	-11.715
▁ticked	-11.715
▁ticking	-11.715
▁tidying	-11.715
▁tiffany	-11.715
▁tighten	-11.715
▁tightening	-11.715
▁tighter	-11.715
▁tik	-11.715
▁timely	-11.715
▁timetable	-11.715
▁timing	-11.715
▁tincture	-11.715
▁tinnitus	-11.715
▁tm	-11.715
▁tmi	-11.715
▁tmr	-11.715
▁toks	-11.715
▁tolerating	-11.715
▁tommorow	-11.715
▁tommy	-11.715
▁toned	-11.715
▁tonus	-11.715
▁toothpaste	-11.715
▁topical	-11.715
▁torchlight	-11.715
▁torment	-11.715
▁torn	-11.715
▁toronto	-11.715
▁torso	-11.715
▁tortilla	-11.715
▁tortured	-11.715
▁torturer	-11.715
▁toss	-11.715
▁tossing	-11.715
▁totter	-11.715
▁toughen	-11.715
▁tougher	-11.715
▁toughness	-11.715
▁toughst	-11.715
▁towed	-11.715
▁towel	-11.715
▁toy	-11.715
▁toyota	-11.715
▁tracing	-11.715
▁tracked	-11.715
▁tracking	-11.715
▁traction	-11.715
▁traded	-11.715
▁tradesman	-11.715
▁tragic	-11.715
▁trainee	-11.715
▁trainwreck	-11.715
▁trajectory	-11.715
▁tranquility	-11.715
▁transexuality	-11.715
▁transferred	-11.715
▁transitioned	-11.715
▁transitioning	-11.715
▁translates	-11.715
▁transparency	-11.715
▁transparently	-11.715
▁transport	-11.715
▁trashy	-11.715
▁traumatised	-11.715
▁traumatising	-11.715
▁traumatize	-11.715
▁traumatizing	-11.715
▁traveled	-11.715
▁travelled	-11.715
▁traying	-11.715
▁trazodone	-11.715
▁tread	-11.715
▁trek	-11.715
▁tremble	-11.715
▁trembly	-11.715
▁trend	-11.715
▁trickling	-11.715
▁tricyclic	-11.715
▁triple	-11.715
▁tripping	-11.715
▁trite	-11.715
▁troath	-11.715
▁trooper	-11.715
▁tropic	-11.715
▁trotted	-11.715
▁trouser	-11.715
▁trudging	-11.715
▁truest	-11.715
▁trully	-11.715
▁trumatized	-11.715
▁trump	-11.715
▁trumpism	-11.715
▁trusted	-11.715
▁trustworthy	-11.715
▁tryna	-11.715
▁tucking	-11.715
▁tuff	-11.715
▁tugged	-11.715
▁tunnel	-11.715
▁turbulence	-11.715
▁turmoil	-11.715
▁turtle	-11.715
▁twain	-11.715
▁tweaked	-11.715
▁tweaky	-11.715
▁twinge	-11.715
▁twink	-11.715
▁twisting	-11.715
▁ughh	-11.715
▁uhh	-11.715
▁uhs	-11.715
▁uke	-11.715
▁ultimate	-11.715
▁um	-11.715
▁ummm	-11.715
▁ums	-11.715
▁unacceptable	-11.715
▁unadulterated	-11.715
▁unashamedly	-11.715
▁unassailable	-11.715
▁unavailable	-11.715
▁unbalanced	-11.715
▁unbeatable	-11.715
▁unbiased	-11.715
▁unbound	-11.715
▁uncalled	-11.715
▁uncertain	-11.715
▁uncommon	-11.715
▁unconcern	-11.715
▁unconcerned	-11.715
▁unconditional	-11.715
▁unconfident	-11.715
▁und	-11.715
▁underachievement	-11.715
▁underaged	-11.715
▁underestimated	-11.715
▁undergraduate	-11.715
▁underneath	-11.715
▁understatement	-11.715
▁underwater	-11.715
▁undeserving	-11.715
▁undesirable	-11.715
▁undo	-11.715
▁unduly	-11.715
▁uneducated	-11.715
▁unequivocally	-11.715
▁unexpected	-11.715
▁unexpectedly	-11.715
▁unexplainably	-11.715
▁unfamiliar	-11.715
▁unfiltered	-11.715
▁unfinished	-11.715
▁unfit	-11.715
▁unflattering	-11.715
▁unfollowed	-11.715
▁unforeseen	-11.715
▁unfunny	-11.715
▁unhappiness	-11.715
▁unhelpful	-11.715
▁uniform	-11.715
▁unimportant	-11.715
▁uninspiring	-11.715
▁uninstalling	-11.715
▁uninterested	-11.715
▁united	-11.715
▁unity	-11.715
▁unjustifiably	-11.715
▁unkind	-11.715
▁unkown	-11.715
▁unleashed	-11.715
▁unlikable	-11.715
▁unlovable	-11.715
▁unloyal	-11.715
▁unmade	-11.715
▁unmanageable	-11.715
▁unmoved	-11.715
▁unnecessarily	-11.715
▁unnessesary	-11.715
▁unpacking	-11.715
▁unpopular	-11.715
▁unprepared	-11.715
▁unprofessional	-11.715
▁unreal	-11.715
▁unrelenting	-11.715
▁unremarkable	-11.715
▁unremitting	-11.715
▁unresponsive	-11.715
▁unromantic	-11.715
▁unsatisfying	-11.715
▁unseasoned	-11.715
▁unshakable	-11.715
▁unsuccessful	-11.715
▁unsweetened	-11.715
▁untenable	-11.715
▁untested	-11.715
▁unto	-11.715
▁untouch	-11.715
▁untrue	-11.715
▁unttill	-11.715
▁unusual	-11.715
▁unwillingly	-11.715
▁upbeat	-11.715
▁uphill	-11.715
▁uplifting	-11.715
▁upload	-11.715
▁upping	-11.715
▁upside	-11.715
▁upstate	-11.715
▁upvote	-11.715
▁upvots	-11.715
▁upward	-11.715
▁urgency	-11.715
▁urgent	-11.715
▁urine	-11.715
▁us	-11.715
▁usa	-11.715
▁usage	-11.715
▁usefull	-11.715
▁username	-11.715
▁utm_campaign	-11.715
▁utm_content	-11.715
▁utm_name	-11.715
▁utmost	-11.715
▁utterly	-11.715
