▁like	-4.16741
<s>	0
</s>	0
<unk>	0
▁wa	-4.17328
▁feel	-4.21761
▁anxiety	-4.63859
▁get	-4.65319
▁know	-4.67417
▁time	-4.79316
▁want	-4.84629
▁even	-4.88045
▁life	-4.9513
▁day	-4.95715
▁really	-5.00887
▁year	-5.05175
▁thing	-5.10061
▁people	-5.2274
▁ha	-5.26656
▁think	-5.27297
▁would	-5.31065
▁one	-5.31567
▁friend	-5.35154
▁go	-5.35154
▁make	-5.37619
▁going	-5.37797
▁help	-5.40512
▁much	-5.42551
▁never	-5.4913
▁feeling	-5.5054
▁something	-5.53421
▁thought	-5.55317
▁work	-5.61686
▁back	-5.63056
▁always	-5.68246
▁still	-5.69464
▁anyone	-5.69955
▁got	-5.70202
▁anything	-5.70449
▁also	-5.72449
▁bad	-5.7321
▁could	-5.76049
▁way	-5.78701
▁take	-5.80601
▁since	-5.82258
▁job	-5.8537
▁every	-5.85947
▁good	-5.85947
▁month	-5.8711
▁depression	-5.87402
▁week	-5.87696
▁better	-5.87991
▁someone	-5.87991
▁getting	-5.88286
▁need	-5.89178
▁started	-5.91289
▁_	-5.91901
▁say	-5.92208
▁last	-5.95016
▁everything	-5.95651
▁school	-5.95651
▁see	-6.00212
▁attack	-6.03603
▁first	-6.08189
▁lot	-6.08551
▁point	-6.1001
▁anxious	-6.12241
▁hate	-6.13375
▁around	-6.14139
▁else	-6.14523
▁family	-6.16073
▁anymore	-6.16857
▁try	-6.17648
▁right	-6.18845
▁ever	-6.20058
▁panic	-6.20465
▁nothing	-6.21285
▁well	-6.21285
▁felt	-6.21697
▁long	-6.21697
▁talk	-6.22527
▁trying	-6.22944
▁away	-6.25059
▁person	-6.25917
▁thinking	-6.25917
▁stop	-6.26349
▁everyone	-6.26783
▁love	-6.26783
▁said	-6.27218
▁im	-6.27656
▁new	-6.27656
▁made	-6.28981
▁tell	-6.29426
▁able	-6.29874
▁hard	-6.30323
▁keep	-6.33527
▁actually	-6.33993
▁past	-6.34461
▁start	-6.34461
▁come	-6.34932
▁find	-6.3588
▁2	-6.36837
▁told	-6.36837
▁maybe	-6.38779
▁ago	-6.39764
▁doe	-6.40759
▁end	-6.4126
▁sometimes	-6.4126
▁went	-6.4126
▁parent	-6.41764
▁alone	-6.42779
▁worse	-6.43291
▁little	-6.44841
▁night	-6.45363
▁look	-6.45888
▁though	-6.46416
▁live	-6.46946
▁give	-6.4748
▁almost	-6.48016
▁sure	-6.49097
▁scared	-6.5019
▁today	-6.5019
▁home	-6.50741
▁sleep	-6.52412
▁best	-6.53542
▁pain	-6.54112
▁happy	-6.54685
▁mental	-6.55262
▁without	-6.55262
▁body	-6.55841
▁health	-6.56424
▁two	-6.56424
▁problem	-6.57011
▁cry	-6.57601
▁hour	-6.58791
▁reason	-6.58791
▁many	-6.59392
▁mind	-6.59392
▁care	-6.59996
▁fucking	-6.59996
▁taking	-6.60604
▁doctor	-6.6245
▁wanted	-6.6245
▁head	-6.63073
▁shit	-6.637
▁tried	-6.637
▁fear	-6.64966
▁issue	-6.64966
▁depressed	-6.65605
▁enough	-6.65605
▁medication	-6.65605
▁therapy	-6.66248
▁done	-6.67547
▁hope	-6.67547
▁making	-6.67547
▁post	-6.68203
▁another	-6.68863
▁place	-6.69527
▁self	-6.69527
▁tired	-6.69527
▁wrong	-6.69527
▁heart	-6.70869
▁pretty	-6.71547
▁3	-6.72917
▁normal	-6.72917
▁relationship	-6.73609
▁experience	-6.75715
▁wish	-6.75715
▁talking	-6.76426
▁used	-6.76426
▁working	-6.76426
▁dont	-6.79325
▁guy	-6.79325
▁house	-6.80063
▁let	-6.80807
▁next	-6.80807
▁advice	-6.83837
▁put	-6.83837
▁med	-6.84609
▁social	-6.85388
▁whole	-6.85388
▁part	-6.86172
▁high	-6.86963
▁hurt	-6.86963
▁left	-6.86963
▁lost	-6.86963
▁either	-6.87759
▁etc	-6.88563
▁please	-6.88563
▁understand	-6.88563
▁old	-6.89372
▁might	-6.90189
▁recently	-6.90189
▁symptom	-6.90189
▁die	-6.91842
▁bed	-6.93522
▁probably	-6.93522
▁mom	-6.94373
▁world	-6.94373
▁kind	-6.95232
▁sorry	-6.95232
▁finally	-6.96971
▁took	-6.96971
▁cause	-6.97852
▁happened	-6.97852
▁already	-6.98741
▁couple	-6.98741
▁real	-6.98741
▁sick	-6.98741
▁fine	-6.99638
▁situation	-7.00543
▁bit	-7.01456
▁living	-7.01456
▁moment	-7.01456
▁call	-7.02378
▁constantly	-7.02378
▁stay	-7.02378
▁leave	-7.03308
▁brain	-7.04247
▁literally	-7.05195
▁mean	-7.05195
▁side	-7.05195
▁5	-7.06152
▁afraid	-7.06152
▁college	-7.07118
▁sad	-7.07118
▁due	-7.08093
▁looking	-7.08093
▁therapist	-7.08093
▁okay	-7.09079
▁yet	-7.09079
▁4	-7.10074
▁amp	-7.10074
▁covid	-7.10074
▁room	-7.10074
▁seems	-7.10074
▁stuff	-7.12094
▁remember	-7.1312
▁eat	-7.15203
▁least	-7.15203
▁found	-7.17331
▁fuck	-7.17331
▁gone	-7.17331
▁guess	-7.17331
▁second	-7.17331
▁came	-7.18412
▁minute	-7.18412
▁read	-7.18412
▁worry	-7.18412
▁diagnosed	-7.19505
▁saying	-7.19505
▁u	-7.19505
▁close	-7.2061
▁seem	-7.2061
▁stress	-7.2061
▁gonna	-7.21727
▁honestly	-7.21727
▁matter	-7.21727
▁worst	-7.21727
▁starting	-7.22857
▁change	-7.24
▁completely	-7.24
▁different	-7.24
▁everyday	-7.24
▁worried	-7.24
▁dad	-7.25156
▁others	-7.25156
▁ask	-7.26326
▁hand	-7.26326
▁happen	-7.26326
▁hit	-7.26326
▁struggling	-7.26326
▁basically	-7.27509
▁morning	-7.27509
▁question	-7.27509
▁together	-7.28707
▁usually	-7.28707
▁big	-7.29919
▁effect	-7.29919
▁gotten	-7.29919
▁great	-7.29919
▁wanna	-7.31146
▁weird	-7.31146
▁face	-7.32388
▁money	-7.32388
▁cant	-7.33646
▁control	-7.33646
▁kill	-7.33646
▁mother	-7.33646
▁sound	-7.33646
▁future	-7.3492
▁stupid	-7.3492
▁far	-7.3621
▁food	-7.3621
▁may	-7.3621
▁thanks	-7.3621
▁asked	-7.37517
▁break	-7.37517
▁idk	-7.37517
▁stopped	-7.37517
▁class	-7.38842
▁deal	-7.38842
▁grade	-7.38842
▁helped	-7.38842
▁idea	-7.38842
▁kid	-7.38842
▁telling	-7.38842
▁currently	-7.40184
▁soon	-7.40184
▁chest	-7.41545
▁eating	-7.41545
▁girl	-7.41545
▁thank	-7.41545
▁10	-7.42924
▁test	-7.42924
▁1	-7.44323
▁barely	-7.44323
▁coming	-7.44323
▁half	-7.44323
▁later	-7.44323
▁6	-7.45741
▁become	-7.4718
▁open	-7.4718
▁ended	-7.4864
▁energy	-7.4864
▁eye	-7.4864
▁hear	-7.4864
▁outside	-7.4864
▁crazy	-7.50121
▁struggle	-7.50121
▁wake	-7.50121
▁death	-7.51625
▁emotion	-7.51625
▁extremely	-7.51625
▁full	-7.51625
▁single	-7.51625
▁sister	-7.51625
▁suicidal	-7.51625
▁disorder	-7.53152
▁especially	-7.53152
▁needed	-7.53152
▁psychiatrist	-7.53152
▁state	-7.53152
▁stuck	-7.53152
▁suck	-7.53152
▁support	-7.53152
▁believe	-7.54702
▁breathing	-7.54702
▁called	-7.54702
▁game	-7.54702
▁inside	-7.54702
▁often	-7.54702
▁reading	-7.54702
▁sense	-7.54702
▁worked	-7.54702
▁dead	-7.56277
▁fact	-7.56277
▁girlfriend	-7.56277
▁severe	-7.56277
▁car	-7.57877
▁course	-7.57877
▁focus	-7.57877
▁hi	-7.57877
▁phone	-7.57877
▁seeing	-7.57877
▁gave	-7.59503
▁tip	-7.59503
▁weight	-7.59503
▁word	-7.59503
▁online	-7.61156
▁use	-7.61156
▁le	-7.62837
▁low	-7.62837
▁nice	-7.62837
▁suicide	-7.62837
▁whenever	-7.62837
▁dealing	-7.64546
▁kinda	-7.64546
▁move	-7.64546
▁yesterday	-7.64546
▁calm	-7.66286
▁cut	-7.66286
▁decided	-7.66286
▁happening	-7.66286
▁happens	-7.66286
▁instead	-7.66286
▁suffer	-7.66286
▁super	-7.66286
▁terrified	-7.66286
▁video	-7.66286
▁age	-7.68056
▁child	-7.68056
▁group	-7.68056
▁pay	-7.68056
▁plan	-7.68056
▁turn	-7.68056
▁asking	-7.69857
▁however	-7.69857
▁motivation	-7.69857
▁show	-7.69857
▁awful	-7.71692
▁blood	-7.71692
▁hey	-7.71692
▁miss	-7.71692
▁ok	-7.71692
▁partner	-7.71692
▁saw	-7.71692
▁share	-7.71692
▁study	-7.71692
▁watching	-7.71692
▁anyway	-7.73561
▁eventually	-7.73561
▁hell	-7.73561
▁ive	-7.73561
▁story	-7.73561
▁terrible	-7.73561
▁20	-7.75466
▁drive	-7.75466
▁man	-7.75466
▁negative	-7.75466
▁sit	-7.75466
▁walk	-7.75466
▁water	-7.75466
▁30	-7.77408
▁fight	-7.77408
▁lately	-7.77408
▁noticed	-7.77408
▁stressed	-7.77408
▁three	-7.77408
▁x200b	-7.77408
▁broke	-7.79388
▁fall	-7.79388
▁horrible	-7.79388
▁longer	-7.79388
▁nobody	-7.79388
▁possible	-7.79388
▁reddit	-7.79388
▁rest	-7.79388
▁seen	-7.79388
▁truly	-7.79388
▁whatever	-7.79388
▁appointment	-7.81409
▁brother	-7.81409
▁cannot	-7.81409
▁daily	-7.81409
▁entire	-7.81409
▁fix	-7.81409
▁hospital	-7.81409
▁mentally	-7.81409
▁physical	-7.81409
▁sort	-7.81409
▁suffering	-7.81409
▁wondering	-7.81409
▁constant	-7.83471
▁forward	-7.83471
▁given	-7.83471
▁helpful	-7.83471
▁kept	-7.83471
▁losing	-7.83471
▁nervous	-7.83471
▁caused	-7.85576
▁conversation	-7.85576
▁empty	-7.85576
▁fast	-7.85576
▁free	-7.85576
▁knew	-7.85576
▁pandemic	-7.85576
▁pill	-7.85576
▁rather	-7.85576
▁answer	-7.87727
▁difficult	-7.87727
▁dog	-7.87727
▁giving	-7.87727
▁level	-7.87727
▁lose	-7.87727
▁loved	-7.87727
▁similar	-7.87727
▁small	-7.87727
▁wanting	-7.87727
▁absolutely	-7.89924
▁chance	-7.89924
▁deep	-7.89924
▁enjoy	-7.89924
▁healthy	-7.89924
▁hello	-7.89924
▁quite	-7.89924
▁taken	-7.89924
▁write	-7.89924
▁writing	-7.89924
▁became	-7.92172
▁except	-7.92172
▁experienced	-7.92172
▁hold	-7.92172
▁notice	-7.92172
▁oh	-7.92172
▁play	-7.92172
▁prescribed	-7.92172
▁pressure	-7.92172
▁sleeping	-7.92172
▁trigger	-7.92172
▁waiting	-7.92172
▁breathe	-7.94471
▁early	-7.94471
▁late	-7.94471
▁message	-7.94471
▁mood	-7.94471
▁stomach	-7.94471
▁term	-7.94471
▁tomorrow	-7.94471
▁boyfriend	-7.96824
▁drink	-7.96824
▁episode	-7.96824
▁fucked	-7.96824
▁god	-7.96824
▁must	-7.96824
▁pas	-7.96824
▁quit	-7.96824
▁step	-7.96824
▁top	-7.96824
▁attention	-7.99233
▁comfortable	-7.99233
▁dose	-7.99233
▁fun	-7.99233
▁ocd	-7.99233
▁sitting	-7.99233
▁wait	-7.99233
▁yes	-7.99233
▁despite	-8.01703
▁handle	-8.01703
▁lonely	-8.01703
▁mostly	-8.01703
▁moving	-8.01703
▁option	-8.01703
▁playing	-8.01703
▁seriously	-8.01703
▁several	-8.01703
▁choice	-8.04235
▁comment	-8.04235
▁door	-8.04235
▁dream	-8.04235
▁drinking	-8.04235
▁exercise	-8.04235
▁front	-8.04235
▁helping	-8.04235
▁lol	-8.04235
▁moved	-8.04235
▁music	-8.04235
▁running	-8.04235
▁short	-8.04235
▁although	-8.06832
▁antidepressant	-8.06832
▁forget	-8.06832
▁met	-8.06832
▁numb	-8.06832
▁related	-8.06832
▁run	-8.06832
▁spent	-8.06832
▁university	-8.06832
▁watch	-8.06832
▁worth	-8.06832
▁angry	-8.09499
▁behind	-8.09499
▁case	-8.09499
▁country	-8.09499
▁definitely	-8.09499
▁emotional	-8.09499
▁http	-8.09499
▁huge	-8.09499
▁important	-8.09499
▁leg	-8.09499
▁mistake	-8.09499
▁period	-8.09499
▁physically	-8.09499
▁spend	-8.09499
▁talked	-8.09499
▁type	-8.09499
▁deserve	-8.12239
▁dumb	-8.12239
▁husband	-8.12239
▁result	-8.12239
▁safe	-8.12239
▁sent	-8.12239
▁simple	-8.12239
▁suddenly	-8.12239
▁text	-8.12239
▁towards	-8.12239
▁act	-8.15056
▁book	-8.15056
▁career	-8.15056
▁cope	-8.15056
▁guilty	-8.15056
▁knowing	-8.15056
▁learn	-8.15056
▁older	-8.15056
▁random	-8.15056
▁shaking	-8.15056
▁speak	-8.15056
▁stand	-8.15056
▁supposed	-8.15056
▁twice	-8.15056
▁vaccine	-8.15056
▁along	-8.17955
▁birthday	-8.17955
▁breath	-8.17955
▁driving	-8.17955
▁er	-8.17955
▁event	-8.17955
▁father	-8.17955
▁genuinely	-8.17955
▁human	-8.17955
▁illness	-8.17955
▁lack	-8.17955
▁leaving	-8.17955
▁major	-8.17955
▁nausea	-8.17955
▁passed	-8.17955
▁posting	-8.17955
▁worrying	-8.17955
▁15	-8.2094
▁apart	-8.2094
▁aware	-8.2094
▁form	-8.2094
▁general	-8.2094
▁heard	-8.2094
▁meet	-8.2094
▁mess	-8.2094
▁middle	-8.2094
▁proud	-8.2094
▁summer	-8.2094
▁yeah	-8.2094
▁appreciated	-8.24017
▁attempt	-8.24017
▁avoid	-8.24017
▁bring	-8.24017
▁cold	-8.24017
▁contact	-8.24017
▁date	-8.24017
▁drug	-8.24017
▁exam	-8.24017
▁example	-8.24017
▁hair	-8.24017
▁happiness	-8.24017
▁hoping	-8.24017
▁imagine	-8.24017
▁multiple	-8.24017
▁none	-8.24017
▁push	-8.24017
▁reality	-8.24017
▁seemed	-8.24017
▁slowly	-8.24017
▁unable	-8.24017
▁uncomfortable	-8.24017
▁voice	-8.24017
▁whether	-8.24017
▁16	-8.27192
▁asleep	-8.27192
▁breakdown	-8.27192
▁busy	-8.27192
▁check	-8.27192
▁easy	-8.27192
▁exactly	-8.27192
▁explain	-8.27192
▁failed	-8.27192
▁finish	-8.27192
▁joke	-8.27192
▁listening	-8.27192
▁mad	-8.27192
▁manage	-8.27192
▁positive	-8.27192
▁serious	-8.27192
▁shut	-8.27192
▁skin	-8.27192
▁strong	-8.27192
▁student	-8.27192
▁weak	-8.27192
▁wife	-8.27192
▁within	-8.27192
▁woke	-8.27192
▁young	-8.27192
▁adult	-8.30471
▁alive	-8.30471
▁anger	-8.30471
▁burden	-8.30471
▁dark	-8.30471
▁escape	-8.30471
▁excited	-8.30471
▁exhausted	-8.30471
▁gad	-8.30471
▁immediately	-8.30471
▁listen	-8.30471
▁managed	-8.30471
▁present	-8.30471
▁process	-8.30471
▁realize	-8.30471
▁sign	-8.30471
▁somehow	-8.30471
▁space	-8.30471
▁straight	-8.30471
▁tough	-8.30471
▁triggered	-8.30471
▁upset	-8.30471
▁walking	-8.30471
▁actual	-8.33861
▁amount	-8.33861
▁apartment	-8.33861
▁cancer	-8.33861
▁cat	-8.33861
▁damn	-8.33861
▁depressive	-8.33861
▁effort	-8.33861
▁experiencing	-8.33861
▁figure	-8.33861
▁forever	-8.33861
▁fully	-8.33861
▁hang	-8.33861
▁ill	-8.33861
▁incredibly	-8.33861
▁lead	-8.33861
▁loss	-8.33861
▁medicine	-8.33861
▁miserable	-8.33861
▁near	-8.33861
▁normally	-8.33861
▁paranoid	-8.33861
▁personal	-8.33861
▁realized	-8.33861
▁relate	-8.33861
▁semester	-8.33861
▁shitty	-8.33861
▁skill	-8.33861
▁slow	-8.33861
▁trouble	-8.33861
▁turned	-8.33861
▁useless	-8.33861
▁waste	-8.33861
▁weekend	-8.33861
▁24	-8.3737
▁annoying	-8.3737
▁anti	-8.3737
▁anyways	-8.3737
▁confidence	-8.3737
▁cycle	-8.3737
▁fault	-8.3737
▁force	-8.3737
▁function	-8.3737
▁medical	-8.3737
▁painful	-8.3737
▁ready	-8.3737
▁response	-8.3737
▁return	-8.3737
▁sub	-8.3737
▁throughout	-8.3737
▁tonight	-8.3737
▁anybody	-8.41007
▁arm	-8.41007
▁beginning	-8.41007
▁continue	-8.41007
▁describe	-8.41007
▁dread	-8.41007
▁extreme	-8.41007
▁including	-8.41007
▁interest	-8.41007
▁keeping	-8.41007
▁killing	-8.41007
▁memory	-8.41007
▁mine	-8.41007
▁overcome	-8.41007
▁quickly	-8.41007
▁set	-8.41007
▁shower	-8.41007
▁simply	-8.41007
▁stressful	-8.41007
▁system	-8.41007
▁using	-8.41007
▁waking	-8.41007
▁19	-8.44781
▁becoming	-8.44781
▁began	-8.44781
▁childhood	-8.44781
▁comfort	-8.44781
▁common	-8.44781
▁company	-8.44781
▁diagnosis	-8.44781
▁died	-8.44781
▁dying	-8.44781
▁fit	-8.44781
▁headache	-8.44781
▁hobby	-8.44781
▁hopefully	-8.44781
▁looked	-8.44781
▁meant	-8.44781
▁movie	-8.44781
▁offer	-8.44781
▁office	-8.44781
▁r	-8.44781
▁sensation	-8.44781
▁shot	-8.44781
▁soul	-8.44781
▁tho	-8.44781
▁wonder	-8.44781
▁younger	-8.44781
▁zoloft	-8.44781
▁21	-8.48703
▁across	-8.48703
▁appreciate	-8.48703
▁bunch	-8.48703
▁causing	-8.48703
▁cried	-8.48703
▁emptypost	-8.48703
▁fake	-8.48703
▁falling	-8.48703
▁honest	-8.48703
▁improve	-8.48703
▁meeting	-8.48703
▁mouth	-8.48703
▁order	-8.48703
▁overwhelmed	-8.48703
▁personality	-8.48703
▁plus	-8.48703
▁psychologist	-8.48703
▁rate	-8.48703
▁relax	-8.48703
▁sadness	-8.48703
▁selfish	-8.48703
▁task	-8.48703
▁teeth	-8.48703
▁throat	-8.48703
▁treatment	-8.48703
▁true	-8.48703
▁trust	-8.48703
▁understanding	-8.48703
▁accept	-8.52785
▁adhd	-8.52785
▁amazing	-8.52785
▁beat	-8.52785
▁bos	-8.52785
▁certain	-8.52785
▁conscious	-8.52785
▁coping	-8.52785
▁current	-8.52785
▁decision	-8.52785
▁didnt	-8.52785
▁dr	-8.52785
▁easier	-8.52785
▁exist	-8.52785
▁final	-8.52785
▁foot	-8.52785
▁harm	-8.52785
▁interested	-8.52785
▁intrusive	-8.52785
▁laugh	-8.52785
▁lay	-8.52785
▁letting	-8.52785
▁lockdown	-8.52785
▁member	-8.52785
▁name	-8.52785
▁peace	-8.52785
▁per	-8.52785
▁racing	-8.52785
▁rarely	-8.52785
▁sibling	-8.52785
▁son	-8.52785
▁ssri	-8.52785
▁teacher	-8.52785
▁tear	-8.52785
▁thats	-8.52785
▁treat	-8.52785
▁truth	-8.52785
▁usual	-8.52785
▁worthless	-8.52785
▁2020	-8.57041
▁alcohol	-8.57041
▁allowed	-8.57041
▁app	-8.57041
▁area	-8.57041
▁begin	-8.57041
▁broken	-8.57041
▁calling	-8.57041
▁changed	-8.57041
▁doubt	-8.57041
▁edit	-8.57041
▁everytime	-8.57041
▁fat	-8.57041
▁fighting	-8.57041
▁finding	-8.57041
▁goal	-8.57041
▁greatly	-8.57041
▁habit	-8.57041
▁impossible	-8.57041
▁light	-8.57041
▁lower	-8.57041
▁mg	-8.57041
▁missed	-8.57041
▁nearly	-8.57041
▁patient	-8.57041
▁pick	-8.57041
▁professional	-8.57041
▁progress	-8.57041
▁purpose	-8.57041
▁scare	-8.57041
▁scary	-8.57041
▁shake	-8.57041
▁smile	-8.57041
▁somewhere	-8.57041
▁specific	-8.57041
▁spiral	-8.57041
▁struggled	-8.57041
▁subreddit	-8.57041
▁visit	-8.57041
▁23	-8.61486
▁abusive	-8.61486
▁bc	-8.61486
▁born	-8.61486
▁community	-8.61486
▁confused	-8.61486
▁considering	-8.61486
▁degree	-8.61486
▁emotionally	-8.61486
▁fell	-8.61486
▁gain	-8.61486
▁guilt	-8.61486
▁gym	-8.61486
▁hated	-8.61486
▁intense	-8.61486
▁lazy	-8.61486
▁lie	-8.61486
▁nightmare	-8.61486
▁nowhere	-8.61486
▁perfect	-8.61486
▁reach	-8.61486
▁regret	-8.61486
▁save	-8.61486
▁session	-8.61486
▁smoke	-8.61486
▁spot	-8.61486
▁trapped	-8.61486
▁unfortunately	-8.61486
▁unless	-8.61486
▁vent	-8.61486
▁wall	-8.61486
▁xanax	-8.61486
▁advance	-8.66138
▁affect	-8.66138
▁alright	-8.66138
▁badly	-8.66138
▁beyond	-8.66138
▁blame	-8.66138
▁bother	-8.66138
▁confident	-8.66138
▁cuz	-8.66138
▁dealt	-8.66138
▁difference	-8.66138
▁english	-8.66138
▁excuse	-8.66138
▁fail	-8.66138
▁failure	-8.66138
▁friendship	-8.66138
▁hole	-8.66138
▁known	-8.66138
▁lexapro	-8.66138
▁liked	-8.66138
▁luck	-8.66138
▁mask	-8.66138
▁obviously	-8.66138
▁panicking	-8.66138
▁putting	-8.66138
▁reaction	-8.66138
▁solution	-8.66138
▁till	-8.66138
▁topic	-8.66138
▁touch	-8.66138
▁toxic	-8.66138
▁urge	-8.66138
▁100	-8.71017
▁50	-8.71017
▁abuse	-8.71017
▁accepted	-8.71017
▁action	-8.71017
▁apparently	-8.71017
▁awkward	-8.71017
▁baby	-8.71017
▁caught	-8.71017
▁clear	-8.71017
▁dating	-8.71017
▁desire	-8.71017
▁email	-8.71017
▁embarrassed	-8.71017
▁ending	-8.71017
▁everybody	-8.71017
▁forced	-8.71017
▁forgot	-8.71017
▁ignore	-8.71017
▁infection	-8.71017
▁interaction	-8.71017
▁learned	-8.71017
▁likely	-8.71017
▁mention	-8.71017
▁mentioned	-8.71017
▁messed	-8.71017
▁piece	-8.71017
▁practice	-8.71017
▁rough	-8.71017
▁studying	-8.71017
▁suffered	-8.71017
▁suggested	-8.71017
▁supportive	-8.71017
▁throw	-8.71017
▁trip	-8.71017
▁ugly	-8.71017
▁woman	-8.71017
▁22	-8.76147
▁account	-8.76147
▁argument	-8.76147
▁besides	-8.76147
▁bottom	-8.76147
▁caffeine	-8.76147
▁city	-8.76147
▁complete	-8.76147
▁condition	-8.76147
▁expecting	-8.76147
▁filled	-8.76147
▁freak	-8.76147
▁harder	-8.76147
▁hopeless	-8.76147
▁insane	-8.76147
▁lying	-8.76147
▁main	-8.76147
▁mum	-8.76147
▁muscle	-8.76147
▁passing	-8.76147
▁poor	-8.76147
▁project	-8.76147
▁ran	-8.76147
▁throwing	-8.76147
▁title	-8.76147
▁wonderful	-8.76147
▁youtube	-8.76147
▁25	-8.81553
▁building	-8.81553
▁caring	-8.81553
▁cbt	-8.81553
▁com	-8.81553
▁depressant	-8.81553
▁developed	-8.81553
▁earlier	-8.81553
▁expect	-8.81553
▁finger	-8.81553
▁following	-8.81553
▁frustrated	-8.81553
▁functioning	-8.81553
▁growing	-8.81553
▁heavy	-8.81553
▁hurting	-8.81553
▁information	-8.81553
▁insurance	-8.81553
▁judge	-8.81553
▁learning	-8.81553
▁lived	-8.81553
▁medium	-8.81553
▁missing	-8.81553
▁opportunity	-8.81553
▁overall	-8.81553
▁overthinking	-8.81553
▁pm	-8.81553
▁productive	-8.81553
▁rant	-8.81553
▁relief	-8.81553
▁road	-8.81553
▁rule	-8.81553
▁scream	-8.81553
▁seek	-8.81553
▁september	-8.81553
▁smoking	-8.81553
▁society	-8.81553
▁song	-8.81553
▁staying	-8.81553
▁store	-8.81553
▁strange	-8.81553
▁surgery	-8.81553
▁wear	-8.81553
▁11	-8.87269
▁13	-8.87269
▁14	-8.87269
▁allow	-8.87269
▁anywhere	-8.87269
▁assignment	-8.87269
▁assume	-8.87269
▁background	-8.87269
▁breaking	-8.87269
▁buy	-8.87269
▁clean	-8.87269
▁clothes	-8.87269
▁co	-8.87269
▁commit	-8.87269
▁connect	-8.87269
▁consider	-8.87269
▁context	-8.87269
▁convinced	-8.87269
▁dentist	-8.87269
▁distance	-8.87269
▁doc	-8.87269
▁existence	-8.87269
▁freaking	-8.87269
▁funny	-8.87269
▁hanging	-8.87269
▁hearing	-8.87269
▁irrational	-8.87269
▁list	-8.87269
▁manager	-8.87269
▁married	-8.87269
▁mild	-8.87269
▁noise	-8.87269
▁numbness	-8.87269
▁opinion	-8.87269
▁overwhelming	-8.87269
▁planning	-8.87269
▁posted	-8.87269
▁prescription	-8.87269
▁properly	-8.87269
▁quick	-8.87269
▁quiet	-8.87269
▁reply	-8.87269
▁risk	-8.87269
▁rn	-8.87269
▁roof	-8.87269
▁staring	-8.87269
▁successful	-8.87269
▁sudden	-8.87269
▁ton	-8.87269
▁totally	-8.87269
▁trauma	-8.87269
▁uni	-8.87269
▁various	-8.87269
▁wasted	-8.87269
▁weed	-8.87269
▁aspect	-8.93332
▁ate	-8.93332
▁aunt	-8.93332
▁bathroom	-8.93332
▁bill	-8.93332
▁brings	-8.93332
▁build	-8.93332
▁checked	-8.93332
▁choose	-8.93332
▁computer	-8.93332
▁detail	-8.93332
▁dizzy	-8.93332
▁dry	-8.93332
▁easily	-8.93332
▁everywhere	-8.93332
▁ex	-8.93332
▁express	-8.93332
▁failing	-8.93332
▁four	-8.93332
▁graduate	-8.93332
▁grew	-8.93332
▁hide	-8.93332
▁hungry	-8.93332
▁insecurity	-8.93332
▁internet	-8.93332
▁january	-8.93332
▁joy	-8.93332
▁loud	-8.93332
▁meaning	-8.93332
▁mode	-8.93332
▁nurse	-8.93332
▁personally	-8.93332
▁possibly	-8.93332
▁potential	-8.93332
▁pretend	-8.93332
▁react	-8.93332
▁rock	-8.93332
▁sat	-8.93332
▁sentence	-8.93332
▁socially	-8.93332
▁stable	-8.93332
▁stayed	-8.93332
▁success	-8.93332
▁tingling	-8.93332
▁treated	-8.93332
▁typing	-8.93332
▁9	-8.99786
▁acting	-8.99786
▁admit	-8.99786
▁affecting	-8.99786
▁based	-8.99786
▁battle	-8.99786
▁bf	-8.99786
▁bipolar	-8.99786
▁catch	-8.99786
▁clearly	-8.99786
▁considered	-8.99786
▁courage	-8.99786
▁crippling	-8.99786
▁deeper	-8.99786
▁depressing	-8.99786
▁disease	-8.99786
▁distract	-8.99786
▁dropped	-8.99786
▁ear	-8.99786
▁embarrassing	-8.99786
▁exact	-8.99786
▁extra	-8.99786
▁fiance	-8.99786
▁generally	-8.99786
▁gf	-8.99786
▁google	-8.99786
▁hot	-8.99786
▁image	-8.99786
▁instantly	-8.99786
▁interview	-8.99786
▁laughing	-8.99786
▁laying	-8.99786
▁line	-8.99786
▁loneliness	-8.99786
▁lucky	-8.99786
▁male	-8.99786
▁method	-8.99786
▁mid	-8.99786
▁monday	-8.99786
▁nauseous	-8.99786
▁neck	-8.99786
▁nerve	-8.99786
▁note	-8.99786
▁opening	-8.99786
▁p	-8.99786
▁paper	-8.99786
▁particularly	-8.99786
▁pathetic	-8.99786
▁pound	-8.99786
▁previous	-8.99786
▁program	-8.99786
▁public	-8.99786
▁responsible	-8.99786
▁rid	-8.99786
▁ruin	-8.99786
▁sex	-8.99786
▁shift	-8.99786
▁shy	-8.99786
▁smart	-8.99786
▁speaking	-8.99786
▁specifically	-8.99786
▁strength	-8.99786
▁suggestion	-8.99786
▁turning	-8.99786
▁tv	-8.99786
▁vacation	-8.99786
▁view	-8.99786
▁violent	-8.99786
▁wasting	-8.99786
▁wrote	-8.99786
▁yelled	-8.99786
▁12	-9.06685
▁ability	-9.06685
▁add	-9.06685
▁afford	-9.06685
▁art	-9.06685
▁beautiful	-9.06685
▁black	-9.06685
▁boring	-9.06685
▁bottle	-9.06685
▁brought	-9.06685
▁burn	-9.06685
▁bye	-9.06685
▁camera	-9.06685
▁concerned	-9.06685
▁dizziness	-9.06685
▁drained	-9.06685
▁drop	-9.06685
▁f	-9.06685
▁faith	-9.06685
▁field	-9.06685
▁fill	-9.06685
▁flight	-9.06685
▁floor	-9.06685
▁focusing	-9.06685
▁fresh	-9.06685
▁friday	-9.06685
▁history	-9.06685
▁hug	-9.06685
▁large	-9.06685
▁managing	-9.06685
▁massive	-9.06685
▁odd	-9.06685
▁party	-9.06685
▁picture	-9.06685
▁planned	-9.06685
▁pull	-9.06685
▁refuse	-9.06685
▁research	-9.06685
▁responsibility	-9.06685
▁restaurant	-9.06685
▁rush	-9.06685
▁somebody	-9.06685
▁source	-9.06685
▁sunday	-9.06685
▁survive	-9.06685
▁taste	-9.06685
▁tested	-9.06685
▁tightness	-9.06685
▁tl	-9.06685
▁understands	-9.06685
▁willing	-9.06685
▁www	-9.06685
▁0	-9.14096
▁2nd	-9.14096
▁accepting	-9.14096
▁apologize	-9.14096
▁appetite	-9.14096
▁april	-9.14096
▁aside	-9.14096
▁august	-9.14096
▁bullshit	-9.14096
▁chat	-9.14096
▁chronic	-9.14096
▁closer	-9.14096
▁closest	-9.14096
▁cover	-9.14096
▁focused	-9.14096
▁follow	-9.14096
▁frequently	-9.14096
▁gained	-9.14096
▁hardly	-9.14096
▁heavily	-9.14096
▁holding	-9.14096
▁id	-9.14096
▁idiot	-9.14096
▁ignored	-9.14096
▁interesting	-9.14096
▁isnt	-9.14096
▁knee	-9.14096
▁law	-9.14096
▁marfans	-9.14096
▁meditation	-9.14096
▁mile	-9.14096
▁motivated	-9.14096
▁non	-9.14096
▁onto	-9.14096
▁opened	-9.14096
▁private	-9.14096
▁ptsd	-9.14096
▁reaching	-9.14096
▁recent	-9.14096
▁recognize	-9.14096
▁relaxed	-9.14096
▁respect	-9.14096
▁sensitive	-9.14096
▁sexual	-9.14096
▁shoulder	-9.14096
▁silence	-9.14096
▁silent	-9.14096
▁somewhat	-9.14096
▁sport	-9.14096
▁syndrome	-9.14096
▁teen	-9.14096
▁tend	-9.14096
▁thousand	-9.14096
▁walked	-9.14096
▁wearing	-9.14096
▁welcome	-9.14096
▁wellbutrin	-9.14096
▁wont	-9.14096
▁worker	-9.14096
▁yell	-9.14096
▁zone	-9.14096
▁1st	-9.221
▁absolute	-9.221
▁accident	-9.221
▁ache	-9.221
▁air	-9.221
▁anytime	-9.221
▁asshole	-9.221
▁available	-9.221
▁average	-9.221
▁bedroom	-9.221
▁biggest	-9.221
▁bothering	-9.221
▁bought	-9.221
▁bullied	-9.221
▁business	-9.221
▁card	-9.221
▁checking	-9.221
▁compared	-9.221
▁cost	-9.221
▁crap	-9.221
▁creative	-9.221
▁crisis	-9.221
▁crush	-9.221
▁deeply	-9.221
▁difficulty	-9.221
▁disappointment	-9.221
▁disgusting	-9.221
▁distraction	-9.221
▁dosage	-9.221
▁e	-9.221
▁edge	-9.221
▁endless	-9.221
▁environment	-9.221
▁fair	-9.221
▁fever	-9.221
▁finished	-9.221
▁fire	-9.221
▁flat	-9.221
▁followed	-9.221
▁frustrating	-9.221
▁ghost	-9.221
▁grateful	-9.221
▁haha	-9.221
▁halfway	-9.221
▁hating	-9.221
▁increased	-9.221
▁insult	-9.221
▁isolated	-9.221
▁judged	-9.221
▁kick	-9.221
▁logic	-9.221
▁loop	-9.221
▁march	-9.221
▁math	-9.221
▁mechanism	-9.221
▁obsessing	-9.221
▁opposite	-9.221
▁otherwise	-9.221
▁passion	-9.221
▁pointless	-9.221
▁position	-9.221
▁psych	-9.221
▁questioning	-9.221
▁randomly	-9.221
▁realised	-9.221
▁regarding	-9.221
▁root	-9.221
▁schedule	-9.221
▁screaming	-9.221
▁send	-9.221
▁service	-9.221
▁shaky	-9.221
▁site	-9.221
▁spending	-9.221
▁stopping	-9.221
▁stranger	-9.221
▁switched	-9.221
▁tense	-9.221
▁tooth	-9.221
▁unbearable	-9.221
▁understood	-9.221
▁value	-9.221
▁wound	-9.221
▁yelling	-9.221
▁zero	-9.221
▁5mg	-9.30801
▁90	-9.30801
▁actively	-9.30801
▁activity	-9.30801
▁af	-9.30801
▁animal	-9.30801
▁application	-9.30801
▁applying	-9.30801
▁ashamed	-9.30801
▁attempted	-9.30801
▁attracted	-9.30801
▁awareness	-9.30801
▁b	-9.30801
▁ball	-9.30801
▁beating	-9.30801
▁bird	-9.30801
▁bitch	-9.30801
▁changing	-9.30801
▁character	-9.30801
▁chore	-9.30801
▁circle	-9.30801
▁client	-9.30801
▁closed	-9.30801
▁coffee	-9.30801
▁communication	-9.30801
▁concentrate	-9.30801
▁conflict	-9.30801
▁content	-9.30801
▁cousin	-9.30801
▁create	-9.30801
▁deadline	-9.30801
▁dinner	-9.30801
▁ease	-9.30801
▁effective	-9.30801
▁encouragement	-9.30801
▁explained	-9.30801
▁fairly	-9.30801
▁faking	-9.30801
▁fired	-9.30801
▁five	-9.30801
▁gotta	-9.30801
▁graduation	-9.30801
▁grow	-9.30801
▁heal	-9.30801
▁held	-9.30801
▁hiding	-9.30801
▁increase	-9.30801
▁j	-9.30801
▁june	-9.30801
▁kicked	-9.30801
▁klonopin	-9.30801
▁leaf	-9.30801
▁loving	-9.30801
▁luckily	-9.30801
▁mainly	-9.30801
▁majority	-9.30801
▁mark	-9.30801
▁meal	-9.30801
▁mirror	-9.30801
▁monster	-9.30801
▁nail	-9.30801
▁obvious	-9.30801
▁paid	-9.30801
▁paranoia	-9.30801
▁perfectly	-9.30801
▁phobia	-9.30801
▁picked	-9.30801
▁played	-9.30801
▁power	-9.30801
▁pushing	-9.30801
▁recommended	-9.30801
▁recovery	-9.30801
▁regular	-9.30801
▁repeat	-9.30801
▁requires	-9.30801
▁role	-9.30801
▁routine	-9.30801
▁rude	-9.30801
▁ruined	-9.30801
▁ruining	-9.30801
▁saving	-9.30801
▁scar	-9.30801
▁scenario	-9.30801
▁se	-9.30801
▁seeking	-9.30801
▁sending	-9.30801
▁silly	-9.30801
▁six	-9.30801
▁slept	-9.30801
▁solve	-9.30801
▁street	-9.30801
▁sun	-9.30801
▁surface	-9.30801
▁surprise	-9.30801
▁surrounded	-9.30801
▁tendency	-9.30801
▁terrifying	-9.30801
▁thankfully	-9.30801
▁third	-9.30801
▁town	-9.30801
▁training	-9.30801
▁triggering	-9.30801
▁upon	-9.30801
▁vision	-9.30801
▁vulnerable	-9.30801
▁3rd	-9.40332
▁access	-9.40332
▁accomplish	-9.40332
▁affected	-9.40332
▁attitude	-9.40332
▁autism	-9.40332
▁autistic	-9.40332
▁believed	-9.40332
▁believing	-9.40332
▁bite	-9.40332
▁brief	-9.40332
▁bringing	-9.40332
▁carry	-9.40332
▁commitment	-9.40332
▁coworker	-9.40332
▁coworkers	-9.40332
▁cure	-9.40332
▁curious	-9.40332
▁customer	-9.40332
▁danger	-9.40332
▁decent	-9.40332
▁desperate	-9.40332
▁desperately	-9.40332
▁destroyed	-9.40332
▁earth	-9.40332
▁education	-9.40332
▁enjoyed	-9.40332
▁faster	-9.40332
▁fatigue	-9.40332
▁figured	-9.40332
▁folk	-9.40332
▁friendly	-9.40332
▁generalized	-9.40332
▁glad	-9.40332
▁grandmother	-9.40332
▁harming	-9.40332
▁heat	-9.40332
▁homework	-9.40332
▁hr	-9.40332
▁ideation	-9.40332
▁ignoring	-9.40332
▁impacted	-9.40332
▁incident	-9.40332
▁insomnia	-9.40332
▁irritated	-9.40332
▁isolation	-9.40332
▁jealous	-9.40332
▁killed	-9.40332
▁knock	-9.40332
▁led	-9.40332
▁letter	-9.40332
▁local	-9.40332
▁loose	-9.40332
▁loser	-9.40332
▁lunch	-9.40332
▁lung	-9.40332
▁nasty	-9.40332
▁neither	-9.40332
▁nose	-9.40332
▁noticing	-9.40332
▁october	-9.40332
▁pissed	-9.40332
▁prior	-9.40332
▁procedure	-9.40332
▁pushed	-9.40332
▁quality	-9.40332
▁quarantine	-9.40332
▁raised	-9.40332
▁reached	-9.40332
▁realizing	-9.40332
▁respond	-9.40332
▁ridiculous	-9.40332
▁roommate	-9.40332
▁semi	-9.40332
▁showing	-9.40332
▁slightly	-9.40332
▁socializing	-9.40332
▁sore	-9.40332
▁spiraling	-9.40332
▁standing	-9.40332
▁stick	-9.40332
▁stressing	-9.40332
▁stroke	-9.40332
▁stronger	-9.40332
▁texted	-9.40332
▁texting	-9.40332
▁therefore	-9.40332
▁thread	-9.40332
▁tight	-9.40332
▁total	-9.40332
▁track	-9.40332
▁travel	-9.40332
▁unconscious	-9.40332
▁universe	-9.40332
▁v	-9.40332
▁vaccinated	-9.40332
▁verge	-9.40332
▁version	-9.40332
▁void	-9.40332
▁watched	-9.40332
▁wave	-9.40332
▁x	-9.40332
▁2021	-9.50868
▁40	-9.50868
▁abused	-9.50868
▁according	-9.50868
▁active	-9.50868
▁adrenaline	-9.50868
▁appeared	-9.50868
▁ativan	-9.50868
▁attacked	-9.50868
▁bear	-9.50868
▁becomes	-9.50868
▁behavior	-9.50868
▁blocked	-9.50868
▁blown	-9.50868
▁built	-9.50868
▁burning	-9.50868
▁cbd	-9.50868
▁center	-9.50868
▁certainly	-9.50868
▁cognitive	-9.50868
▁committed	-9.50868
▁complain	-9.50868
▁complaining	-9.50868
▁concept	-9.50868
▁connection	-9.50868
▁consuming	-9.50868
▁convince	-9.50868
▁cool	-9.50868
▁correct	-9.50868
▁counseling	-9.50868
▁count	-9.50868
▁crawl	-9.50868
▁credit	-9.50868
▁cute	-9.50868
▁cutting	-9.50868
▁damage	-9.50868
▁darkness	-9.50868
▁debt	-9.50868
▁decide	-9.50868
▁destroy	-9.50868
▁direction	-9.50868
▁disappointed	-9.50868
▁divorced	-9.50868
▁esteem	-9.50868
▁existential	-9.50868
▁expectation	-9.50868
▁female	-9.50868
▁financial	-9.50868
▁freedom	-9.50868
▁garbage	-9.50868
▁gp	-9.50868
▁graduating	-9.50868
▁grammar	-9.50868
▁grandma	-9.50868
▁gut	-9.50868
▁hardest	-9.50868
▁higher	-9.50868
▁imposter	-9.50868
▁increasingly	-9.50868
▁insecure	-9.50868
▁jake	-9.50868
▁joking	-9.50868
▁journey	-9.50868
▁juli	-9.50868
▁language	-9.50868
▁license	-9.50868
▁lip	-9.50868
▁locked	-9.50868
▁marry	-9.50868
▁master	-9.50868
▁meantime	-9.50868
▁nature	-9.50868
▁needing	-9.50868
▁ob	-9.50868
▁offered	-9.50868
▁overweight	-9.50868
▁palpitation	-9.50868
▁paragraph	-9.50868
▁parking	-9.50868
▁path	-9.50868
▁paying	-9.50868
▁pop	-9.50868
▁prove	-9.50868
▁receive	-9.50868
▁regard	-9.50868
▁rich	-9.50868
▁sale	-9.50868
▁scan	-9.50868
▁scholarship	-9.50868
▁series	-9.50868
▁setting	-9.50868
▁severely	-9.50868
▁shame	-9.50868
▁shell	-9.50868
▁shes	-9.50868
▁sigh	-9.50868
▁significant	-9.50868
▁significantly	-9.50868
▁snap	-9.50868
▁sooner	-9.50868
▁speed	-9.50868
▁split	-9.50868
▁stage	-9.50868
▁storm	-9.50868
▁tall	-9.50868
▁target	-9.50868
▁taught	-9.50868
▁tension	-9.50868
▁terribly	-9.50868
▁threatened	-9.50868
▁thru	-9.50868
▁tldr	-9.50868
▁toll	-9.50868
▁train	-9.50868
▁traumatic	-9.50868
▁trick	-9.50868
▁tuesday	-9.50868
▁unemployed	-9.50868
▁unhappy	-9.50868
▁vet	-9.50868
▁ward	-9.50868
▁warm	-9.50868
▁whats	-9.50868
▁win	-9.50868
▁wind	-9.50868
▁wishing	-9.50868
▁wondered	-9.50868
▁written	-9.50868
▁10mg	-9.62646
▁2019	-9.62646
▁acknowledge	-9.62646
▁adventure	-9.62646
▁afterwards	-9.62646
▁ahead	-9.62646
▁allergic	-9.62646
▁alot	-9.62646
▁annoyed	-9.62646
▁appearance	-9.62646
▁apps	-9.62646
▁asian	-9.62646
▁assessment	-9.62646
▁avoiding	-9.62646
▁awesome	-9.62646
▁begging	-9.62646
▁benefit	-9.62646
▁benzo	-9.62646
▁bigger	-9.62646
▁blank	-9.62646
▁blanket	-9.62646
▁block	-9.62646
▁blue	-9.62646
▁bright	-9.62646
▁btw	-9.62646
▁burst	-9.62646
▁c	-9.62646
▁capable	-9.62646
▁cardiologist	-9.62646
▁celexa	-9.62646
▁chanel	-9.62646
▁chemical	-9.62646
▁combat	-9.62646
▁complaint	-9.62646
▁conclusion	-9.62646
▁consistently	-9.62646
▁continues	-9.62646
▁cooking	-9.62646
▁couch	-9.62646
▁counselor	-9.62646
▁counter	-9.62646
▁countless	-9.62646
▁created	-9.62646
▁cymbalta	-9.62646
▁debilitating	-9.62646
▁depend	-9.62646
▁disability	-9.62646
▁disappear	-9.62646
▁drank	-9.62646
▁dressed	-9.62646
▁driver	-9.62646
▁dropping	-9.62646
▁drowning	-9.62646
▁dude	-9.62646
▁emergency	-9.62646
▁enjoying	-9.62646
▁evening	-9.62646
▁exhausting	-9.62646
▁explains	-9.62646
▁fallen	-9.62646
▁february	-9.62646
▁fog	-9.62646
▁genuine	-9.62646
▁glass	-9.62646
▁graduated	-9.62646
▁ground	-9.62646
▁havent	-9.62646
▁helper	-9.62646
▁highly	-9.62646
▁hospitalized	-9.62646
▁impact	-9.62646
▁info	-9.62646
▁iv	-9.62646
▁jaw	-9.62646
▁jumping	-9.62646
▁kitchen	-9.62646
▁knowledge	-9.62646
▁lamictal	-9.62646
▁lasted	-9.62646
▁laughed	-9.62646
▁lowest	-9.62646
▁match	-9.62646
▁minimum	-9.62646
▁minor	-9.62646
▁misery	-9.62646
▁mri	-9.62646
▁naturally	-9.62646
▁necessary	-9.62646
▁needle	-9.62646
▁neighbor	-9.62646
▁news	-9.62646
▁nowadays	-9.62646
▁number	-9.62646
▁op	-9.62646
▁overthink	-9.62646
▁permanent	-9.62646
▁perspective	-9.62646
▁photo	-9.62646
▁piling	-9.62646
▁pity	-9.62646
▁police	-9.62646
▁pretending	-9.62646
▁rare	-9.62646
▁reassurance	-9.62646
▁received	-9.62646
▁record	-9.62646
▁rejected	-9.62646
▁rely	-9.62646
▁round	-9.62646
▁rut	-9.62646
▁saved	-9.62646
▁science	-9.62646
▁screw	-9.62646
▁scrolling	-9.62646
▁seizure	-9.62646
▁sh	-9.62646
▁shattered	-9.62646
▁shock	-9.62646
▁shop	-9.62646
▁skinny	-9.62646
▁sober	-9.62646
▁spark	-9.62646
▁spread	-9.62646
▁stabbing	-9.62646
▁statement	-9.62646
▁suppose	-9.62646
▁swear	-9.62646
▁sweat	-9.62646
▁tea	-9.62646
▁team	-9.62646
▁technique	-9.62646
▁ten	-9.62646
▁threat	-9.62646
▁threw	-9.62646
▁trained	-9.62646
▁trash	-9.62646
▁twitch	-9.62646
▁uk	-9.62646
▁unit	-9.62646
▁unmotivated	-9.62646
▁unsure	-9.62646
▁ups	-9.62646
▁victim	-9.62646
▁w	-9.62646
▁warning	-9.62646
▁wedding	-9.62646
▁wherever	-9.62646
▁withdrawal	-9.62646
▁workout	-9.62646
▁45	-9.76
▁academic	-9.76
▁acted	-9.76
▁afternoon	-9.76
▁ambition	-9.76
▁answered	-9.76
▁article	-9.76
▁awake	-9.76
▁bag	-9.76
▁balance	-9.76
▁bank	-9.76
▁bare	-9.76
▁basis	-9.76
▁bearable	-9.76
▁begged	-9.76
▁belong	-9.76
▁birth	-9.76
▁bone	-9.76
▁boost	-9.76
▁bored	-9.76
▁bothered	-9.76
▁box	-9.76
▁brush	-9.76
▁buspar	-9.76
▁cared	-9.76
▁cheated	-9.76
▁chose	-9.76
▁christmas	-9.76
▁cigarette	-9.76
▁clinical	-9.76
▁clue	-9.76
▁combination	-9.76
▁communicate	-9.76
▁compare	-9.76
▁concern	-9.76
▁conspiracy	-9.76
▁crack	-9.76
▁daughter	-9.76
▁described	-9.76
▁destroying	-9.76
▁develop	-9.76
▁discus	-9.76
▁discussion	-9.76
▁distant	-9.76
▁doesnt	-9.76
▁doom	-9.76
▁downhill	-9.76
▁drain	-9.76
▁dramatic	-9.76
▁drunk	-9.76
▁effexor	-9.76
▁ekg	-9.76
▁elsewhere	-9.76
▁emetophobia	-9.76
▁employee	-9.76
▁emptiness	-9.76
▁enter	-9.76
▁entirely	-9.76
▁exercising	-9.76
▁existed	-9.76
▁existing	-9.76
▁exposed	-9.76
▁faint	-9.76
▁false	-9.76
▁feed	-9.76
▁flying	-9.76
▁forgotten	-9.76
▁frankly	-9.76
▁gaming	-9.76
▁goodbye	-9.76
▁gosh	-9.76
▁green	-9.76
▁grocery	-9.76
▁hatred	-9.76
▁hesitant	-9.76
▁homeless	-9.76
▁hopeful	-9.76
▁hundred	-9.76
▁ice	-9.76
▁ideal	-9.76
▁income	-9.76
▁introvert	-9.76
▁invite	-9.76
▁invited	-9.76
▁irritable	-9.76
▁itch	-9.76
▁jump	-9.76
▁junior	-9.76
▁junk	-9.76
▁knot	-9.76
▁latter	-9.76
▁leading	-9.76
▁libido	-9.76
▁lied	-9.76
▁limited	-9.76
▁load	-9.76
▁machine	-9.76
▁messaged	-9.76
▁midnight	-9.76
▁mirtazapine	-9.76
▁model	-9.76
▁monitor	-9.76
▁natural	-9.76
▁necessarily	-9.76
▁negatively	-9.76
▁negativity	-9.76
▁nothingness	-9.76
▁occasion	-9.76
▁occasionally	-9.76
▁odor	-9.76
▁official	-9.76
▁pcp	-9.76
▁pfizer	-9.76
▁planet	-9.76
▁possibility	-9.76
▁pray	-9.76
▁prepared	-9.76
▁previously	-9.76
▁promise	-9.76
▁pulled	-9.76
▁pulling	-9.76
▁pure	-9.76
▁pussy	-9.76
▁quitting	-9.76
▁rabies	-9.76
▁raise	-9.76
▁rambling	-9.76
▁realise	-9.76
▁recovering	-9.76
▁regularly	-9.76
▁relieved	-9.76
▁remind	-9.76
▁replied	-9.76
▁request	-9.76
▁rescue	-9.76
▁resource	-9.76
▁sample	-9.76
▁screen	-9.76
▁sharing	-9.76
▁shirt	-9.76
▁shortness	-9.76
▁shout	-9.76
▁sinus	-9.76
▁size	-9.76
▁slight	-9.76
▁snack	-9.76
▁socialize	-9.76
▁someday	-9.76
▁special	-9.76
▁spoke	-9.76
▁stare	-9.76
▁strategy	-9.76
▁succeed	-9.76
▁sucked	-9.76
▁supplement	-9.76
▁surely	-9.76
▁switch	-9.76
▁tbh	-9.76
▁teenager	-9.76
▁temporary	-9.76
▁thus	-9.76
▁tissue	-9.76
▁tone	-9.76
▁tool	-9.76
▁torture	-9.76
▁touching	-9.76
▁treating	-9.76
▁twitching	-9.76
▁typical	-9.76
▁ultimately	-9.76
▁upper	-9.76
▁ur	-9.76
▁wage	-9.76
▁wise	-9.76
▁wreck	-9.76
▁yellow	-9.76
▁15mg	-9.91415
▁25mg	-9.91415
▁29	-9.91415
▁4th	-9.91415
▁99	-9.91415
▁abandoned	-9.91415
▁added	-9.91415
▁addicted	-9.91415
▁agoraphobia	-9.91415
▁agreed	-9.91415
▁allowing	-9.91415
▁alternative	-9.91415
▁annoys	-9.91415
▁apparent	-9.91415
▁approach	-9.91415
▁asap	-9.91415
▁assistance	-9.91415
▁attractive	-9.91415
▁avoided	-9.91415
▁award	-9.91415
▁awhile	-9.91415
▁bartender	-9.91415
▁basic	-9.91415
▁bat	-9.91415
▁bath	-9.91415
▁behaviour	-9.91415
▁benadryl	-9.91415
▁benzos	-9.91415
▁blamed	-9.91415
▁blaming	-9.91415
▁bleak	-9.91415
▁blind	-9.91415
▁blur	-9.91415
▁booked	-9.91415
▁bout	-9.91415
▁boy	-9.91415
▁brave	-9.91415
▁buying	-9.91415
▁cage	-9.91415
▁casual	-9.91415
▁cheer	-9.91415
▁chill	-9.91415
▁cleaned	-9.91415
▁cleaning	-9.91415
▁clock	-9.91415
▁clot	-9.91415
▁club	-9.91415
▁comforting	-9.91415
▁complex	-9.91415
▁comprehend	-9.91415
▁confronted	-9.91415
▁continued	-9.91415
▁convincing	-9.91415
▁core	-9.91415
▁cream	-9.91415
▁crippled	-9.91415
▁crushing	-9.91415
▁dance	-9.91415
▁december	-9.91415
▁demanding	-9.91415
▁despise	-9.91415
▁devastated	-9.91415
▁differently	-9.91415
▁directly	-9.91415
▁disaster	-9.91415
▁dollar	-9.91415
▁doomed	-9.91415
▁dos	-9.91415
▁downright	-9.91415
▁drama	-9.91415
▁draw	-9.91415
▁dreading	-9.91415
▁enjoyment	-9.91415
▁essentially	-9.91415
▁evidence	-9.91415
▁excitement	-9.91415
▁exists	-9.91415
▁explanation	-9.91415
▁exposure	-9.91415
▁expressing	-9.91415
▁faced	-9.91415
▁factor	-9.91415
▁flu	-9.91415
▁freeze	-9.91415
▁gap	-9.91415
▁garden	-9.91415
▁gle	-9.91415
▁gpa	-9.91415
▁grad	-9.91415
▁grandfather	-9.91415
▁grief	-9.91415
▁grown	-9.91415
▁guessing	-9.91415
▁hangout	-9.91415
▁helpless	-9.91415
▁highway	-9.91415
▁hire	-9.91415
▁horror	-9.91415
▁hyper	-9.91415
▁impending	-9.91415
▁include	-9.91415
▁independent	-9.91415
▁inner	-9.91415
▁insight	-9.91415
▁involved	-9.91415
▁jumped	-9.91415
▁knife	-9.91415
▁l	-9.91415
▁land	-9.91415
▁lastly	-9.91415
▁legitimately	-9.91415
▁link	-9.91415
▁literal	-9.91415
▁logical	-9.91415
▁lu	-9.91415
▁maintain	-9.91415
▁management	-9.91415
▁marriage	-9.91415
▁meaningless	-9.91415
▁measure	-9.91415
▁medicated	-9.91415
▁messing	-9.91415
▁million	-9.91415
▁min	-9.91415
▁mindfulness	-9.91415
▁mixed	-9.91415
▁moderator	-9.91415
▁motion	-9.91415
▁muster	-9.91415
▁neighborhood	-9.91415
▁niece	-9.91415
▁norm	-9.91415
▁november	-9.91415
▁object	-9.91415
▁offmychest	-9.91415
▁originally	-9.91415
▁outcome	-9.91415
▁outsider	-9.91415
▁overreacting	-9.91415
▁oxygen	-9.91415
▁palm	-9.91415
▁panicked	-9.91415
▁park	-9.91415
▁pass	-9.91415
▁passive	-9.91415
▁pattern	-9.91415
▁perform	-9.91415
▁perhaps	-9.91415
▁pet	-9.91415
▁petty	-9.91415
▁pile	-9.91415
▁pit	-9.91415
▁plate	-9.91415
▁pleasure	-9.91415
▁plenty	-9.91415
▁poop	-9.91415
▁pregnant	-9.91415
▁presentation	-9.91415
▁prevent	-9.91415
▁provided	-9.91415
▁psychiatric	-9.91415
▁psychological	-9.91415
▁punch	-9.91415
▁puppy	-9.91415
▁pursue	-9.91415
▁pursuing	-9.91415
▁ramble	-9.91415
▁ray	-9.91415
▁realization	-9.91415
▁reasonable	-9.91415
▁receptionist	-9.91415
▁recommend	-9.91415
▁recover	-9.91415
▁red	-9.91415
▁reduced	-9.91415
▁rejection	-9.91415
▁relatively	-9.91415
▁religion	-9.91415
▁religious	-9.91415
▁reminds	-9.91415
▁remove	-9.91415
▁returned	-9.91415
▁ring	-9.91415
▁rolling	-9.91415
▁romantic	-9.91415
▁rose	-9.91415
▁ruminating	-9.91415
▁safety	-9.91415
▁scalp	-9.91415
▁schizophrenia	-9.91415
▁score	-9.91415
▁scratch	-9.91415
▁screamed	-9.91415
▁season	-9.91415
▁secret	-9.91415
▁selling	-9.91415
▁separate	-9.91415
▁sexually	-9.91415
▁sharp	-9.91415
▁showed	-9.91415
▁signed	-9.91415
▁slip	-9.91415
▁slowing	-9.91415
▁sobbing	-9.91415
▁spare	-9.91415
▁speech	-9.91415
▁steal	-9.91415
▁stood	-9.91415
▁string	-9.91415
▁strongly	-9.91415
▁subject	-9.91415
▁subsided	-9.91415
▁suggest	-9.91415
▁survey	-9.91415
▁survival	-9.91415
▁survived	-9.91415
▁sweating	-9.91415
▁sweet	-9.91415
▁swing	-9.91415
▁temperature	-9.91415
▁theory	-9.91415
▁thriving	-9.91415
▁thursday	-9.91415
▁tiny	-9.91415
▁tiring	-9.91415
▁toilet	-9.91415
▁tremor	-9.91415
▁tw	-9.91415
▁uncontrollably	-9.91415
▁vegetable	-9.91415
▁venlafaxine	-9.91415
▁via	-9.91415
▁vibe	-9.91415
▁victory	-9.91415
▁virus	-9.91415
▁vitamin	-9.91415
▁vomiting	-9.91415
▁wiki	-9.91415
▁winter	-9.91415
▁wood	-9.91415
▁wtf	-9.91415
▁yawn	-9.91415
▁00	-10.0965
▁150mg	-10.0965
▁20mg	-10.0965
▁34	-10.0965
▁35	-10.0965
▁abdomen	-10.0965
▁abilify	-10.0965
▁accidentally	-10.0965
▁accomplishment	-10.0965
▁achieve	-10.0965
▁acute	-10.0965
▁ad	-10.0965
▁additional	-10.0965
▁advantage	-10.0965
▁advise	-10.0965
▁agency	-10.0965
▁agree	-10.0965
▁allergy	-10.0965
▁allows	-10.0965
▁ambulance	-10.0965
▁apathetic	-10.0965
▁appears	-10.0965
▁apple	-10.0965
▁apply	-10.0965
▁assumption	-10.0965
▁asthma	-10.0965
▁atleast	-10.0965
▁autopilot	-10.0965
▁bass	-10.0965
▁beforehand	-10.0965
▁bomb	-10.0965
▁bond	-10.0965
▁bowel	-10.0965
▁bpd	-10.0965
▁bpm	-10.0965
▁bridge	-10.0965
▁bug	-10.0965
▁bullet	-10.0965
▁bump	-10.0965
▁bus	-10.0965
▁butt	-10.0965
▁calmed	-10.0965
▁cancel	-10.0965
▁capacity	-10.0965
▁careful	-10.0965
▁carrying	-10.0965
▁cashier	-10.0965
▁ceiling	-10.0965
▁celebration	-10.0965
▁challenge	-10.0965
▁citalopram	-10.0965
▁ck	-10.0965
▁click	-10.0965
▁clinic	-10.0965
▁cloud	-10.0965
▁complicated	-10.0965
▁concentration	-10.0965
▁concrete	-10.0965
▁concussion	-10.0965
▁confusing	-10.0965
▁connecting	-10.0965
▁consciousness	-10.0965
▁consume	-10.0965
▁continuing	-10.0965
▁continuously	-10.0965
▁controlled	-10.0965
▁couldnt	-10.0965
▁counsellor	-10.0965
▁court	-10.0965
▁coward	-10.0965
▁cptsd	-10.0965
▁creep	-10.0965
▁creeping	-10.0965
▁cruel	-10.0965
▁culture	-10.0965
▁decade	-10.0965
▁deed	-10.0965
▁delete	-10.0965
▁dense	-10.0965
▁developing	-10.0965
▁dick	-10.0965
▁diet	-10.0965
▁disappointing	-10.0965
▁discord	-10.0965
▁discovered	-10.0965
▁dismissed	-10.0965
▁distracted	-10.0965
▁distracting	-10.0965
▁divorce	-10.0965
▁draining	-10.0965
▁drove	-10.0965
▁dumped	-10.0965
▁dust	-10.0965
▁dysfunctional	-10.0965
▁earn	-10.0965
▁eaten	-10.0965
▁eight	-10.0965
▁elderly	-10.0965
▁escitalopram	-10.0965
▁excessive	-10.0965
▁excruciating	-10.0965
▁exhale	-10.0965
▁explode	-10.0965
▁factory	-10.0965
▁familiar	-10.0965
▁fan	-10.0965
▁fatigued	-10.0965
▁favor	-10.0965
▁favorite	-10.0965
▁filling	-10.0965
▁film	-10.0965
▁flare	-10.0965
▁flow	-10.0965
▁former	-10.0965
▁fortunate	-10.0965
▁fortunately	-10.0965
▁fragile	-10.0965
▁freaked	-10.0965
▁frequent	-10.0965
▁functional	-10.0965
▁funeral	-10.0965
▁g	-10.0965
▁goddamn	-10.0965
▁googling	-10.0965
▁government	-10.0965
▁grabbed	-10.0965
▁gross	-10.0965
▁grudge	-10.0965
▁guidance	-10.0965
▁healing	-10.0965
▁heartbreak	-10.0965
▁highschool	-10.0965
▁hip	-10.0965
▁hitting	-10.0965
▁honor	-10.0965
▁hormone	-10.0965
▁horribly	-10.0965
▁hotel	-10.0965
▁hurtful	-10.0965
▁hydroxzine	-10.0965
▁identify	-10.0965
▁identifying	-10.0965
▁identity	-10.0965
▁ignorant	-10.0965
▁immediate	-10.0965
▁immensely	-10.0965
▁incapable	-10.0965
▁increasing	-10.0965
▁indeed	-10.0965
▁inducing	-10.0965
▁infected	-10.0965
▁innocent	-10.0965
▁instagram	-10.0965
▁instance	-10.0965
▁irl	-10.0965
▁item	-10.0965
▁jealousy	-10.0965
▁join	-10.0965
▁joined	-10.0965
▁joint	-10.0965
▁judging	-10.0965
▁judgment	-10.0965
▁laptop	-10.0965
▁laundry	-10.0965
▁layer	-10.0965
▁lift	-10.0965
▁lightheaded	-10.0965
▁lil	-10.0965
▁limit	-10.0965
▁loan	-10.0965
▁lock	-10.0965
▁loosing	-10.0965
▁loudly	-10.0965
▁mate	-10.0965
▁max	-10.0965
▁mediocre	-10.0965
▁meltdown	-10.0965
▁messaging	-10.0965
▁metal	-10.0965
▁midterm	-10.0965
▁migraine	-10.0965
▁mindlessly	-10.0965
▁miracle	-10.0965
▁mobile	-10.0965
▁moon	-10.0965
▁motivate	-10.0965
▁movement	-10.0965
▁nighttime	-10.0965
▁numbing	-10.0965
▁numerous	-10.0965
▁nursing	-10.0965
▁obsession	-10.0965
▁optimistic	-10.0965
▁org	-10.0965
▁overdose	-10.0965
▁pacing	-10.0965
▁particular	-10.0965
▁pause	-10.0965
▁paxil	-10.0965
▁peaceful	-10.0965
▁peer	-10.0965
▁perceived	-10.0965
▁perception	-10.0965
▁phase	-10.0965
▁porn	-10.0965
▁potentially	-10.0965
▁practically	-10.0965
▁pre	-10.0965
▁prepare	-10.0965
▁primary	-10.0965
▁processing	-10.0965
▁product	-10.0965
▁promised	-10.0965
▁proper	-10.0965
▁prozac	-10.0965
▁ranting	-10.0965
▁rational	-10.0965
▁refill	-10.0965
▁refused	-10.0965
▁regardless	-10.0965
▁release	-10.0965
▁remaining	-10.0965
▁remedy	-10.0965
▁reminder	-10.0965
▁remotely	-10.0965
▁rent	-10.0965
▁repeated	-10.0965
▁repeating	-10.0965
▁replace	-10.0965
▁replaying	-10.0965
▁report	-10.0965
▁respectful	-10.0965
▁responded	-10.0965
▁ride	-10.0965
▁ridiculously	-10.0965
▁row	-10.0965
▁safer	-10.0965
▁salad	-10.0965
▁sand	-10.0965
▁sarah	-10.0965
▁scene	-10.0965
▁scheduled	-10.0965
▁scratching	-10.0965
▁search	-10.0965
▁searching	-10.0965
▁section	-10.0965
▁sell	-10.0965
▁sertraline	-10.0965
▁sheet	-10.0965
▁shelf	-10.0965
▁shooting	-10.0965
▁shortly	-10.0965
▁shouldnt	-10.0965
▁showering	-10.0965
▁shutting	-10.0965
▁sinking	-10.0965
▁sits	-10.0965
▁skip	-10.0965
▁sky	-10.0965
▁sleepy	-10.0965
▁slightest	-10.0965
▁slipped	-10.0965
▁slipping	-10.0965
▁soft	-10.0965
▁sold	-10.0965
▁solid	-10.0965
▁solved	-10.0965
▁sometime	-10.0965
▁sought	-10.0965
▁spam	-10.0965
▁spell	-10.0965
▁spoken	-10.0965
▁spring	-10.0965
▁stab	-10.0965
▁stated	-10.0965
▁status	-10.0965
▁sticking	-10.0965
▁stretch	-10.0965
▁subconsciously	-10.0965
▁substance	-10.0965
▁suicidewatch	-10.0965
▁sum	-10.0965
▁surgeon	-10.0965
▁surrounding	-10.0965
▁swallow	-10.0965
▁tax	-10.0965
▁tech	-10.0965
▁temper	-10.0965
▁terror	-10.0965
▁thrown	-10.0965
▁til	-10.0965
▁tinder	-10.0965
▁tingly	-10.0965
▁toe	-10.0965
▁touched	-10.0965
▁toward	-10.0965
▁trans	-10.0965
▁transferred	-10.0965
▁truthfully	-10.0965
▁twenty	-10.0965
▁ugh	-10.0965
▁ultrasound	-10.0965
▁uncertainty	-10.0965
▁undiagnosed	-10.0965
▁unhealthy	-10.0965
▁unlike	-10.0965
▁untill	-10.0965
▁venting	-10.0965
▁verbally	-10.0965
▁vomit	-10.0965
▁waited	-10.0965
▁wander	-10.0965
▁weekly	-10.0965
▁whatsoever	-10.0965
▁white	-10.0965
▁wide	-10.0965
▁willpower	-10.0965
▁wisdom	-10.0965
▁worn	-10.0965
▁wow	-10.0965
▁wrist	-10.0965
▁zombie	-10.0965
▁150	-10.3196
▁1mg	-10.3196
▁26	-10.3196
▁30mg	-10.3196
▁31	-10.3196
▁6th	-10.3196
▁95	-10.3196
▁abt	-10.3196
▁accomplished	-10.3196
▁adam	-10.3196
▁adderall	-10.3196
▁addiction	-10.3196
▁adding	-10.3196
▁addition	-10.3196
▁admitted	-10.3196
▁adopted	-10.3196
▁advised	-10.3196
▁aggressive	-10.3196
▁agitated	-10.3196
▁albeit	-10.3196
▁alcoholic	-10.3196
▁alleviate	-10.3196
▁america	-10.3196
▁anime	-10.3196
▁ankle	-10.3196
▁aorta	-10.3196
▁apologized	-10.3196
▁apology	-10.3196
▁appear	-10.3196
▁appropriate	-10.3196
▁arise	-10.3196
▁arrived	-10.3196
▁arrogant	-10.3196
▁asks	-10.3196
▁assuming	-10.3196
▁attached	-10.3196
▁attend	-10.3196
▁automatically	-10.3196
▁avail	-10.3196
▁backyard	-10.3196
▁bacteria	-10.3196
▁balanced	-10.3196
▁balding	-10.3196
▁band	-10.3196
▁battling	-10.3196
▁bet	-10.3196
▁binge	-10.3196
▁bitter	-10.3196
▁blocking	-10.3196
▁bob	-10.3196
▁booking	-10.3196
▁boom	-10.3196
▁bottled	-10.3196
▁bound	-10.3196
▁bp	-10.3196
▁brand	-10.3196
▁breakfast	-10.3196
▁brilliant	-10.3196
▁brushed	-10.3196
▁brushing	-10.3196
▁burnt	-10.3196
▁buspirone	-10.3196
▁canal	-10.3196
▁caretaker	-10.3196
▁cash	-10.3196
▁cautious	-10.3196
▁certified	-10.3196
▁chapter	-10.3196
▁chart	-10.3196
▁chew	-10.3196
▁choking	-10.3196
▁choosing	-10.3196
▁clarity	-10.3196
▁classmate	-10.3196
▁classroom	-10.3196
▁closely	-10.3196
▁closing	-10.3196
▁coach	-10.3196
▁colleague	-10.3196
▁comparison	-10.3196
▁confrontation	-10.3196
▁connected	-10.3196
▁consequence	-10.3196
▁consistent	-10.3196
▁consumed	-10.3196
▁contract	-10.3196
▁contribute	-10.3196
▁controlling	-10.3196
▁cop	-10.3196
▁corner	-10.3196
▁costume	-10.3196
▁county	-10.3196
▁crappy	-10.3196
▁crash	-10.3196
▁crawling	-10.3196
▁cross	-10.3196
▁crypto	-10.3196
▁ct	-10.3196
▁cuddle	-10.3196
▁cup	-10.3196
▁cured	-10.3196
▁de	-10.3196
▁debating	-10.3196
▁deciding	-10.3196
▁defeated	-10.3196
▁define	-10.3196
▁delay	-10.3196
▁deleted	-10.3196
▁demon	-10.3196
▁denial	-10.3196
▁derealization	-10.3196
▁description	-10.3196
▁deserves	-10.3196
▁destructive	-10.3196
▁detached	-10.3196
▁diagnose	-10.3196
▁direct	-10.3196
▁director	-10.3196
▁dirty	-10.3196
▁disgust	-10.3196
▁dish	-10.3196
▁dislike	-10.3196
▁dismiss	-10.3196
▁disposable	-10.3196
▁document	-10.3196
▁dot	-10.3196
▁downstairs	-10.3196
▁dozen	-10.3196
▁drawing	-10.3196
▁dreaded	-10.3196
▁dreadful	-10.3196
▁dull	-10.3196
▁dunno	-10.3196
▁dyspnea	-10.3196
▁easiest	-10.3196
▁echocardiogram	-10.3196
▁ect	-10.3196
▁edible	-10.3196
▁embarrassment	-10.3196
▁encounter	-10.3196
▁enemy	-10.3196
▁enjoyable	-10.3196
▁entrance	-10.3196
▁entry	-10.3196
▁error	-10.3196
▁essay	-10.3196
▁ethic	-10.3196
▁expensive	-10.3196
▁explaining	-10.3196
▁eyelash	-10.3196
▁facing	-10.3196
▁fade	-10.3196
▁fading	-10.3196
▁famous	-10.3196
▁fantastic	-10.3196
▁fb	-10.3196
▁feared	-10.3196
▁fed	-10.3196
▁fee	-10.3196
▁fellow	-10.3196
▁finance	-10.3196
▁finishing	-10.3196
▁fixing	-10.3196
▁flair	-10.3196
▁flame	-10.3196
▁flared	-10.3196
▁flash	-10.3196
▁flaw	-10.3196
▁flowing	-10.3196
▁foggy	-10.3196
▁fond	-10.3196
▁fool	-10.3196
▁forcing	-10.3196
▁france	-10.3196
▁freshman	-10.3196
▁frozen	-10.3196
▁fuckin	-10.3196
▁fulfill	-10.3196
▁fuzzy	-10.3196
▁gloomy	-10.3196
▁grab	-10.3196
▁grasp	-10.3196
▁gt	-10.3196
▁guard	-10.3196
▁guideline	-10.3196
▁gun	-10.3196
▁hallucination	-10.3196
▁hangover	-10.3196
▁happier	-10.3196
▁happily	-10.3196
▁haunting	-10.3196
▁heartbeat	-10.3196
▁heartbroken	-10.3196
▁heaven	-10.3196
▁heck	-10.3196
▁hiv	-10.3196
▁hive	-10.3196
▁holiday	-10.3196
▁humanity	-10.3196
▁hygiene	-10.3196
▁hypochondria	-10.3196
▁iam	-10.3196
▁idek	-10.3196
▁ik	-10.3196
▁imaginary	-10.3196
▁imbalance	-10.3196
▁immense	-10.3196
▁immune	-10.3196
▁improved	-10.3196
▁improvement	-10.3196
▁improving	-10.3196
▁impulse	-10.3196
▁inability	-10.3196
▁inappropriate	-10.3196
▁inbox	-10.3196
▁inconvenience	-10.3196
▁incredible	-10.3196
▁india	-10.3196
▁induced	-10.3196
▁inevitable	-10.3196
▁influence	-10.3196
▁input	-10.3196
▁instinct	-10.3196
▁intake	-10.3196
▁intelligent	-10.3196
▁intentionally	-10.3196
▁interact	-10.3196
▁internship	-10.3196
▁introverted	-10.3196
▁invalidate	-10.3196
▁invest	-10.3196
▁involve	-10.3196
▁itchy	-10.3196
▁jasmine	-10.3196
▁journal	-10.3196
▁judgement	-10.3196
▁judgmental	-10.3196
▁juice	-10.3196
▁july	-10.3196
▁ka	-10.3196
▁kicking	-10.3196
▁kidding	-10.3196
▁killer	-10.3196
▁kindly	-10.3196
▁label	-10.3196
▁lady	-10.3196
▁laid	-10.3196
▁landed	-10.3196
▁lasting	-10.3196
▁lb	-10.3196
▁lecture	-10.3196
▁legal	-10.3196
▁legit	-10.3196
▁lightheadedness	-10.3196
▁limb	-10.3196
▁listened	-10.3196
▁lmao	-10.3196
▁loathing	-10.3196
▁logically	-10.3196
▁longest	-10.3196
▁lowered	-10.3196
▁lt	-10.3196
▁lurking	-10.3196
▁mac	-10.3196
▁mall	-10.3196
▁market	-10.3196
▁material	-10.3196
▁meaningful	-10.3196
▁meh	-10.3196
▁mere	-10.3196
▁mertazapine	-10.3196
▁misdiagnosed	-10.3196
▁misunderstood	-10.3196
▁mundane	-10.3196
▁mute	-10.3196
▁naked	-10.3196
▁narcissistic	-10.3196
▁native	-10.3196
▁nervousness	-10.3196
▁noon	-10.3196
▁objective	-10.3196
▁obsessed	-10.3196
▁obsessive	-10.3196
▁odds	-10.3196
▁operation	-10.3196
▁ops	-10.3196
▁organ	-10.3196
▁outgoing	-10.3196
▁overtime	-10.3196
▁pack	-10.3196
▁pair	-10.3196
▁panick	-10.3196
▁panicky	-10.3196
▁pant	-10.3196
▁partying	-10.3196
▁passionate	-10.3196
▁performance	-10.3196
▁pharmacy	-10.3196
▁phd	-10.3196
▁piss	-10.3196
▁pizza	-10.3196
▁plain	-10.3196
▁platform	-10.3196
▁policy	-10.3196
▁poorly	-10.3196
▁portal	-10.3196
▁pounding	-10.3196
▁praying	-10.3196
▁predictable	-10.3196
▁prescribe	-10.3196
▁presence	-10.3196
▁preventing	-10.3196
▁prevents	-10.3196
▁pride	-10.3196
▁priority	-10.3196
▁pristiq	-10.3196
▁privately	-10.3196
▁procrastinate	-10.3196
▁provide	-10.3196
▁psychotic	-10.3196
▁puke	-10.3196
▁pulse	-10.3196
▁punish	-10.3196
▁purchase	-10.3196
▁purely	-10.3196
▁rabbit	-10.3196
▁race	-10.3196
▁rage	-10.3196
▁reacting	-10.3196
▁reasoning	-10.3196
▁recall	-10.3196
▁recommendation	-10.3196
▁recommending	-10.3196
▁reference	-10.3196
▁reflect	-10.3196
▁reflecting	-10.3196
▁reflux	-10.3196
▁regain	-10.3196
▁relative	-10.3196
▁relaxation	-10.3196
▁relaxing	-10.3196
▁remain	-10.3196
▁remembered	-10.3196
▁remembering	-10.3196
▁repressed	-10.3196
▁reset	-10.3196
▁resilient	-10.3196
▁resolution	-10.3196
▁restart	-10.3196
▁restroom	-10.3196
▁retail	-10.3196
▁returning	-10.3196
▁rib	-10.3196
▁ringing	-10.3196
▁ripped	-10.3196
▁rise	-10.3196
▁robot	-10.3196
▁romantically	-10.3196
▁rot	-10.3196
▁rotten	-10.3196
▁route	-10.3196
▁saturday	-10.3196
▁schoolwork	-10.3196
▁screwed	-10.3196
▁security	-10.3196
▁senior	-10.3196
▁separated	-10.3196
▁seroquel	-10.3196
▁settle	-10.3196
▁shoot	-10.3196
▁shopping	-10.3196
▁shutdown	-10.3196
▁shuts	-10.3196
▁sickness	-10.3196
▁sight	-10.3196
▁simplest	-10.3196
▁sing	-10.3196
▁skipped	-10.3196
▁slump	-10.3196
▁snapped	-10.3196
▁socialising	-10.3196
▁software	-10.3196
▁sounded	-10.3196
▁sounding	-10.3196
▁spectrum	-10.3196
▁spin	-10.3196
▁spite	-10.3196
▁spoiled	-10.3196
▁square	-10.3196
▁star	-10.3196
▁steroid	-10.3196
▁stream	-10.3196
▁strung	-10.3196
▁studied	-10.3196
▁successfully	-10.3196
▁sufferer	-10.3196
▁suffers	-10.3196
▁suit	-10.3196
▁superior	-10.3196
▁supported	-10.3196
▁surprised	-10.3196
▁sweaty	-10.3196
▁sympathy	-10.3196
▁table	-10.3196
▁talent	-10.3196
▁taper	-10.3196
▁tearing	-10.3196
▁tends	-10.3196
▁terrifies	-10.3196
▁tf	-10.3196
▁thankful	-10.3196
▁thigh	-10.3196
▁thin	-10.3196
▁throwaway	-10.3196
▁tire	-10.3196
▁tiredness	-10.3196
▁tornado	-10.3196
▁traffic	-10.3196
▁trait	-10.3196
▁traumatized	-10.3196
▁traveling	-10.3196
▁travelling	-10.3196
▁tree	-10.3196
▁trivial	-10.3196
▁trusting	-10.3196
▁tummy	-10.3196
▁turkey	-10.3196
▁typo	-10.3196
▁uncle	-10.3196
▁uneasy	-10.3196
▁ungrateful	-10.3196
▁unlucky	-10.3196
▁unrealistic	-10.3196
▁unsafe	-10.3196
▁unstable	-10.3196
▁unstoppable	-10.3196
▁untreated	-10.3196
▁unwanted	-10.3196
▁useful	-10.3196
▁user	-10.3196
▁utm	-10.3196
▁valued	-10.3196
▁vanish	-10.3196
▁vanished	-10.3196
▁vaping	-10.3196
▁vicious	-10.3196
▁visited	-10.3196
▁visiting	-10.3196
▁wash	-10.3196
▁weakness	-10.3196
▁weather	-10.3196
▁website	-10.3196
▁whereas	-10.3196
▁whilst	-10.3196
▁whose	-10.3196
▁window	-10.3196
▁witnessed	-10.3196
▁yard	-10.3196
▁yawning	-10.3196
▁yoga	-10.3196
▁000	-10.6073
▁00am	-10.6073
▁19f	-10.6073
▁23m	-10.6073
▁24m	-10.6073
▁2mg	-10.6073
▁500	-10.6073
▁5th	-10.6073
▁9th	-10.6073
▁abaissement	-10.6073
▁abandon	-10.6073
▁abandonment	-10.6073
▁absent	-10.6073
▁academically	-10.6073
▁accounting	-10.6073
▁accumulated	-10.6073
▁accurate	-10.6073
▁achieved	-10.6073
▁achievement	-10.6073
▁address	-10.6073
▁admission	-10.6073
▁adulthood	-10.6073
▁affection	-10.6073
▁afterlife	-10.6073
▁aftermath	-10.6073
▁airport	-10.6073
▁album	-10.6073
▁alert	-10.6073
▁alongside	-10.6073
▁alternate	-10.6073
▁ambitious	-10.6073
▁android	-10.6073
▁anonymously	-10.6073
▁answering	-10.6073
▁antibiotic	-10.6073
▁antihistamine	-10.6073
▁anxiousness	-10.6073
▁anyresume	-10.6073
▁ap	-10.6073
▁appearing	-10.6073
▁apprentice	-10.6073
▁aspiration	-10.6073
▁ass	-10.6073
▁assumed	-10.6073
▁assure	-10.6073
▁atm	-10.6073
▁attract	-10.6073
▁bachelor	-10.6073
▁badass	-10.6073
▁bar	-10.6073
▁bearing	-10.6073
▁beauty	-10.6073
▁begun	-10.6073
▁behave	-10.6073
▁behavioural	-10.6073
▁belief	-10.6073
▁bent	-10.6073
▁benzodiazepine	-10.6073
▁beta	-10.6073
▁bettering	-10.6073
▁bin	-10.6073
▁biology	-10.6073
▁blacked	-10.6073
▁blade	-10.6073
▁bleed	-10.6073
▁bleeding	-10.6073
▁blink	-10.6073
▁blocker	-10.6073
▁blow	-10.6073
▁blueberry	-10.6073
▁blurry	-10.6073
▁board	-10.6073
▁boredom	-10.6073
▁bounced	-10.6073
▁boundary	-10.6073
▁breakup	-10.6073
▁breast	-10.6073
▁breeze	-10.6073
▁brighter	-10.6073
▁browsing	-10.6073
▁bubble	-10.6073
▁buddy	-10.6073
▁bumble	-10.6073
▁bumped	-10.6073
▁burned	-10.6073
▁button	-10.6073
▁buzz	-10.6073
▁calmer	-10.6073
▁campus	-10.6073
▁candy	-10.6073
▁carried	-10.6073
▁casually	-10.6073
▁centered	-10.6073
▁chain	-10.6073
▁challenging	-10.6073
▁characteristic	-10.6073
▁charge	-10.6073
▁charity	-10.6073
▁chase	-10.6073
▁chatter	-10.6073
▁checkup	-10.6073
▁cheese	-10.6073
▁chilling	-10.6073
▁christ	-10.6073
▁church	-10.6073
▁cipralex	-10.6073
▁claim	-10.6073
▁clarify	-10.6073
▁clash	-10.6073
▁claw	-10.6073
▁cleared	-10.6073
▁clearing	-10.6073
▁clerk	-10.6073
▁clever	-10.6073
▁clinging	-10.6073
▁clonazepam	-10.6073
▁coding	-10.6073
▁coherent	-10.6073
▁coincidence	-10.6073
▁collapse	-10.6073
▁collect	-10.6073
▁comma	-10.6073
▁commented	-10.6073
▁communicated	-10.6073
▁communicating	-10.6073
▁compassion	-10.6073
▁compete	-10.6073
▁competition	-10.6073
▁complication	-10.6073
▁concentrating	-10.6073
▁concerning	-10.6073
▁condescending	-10.6073
▁consciously	-10.6073
▁consists	-10.6073
▁consultation	-10.6073
▁contacted	-10.6073
▁contemplating	-10.6073
▁contrary	-10.6073
▁counselling	-10.6073
▁creating	-10.6073
▁creativity	-10.6073
▁cringe	-10.6073
▁critical	-10.6073
▁crohn	-10.6073
▁crossed	-10.6073
▁crowded	-10.6073
▁crumbled	-10.6073
▁crutch	-10.6073
▁curl	-10.6073
▁cursing	-10.6073
▁damaged	-10.6073
▁damned	-10.6073
▁dancing	-10.6073
▁dangerous	-10.6073
▁dare	-10.6073
▁dated	-10.6073
▁deaf	-10.6073
▁decaf	-10.6073
▁decency	-10.6073
▁decline	-10.6073
▁declining	-10.6073
▁deepest	-10.6073
▁defend	-10.6073
▁definition	-10.6073
▁delusion	-10.6073
▁delusional	-10.6073
▁denied	-10.6073
▁depends	-10.6073
▁describing	-10.6073
▁deserved	-10.6073
▁desk	-10.6073
▁determine	-10.6073
▁determined	-10.6073
▁diabetes	-10.6073
▁diarrhea	-10.6073
▁diary	-10.6073
▁differentiate	-10.6073
▁digging	-10.6073
▁dilemma	-10.6073
▁disappeared	-10.6073
▁disappoint	-10.6073
▁disconnected	-10.6073
▁discovering	-10.6073
▁discovery	-10.6073
▁discussing	-10.6073
▁disgrace	-10.6073
▁disoriented	-10.6073
▁disregard	-10.6073
▁dissociating	-10.6073
▁distorted	-10.6073
▁distressing	-10.6073
▁divert	-10.6073
▁dm	-10.6073
▁doll	-10.6073
▁dominant	-10.6073
▁donut	-10.6073
▁doubting	-10.6073
▁downward	-10.6073
▁draft	-10.6073
▁dragging	-10.6073
▁drifting	-10.6073
▁driven	-10.6073
▁dropout	-10.6073
▁dwell	-10.6073
▁effectively	-10.6073
▁effortless	-10.6073
▁egg	-10.6073
▁eh	-10.6073
▁elbow	-10.6073
▁emailed	-10.6073
▁embrace	-10.6073
▁emo	-10.6073
▁emotionless	-10.6073
▁empathetic	-10.6073
▁empathy	-10.6073
▁employed	-10.6073
▁employment	-10.6073
▁en	-10.6073
▁encouraging	-10.6073
▁endure	-10.6073
▁engagement	-10.6073
▁engineer	-10.6073
▁ent	-10.6073
▁entertainment	-10.6073
▁enthusiasm	-10.6073
▁entrusted	-10.6073
▁equal	-10.6073
▁equipment	-10.6073
▁essence	-10.6073
▁evaluated	-10.6073
▁evaluating	-10.6073
▁evaluation	-10.6073
▁evil	-10.6073
▁exaggerating	-10.6073
▁excess	-10.6073
▁exchange	-10.6073
▁expects	-10.6073
▁expense	-10.6073
▁experiment	-10.6073
▁expire	-10.6073
▁expose	-10.6073
▁expressed	-10.6073
▁extent	-10.6073
▁eyelid	-10.6073
▁facade	-10.6073
▁facebook	-10.6073
▁facility	-10.6073
▁faded	-10.6073
▁fantasy	-10.6073
▁favour	-10.6073
▁feedback	-10.6073
▁fifteen	-10.6073
▁filing	-10.6073
▁fishing	-10.6073
▁fixed	-10.6073
▁flag	-10.6073
▁fleeting	-10.6073
▁flirt	-10.6073
▁flower	-10.6073
▁fly	-10.6073
▁fomo	-10.6073
▁foreign	-10.6073
▁forgetting	-10.6073
▁forgive	-10.6073
▁formed	-10.6073
▁forth	-10.6073
▁forum	-10.6073
▁fought	-10.6073
▁fraud	-10.6073
▁freeway	-10.6073
▁freshly	-10.6073
▁froze	-10.6073
▁fruit	-10.6073
▁fulfilling	-10.6073
▁fundraising	-10.6073
▁funk	-10.6073
▁furloughed	-10.6073
▁gabapentin	-10.6073
▁gaining	-10.6073
▁gas	-10.6073
▁gather	-10.6073
▁generalised	-10.6073
▁gentleness	-10.6073
▁gerd	-10.6073
▁ghosted	-10.6073
▁gift	-10.6073
▁giggling	-10.6073
▁globe	-10.6073
▁googled	-10.6073
▁grandparent	-10.6073
▁greatest	-10.6073
▁greedy	-10.6073
▁grip	-10.6073
▁growth	-10.6073
▁guaranteed	-10.6073
▁h	-10.6073
▁halcion	-10.6073
▁handful	-10.6073
▁handling	-10.6073
▁happiest	-10.6073
▁harmed	-10.6073
▁harshly	-10.6073
▁hat	-10.6073
▁headed	-10.6073
▁headphone	-10.6073
▁healthcare	-10.6073
▁healthier	-10.6073
▁heavier	-10.6073
▁height	-10.6073
▁heightened	-10.6073
▁hero	-10.6073
▁highest	-10.6073
▁hiking	-10.6073
▁hired	-10.6073
▁hopelessness	-10.6073
▁horrified	-10.6073
▁hotline	-10.6073
▁housemate	-10.6073
▁housing	-10.6073
▁humiliated	-10.6073
▁humor	-10.6073
▁hydroxyzine	-10.6073
▁hyperventilating	-10.6073
▁ibs	-10.6073
▁icu	-10.6073
▁ideally	-10.6073
▁illusion	-10.6073
▁imagined	-10.6073
▁imagining	-10.6073
▁immersive	-10.6073
▁imo	-10.6073
▁impulsive	-10.6073
▁inch	-10.6073
▁incompetent	-10.6073
▁individual	-10.6073
▁industry	-10.6073
▁inevitably	-10.6073
▁infinite	-10.6073
▁influenced	-10.6073
▁inhale	-10.6073
▁initially	-10.6073
▁injury	-10.6073
▁insanely	-10.6073
▁inspiration	-10.6073
▁intelligence	-10.6073
▁intent	-10.6073
▁intention	-10.6073
▁interacting	-10.6073
▁interfering	-10.6073
▁investing	-10.6073
▁involves	-10.6073
▁iphones	-10.6073
▁ironic	-10.6073
▁ironically	-10.6073
▁irrationally	-10.6073
▁isolate	-10.6073
▁jack	-10.6073
▁jerk	-10.6073
▁jung	-10.6073
▁justified	-10.6073
▁ketamine	-10.6073
▁key	-10.6073
▁kindness	-10.6073
▁kiss	-10.6073
▁lane	-10.6073
▁lashed	-10.6073
▁learnt	-10.6073
▁length	-10.6073
▁lesson	-10.6073
▁lethargic	-10.6073
▁leukemia	-10.6073
▁library	-10.6073
▁lifestyle	-10.6073
▁lighter	-10.6073
▁listed	-10.6073
▁loathe	-10.6073
▁locking	-10.6073
▁looming	-10.6073
▁loudness	-10.6073
▁magnus	-10.6073
▁maintained	-10.6073
▁maintaining	-10.6073
▁manifest	-10.6073
▁manifestation	-10.6073
▁manipulate	-10.6073
▁manner	-10.6073
▁mattered	-10.6073
▁meat	-10.6073
▁meditate	-10.6073
▁messy	-10.6073
▁midst	-10.6073
▁mike	-10.6073
▁miller	-10.6073
▁mindset	-10.6073
▁mini	-10.6073
▁minimal	-10.6073
▁moderna	-10.6073
▁moody	-10.6073
▁murder	-10.6073
▁narrative	-10.6073
▁nearby	-10.6073
▁neurological	-10.6073
▁neurotypical	-10.6073
▁newly	-10.6073
▁nine	-10.6073
▁nonetheless	-10.6073
▁numbed	-10.6073
▁nut	-10.6073
▁nyc	-10.6073
▁obese	-10.6073
▁obligation	-10.6073
▁observation	-10.6073
▁obsessively	-10.6073
▁obtain	-10.6073
▁occasional	-10.6073
▁occurred	-10.6073
▁ocean	-10.6073
▁ofc	-10.6073
▁oil	-10.6073
▁optometrist	-10.6073
▁oral	-10.6073
▁ordered	-10.6073
▁organise	-10.6073
▁original	-10.6073
▁outcast	-10.6073
▁outright	-10.6073
▁outta	-10.6073
▁overcame	-10.6073
▁overload	-10.6073
▁overly	-10.6073
▁owner	-10.6073
▁pace	-10.6073
▁package	-10.6073
▁page	-10.6073
▁painting	-10.6073
▁paralyzing	-10.6073
▁passenger	-10.6073
▁passively	-10.6073
▁patch	-10.6073
▁patience	-10.6073
▁paycheck	-10.6073
▁pb	-10.6073
▁pc	-10.6073
▁peacefully	-10.6073
▁peak	-10.6073
▁persist	-10.6073
▁persistent	-10.6073
▁photography	-10.6073
▁picking	-10.6073
▁pillow	-10.6073
▁pin	-10.6073
▁pitch	-10.6073
▁placed	-10.6073
▁plagued	-10.6073
▁plant	-10.6073
▁plastic	-10.6073
▁pocd	-10.6073
▁pocket	-10.6073
▁poem	-10.6073
▁polite	-10.6073
▁popular	-10.6073
▁pot	-10.6073
▁praise	-10.6073
▁praised	-10.6073
▁precious	-10.6073
▁predicted	-10.6073
▁preface	-10.6073
▁prefer	-10.6073
▁prescribing	-10.6073
▁pressed	-10.6073
▁pressured	-10.6073
▁prevented	-10.6073
▁proceeded	-10.6073
▁procrastinating	-10.6073
▁procrastination	-10.6073
▁produce	-10.6073
▁prof	-10.6073
▁professionally	-10.6073
▁professor	-10.6073
▁profit	-10.6073
▁protect	-10.6073
▁proved	-10.6073
▁provider	-10.6073
▁psychiatry	-10.6073
▁psychologically	-10.6073
▁puberty	-10.6073
▁puppet	-10.6073
▁purple	-10.6073
▁pushy	-10.6073
▁queasy	-10.6073
▁quote	-10.6073
▁radio	-10.6073
▁raising	-10.6073
▁raped	-10.6073
▁reacts	-10.6073
▁realisation	-10.6073
▁realising	-10.6073
▁realistic	-10.6073
▁receiving	-10.6073
▁recognized	-10.6073
▁recurring	-10.6073
▁reduce	-10.6073
▁reducing	-10.6073
▁refreshed	-10.6073
▁regimen	-10.6073
▁regression	-10.6073
▁regretting	-10.6073
▁relapse	-10.6073
▁relive	-10.6073
▁remorse	-10.6073
▁repeatedly	-10.6073
▁replying	-10.6073
▁reported	-10.6073
▁required	-10.6073
▁reschedule	-10.6073
▁resolve	-10.6073
▁responder	-10.6073
▁resting	-10.6073
▁restless	-10.6073
▁restriction	-10.6073
▁resulted	-10.6073
▁resulting	-10.6073
▁retirement	-10.6073
▁review	-10.6073
▁ridden	-10.6073
▁rooted	-10.6073
▁roughly	-10.6073
▁rub	-10.6073
▁rumor	-10.6073
▁sabotage	-10.6073
▁sake	-10.6073
▁salary	-10.6073
▁saliva	-10.6073
▁salvation	-10.6073
▁sandwich	-10.6073
▁sane	-10.6073
▁satisfaction	-10.6073
▁scaring	-10.6073
▁script	-10.6073
▁scrutiny	-10.6073
▁seasonal	-10.6073
▁seeker	-10.6073
▁seeming	-10.6073
▁seemingly	-10.6073
▁serotonin	-10.6073
▁serve	-10.6073
▁server	-10.6073
▁settled	-10.6073
▁seven	-10.6073
▁sexuality	-10.6073
▁shameful	-10.6073
▁shape	-10.6073
▁shivering	-10.6073
▁shoe	-10.6073
▁shook	-10.6073
▁singing	-10.6073
▁sink	-10.6073
▁sip	-10.6073
▁sitcom	-10.6073
▁skyrocket	-10.6073
▁slammed	-10.6073
▁slap	-10.6073
▁slave	-10.6073
▁sleeve	-10.6073
▁slower	-10.6073
▁smell	-10.6073
▁smiled	-10.6073
▁smoked	-10.6073
▁sneeze	-10.6073
▁soda	-10.6073
▁soo	-10.6073
▁sooo	-10.6073
▁sooooo	-10.6073
▁soothe	-10.6073
▁sorrow	-10.6073
▁south	-10.6073
▁southern	-10.6073
▁span	-10.6073
▁spends	-10.6073
▁spit	-10.6073
▁spray	-10.6073
▁staff	-10.6073
▁stall	-10.6073
▁standard	-10.6073
▁startle	-10.6073
▁stating	-10.6073
▁stem	-10.6073
▁stemmed	-10.6073
▁stimulus	-10.6073
▁stool	-10.6073
▁straightened	-10.6073
▁stray	-10.6073
▁strengthen	-10.6073
▁stricture	-10.6073
▁stuttering	-10.6073
▁suboxone	-10.6073
▁subsequently	-10.6073
▁sufficient	-10.6073
▁sugar	-10.6073
▁suggests	-10.6073
▁supervisor	-10.6073
▁supporting	-10.6073
▁surprisingly	-10.6073
▁sway	-10.6073
▁swelling	-10.6073
▁switching	-10.6073
▁swollen	-10.6073
▁swore	-10.6073
▁tad	-10.6073
▁tank	-10.6073
▁tantrum	-10.6073
▁teach	-10.6073
▁teenage	-10.6073
▁tender	-10.6073
▁texas	-10.6073
▁thc	-10.6073
▁theme	-10.6073
▁thick	-10.6073
▁threatening	-10.6073
▁thrilled	-10.6073
▁tic	-10.6073
▁tie	-10.6073
▁tied	-10.6073
▁tightly	-10.6073
▁toddler	-10.6073
▁tolerance	-10.6073
▁toughest	-10.6073
▁tracker	-10.6073
▁trade	-10.6073
▁transition	-10.6073
▁transphobic	-10.6073
▁tremendously	-10.6073
▁trichotillomania	-10.6073
▁tumor	-10.6073
▁twelve	-10.6073
▁twisted	-10.6073
▁typed	-10.6073
▁typically	-10.6073
▁uh	-10.6073
▁un	-10.6073
▁unattractive	-10.6073
▁unbelievably	-10.6073
▁unconditionally	-10.6073
▁unconsciously	-10.6073
▁uncontrollable	-10.6073
▁undergrad	-10.6073
▁underlying	-10.6073
▁undermine	-10.6073
▁unfair	-10.6073
▁unfortunate	-10.6073
▁unpleasant	-10.6073
▁unreasonable	-10.6073
▁urgent	-10.6073
▁utm_medium	-10.6073
▁utm_source	-10.6073
▁utter	-10.6073
▁valid	-10.6073
▁vehicle	-10.6073
▁vertigo	-10.6073
▁violation	-10.6073
▁violence	-10.6073
▁virgin	-10.6073
▁virtually	-10.6073
▁visa	-10.6073
▁wallet	-10.6073
▁war	-10.6073
▁warned	-10.6073
▁wary	-10.6073
▁wasnt	-10.6073
▁wednesday	-10.6073
▁wfh	-10.6073
▁wheel	-10.6073
▁whoever	-10.6073
▁wierd	-10.6073
▁wikipedia	-10.6073
▁wire	-10.6073
▁woozy	-10.6073
▁workplace	-10.6073
▁worsen	-10.6073
▁worsened	-10.6073
▁worsening	-10.6073
▁worthwhile	-10.6073
▁worthy	-10.6073
▁wrap	-10.6073
▁writes	-10.6073
▁ya	-10.6073
▁yay	-10.6073
▁yo	-10.6073
▁youngest	-10.6073
▁1000	-11.0128
▁10pm	-11.0128
▁10th	-11.0128
▁10x	-11.0128
▁11pm	-11.0128
▁130	-11.0128
▁140	-11.0128
▁143	-11.0128
▁19m	-11.0128
▁2000	-11.0128
▁20kg	-11.0128
▁21f	-11.0128
▁21st	-11.0128
▁23f	-11.0128
▁24th	-11.0128
▁25f	-11.0128
▁29f	-11.0128
▁2pm	-11.0128
▁3000	-11.0128
▁300mg	-11.0128
▁30ish	-11.0128
▁33	-11.0128
▁3a4	-11.0128
▁3am	-11.0128
▁3mg	-11.0128
▁40mg	-11.0128
▁4262bd60	-11.0128
▁4pm	-11.0128
▁50mg	-11.0128
▁5am	-11.0128
▁60	-11.0128
▁60mg	-11.0128
▁64	-11.0128
▁_petition	-11.0128
▁abdominal	-11.0128
▁abomination	-11.0128
▁abroad	-11.0128
▁abruptly	-11.0128
▁absorbing	-11.0128
▁absurd	-11.0128
▁abuser	-11.0128
▁abusing	-11.0128
▁ac	-11.0128
▁acc	-11.0128
▁acceptable	-11.0128
▁acceptance	-11.0128
▁accepts	-11.0128
▁accommodation	-11.0128
▁accompanied	-11.0128
▁accomplishing	-11.0128
▁accused	-11.0128
▁accusing	-11.0128
▁accustomed	-11.0128
▁aching	-11.0128
▁acid	-11.0128
▁acne	-11.0128
▁activism	-11.0128
▁actress	-11.0128
▁adapting	-11.0128
▁adderal	-11.0128
▁additionally	-11.0128
▁adequate	-11.0128
▁adjusting	-11.0128
▁administration	-11.0128
▁admiration	-11.0128
▁admittedly	-11.0128
▁admitting	-11.0128
▁adore	-11.0128
▁advanced	-11.0128
▁advisor	-11.0128
▁aesthetic	-11.0128
▁affluent	-11.0128
▁afloat	-11.0128
▁afterward	-11.0128
▁agony	-11.0128
▁agriculture	-11.0128
▁aid	-11.0128
▁aim	-11.0128
▁aisle	-11.0128
▁aka	-11.0128
▁al	-11.0128
▁ala	-11.0128
▁alarm	-11.0128
▁alarming	-11.0128
▁alien	-11.0128
▁alienated	-11.0128
▁alley	-11.0128
▁allocate	-11.0128
▁allot	-11.0128
▁aloof	-11.0128
▁altered	-11.0128
▁amd	-11.0128
▁amends	-11.0128
▁american	-11.0128
▁among	-11.0128
▁amongst	-11.0128
▁amplified	-11.0128
▁amplifies	-11.0128
▁amygdala	-11.0128
▁analogy	-11.0128
▁analyze	-11.0128
▁anaphylaxis	-11.0128
▁aninjusticemag	-11.0128
▁announced	-11.0128
▁anonymity	-11.0128
▁antagonize	-11.0128
▁antonio	-11.0128
▁apologetic	-11.0128
▁applied	-11.0128
▁approached	-11.0128
▁appt	-11.0128
▁arent	-11.0128
▁argue	-11.0128
▁arguing	-11.0128
▁army	-11.0128
▁arranged	-11.0128
▁arrangement	-11.0128
▁arrested	-11.0128
▁artery	-11.0128
▁asshat	-11.0128
▁assistant	-11.0128
▁associated	-11.0128
▁assured	-11.0128
▁aswell	-11.0128
▁ati	-11.0128
▁attempting	-11.0128
▁aussie	-11.0128
▁authentic	-11.0128
▁authoritative	-11.0128
▁availability	-11.0128
▁aversion	-11.0128
▁avocado	-11.0128
▁avoidance	-11.0128
▁awe	-11.0128
▁b9ac	-11.0128
▁ba	-11.0128
▁backed	-11.0128
▁backpack	-11.0128
▁backstory	-11.0128
▁baking	-11.0128
▁barbie	-11.0128
▁barrier	-11.0128
▁baseline	-11.0128
▁basket	-11.0128
▁beach	-11.0128
▁becouse	-11.0128
▁becuase	-11.0128
▁beef	-11.0128
▁beer	-11.0128
▁behavioral	-11.0128
▁belly	-11.0128
▁belonging	-11.0128
▁belongs	-11.0128
▁beneficial	-11.0128
▁beqause	-11.0128
▁betrayed	-11.0128
▁biased	-11.0128
▁billion	-11.0128
▁biting	-11.0128
▁bitten	-11.0128
▁blanking	-11.0128
▁blinking	-11.0128
▁bloody	-11.0128
▁bodily	-11.0128
▁bombard	-11.0128
▁bombarded	-11.0128
▁booze	-11.0128
▁bore	-11.0128
▁boss	-11.0128
▁bottling	-11.0128
▁bowl	-11.0128
▁brag	-11.0128
▁brainwashed	-11.0128
▁breathed	-11.0128
▁brick	-11.0128
▁bubbling	-11.0128
▁bubbly	-11.0128
▁buck	-11.0128
▁bully	-11.0128
▁bum	-11.0128
▁bupropion	-11.0128
▁burdening	-11.0128
▁burger	-11.0128
▁burnout	-11.0128
▁burying	-11.0128
▁bust	-11.0128
▁cake	-11.0128
▁calf	-11.0128
▁california	-11.0128
▁caller	-11.0128
▁calorie	-11.0128
▁camp	-11.0128
▁canceled	-11.0128
▁cancelling	-11.0128
▁cannabis	-11.0128
▁capability	-11.0128
▁capitalism	-11.0128
▁carbon	-11.0128
▁cartoon	-11.0128
▁cater	-11.0128
▁cathartic	-11.0128
▁causality	-11.0128
▁cavity	-11.0128
▁cease	-11.0128
▁celebrate	-11.0128
▁celebrating	-11.0128
▁central	-11.0128
▁chair	-11.0128
▁challenged	-11.0128
▁chaos	-11.0128
▁charged	-11.0128
▁chased	-11.0128
▁chatty	-11.0128
▁cheating	-11.0128
▁cheek	-11.0128
▁chemistry	-11.0128
▁chemo	-11.0128
▁chewbacca	-11.0128
▁chlonazapam	-11.0128
▁christian	-11.0128
▁chunk	-11.0128
▁circumstance	-11.0128
▁civilized	-11.0128
▁claimed	-11.0128
▁classic	-11.0128
▁clench	-11.0128
▁clientele	-11.0128
▁cliff	-11.0128
▁closure	-11.0128
▁clown	-11.0128
▁clueless	-11.0128
▁co2	-11.0128
▁coat	-11.0128
▁codependent	-11.0128
▁colitis	-11.0128
▁collection	-11.0128
▁colonoscopy	-11.0128
▁combined	-11.0128
▁comeback	-11.0128
▁command	-11.0128
▁committee	-11.0128
▁committing	-11.0128
▁commonality	-11.0128
▁comparing	-11.0128
▁compensation	-11.0128
▁complacent	-11.0128
▁compliment	-11.0128
▁compose	-11.0128
▁comprehension	-11.0128
▁compulsive	-11.0128
▁concur	-11.0128
▁conditional	-11.0128
▁conditioned	-11.0128
▁confessed	-11.0128
▁confirm	-11.0128
▁confirmation	-11.0128
▁conquer	-11.0128
▁consent	-11.0128
▁consideration	-11.0128
▁constipated	-11.0128
▁consumption	-11.0128
▁contacting	-11.0128
▁contemplated	-11.0128
▁contest	-11.0128
▁continually	-11.0128
▁contrast	-11.0128
▁contributing	-11.0128
▁convulsing	-11.0128
▁cook	-11.0128
▁copy	-11.0128
▁copylink	-11.0128
▁coronavirus	-11.0128
▁corpse	-11.0128
▁correlation	-11.0128
▁corsage	-11.0128
▁cough	-11.0128
▁counting	-11.0128
▁cowardice	-11.0128
▁coz	-11.0128
▁cozy	-11.0128
▁cracker	-11.0128
▁cramp	-11.0128
▁cramped	-11.0128
▁crashed	-11.0128
▁crashing	-11.0128
▁crate	-11.0128
▁crave	-11.0128
▁craving	-11.0128
▁crime	-11.0128
▁criminal	-11.0128
▁criticize	-11.0128
▁crp	-11.0128
▁cruelty	-11.0128
▁crumbling	-11.0128
▁crushed	-11.0128
▁cu	-11.0128
▁cue	-11.0128
▁currency	-11.0128
▁curse	-11.0128
▁custody	-11.0128
▁cw	-11.0128
▁cycling	-11.0128
▁da3225tu	-11.0128
▁dam	-11.0128
▁dancer	-11.0128
▁dang	-11.0128
▁darkest	-11.0128
▁daunting	-11.0128
▁david	-11.0128
▁daytime	-11.0128
▁deadly	-11.0128
▁dear	-11.0128
▁dedicate	-11.0128
▁dedicated	-11.0128
▁defeat	-11.0128
▁defense	-11.0128
▁deferred	-11.0128
▁deficit	-11.0128
▁defies	-11.0128
▁deliver	-11.0128
▁dental	-11.0128
▁deny	-11.0128
▁deodorant	-11.0128
▁department	-11.0128
▁dependent	-11.0128
▁depending	-11.0128
▁depersonalization	-11.0128
▁deprecating	-11.0128
▁depress	-11.0128
▁depresses	-11.0128
▁depression1	-11.0128
▁deprivation	-11.0128
▁depth	-11.0128
▁deserving	-11.0128
▁designer	-11.0128
▁desirable	-11.0128
▁despair	-11.0128
▁desperation	-11.0128
▁destroys	-11.0128
▁detailed	-11.0128
▁deteriorating	-11.0128
▁detox	-11.0128
▁devastating	-11.0128
▁developer	-11.0128
▁development	-11.0128
▁device	-11.0128
▁diagnosing	-11.0128
▁diaphragm	-11.0128
▁dig	-11.0128
▁dioxide	-11.0128
▁dip	-11.0128
▁dire	-11.0128
▁dirt	-11.0128
▁disabling	-11.0128
▁disappears	-11.0128
▁disc	-11.0128
▁discouraged	-11.0128
▁discover	-11.0128
▁disgusted	-11.0128
▁disowned	-11.0128
▁disregarded	-11.0128
▁disrespected	-11.0128
▁disrespectful	-11.0128
▁dissapeared	-11.0128
▁dissapoint	-11.0128
▁dissappeared	-11.0128
▁dissipated	-11.0128
▁dissociate	-11.0128
▁dissociation	-11.0128
▁distancing	-11.0128
▁distinguish	-11.0128
▁distress	-11.0128
▁district	-11.0128
▁ditch	-11.0128
▁ditched	-11.0128
▁dming	-11.0128
▁documentary	-11.0128
▁doens	-11.0128
▁domestic	-11.0128
▁domino	-11.0128
▁double	-11.0128
▁doubled	-11.0128
▁doubling	-11.0128
▁download	-11.0128
▁dragged	-11.0128
▁drastically	-11.0128
▁drawn	-11.0128
▁dress	-11.0128
▁drum	-11.0128
▁du	-11.0128
▁dulled	-11.0128
▁dumbass	-11.0128
▁dump	-11.0128
▁duty	-11.0128
▁dy	-11.0128
▁dysfunction	-11.0128
▁dysmorphia	-11.0128
▁eachother	-11.0128
▁earning	-11.0128
▁earphone	-11.0128
▁eased	-11.0128
▁easter	-11.0128
▁eats	-11.0128
▁ecg	-11.0128
▁echo	-11.0128
▁ed	-11.0128
▁educated	-11.0128
▁eerily	-11.0128
▁effected	-11.0128
▁effexeor	-11.0128
▁eg	-11.0128
▁eggshell	-11.0128
▁electricity	-11.0128
▁electronics	-11.0128
▁elementary	-11.0128
▁elevate	-11.0128
▁emphasise	-11.0128
▁employer	-11.0128
▁encephalitis	-11.0128
▁encourage	-11.0128
▁encouraged	-11.0128
▁endlessly	-11.0128
▁endodontist	-11.0128
▁endorphin	-11.0128
▁endured	-11.0128
▁enduring	-11.0128
▁energetic	-11.0128
▁engage	-11.0128
▁engaged	-11.0128
▁engine	-11.0128
▁engineering	-11.0128
▁englisch	-11.0128
▁enhanced	-11.0128
▁enroll	-11.0128
▁entirety	-11.0128
▁environmental	-11.0128
▁equipped	-11.0128
▁errand	-11.0128
▁escalate	-11.0128
▁essential	-11.0128
▁established	-11.0128
▁eternal	-11.0128
▁eternally	-11.0128
▁evicted	-11.0128
▁exacerbated	-11.0128
▁exaggeration	-11.0128
▁exceeding	-11.0128
▁exceedingly	-11.0128
▁excellent	-11.0128
▁exception	-11.0128
▁excessively	-11.0128
▁exciting	-11.0128
▁exhaustion	-11.0128
▁exited	-11.0128
▁expected	-11.0128
▁experimenting	-11.0128
▁expert	-11.0128
▁explore	-11.0128
▁exploring	-11.0128
▁ext	-11.0128
▁extension	-11.0128
▁externally	-11.0128
▁extrovert	-11.0128
▁eyed	-11.0128
▁eyeing	-11.0128
▁fails	-11.0128
▁familiy	-11.0128
▁farewell	-11.0128
▁fashion	-11.0128
▁fate	-11.0128
▁fathom	-11.0128
▁fatty	-11.0128
▁fck	-11.0128
▁feather	-11.0128
▁feb	-11.0128
▁feeding	-11.0128
▁feminime	-11.0128
▁fetal	-11.0128
▁fetzima	-11.0128
▁fewer	-11.0128
▁fictional	-11.0128
▁fidgeting	-11.0128
▁fifth	-11.0128
▁fighter	-11.0128
▁financially	-11.0128
▁finn	-11.0128
▁firing	-11.0128
▁firmly	-11.0128
▁fist	-11.0128
▁fixated	-11.0128
▁flareups	-11.0128
▁flashing	-11.0128
▁flesh	-11.0128
▁flew	-11.0128
▁flirting	-11.0128
▁floater	-11.0128
▁florida	-11.0128
▁fluctuates	-11.0128
▁fluoxetine	-11.0128
▁fo	-11.0128
▁fooled	-11.0128
▁forcefully	-11.0128
▁forearm	-11.0128
▁forehead	-11.0128
▁formal	-11.0128
▁formally	-11.0128
▁format	-11.0128
▁fortnight	-11.0128
▁fountain	-11.0128
▁fourth	-11.0128
▁freely	-11.0128
▁french	-11.0128
▁frickin	-11.0128
▁friendzoned	-11.0128
▁frustration	-11.0128
▁fuel	-11.0128
▁fullest	-11.0128
▁fund	-11.0128
▁furniture	-11.0128
▁futile	-11.0128
▁fxxking	-11.0128
▁fyi	-11.0128
▁gag	-11.0128
▁gagging	-11.0128
▁gait	-11.0128
▁galaxy	-11.0128
▁gambler	-11.0128
▁garage	-11.0128
▁gaslighting	-11.0128
▁gastritis	-11.0128
▁gay	-11.0128
▁gaze	-11.0128
▁generous	-11.0128
▁genius	-11.0128
▁georgia	-11.0128
▁ghosting	-11.0128
▁gifted	-11.0128
▁gig	-11.0128
▁glance	-11.0128
▁gland	-11.0128
▁global	-11.0128
▁globus	-11.0128
▁glove	-11.0128
▁goodnight	-11.0128
▁goodwill	-11.0128
▁goof	-11.0128
▁gossip	-11.0128
▁gradually	-11.0128
▁grammatical	-11.0128
▁grand	-11.0128
▁grandpa	-11.0128
▁granted	-11.0128
▁gravitate	-11.0128
▁gray	-11.0128
▁greeting	-11.0128
▁grieve	-11.0128
▁grieving	-11.0128
▁grind	-11.0128
▁grinding	-11.0128
▁groggy	-11.0128
▁groupchat	-11.0128
▁guessed	-11.0128
▁guide	-11.0128
▁gum	-11.0128
▁gutter	-11.0128
▁haircut	-11.0128
▁hall	-11.0128
▁hampered	-11.0128
▁handed	-11.0128
▁handicapped	-11.0128
▁happend	-11.0128
▁harmful	-11.0128
▁harrassed	-11.0128
▁hazy	-11.0128
▁heading	-11.0128
▁headspace	-11.0128
▁healed	-11.0128
▁heals	-11.0128
▁healthily	-11.0128
▁hears	-11.0128
▁heartbreaking	-11.0128
▁heaviness	-11.0128
▁heaving	-11.0128
▁hehe	-11.0128
▁hella	-11.0128
▁hemeopathy	-11.0128
▁hence	-11.0128
▁herbal	-11.0128
▁hernia	-11.0128
▁herniated	-11.0128
▁heyy	-11.0128
▁hierarchy	-11.0128
▁hint	-11.0128
▁hiring	-11.0128
▁hm	-11.0128
▁holed	-11.0128
▁hollow	-11.0128
▁holter	-11.0128
▁homebody	-11.0128
▁homelessness	-11.0128
▁homeopathy	-11.0128
▁honesty	-11.0128
▁hood	-11.0128
▁hoped	-11.0128
▁hopping	-11.0128
▁horrendous	-11.0128
▁horrid	-11.0128
▁horse	-11.0128
▁household	-11.0128
▁html	-11.0128
▁humble	-11.0128
▁humour	-11.0128
▁hung	-11.0128
▁hunger	-11.0128
▁hunt	-11.0128
▁hybrid	-11.0128
▁hypochondriac	-11.0128
▁iced	-11.0128
▁identical	-11.0128
▁ig	-11.0128
▁ignores	-11.0128
▁ijfnaupe	-11.0128
▁illogical	-11.0128
▁ilnesses	-11.0128
▁imagination	-11.0128
▁immature	-11.0128
▁impactful	-11.0128
▁impaired	-11.0128
▁implies	-11.0128
▁importantly	-11.0128
▁impression	-11.0128
▁impromptu	-11.0128
▁improv	-11.0128
▁improves	-11.0128
▁inadequate	-11.0128
▁inauthentic	-11.0128
▁inconsolable	-11.0128
▁inconvenient	-11.0128
▁incorrectly	-11.0128
▁indicate	-11.0128
▁indifference	-11.0128
▁inflict	-11.0128
▁informed	-11.0128
▁ing	-11.0128
▁inherently	-11.0128
▁inimical	-11.0128
▁initial	-11.0128
▁initiate	-11.0128
▁innate	-11.0128
▁insist	-11.0128
▁insisted	-11.0128
▁insists	-11.0128
▁inspection	-11.0128
▁inspire	-11.0128
▁instant	-11.0128
▁instruction	-11.0128
▁intellectually	-11.0128
▁intensity	-11.0128
▁intermittent	-11.0128
▁internal	-11.0128
▁internally	-11.0128
▁interpretation	-11.0128
▁interruption	-11.0128
▁intestine	-11.0128
▁intimate	-11.0128
▁introduce	-11.0128
▁introduction	-11.0128
▁introversion	-11.0128
▁invalidating	-11.0128
▁inverse	-11.0128
▁investigate	-11.0128
▁invisible	-11.0128
▁invitation	-11.0128
▁involuntary	-11.0128
▁irony	-11.0128
▁irritability	-11.0128
▁ish	-11.0128
▁isolating	-11.0128
▁jacket	-11.0128
▁jail	-11.0128
▁japan	-11.0128
▁jean	-11.0128
▁jitteriness	-11.0128
▁jittery	-11.0128
▁jobless	-11.0128
▁johnson	-11.0128
▁journaling	-11.0128
▁joyless	-11.0128
▁jumbled	-11.0128
▁jumpy	-11.0128
▁jury	-11.0128
▁karma	-11.0128
▁keen	-11.0128
▁kicker	-11.0128
▁kidnap	-11.0128
▁kidnapped	-11.0128
▁kindergarten	-11.0128
▁kissed	-11.0128
▁km	-11.0128
▁kylo	-11.0128
▁labored	-11.0128
▁lame	-11.0128
▁landlord	-11.0128
▁lang	-11.0128
▁lap	-11.0128
▁larger	-11.0128
▁lash	-11.0128
▁laziness	-11.0128
▁ldrs	-11.0128
▁leadership	-11.0128
▁leak	-11.0128
▁leap	-11.0128
▁lease	-11.0128
▁leash	-11.0128
▁legitimate	-11.0128
▁lessened	-11.0128
▁lgbt	-11.0128
▁lgbtq	-11.0128
▁lifetime	-11.0128
▁lifted	-11.0128
▁lightly	-11.0128
▁linden	-11.0128
▁linear	-11.0128
▁lined	-11.0128
▁lingers	-11.0128
▁lining	-11.0128
▁lipstick	-11.0128
▁listens	-11.0128
▁liver	-11.0128
▁located	-11.0128
▁lorazepam	-11.0128
▁lord	-11.0128
▁loses	-11.0128
▁lottery	-11.0128
▁lovely	-11.0128
▁lsd	-11.0128
▁lucid	-11.0128
▁lump	-11.0128
▁lymph	-11.0128
▁lyric	-11.0128
▁machado	-11.0128
▁magical	-11.0128
▁magically	-11.0128
▁magnesium	-11.0128
▁mail	-11.0128
▁mailto	-11.0128
▁makeup	-11.0128
▁manic	-11.0128
▁manifesting	-11.0128
▁manipulation	-11.0128
▁manipulative	-11.0128
▁maoi	-11.0128
▁marathon	-11.0128
▁marceline	-11.0128
▁marketing	-11.0128
▁massively	-11.0128
▁masturbating	-11.0128
▁matching	-11.0128
▁mattress	-11.0128
▁maxed	-11.0128
▁mdd	-11.0128
▁meanwhile	-11.0128
▁mechanic	-11.0128
▁medicating	-11.0128
▁melatonin	-11.0128
▁meme	-11.0128
▁menace	-11.0128
▁mentality	-11.0128
▁metally	-11.0128
▁mh	-11.0128
▁micro	-11.0128
▁midday	-11.0128
▁mildly	-11.0128
▁milk	-11.0128
▁mindless	-11.0128
▁minecraft	-11.0128
▁minimize	-11.0128
▁miserably	-11.0128
▁mishap	-11.0128
▁misunderstanding	-11.0128
▁mix	-11.0128
▁ml	-11.0128
▁mo	-11.0128
▁mobility	-11.0128
▁moderately	-11.0128
▁moisturising	-11.0128
▁monotone	-11.0128
▁moreover	-11.0128
▁moreso	-11.0128
▁mortgage	-11.0128
▁motherly	-11.0128
▁mountain	-11.0128
▁mouthwash	-11.0128
▁mr	-11.0128
▁n	-11.0128
▁na	-11.0128
▁nakakapagod	-11.0128
▁naman	-11.0128
▁nap	-11.0128
▁narcissist	-11.0128
▁narcolepsy	-11.0128
▁nd	-11.0128
▁nerd	-11.0128
▁nest	-11.0128
▁net	-11.0128
▁network	-11.0128
▁neurologist	-11.0128
▁neurosis	-11.0128
▁neutral	-11.0128
▁nevada	-11.0128
▁newer	-11.0128
▁nh	-11.0128
▁nicely	-11.0128
▁nicotine	-11.0128
▁niveau	-11.0128
▁nodded	-11.0128
▁node	-11.0128
▁nonsense	-11.0128
▁nonstop	-11.0128
▁noone	-11.0128
▁normalcy	-11.0128
▁noticeable	-11.0128
▁notification	-11.0128
▁novel	-11.0128
▁nutrient	-11.0128
▁oblivion	-11.0128
▁obstacle	-11.0128
▁obtained	-11.0128
▁occupied	-11.0128
▁occupy	-11.0128
▁occur	-11.0128
▁occurrence	-11.0128
▁offering	-11.0128
▁offline	-11.0128
▁olanzapine	-11.0128
▁oldest	-11.0128
▁omg	-11.0128
▁ongoing	-11.0128
▁onset	-11.0128
▁openly	-11.0128
▁operate	-11.0128
▁optional	-11.0128
▁orange	-11.0128
▁ordinary	-11.0128
▁organising	-11.0128
▁outdoor	-11.0128
▁outlet	-11.0128
▁overbearing	-11.0128
▁overcoming	-11.0128
▁overdramatise	-11.0128
▁overwhelm	-11.0128
▁owe	-11.0128
▁oxycodone	-11.0128
▁oxymeter	-11.0128
▁paced	-11.0128
▁packaging	-11.0128
▁packed	-11.0128
▁packing	-11.0128
▁painfully	-11.0128
▁painted	-11.0128
▁paired	-11.0128
▁pale	-11.0128
▁parallel	-11.0128
▁paralyzed	-11.0128
▁parasite	-11.0128
▁partake	-11.0128
▁partially	-11.0128
▁participate	-11.0128
▁pcr	-11.0128
▁pee	-11.0128
▁peel	-11.0128
▁penis	-11.0128
▁penny	-11.0128
▁perceive	-11.0128
▁percent	-11.0128
▁percentage	-11.0128
▁perceptive	-11.0128
▁performed	-11.0128
▁pericoronitis	-11.0128
▁peripheral	-11.0128
▁permanently	-11.0128
▁persona	-11.0128
▁petal	-11.0128
▁petrified	-11.0128
▁phenomenon	-11.0128
▁philosophy	-11.0128
▁phoning	-11.0128
▁photograph	-11.0128
▁phrasing	-11.0128
▁picnic	-11.0128
▁piled	-11.0128
▁pink	-11.0128
▁pinpoint	-11.0128
▁pinworm	-11.0128
▁placebo	-11.0128
▁plane	-11.0128
▁plaque	-11.0128
▁playlist	-11.0128
▁plea	-11.0128
▁pleasing	-11.0128
▁plot	-11.0128
▁pls	-11.0128
▁pointed	-11.0128
▁poke	-11.0128
▁pore	-11.0128
▁portion	-11.0128
▁pose	-11.0128
▁positively	-11.0128
▁possession	-11.0128
▁poster	-11.0128
▁posture	-11.0128
▁pouch	-11.0128
▁pour	-11.0128
▁poured	-11.0128
▁powerless	-11.0128
▁ppl	-11.0128
▁prayed	-11.0128
▁prepares	-11.0128
▁pressuring	-11.0128
▁price	-11.0128
▁primarily	-11.0128
▁prime	-11.0128
▁prison	-11.0128
▁private_contact	-11.0128
▁privilege	-11.0128
▁probation	-11.0128
▁proceed	-11.0128
▁procrastinator	-11.0128
▁production	-11.0128
▁profession	-11.0128
▁professionnal	-11.0128
▁profound	-11.0128
▁progressing	-11.0128
▁prolonged	-11.0128
▁prominent	-11.0128
▁promising	-11.0128
▁promptly	-11.0128
▁prone	-11.0128
▁propelling	-11.0128
▁property	-11.0128
▁proposed	-11.0128
▁prospect	-11.0128
▁prospective	-11.0128
▁protected	-11.0128
▁protection	-11.0128
▁proven	-11.0128
▁provides	-11.0128
▁proving	-11.0128
▁psyche	-11.0128
▁psychic	-11.0128
▁psychosis	-11.0128
▁psyciatrist	-11.0128
▁pt	-11.0128
▁publicly	-11.0128
▁publish	-11.0128
▁pump	-11.0128
▁punched	-11.0128
▁punctuation	-11.0128
▁punished	-11.0128
▁purposely	-11.0128
▁purse	-11.0128
▁pursuit	-11.0128
▁qualification	-11.0128
▁quantity	-11.0128
▁questionnaire	-11.0128
▁quetiapine	-11.0128
▁queue	-11.0128
▁quits	-11.0128
▁quiz	-11.0128
▁rabid	-11.0128
▁racking	-11.0128
▁rail	-11.0128
▁rain	-11.0128
▁raining	-11.0128
▁ramp	-11.0128
▁range	-11.0128
▁rapid	-11.0128
▁rapidly	-11.0128
▁rash	-11.0128
▁realy	-11.0128
▁reassuring	-11.0128
▁reciprocated	-11.0128
▁reckless	-11.0128
▁recognise	-11.0128
▁recording	-11.0128
▁recruiter	-11.0128
▁reddish	-11.0128
▁redditor	-11.0128
▁redirect	-11.0128
▁refer	-11.0128
▁referral	-11.0128
▁reflects	-11.0128
▁reflex	-11.0128
▁regaining	-11.0128
▁register	-11.0128
▁regretful	-11.0128
▁regretted	-11.0128
▁regulation	-11.0128
▁relates	-11.0128
▁released	-11.0128
▁releasing	-11.0128
▁relevant	-11.0128
▁reliable	-11.0128
▁reliving	-11.0128
▁reluctant	-11.0128
▁remained	-11.0128
▁remark	-11.0128
▁reminded	-11.0128
▁remission	-11.0128
▁remote	-11.0128
▁removal	-11.0128
▁removed	-11.0128
▁ren	-11.0128
▁repay	-11.0128
▁repetitive	-11.0128
▁representative	-11.0128
▁repulsive	-11.0128
▁requirement	-11.0128
▁reselling	-11.0128
▁resentment	-11.0128
▁residential	-11.0128
▁residual	-11.0128
▁resist	-11.0128
▁resistance	-11.0128
▁resisting	-11.0128
▁respiratory	-11.0128
▁restlessness	-11.0128
▁restore	-11.0128
▁resume	-11.0128
▁retarded	-11.0128
▁revealed	-11.0128
▁revise	-11.0128
▁revolve	-11.0128
▁revolves	-11.0128
▁riddled	-11.0128
▁riding	-11.0128
▁righteous	-11.0128
▁rly	-11.0128
▁roadblock	-11.0128
▁roll	-11.0128
▁rollercoaster	-11.0128
▁romance	-11.0128
▁rope	-11.0128
▁rota	-11.0128
▁rotting	-11.0128
▁rubber	-11.0128
▁ruled	-11.0128
▁rumour	-11.0128
▁rupture	-11.0128
▁rushed	-11.0128
▁rushing	-11.0128
▁sa	-11.0128
▁sacrifice	-11.0128
▁sadly	-11.0128
▁safely	-11.0128
▁salt	-11.0128
▁salvage	-11.0128
▁sarcasm	-11.0128
▁satisfied	-11.0128
▁scariest	-11.0128
▁scheduling	-11.0128
▁scoop	-11.0128
▁scripted	-11.0128
▁scroll	-11.0128
▁searched	-11.0128
▁sec	-11.0128
▁secondary	-11.0128
▁secretly	-11.0128
▁secure	-11.0128
▁seize	-11.0128
▁seller	-11.0128
▁seminar	-11.0128
▁semster	-11.0128
▁serving	-11.0128
▁settling	-11.0128
▁shade	-11.0128
▁shadow	-11.0128
▁shallow	-11.0128
▁share_petition	-11.0128
▁shared	-11.0128
▁shaving	-11.0128
▁sheep	-11.0128
▁shifting	-11.0128
▁shiny	-11.0128
▁ship	-11.0128
▁shitting	-11.0128
▁shocking	-11.0128
▁shorter	-11.0128
▁shown	-11.0128
▁sickening	-11.0128
▁sideline	-11.0128
▁sidewalk	-11.0128
▁sighing	-11.0128
▁silhouette	-11.0128
▁silver	-11.0128
▁situational	-11.0128
▁sixteen	-11.0128
▁sketchy	-11.0128
▁sl	-11.0128
▁slack	-11.0128
▁slapped	-11.0128
▁slavery	-11.0128
▁slaving	-11.0128
▁sliced	-11.0128
▁slim	-11.0128
▁smaller	-11.0128
▁smallest	-11.0128
▁smarter	-11.0128
▁smash	-11.0128
▁smashing	-11.0128
▁smelling	-11.0128
▁smiley	-11.0128
▁smoker	-11.0128
▁smooth	-11.0128
▁snapchat	-11.0128
▁snd	-11.0128
▁snow	-11.0128
▁soccer	-11.0128
▁socialise	-11.0128
▁sociopathic	-11.0128
▁soften	-11.0128
▁solidarity	-11.0128
▁solo	-11.0128
▁somethings	-11.0128
▁soooo	-11.0128
▁sophomore	-11.0128
▁sorting	-11.0128
▁sour	-11.0128
▁spaced	-11.0128
▁speaker	-11.0128
▁specialist	-11.0128
▁specially	-11.0128
▁spike	-11.0128
▁spinning	-11.0128
▁squad	-11.0128
▁squared	-11.0128
▁squeeze	-11.0128
▁stabbed	-11.0128
▁stability	-11.0128
▁stabilizer	-11.0128
▁stair	-11.0128
▁stalking	-11.0128
▁stamen	-11.0128
▁stamping	-11.0128
▁stared	-11.0128
▁starve	-11.0128
▁stfu	-11.0128
▁stiff	-11.0128
▁stimulant	-11.0128
▁stock	-11.0128
▁stoned	-11.0128
▁stored	-11.0128
▁strand	-11.0128
▁streaming	-11.0128
▁strict	-11.0128
▁strike	-11.0128
▁strongest	-11.0128
▁stubborn	-11.0128
▁studio	-11.0128
▁stuttered	-11.0128
▁submitted	-11.0128
▁submitting	-11.0128
▁subside	-11.0128
▁substitute	-11.0128
▁subtly	-11.0128
▁subway	-11.0128
▁succesful	-11.0128
▁suffocating	-11.0128
▁suffocation	-11.0128
▁suggesting	-11.0128
▁suitable	-11.0128
▁summary	-11.0128
▁supply	-11.0128
▁suppress	-11.0128
▁suppressed	-11.0128
▁surpress	-11.0128
▁surviving	-11.0128
▁survivor	-11.0128
▁sushi	-11.0128
▁suspected	-11.0128
▁sv	-11.0128
▁swab	-11.0128
▁swallowing	-11.0128
▁swimming	-11.0128
▁swirling	-11.0128
▁swiss	-11.0128
▁tablet	-11.0128
▁tachycardia	-11.0128
▁taco	-11.0128
▁talkative	-11.0128
▁tapered	-11.0128
▁targeting	-11.0128
▁tattoo	-11.0128
▁taxing	-11.0128
▁ted	-11.0128
▁telephone	-11.0128
▁temp	-11.0128
▁temporarily	-11.0128
▁temptation	-11.0128
▁tensing	-11.0128
▁territory	-11.0128
▁testing	-11.0128
▁testosterone	-11.0128
▁textbook	-11.0128
▁theft	-11.0128
▁therapy_	-11.0128
▁thereby	-11.0128
▁thrash	-11.0128
▁throbbing	-11.0128
▁thyroid	-11.0128
▁tick	-11.0128
▁tidy	-11.0128
▁tighten	-11.0128
▁tile	-11.0128
▁timing	-11.0128
▁tingle	-11.0128
▁tinted	-11.0128
▁tm	-11.0128
▁tolerate	-11.0128
▁tongue	-11.0128
▁topamax	-11.0128
▁torment	-11.0128
▁torso	-11.0128
▁tortured	-11.0128
▁torwards	-11.0128
▁tossed	-11.0128
▁tossing	-11.0128
▁tought	-11.0128
▁toxicity	-11.0128
▁trace	-11.0128
▁trading	-11.0128
▁traditional	-11.0128
▁trainee	-11.0128
▁trainer	-11.0128
▁transcranial	-11.0128
▁trashed	-11.0128
▁trazadone	-11.0128
▁treading	-11.0128
▁trend	-11.0128
▁trial	-11.0128
▁troubled	-11.0128
▁trough	-11.0128
▁tryna	-11.0128
▁tumbler	-11.0128
▁tumour	-11.0128
▁tunnel	-11.0128
▁twin	-11.0128
▁twitter	-11.0128
▁ty	-11.0128
▁tylenol	-11.0128
▁unaware	-11.0128
▁understandable	-11.0128
▁underweight	-11.0128
▁unemployment	-11.0128
▁unfairness	-11.0128
▁unfit	-11.0128
▁unfulfilled	-11.0128
▁unfulfilling	-11.0128
▁unhappiness	-11.0128
▁unhelpful	-11.0128
▁uninterested	-11.0128
▁unknowingly	-11.0128
▁unknown	-11.0128
▁unloveable	-11.0128
▁unloved	-11.0128
▁unmedicated	-11.0128
▁unmoved	-11.0128
▁unpack	-11.0128
▁unprofessional	-11.0128
▁unregulated	-11.0128
▁unrolled	-11.0128
▁unusual	-11.0128
▁unwell	-11.0128
▁upbringing	-11.0128
▁upcoming	-11.0128
▁updated	-11.0128
▁upping	-11.0128
▁upside	-11.0128
▁upstairs	-11.0128
▁urine	-11.0128
▁us	-11.0128
▁vague	-11.0128
▁validation	-11.0128
▁valuable	-11.0128
▁vampire	-11.0128
▁van	-11.0128
▁vapes	-11.0128
▁vega	-11.0128
▁vegan	-11.0128
▁veil	-11.0128
▁vein	-11.0128
▁vented	-11.0128
▁verbal	-11.0128
▁vibration	-11.0128
▁vic	-11.0128
▁vicodin	-11.0128
▁virtual	-11.0128
▁vit	-11.0128
▁vivid	-11.0128
▁voluntary	-11.0128
▁voted	-11.0128
▁vow	-11.0128
▁waist	-11.0128
▁waitress	-11.0128
▁wallow	-11.0128
▁wandering	-11.0128
▁warehouse	-11.0128
▁washing	-11.0128
▁web	-11.0128
▁webcam	-11.0128
▁weepy	-11.0128
▁weigh	-11.0128
▁weighed	-11.0128
▁weighing	-11.0128
▁weightlifting	-11.0128
▁weirdest	-11.0128
▁weirdly	-11.0128
▁wept	-11.0128
▁whatnot	-11.0128
▁whim	-11.0128
▁whine	-11.0128
▁whirlwind	-11.0128
▁whiskey	-11.0128
▁wholeheartedly	-11.0128
▁wing	-11.0128
▁wished	-11.0128
▁witch	-11.0128
▁withdraw	-11.0128
▁withdrawing	-11.0128
▁withdrawls	-11.0128
▁withered	-11.0128
▁witness	-11.0128
▁woken	-11.0128
▁woohoo	-11.0128
▁worm	-11.0128
▁worship	-11.0128
▁wrapped	-11.0128
▁wrapping	-11.0128
▁wrecking	-11.0128
▁wretched	-11.0128
▁ww3	-11.0128
▁xbox	-11.0128
▁xl	-11.0128
▁yall	-11.0128
▁yan	-11.0128
▁yanked	-11.0128
▁yea	-11.0128
▁yearly	-11.0128
▁yep	-11.0128
▁yknow	-11.0128
▁ykw	-11.0128
▁york	-11.0128
▁youth	-11.0128
▁youtu	-11.0128
▁z	-11.0128
▁02	-11.7059
▁03am	-11.7059
▁04	-11.7059
▁06	-11.7059
▁10000	-11.7059
▁1000mph	-11.7059
▁100th	-11.7059
▁102	-11.7059
▁1099	-11.7059
▁10am	-11.7059
▁10bpm	-11.7059
▁112	-11.7059
▁11am	-11.7059
▁11th	-11.7059
▁120	-11.7059
▁124p	-11.7059
▁12hr	-11.7059
▁12hrs	-11.7059
▁12ish	-11.7059
▁12mg	-11.7059
▁12yo	-11.7059
▁1300	-11.7059
▁13f	-11.7059
▁140mph	-11.7059
▁14f	-11.7059
▁1500	-11.7059
▁15m	-11.7059
▁15mins	-11.7059
▁160	-11.7059
▁162	-11.7059
▁16th	-11.7059
▁190	-11.7059
▁1950s	-11.7059
▁1am	-11.7059
▁1mm	-11.7059
▁200	-11.7059
▁2005	-11.7059
▁2009	-11.7059
▁200mg	-11.7059
▁2011	-11.7059
▁2014	-11.7059
▁2022	-11.7059
▁20f	-11.7059
▁20lbs	-11.7059
▁20th	-11.7059
▁20x	-11.7059
▁20years	-11.7059
▁20yrs	-11.7059
▁210	-11.7059
▁219246	-11.7059
▁21m	-11.7059
▁22m	-11.7059
▁23cm	-11.7059
▁24h	-11.7059
▁2500	-11.7059
▁25_rule_	-11.7059
▁25unweighted	-11.7059
▁2600	-11.7059
▁299	-11.7059
▁29m	-11.7059
▁29th	-11.7059
▁2am	-11.7059
▁2appkoq	-11.7059
▁2x	-11.7059
▁300	-11.7059
▁30lbs	-11.7059
▁321	-11.7059
▁32f	-11.7059
▁330	-11.7059
▁33m	-11.7059
▁342	-11.7059
▁34y	-11.7059
▁3mgs	-11.7059
▁3months	-11.7059
▁3y	-11.7059
▁400	-11.7059
▁41	-11.7059
▁44	-11.7059
▁4am	-11.7059
▁4x	-11.7059
▁50k	-11.7059
▁51k	-11.7059
▁54321	-11.7059
▁5f	-11.7059
▁5hours	-11.7059
▁5hrs	-11.7059
▁5in	-11.7059
▁5ish	-11.7059
▁5k	-11.7059
▁5minutes	-11.7059
▁5pm	-11.7059
▁60km	-11.7059
▁6am	-11.7059
▁6pm	-11.7059
▁93	-11.7059
▁94	-11.7059
▁9am	-11.7059
▁9ish	-11.7059
▁9month	-11.7059
▁9pm	-11.7059
▁_____	-11.7059
▁_acceptance	-11.7059
▁_campaign	-11.7059
▁_cognitive	-11.7059
▁_content	-11.7059
▁_decaf_	-11.7059
▁_deep	-11.7059
▁_en	-11.7059
▁_i	-11.7059
▁_magnetic	-11.7059
▁_medium	-11.7059
▁_meds_	-11.7059
▁_moyvi	-11.7059
▁_sharecopy	-11.7059
▁_source	-11.7059
▁_stimulation	-11.7059
▁_tpost	-11.7059
▁_tposting	-11.7059
▁_xkma	-11.7059
▁_xkma_moyvi	-11.7059
▁aa	-11.7059
▁aaaaaaa	-11.7059
▁aah	-11.7059
▁ab	-11.7059
▁abc	-11.7059
▁abit	-11.7059
▁abnormal	-11.7059
▁aborted	-11.7059
▁abrupt	-11.7059
▁absorb	-11.7059
▁absorbed	-11.7059
▁abstinence	-11.7059
▁abstract	-11.7059
▁abundantly	-11.7059
▁abysmal	-11.7059
▁abyss	-11.7059
▁accelerated	-11.7059
▁accented	-11.7059
▁accentuate	-11.7059
▁acceptancecommitment	-11.7059
▁accidently	-11.7059
▁accommodate	-11.7059
▁accompanies	-11.7059
▁accompany	-11.7059
▁accord	-11.7059
▁accumulate	-11.7059
▁accumulation	-11.7059
▁aced	-11.7059
▁ached	-11.7059
▁achy	-11.7059
▁acquire	-11.7059
▁acrosd	-11.7059
▁acrossthe	-11.7059
▁activated	-11.7059
▁activation	-11.7059
▁actor	-11.7059
▁actovities	-11.7059
▁adapt	-11.7059
▁adapted	-11.7059
▁adaptive	-11.7059
▁adaptogens	-11.7059
▁addict	-11.7059
▁addicting	-11.7059
▁addictive	-11.7059
▁addressed	-11.7059
▁adequately	-11.7059
▁aderall	-11.7059
▁adjust	-11.7059
▁adjuster	-11.7059
▁adjustment	-11.7059
▁admin	-11.7059
▁administer	-11.7059
▁admire	-11.7059
▁admired	-11.7059
▁adopt	-11.7059
▁adopts	-11.7059
▁adored	-11.7059
▁adrenalin	-11.7059
▁adresses	-11.7059
▁adrift	-11.7059
▁adverse	-11.7059
▁advertises	-11.7059
▁advil	-11.7059
▁advocate	-11.7059
▁advocating	-11.7059
▁affirmation	-11.7059
▁afflicts	-11.7059
▁aforementioned	-11.7059
▁african	-11.7059
▁againts	-11.7059
▁aggravate	-11.7059
▁aggressively	-11.7059
▁aggrevated	-11.7059
▁agreeing	-11.7059
▁agreement	-11.7059
▁ah	-11.7059
▁aha	-11.7059
▁ahah	-11.7059
▁ahold	-11.7059
▁ahsbxkxmskzhdjxbxbgd	-11.7059
▁aight	-11.7059
▁aimed	-11.7059
▁aiming	-11.7059
▁aimless	-11.7059
▁aimlessly	-11.7059
▁airbnbs	-11.7059
▁airplane	-11.7059
▁airpods	-11.7059
▁ak	-11.7059
▁alarmed	-11.7059
▁alcholism	-11.7059
▁alcoholism	-11.7059
▁alienating	-11.7059
▁aligned	-11.7059
▁allll	-11.7059
▁aloneness	-11.7059
▁alphabet	-11.7059
▁alseep	-11.7059
▁alt	-11.7059
▁altern	-11.7059
▁alternately	-11.7059
▁alternating	-11.7059
▁altho	-11.7059
▁altough	-11.7059
▁alward	-11.7059
▁amazingly	-11.7059
▁amazon	-11.7059
▁ambiental	-11.7059
▁amicable	-11.7059
▁amidst	-11.7059
▁amped	-11.7059
▁amphetamine	-11.7059
▁amused	-11.7059
▁amusing	-11.7059
▁anal	-11.7059
▁analogously	-11.7059
▁analysing	-11.7059
▁analysis	-11.7059
▁ananya	-11.7059
▁anaphylactic	-11.7059
▁anchor	-11.7059
▁android_app	-11.7059
▁anecdotal	-11.7059
▁anecdotally	-11.7059
▁anecdote	-11.7059
▁anesthesia	-11.7059
▁angel	-11.7059
▁angeles	-11.7059
▁angery	-11.7059
▁angle	-11.7059
▁angst	-11.7059
▁anniversary	-11.7059
▁annoy	-11.7059
▁annual	-11.7059
▁anonymous	-11.7059
▁ant	-11.7059
▁antagonistic	-11.7059
▁antic	-11.7059
▁anticipation	-11.7059
▁antiperspirant	-11.7059
▁antipsychotic	-11.7059
▁antipyschotic	-11.7059
▁antiseptic	-11.7059
▁anxeties	-11.7059
▁anxiolytic	-11.7059
▁anxoius	-11.7059
▁anyresumes	-11.7059
▁apendicitis	-11.7059
▁apointment	-11.7059
▁apologise	-11.7059
▁apologizing	-11.7059
▁appeal	-11.7059
▁appealing	-11.7059
▁apperantly	-11.7059
▁appereance	-11.7059
▁applies	-11.7059
▁appreciates	-11.7059
▁appreciating	-11.7059
▁appreciation	-11.7059
▁apprehended	-11.7059
▁apprehensive	-11.7059
▁apprenticeship	-11.7059
▁approachable	-11.7059
▁approaching	-11.7059
▁approved	-11.7059
▁approximately	-11.7059
▁archive	-11.7059
▁arguably	-11.7059
▁arises	-11.7059
▁arkansas	-11.7059
▁armed	-11.7059
▁armpit	-11.7059
▁arogent	-11.7059
▁arranging	-11.7059
▁array	-11.7059
▁arrest	-11.7059
▁arrival	-11.7059
▁arrive	-11.7059
▁arrives	-11.7059
▁arsed	-11.7059
▁arte	-11.7059
▁articulate	-11.7059
▁ascendency	-11.7059
▁asd	-11.7059
▁asf	-11.7059
▁ash	-11.7059
▁ashwaghanda	-11.7059
▁asmr	-11.7059
▁asn	-11.7059
▁aspergers	-11.7059
▁aspire	-11.7059
▁assault	-11.7059
▁assaulted	-11.7059
▁assed	-11.7059
▁assessor	-11.7059
▁assigned	-11.7059
▁assing	-11.7059
▁assist	-11.7059
▁assisted	-11.7059
▁associate	-11.7059
▁assualt	-11.7059
▁assurance	-11.7059
▁assures	-11.7059
▁athlete	-11.7059
▁athletic	-11.7059
▁atmosphere	-11.7059
▁atp	-11.7059
▁atrophy	-11.7059
▁attacking	-11.7059
▁attending	-11.7059
▁attentive	-11.7059
▁attick	-11.7059
▁atypical	-11.7059
▁audio	-11.7059
▁audit	-11.7059
▁auditory	-11.7059
▁augment	-11.7059
▁authentically	-11.7059
▁author	-11.7059
▁authority	-11.7059
▁authorization	-11.7059
▁autocompassion	-11.7059
▁autoimmune	-11.7059
▁automated	-11.7059
▁automatic	-11.7059
▁automation	-11.7059
▁autonomy	-11.7059
▁averaging	-11.7059
▁averse	-11.7059
▁avoidant	-11.7059
▁avpd	-11.7059
▁await	-11.7059
▁awaiting	-11.7059
▁awakens	-11.7059
▁awfully	-11.7059
▁awkwardly	-11.7059
▁awkwardness	-11.7059
▁ay	-11.7059
▁b12	-11.7059
▁baba	-11.7059
▁baccalaureate	-11.7059
▁backing	-11.7059
▁backrub	-11.7059
▁backtracking	-11.7059
▁backup	-11.7059
▁backward	-11.7059
▁backwards	-11.7059
▁baclofen	-11.7059
▁badge	-11.7059
▁badger	-11.7059
▁bahay	-11.7059
▁bail	-11.7059
▁bait	-11.7059
▁bakery	-11.7059
▁bakit	-11.7059
▁bald	-11.7059
▁baldness	-11.7059
▁balled	-11.7059
▁balloon	-11.7059
▁bam	-11.7059
▁banana	-11.7059
▁bandage	-11.7059
▁bandaid	-11.7059
▁bandcamp	-11.7059
▁bandersnatch	-11.7059
▁bang	-11.7059
▁banned	-11.7059
▁banter	-11.7059
▁barbecue	-11.7059
▁barber	-11.7059
▁barbiturate	-11.7059
▁bareable	-11.7059
▁barista	-11.7059
▁barium	-11.7059
▁bark	-11.7059
▁barked	-11.7059
▁barley	-11.7059
▁barometric	-11.7059
▁barrage	-11.7059
▁basement	-11.7059
▁bashed	-11.7059
▁bashing	-11.7059
▁basicly	-11.7059
▁basketball	-11.7059
▁bastard	-11.7059
▁batch	-11.7059
▁batchmates	-11.7059
▁battery	-11.7059
▁bawling	-11.7059
▁bdd	-11.7059
▁bead	-11.7059
▁beak	-11.7059
▁bean	-11.7059
▁beard	-11.7059
▁beast	-11.7059
▁beaten	-11.7059
▁beautifully	-11.7059
▁bedding	-11.7059
▁bedridden	-11.7059
▁bedrock	-11.7059
▁bedsheets	-11.7059
▁bedtime	-11.7059
▁beecause	-11.7059
▁beeing	-11.7059
▁beeping	-11.7059
▁befriended	-11.7059
▁befuddle	-11.7059
▁beg	-11.7059
▁beginner	-11.7059
▁behalf	-11.7059
▁believer	-11.7059
▁belittle	-11.7059
▁belive	-11.7059
▁belonged	-11.7059
▁bending	-11.7059
▁beneath	-11.7059
▁benificial	-11.7059
▁benjamin	-11.7059
▁bereable	-11.7059
▁bereavement	-11.7059
▁bested	-11.7059
▁bestfriend	-11.7059
▁bestfriends	-11.7059
▁bestie	-11.7059
▁betrail	-11.7059
▁betray	-11.7059
▁betrayal	-11.7059
▁bff	-11.7059
▁bias	-11.7059
▁bible	-11.7059
▁bicycle	-11.7059
▁bid	-11.7059
▁bike	-11.7059
▁bile	-11.7059
▁billed	-11.7059
▁bio	-11.7059
▁biological	-11.7059
▁bipolarism	-11.7059
▁bisexual	-11.7059
▁bispurone	-11.7059
▁biter	-11.7059
▁bitterness	-11.7059
▁bizarre	-11.7059
▁blabbering	-11.7059
▁blackness	-11.7059
▁blah	-11.7059
▁blandest	-11.7059
▁blanked	-11.7059
▁blankly	-11.7059
▁blaring	-11.7059
▁blast	-11.7059
▁bled	-11.7059
▁blend	-11.7059
▁blending	-11.7059
▁bless	-11.7059
▁blessed	-11.7059
▁blessing	-11.7059
▁blew	-11.7059
▁blindsided	-11.7059
▁bliss	-11.7059
▁bloating	-11.7059
▁blob	-11.7059
▁blockade	-11.7059
▁blockage	-11.7059
▁blog	-11.7059
▁bloom	-11.7059
▁blossom	-11.7059
▁blotchy	-11.7059
▁blouse	-11.7059
▁blowing	-11.7059
▁blowjob	-11.7059
▁bluntly	-11.7059
▁blushing	-11.7059
▁bmo	-11.7059
▁boast	-11.7059
▁boat	-11.7059
▁bodyache	-11.7059
▁boiling	-11.7059
▁bojack	-11.7059
▁bollock	-11.7059
▁bombing	-11.7059
▁bonding	-11.7059
▁bonus	-11.7059
▁bookshelf	-11.7059
▁boosted	-11.7059
▁boot	-11.7059
▁borderline	-11.7059
▁bosse	-11.7059
▁bottomless	-11.7059
▁boulder	-11.7059
▁bour	-11.7059
▁bow	-11.7059
▁bowtie	-11.7059
▁boxer	-11.7059
▁brace	-11.7059
▁bragging	-11.7059
▁braindead	-11.7059
▁brainwash	-11.7059
▁braking	-11.7059
▁branch	-11.7059
▁brandon	-11.7059
▁brat	-11.7059
▁bread	-11.7059
▁breakthrough	-11.7059
▁breather	-11.7059
▁breathes	-11.7059
▁breathing_	-11.7059
▁breathtaking	-11.7059
▁bref	-11.7059
▁brian	-11.7059
▁briefly	-11.7059
▁brighten	-11.7059
▁brightest	-11.7059
▁brilliance	-11.7059
▁brink	-11.7059
▁brittle	-11.7059
▁bro	-11.7059
▁broad	-11.7059
▁brooklyn	-11.7059
▁bros	-11.7059
▁brown	-11.7059
▁browse	-11.7059
▁bruise	-11.7059
▁bruising	-11.7059
▁brunt	-11.7059
▁brutal	-11.7059
▁bsed	-11.7059
▁bsomething	-11.7059
▁btc	-11.7059
▁bu	-11.7059
▁bublineess	-11.7059
▁budgeting	-11.7059
▁buff	-11.7059
▁bugged	-11.7059
▁buildup	-11.7059
▁bulging	-11.7059
▁bull	-11.7059
▁bummed	-11.7059
▁bummer	-11.7059
▁bumpy	-11.7059
▁bunting	-11.7059
▁bur	-11.7059
▁burial	-11.7059
▁buried	-11.7059
▁bursting	-11.7059
▁bury	-11.7059
▁bush	-11.7059
▁busier	-11.7059
▁bustling	-11.7059
▁butterfly	-11.7059
▁buyin	-11.7059
▁buzzed	-11.7059
▁buzzfeed	-11.7059
▁bv	-11.7059
▁ca	-11.7059
▁calculate	-11.7059
▁calculator	-11.7059
▁calendar	-11.7059
▁calisthenics	-11.7059
▁calmly	-11.7059
▁calmness	-11.7059
▁cam	-11.7059
▁camping	-11.7059
▁canada	-11.7059
▁canceling	-11.7059
▁cancelled	-11.7059
▁candidate	-11.7059
▁candidly	-11.7059
▁candle	-11.7059
▁cannabinoid	-11.7059
▁canyon	-11.7059
▁capsule	-11.7059
▁captain	-11.7059
▁carbs	-11.7059
▁carefree	-11.7059
▁carefully	-11.7059
▁caregiver	-11.7059
▁carl	-11.7059
▁carpal	-11.7059
▁carpet	-11.7059
▁carpeted	-11.7059
▁carrier	-11.7059
▁cartilage	-11.7059
▁cartoony	-11.7059
▁cast	-11.7059
▁castle	-11.7059
▁casuing	-11.7059
▁cataloging	-11.7059
▁catching	-11.7059
▁category	-11.7059
▁catfish	-11.7059
▁catfished	-11.7059
▁catharsis	-11.7059
▁catharticism	-11.7059
▁causevme	-11.7059
▁cave	-11.7059
▁caved	-11.7059
▁cba	-11.7059
▁ceased	-11.7059
▁celebrated	-11.7059
▁celebrity	-11.7059
▁celiac	-11.7059
▁cell	-11.7059
▁cemented	-11.7059
▁censentually	-11.7059
▁ceo	-11.7059
▁cereal	-11.7059
▁certainty	-11.7059
▁certificate	-11.7059
▁cf	-11.7059
▁channel	-11.7059
▁chaotic	-11.7059
▁chapped	-11.7059
▁charade	-11.7059
▁charisma	-11.7059
▁charismatic	-11.7059
▁charleston	-11.7059
▁chasing	-11.7059
▁chastising	-11.7059
▁chatted	-11.7059
▁chattering	-11.7059
▁chatting	-11.7059
▁chavy	-11.7059
▁cheap	-11.7059
▁cheaper	-11.7059
▁cheaply	-11.7059
▁cheat	-11.7059
▁cheesed	-11.7059
▁cheesy	-11.7059
▁cherish	-11.7059
▁cherished	-11.7059
▁cherry	-11.7059
▁chewy	-11.7059
▁chicago	-11.7059
▁chick	-11.7059
▁chicken	-11.7059
▁childish	-11.7059
▁chilled	-11.7059
▁chime	-11.7059
▁chin	-11.7059
▁china	-11.7059
▁chinese	-11.7059
▁chipped	-11.7059
▁chipper	-11.7059
▁chirped	-11.7059
▁chit	-11.7059
▁chock	-11.7059
▁chocolate	-11.7059
▁choke	-11.7059
▁chronically	-11.7059
▁chuck	-11.7059
▁churning	-11.7059
▁cicada	-11.7059
▁cico	-11.7059
▁cidal	-11.7059
▁cigs	-11.7059
▁cindy	-11.7059
▁cinematography	-11.7059
▁circuiting	-11.7059
▁circuitry	-11.7059
▁circulating	-11.7059
▁circulation	-11.7059
▁circus	-11.7059
▁cited	-11.7059
▁citizenship	-11.7059
▁cked	-11.7059
▁cl	-11.7059
▁clad	-11.7059
▁claiming	-11.7059
▁clammy	-11.7059
▁clarifying	-11.7059
▁clasp	-11.7059
▁cleanliness	-11.7059
▁cleanup	-11.7059
▁clearance	-11.7059
▁clearer	-11.7059
▁cleft	-11.7059
▁clenched	-11.7059
▁clenching	-11.7059
▁clg	-11.7059
▁clicked	-11.7059
▁climbing	-11.7059
▁cling	-11.7059
▁clip	-11.7059
▁clockwork	-11.7059
▁clog	-11.7059
▁clonaxepam	-11.7059
▁clonazipam	-11.7059
▁clonidine	-11.7059
▁clonopin	-11.7059
▁closet	-11.7059
▁closeted	-11.7059
▁cloth	-11.7059
▁clothing	-11.7059
▁clotiazepam	-11.7059
▁clouding	-11.7059
▁clued	-11.7059
▁cluster	-11.7059
▁clutching	-11.7059
▁clutter	-11.7059
▁cnn	-11.7059
▁coached	-11.7059
▁coaching	-11.7059
▁coast	-11.7059
▁cocaine	-11.7059
▁cockatiel	-11.7059
▁codependency	-11.7059
▁cognitively	-11.7059
▁cognizant	-11.7059
▁coherently	-11.7059
▁cohesive	-11.7059
▁cohort	-11.7059
▁coin	-11.7059
▁coincides	-11.7059
▁coke	-11.7059
▁cola	-11.7059
▁coleagues	-11.7059
▁collapsed	-11.7059
▁collected	-11.7059
▁collective	-11.7059
▁collegue	-11.7059
▁color	-11.7059
▁coma	-11.7059
▁comb	-11.7059
▁combo	-11.7059
▁comepete	-11.7059
▁comforted	-11.7059
▁comfy	-11.7059
▁commended	-11.7059
▁commenting	-11.7059
▁comming	-11.7059
▁commiseration	-11.7059
▁commission	-11.7059
▁commiting	-11.7059
▁commits	-11.7059
▁commonly	-11.7059
▁commotion	-11.7059
▁comorbid	-11.7059
▁companionship	-11.7059
▁compassionate	-11.7059
▁compatible	-11.7059
▁compatiblism	-11.7059
▁compensate	-11.7059
▁competent	-11.7059
▁competitive	-11.7059
▁compilation	-11.7059
▁compile	-11.7059
▁complains	-11.7059
▁complement	-11.7059
▁complicating	-11.7059
▁compny	-11.7059
▁composed	-11.7059
▁comprehensive	-11.7059
▁compressed	-11.7059
▁compressing	-11.7059
▁comprises	-11.7059
▁compulsively	-11.7059
▁computational	-11.7059
▁comrade	-11.7059
▁conceive	-11.7059
▁concepted	-11.7059
▁conclude	-11.7059
▁concluded	-11.7059
▁concoction	-11.7059
▁condo	-11.7059
▁conducive	-11.7059
▁conducting	-11.7059
▁confided	-11.7059
▁confidential	-11.7059
▁confiding	-11.7059
▁confined	-11.7059
▁confines	-11.7059
▁confirmed	-11.7059
▁confirms	-11.7059
▁conformity	-11.7059
▁confort	-11.7059
▁confounded	-11.7059
▁confuse	-11.7059
▁confusedly	-11.7059
▁confusion	-11.7059
▁congratulate	-11.7059
▁congratulating	-11.7059
▁congregating	-11.7059
▁conjures	-11.7059
▁conscience	-11.7059
▁consented	-11.7059
▁consequential	-11.7059
▁conservative	-11.7059
▁considerable	-11.7059
▁considers	-11.7059
▁consist	-11.7059
▁consolation	-11.7059
▁consoling	-11.7059
▁constanlty	-11.7059
▁consultant	-11.7059
▁consulted	-11.7059
▁consults	-11.7059
▁consumes	-11.7059
▁containing	-11.7059
▁contempt	-11.7059
▁contented	-11.7059
▁continuous	-11.7059
▁contraceptive	-11.7059
▁contradicting	-11.7059
▁contributed	-11.7059
▁contributes	-11.7059
▁controller	-11.7059
▁contuniue	-11.7059
▁convalescensing	-11.7059
▁conversational	-11.7059
▁conversion	-11.7059
▁converted	-11.7059
▁convinces	-11.7059
▁convulsion	-11.7059
▁cooked	-11.7059
▁coop	-11.7059
▁cooped	-11.7059
▁cooperate	-11.7059
▁cooperating	-11.7059
▁copd	-11.7059
▁copious	-11.7059
▁corolla	-11.7059
▁corona	-11.7059
▁corralled	-11.7059
▁correction	-11.7059
▁correctly	-11.7059
▁correlate	-11.7059
▁correlated	-11.7059
▁corresponding	-11.7059
▁corresponds	-11.7059
▁corsodyl	-11.7059
▁cortisol	-11.7059
▁cortizone	-11.7059
▁costly	-11.7059
▁costochondritis	-11.7059
▁coughed	-11.7059
▁coughing	-11.7059
▁couldve	-11.7059
▁counsious	-11.7059
▁counted	-11.7059
▁counteract	-11.7059
▁counteracts	-11.7059
▁coupd	-11.7059
▁coupled	-11.7059
▁coursework	-11.7059
▁cow	-11.7059
▁crackdown	-11.7059
▁cracked	-11.7059
▁crackpot	-11.7059
▁craigslist	-11.7059
▁cram	-11.7059
▁craved	-11.7059
▁creates	-11.7059
▁creator	-11.7059
▁creature	-11.7059
▁credibility	-11.7059
▁crept	-11.7059
▁crier	-11.7059
▁cringing	-11.7059
▁criterion	-11.7059
▁criticism	-11.7059
▁crm	-11.7059
▁crown	-11.7059
▁crumble	-11.7059
▁crunch	-11.7059
▁crusty	-11.7059
▁csgo	-11.7059
▁csncer	-11.7059
▁cte	-11.7059
▁cubicle	-11.7059
▁culminated	-11.7059
▁culprit	-11.7059
▁cultivating	-11.7059
▁cummerbund	-11.7059
▁cupboard	-11.7059
▁cupcake	-11.7059
▁curator	-11.7059
▁curdling	-11.7059
▁curled	-11.7059
▁cursed	-11.7059
▁cursor	-11.7059
▁curtain	-11.7059
▁curvier	-11.7059
▁cushion	-11.7059
▁cushy	-11.7059
▁custom	-11.7059
▁cutaneous	-11.7059
▁cutesy	-11.7059
▁cw9	-11.7059
▁cyanide	-11.7059
▁cyclical	-11.7059
▁cyst	-11.7059
▁d3	-11.7059
▁dab	-11.7059
▁damaging	-11.7059
▁damit	-11.7059
▁dana	-11.7059
▁danced	-11.7059
▁dangerously	-11.7059
▁danielle	-11.7059
▁darken	-11.7059
▁darker	-11.7059
▁darknet	-11.7059
▁darting	-11.7059
▁data	-11.7059
▁davis	-11.7059
▁daw	-11.7059
▁daycare	-11.7059
▁daydreaming	-11.7059
▁daylight	-11.7059
▁daze	-11.7059
▁dazed	-11.7059
▁dea	-11.7059
▁deafening	-11.7059
▁dealer	-11.7059
▁dearly	-11.7059
▁deathbed	-11.7059
▁debilitated	-11.7059
▁debunk	-11.7059
▁deceive	-11.7059
▁decently	-11.7059
▁deceptive	-11.7059
▁decipher	-11.7059
▁deconstruct	-11.7059
▁decor	-11.7059
▁decrease	-11.7059
▁decreased	-11.7059
▁dedepress	-11.7059
▁deemed	-11.7059
▁deems	-11.7059
▁defeating	-11.7059
▁defecate	-11.7059
▁defecating	-11.7059
▁defencesive	-11.7059
▁defended	-11.7059
▁defiantly	-11.7059
▁deficiency	-11.7059
▁deficient	-11.7059
▁defines	-11.7059
▁definetely	-11.7059
▁definite	-11.7059
▁definitively	-11.7059
▁deflect	-11.7059
▁defo	-11.7059
▁defy	-11.7059
▁degenerate	-11.7059
▁degenerative	-11.7059
▁degrade	-11.7059
▁degraded	-11.7059
▁dehumanizing	-11.7059
▁deja	-11.7059
▁delayed	-11.7059
▁deleterious	-11.7059
▁deleting	-11.7059
▁deliberate	-11.7059
▁delicate	-11.7059
▁delightful	-11.7059
▁delirious	-11.7059
▁delirium	-11.7059
▁delivered	-11.7059
▁delude	-11.7059
▁deluge	-11.7059
▁delving	-11.7059
▁demand	-11.7059
▁demanded	-11.7059
▁demeanor	-11.7059
▁democracy	-11.7059
▁demonstrate	-11.7059
▁demotivated	-11.7059
▁dent	-11.7059
▁dented	-11.7059
▁dentistry	-11.7059
▁denying	-11.7059
▁dependency	-11.7059
▁depersonalisation	-11.7059
▁depersonalize	-11.7059
▁depersonalizing	-11.7059
▁depiction	-11.7059
▁depleted	-11.7059
▁deploying	-11.7059
▁depo	-11.7059
▁deposit	-11.7059
▁depot	-11.7059
▁deppresion	-11.7059
▁depreciating	-11.7059
▁depresion	-11.7059
▁depressents	-11.7059
▁depthless	-11.7059
▁derailed	-11.7059
▁derealisation	-11.7059
▁derives	-11.7059
▁dermatologist	-11.7059
▁descartes	-11.7059
▁descends	-11.7059
▁descision	-11.7059
▁describes	-11.7059
▁design	-11.7059
▁desired	-11.7059
▁despondency	-11.7059
▁destination	-11.7059
▁destined	-11.7059
▁destiny	-11.7059
▁detected	-11.7059
▁detector	-11.7059
▁deteriorate	-11.7059
▁determination	-11.7059
▁determinism	-11.7059
▁deterring	-11.7059
▁detoxing	-11.7059
▁detriment	-11.7059
▁detrimental	-11.7059
▁detritus	-11.7059
▁developper	-11.7059
▁deviant	-11.7059
▁devise	-11.7059
▁devolve	-11.7059
▁devolved	-11.7059
▁devote	-11.7059
▁devour	-11.7059
▁devout	-11.7059
▁dexterous	-11.7059
▁diabetic	-11.7059
▁diabolical	-11.7059
▁diagnostic	-11.7059
▁diagnostics	-11.7059
▁diaphragmatic	-11.7059
▁diazepam	-11.7059
▁dice	-11.7059
▁dicked	-11.7059
▁dietary	-11.7059
▁dieted	-11.7059
▁digestive	-11.7059
▁digit	-11.7059
▁digital	-11.7059
▁dignity	-11.7059
▁dilaudid	-11.7059
▁diminished	-11.7059
▁dining	-11.7059
▁dir	-11.7059
▁disabled	-11.7059
▁disagreement	-11.7059
▁disappearing	-11.7059
▁disarray	-11.7059
▁disbelief	-11.7059
▁discipline	-11.7059
▁disciplined	-11.7059
▁disclaimer	-11.7059
▁disclosed	-11.7059
▁disclosure	-11.7059
▁discomfort	-11.7059
▁disconneted	-11.7059
▁discontinue	-11.7059
▁discontinued	-11.7059
▁discourage	-11.7059
▁discouragement	-11.7059
▁discourages	-11.7059
▁discouraging	-11.7059
▁discust	-11.7059
▁disdain	-11.7059
▁diseased	-11.7059
▁disengaged	-11.7059
▁disfunctional	-11.7059
▁disheartening	-11.7059
▁dishwasher	-11.7059
▁disintegrating	-11.7059
▁disjointed	-11.7059
▁disliked	-11.7059
▁disliking	-11.7059
▁dismissal	-11.7059
▁dismissing	-11.7059
▁dismissive	-11.7059
▁disordered	-11.7059
▁disorganized	-11.7059
▁dispense	-11.7059
▁displayed	-11.7059
▁disprove	-11.7059
▁dissapointed	-11.7059
▁dissapoints	-11.7059
▁dissappear	-11.7059
▁dissatisfaction	-11.7059
▁dissipate	-11.7059
▁dissociated	-11.7059
▁dissolve	-11.7059
▁dissonance	-11.7059
▁distanced	-11.7059
▁distinct	-11.7059
▁distinction	-11.7059
▁distort	-11.7059
▁distressed	-11.7059
▁distrust	-11.7059
▁disturb	-11.7059
▁disturbance	-11.7059
▁disturbed	-11.7059
▁disturbing	-11.7059
▁disturbs	-11.7059
▁diva	-11.7059
▁dive	-11.7059
▁diving	-11.7059
▁dizzyness	-11.7059
▁dj	-11.7059
▁dl	-11.7059
▁dmv	-11.7059
▁dodging	-11.7059
▁dogshit	-11.7059
▁dominated	-11.7059
▁dominating	-11.7059
▁donate	-11.7059
▁donating	-11.7059
▁donor	-11.7059
▁doodle	-11.7059
▁doomsday	-11.7059
▁doooo	-11.7059
▁doorknob	-11.7059
▁doorway	-11.7059
▁dopamine	-11.7059
▁doped	-11.7059
▁dopey	-11.7059
▁dorm	-11.7059
▁dosent	-11.7059
▁downer	-11.7059
▁downloaded	-11.7059
▁downplay	-11.7059
▁downside	-11.7059
▁downtown	-11.7059
▁downvotes	-11.7059
▁dp	-11.7059
▁dragon	-11.7059
▁dramamine	-11.7059
▁dramatically	-11.7059
▁drawer	-11.7059
▁drawl	-11.7059
▁dreamed	-11.7059
▁dreaming	-11.7059
▁dreamt	-11.7059
▁dredging	-11.7059
▁drenched	-11.7059
▁dressing	-11.7059
▁drew	-11.7059
▁drift	-11.7059
▁drifted	-11.7059
▁drilled	-11.7059
▁drilling	-11.7059
▁driveway	-11.7059
▁drone	-11.7059
▁drool	-11.7059
▁drooping	-11.7059
▁drown	-11.7059
▁drowns	-11.7059
▁drowsy	-11.7059
▁drs	-11.7059
▁drudgery	-11.7059
▁drugstore	-11.7059
▁drunkard	-11.7059
▁dsm	-11.7059
▁dug	-11.7059
▁dumbed	-11.7059
▁dumbest	-11.7059
▁dumbfuck	-11.7059
▁dumping	-11.7059
▁dumpster	-11.7059
▁dunkin	-11.7059
▁duo	-11.7059
▁dusty	-11.7059
▁dwelling	-11.7059
▁dwindling	-11.7059
▁dyslexic	-11.7059
▁dysthymia	-11.7059
▁eager	-11.7059
▁eagled	-11.7059
▁eardrum	-11.7059
▁earned	-11.7059
▁earnings	-11.7059
▁ebay	-11.7059
▁ebb	-11.7059
▁ecc	-11.7059
▁economical	-11.7059
▁economy	-11.7059
▁eczema	-11.7059
▁edgy	-11.7059
▁editing	-11.7059
▁educate	-11.7059
▁educational	-11.7059
▁eff	-11.7059
▁effecting	-11.7059
▁efffects	-11.7059
▁eggar	-11.7059
▁egk	-11.7059
▁eglonyl	-11.7059
▁egocentric	-11.7059
▁eighth	-11.7059
▁ejaculating	-11.7059
▁el	-11.7059
▁electric	-11.7059
▁elephant	-11.7059
▁elevated	-11.7059
▁eleventh	-11.7059
▁elicits	-11.7059
▁eliminate	-11.7059
▁elliot	-11.7059
▁em	-11.7059
▁embarased	-11.7059
▁embarass	-11.7059
▁embarisning	-11.7059
▁embarrass	-11.7059
▁embarrasses	-11.7059
▁embarssing	-11.7059
▁embedded	-11.7059
▁embracing	-11.7059
▁emily	-11.7059
▁emoji	-11.7059
▁emojis	-11.7059
▁empathiic	-11.7059
▁empirical	-11.7059
▁empowered	-11.7059
▁emptied	-11.7059
▁emptyness	-11.7059
▁enable	-11.7059
▁enabling	-11.7059
▁enact	-11.7059
▁enagie	-11.7059
▁enclose	-11.7059
▁encountered	-11.7059
▁endangering	-11.7059
▁endometriosis	-11.7059
▁endopsychic	-11.7059
▁endorse	-11.7059
▁enegy	-11.7059
▁energized	-11.7059
▁enforce	-11.7059
▁engaging	-11.7059
▁engrained	-11.7059
▁enjoys	-11.7059
▁enlightened	-11.7059
▁enlightenment	-11.7059
▁enormous	-11.7059
▁enormously	-11.7059
▁enquired	-11.7059
▁enrolled	-11.7059
▁entail	-11.7059
▁entered	-11.7059
▁entering	-11.7059
▁enters	-11.7059
▁entertaining	-11.7059
▁enthusiastic	-11.7059
▁entitled	-11.7059
▁entrepreneur	-11.7059
▁envious	-11.7059
▁envisioned	-11.7059
▁envy	-11.7059
▁envying	-11.7059
▁epidemic	-11.7059
▁epilepsy	-11.7059
▁equate	-11.7059
▁equation	-11.7059
▁erase	-11.7059
▁erectile	-11.7059
▁erosion	-11.7059
▁erupt	-11.7059
▁erupting	-11.7059
▁escalating	-11.7059
▁escapist	-11.7059
▁escrow	-11.7059
▁essentaily	-11.7059
▁essentia	-11.7059
▁est	-11.7059
▁estate	-11.7059
▁estimate	-11.7059
▁estranged	-11.7059
▁et	-11.7059
▁etcetera	-11.7059
▁eternity	-11.7059
▁ethical	-11.7059
▁etsy	-11.7059
▁euphoric	-11.7059
▁europe	-11.7059
▁evaluate	-11.7059
▁evaporating	-11.7059
▁eventualy	-11.7059
▁everday	-11.7059
▁everithig	-11.7059
▁evey	-11.7059
▁eveyones	-11.7059
▁eveything	-11.7059
▁eviction	-11.7059
▁evidenced	-11.7059
▁evolve	-11.7059
▁evrything	-11.7059
▁eww	-11.7059
▁exagerated	-11.7059
▁exaggerated	-11.7059
▁examen	-11.7059
▁excel	-11.7059
▁excell	-11.7059
▁excelled	-11.7059
▁exceptionally	-11.7059
▁excite	-11.7059
▁excites	-11.7059
▁excluded	-11.7059
▁exclusive	-11.7059
▁exclusively	-11.7059
▁excusing	-11.7059
▁exemple	-11.7059
▁exercised	-11.7059
▁exercisig	-11.7059
▁exert	-11.7059
▁exhaustive	-11.7059
▁exhuasted	-11.7059
▁existance	-11.7059
▁existent	-11.7059
▁existentialism	-11.7059
▁exit	-11.7059
▁expained	-11.7059
▁expand	-11.7059
▁expanding	-11.7059
▁expanse	-11.7059
▁expecially	-11.7059
▁expeditiously	-11.7059
▁expelled	-11.7059
▁experiances	-11.7059
▁experienc	-11.7059
▁explanantion	-11.7059
▁explicitly	-11.7059
▁exploded	-11.7059
▁exploit	-11.7059
▁explosion	-11.7059
▁explosive	-11.7059
▁exponentially	-11.7059
▁expressionless	-11.7059
▁extended	-11.7059
▁extends	-11.7059
▁external	-11.7059
▁extracted	-11.7059
▁extraction	-11.7059
▁extraordinarily	-11.7059
▁eyebrow	-11.7059
▁f24	-11.7059
▁fabricate	-11.7059
▁facet	-11.7059
▁facial	-11.7059
▁failling	-11.7059
▁faining	-11.7059
▁fainting	-11.7059
▁faithfully	-11.7059
▁fallout	-11.7059
▁falsely	-11.7059
▁fam	-11.7059
▁fascinates	-11.7059
▁fastest	-11.7059
▁fasting	-11.7059
▁fastworward	-11.7059
▁fav	-11.7059
▁favourite	-11.7059
▁fbs	-11.7059
▁fearing	-11.7059
▁feasible	-11.7059
▁federal	-11.7059
▁feeeeel	-11.7059
▁feign	-11.7059
▁feld	-11.7059
▁fent	-11.7059
▁feverish	-11.7059
▁ffs	-11.7059
▁fi	-11.7059
▁fib	-11.7059
▁figuring	-11.7059
▁filed	-11.7059
▁filter	-11.7059
▁filthy	-11.7059
▁finacial	-11.7059
▁finasteride	-11.7059
▁fingertip	-11.7059
▁firefighter	-11.7059
▁firework	-11.7059
▁firm	-11.7059
▁firstly	-11.7059
▁fischer	-11.7059
▁fistula	-11.7059
▁fitbit	-11.7059
▁fitness	-11.7059
▁fitter	-11.7059
▁fixable	-11.7059
▁fixate	-11.7059
▁fk	-11.7059
▁fl	-11.7059
▁flaired	-11.7059
▁flaked	-11.7059
▁flashy	-11.7059
▁flatters	-11.7059
▁flavor	-11.7059
▁flawed	-11.7059
▁flea	-11.7059
▁flexeril	-11.7059
▁flick	-11.7059
▁flipped	-11.7059
▁flipping	-11.7059
▁flirted	-11.7059
▁flirty	-11.7059
▁float	-11.7059
▁floating	-11.7059
▁flood	-11.7059
▁flooding	-11.7059
▁floral	-11.7059
▁flossing	-11.7059
▁flourishing	-11.7059
▁fluanxol	-11.7059
▁fluctuate	-11.7059
▁fluctuation	-11.7059
▁fluent	-11.7059
▁fluid	-11.7059
▁flunking	-11.7059
▁flush	-11.7059
▁flushing	-11.7059
▁fluttering	-11.7059
▁fml	-11.7059
▁fobia	-11.7059
▁fold	-11.7059
▁foliage	-11.7059
▁follower	-11.7059
▁follows	-11.7059
▁followup	-11.7059
▁font	-11.7059
▁football	-11.7059
▁footstep	-11.7059
▁forceful	-11.7059
▁forcible	-11.7059
▁fore	-11.7059
▁forest	-11.7059
▁forested	-11.7059
▁foreveralone	-11.7059
▁forgave	-11.7059
▁forgetful	-11.7059
▁forgets	-11.7059
▁forgiveable	-11.7059
▁forgiven	-11.7059
▁forgivness	-11.7059
▁formatted	-11.7059
▁formatting	-11.7059
▁forming	-11.7059
▁formulate	-11.7059
▁foward	-11.7059
▁fr	-11.7059
▁fracture	-11.7059
▁fractured	-11.7059
▁frame	-11.7059
▁franchise	-11.7059
▁francisco	-11.7059
▁frantically	-11.7059
▁frat	-11.7059
▁fraying	-11.7059
▁freakouts	-11.7059
▁freelance	-11.7059
▁freezer	-11.7059
▁freezing	-11.7059
▁frequents	-11.7059
▁fretting	-11.7059
▁fridge	-11.7059
▁fright	-11.7059
▁frightened	-11.7059
▁frightening	-11.7059
▁fron	-11.7059
▁frowing	-11.7059
▁frowned	-11.7059
▁fruitful	-11.7059
▁frustrates	-11.7059
▁frustratingly	-11.7059
▁fucker	-11.7059
▁fuckinv	-11.7059
▁fuckkkk	-11.7059
▁fuckkkkkk	-11.7059
▁fuelled	-11.7059
▁fukin	-11.7059
▁fulfilled	-11.7059
▁fulfillment	-11.7059
▁fume	-11.7059
▁fundamental	-11.7059
▁funniest	-11.7059
▁fur	-11.7059
▁furious	-11.7059
▁furthering	-11.7059
▁futility	-11.7059
▁fuzziness	-11.7059
▁fx	-11.7059
▁gal	-11.7059
▁gamble	-11.7059
▁gamming	-11.7059
▁gaping	-11.7059
▁gaslight	-11.7059
▁gasp	-11.7059
▁gasping	-11.7059
▁gastric	-11.7059
▁gate	-11.7059
▁gated	-11.7059
▁gatekeep	-11.7059
▁gateway	-11.7059
▁gawd	-11.7059
▁gazillion	-11.7059
▁gd	-11.7059
▁gear	-11.7059
▁gee	-11.7059
▁gel	-11.7059
▁gen	-11.7059
▁gender	-11.7059
▁generating	-11.7059
▁generic	-11.7059
▁generosity	-11.7059
▁generously	-11.7059
▁genetic	-11.7059
▁gentle	-11.7059
▁gentleman	-11.7059
▁gently	-11.7059
▁geographically	-11.7059
▁geopolitical	-11.7059
▁germany	-11.7059
▁gesture	-11.7059
▁getup	-11.7059
▁ghb	-11.7059
▁giant	-11.7059
▁gibberish	-11.7059
▁giftcard	-11.7059
▁giftcards	-11.7059
▁gigantic	-11.7059
▁giggle	-11.7059
▁gingivitis	-11.7059
▁girlfirend	-11.7059
▁girth	-11.7059
▁gladly	-11.7059
▁glam	-11.7059
▁glamour	-11.7059
▁glancing	-11.7059
▁glimpse	-11.7059
▁gloomiest	-11.7059
▁glorified	-11.7059
▁glorify	-11.7059
▁glorious	-11.7059
▁glued	-11.7059
▁gnaw	-11.7059
▁gnawing	-11.7059
▁goddamnit	-11.7059
▁gold	-11.7059
▁goldendoodle	-11.7059
▁gong	-11.7059
▁goodness	-11.7059
▁goofed	-11.7059
▁gop	-11.7059
▁gordon	-11.7059
▁gorgeous	-11.7059
▁gorilla	-11.7059
▁gov	-11.7059
▁grabbing	-11.7059
▁grace	-11.7059
▁grain	-11.7059
▁grandchild	-11.7059
▁graph	-11.7059
▁grapple	-11.7059
▁grass	-11.7059
▁gratitude	-11.7059
▁grave	-11.7059
▁gravely	-11.7059
▁gravity	-11.7059
▁greasy	-11.7059
▁greece	-11.7059
▁greediness	-11.7059
▁greet	-11.7059
▁greeted	-11.7059
▁grid	-11.7059
▁grim	-11.7059
▁grimaced	-11.7059
▁grinded	-11.7059
▁grossly	-11.7059
▁grotesque	-11.7059
▁grounding	-11.7059
▁grumpy	-11.7059
▁guarantee	-11.7059
▁guardian	-11.7059
▁guitar	-11.7059
▁gull	-11.7059
▁gummies	-11.7059
▁gunna	-11.7059
▁gust	-11.7059
▁guus	-11.7059
▁hah	-11.7059
▁hahaha	-11.7059
▁hahahahahaha	-11.7059
▁hai	-11.7059
▁hail	-11.7059
▁hairline	-11.7059
▁halloween	-11.7059
▁hallway	-11.7059
▁halt	-11.7059
▁halter	-11.7059
▁halved	-11.7059
▁hammer	-11.7059
▁hamster	-11.7059
▁handicap	-11.7059
▁handing	-11.7059
▁handled	-11.7059
▁handshake	-11.7059
▁handsome	-11.7059
▁hanged	-11.7059
▁hangnail	-11.7059
▁harass	-11.7059
▁harassed	-11.7059
▁harasses	-11.7059
▁harassment	-11.7059
▁harbor	-11.7059
▁harbour	-11.7059
▁hardcore	-11.7059
▁hardened	-11.7059
▁hardship	-11.7059
▁hardworking	-11.7059
▁harlequin	-11.7059
▁harmfulness	-11.7059
▁harry	-11.7059
▁harsh	-11.7059
▁hassle	-11.7059
▁hatefully	-11.7059
▁hauler	-11.7059
▁hauling	-11.7059
▁haunt	-11.7059
▁havnt	-11.7059
▁havoc	-11.7059
▁haze	-11.7059
▁headeache	-11.7059
▁healthiest	-11.7059
▁heap	-11.7059
▁hearning	-11.7059
▁heartburn	-11.7059
▁hearted	-11.7059
▁heartless	-11.7059
▁heated	-11.7059
▁helath	-11.7059
▁hellbent	-11.7059
▁hellopoetry	-11.7059
▁help_me_pick_please	-11.7059
▁helplesness	-11.7059
▁helplessness	-11.7059
▁hemorrhoid	-11.7059
▁hereditary	-11.7059
▁hermit	-11.7059
▁heroic	-11.7059
▁hesistating	-11.7059
▁hesitate	-11.7059
▁heuristic	-11.7059
▁heve	-11.7059
▁hhah	-11.7059
▁hiatal	-11.7059
▁hid	-11.7059
▁hidden	-11.7059
▁hideous	-11.7059
▁highlight	-11.7059
▁highschooling	-11.7059
▁hijack	-11.7059
▁hike	-11.7059
▁hiked	-11.7059
▁hilarious	-11.7059
▁hill	-11.7059
▁himym	-11.7059
▁hinder	-11.7059
▁hindering	-11.7059
▁hindsight	-11.7059
▁hipster	-11.7059
▁hirsutism	-11.7059
▁hitman	-11.7059
▁hiya	-11.7059
▁hl	-11.7059
▁hmm	-11.7059
▁hoarse	-11.7059
▁hoff	-11.7059
▁holder	-11.7059
▁holler	-11.7059
▁hollowly	-11.7059
▁holy	-11.7059
▁holyyyyy	-11.7059
▁homely	-11.7059
▁homepathic	-11.7059
▁homesickness	-11.7059
▁hometown	-11.7059
▁homosexual	-11.7059
▁honda	-11.7059
▁hooking	-11.7059
▁hooray	-11.7059
▁hopped	-11.7059
▁horizontal	-11.7059
▁hormonal	-11.7059
▁horrific	-11.7059
▁horrifies	-11.7059
▁hospice	-11.7059
▁hospitalised	-11.7059
▁hospitalization	-11.7059
▁hospitalize	-11.7059
▁hostile	-11.7059
▁hostility	-11.7059
▁hotlines	-11.7059
▁hourglass	-11.7059
▁hourly	-11.7059
▁hovered	-11.7059
▁hovering	-11.7059
▁hovers	-11.7059
▁hovever	-11.7059
▁hp	-11.7059
▁hpe	-11.7059
▁hpv	-11.7059
▁hugged	-11.7059
▁hugging	-11.7059
▁hugo	-11.7059
▁huh	-11.7059
▁humanly	-11.7059
▁humbling	-11.7059
▁humbly	-11.7059
▁humidifier	-11.7059
▁humiliating	-11.7059
▁humiliation	-11.7059
▁hun	-11.7059
▁hungover	-11.7059
▁hungrier	-11.7059
▁hunting	-11.7059
▁hurhur	-11.7059
▁hurling	-11.7059
▁hurricane	-11.7059
▁hurted	-11.7059
▁hydrated	-11.7059
▁hydrochloride	-11.7059
▁hydroxyzene	-11.7059
▁hygienist	-11.7059
▁hyperarousal	-11.7059
▁hyperemesis	-11.7059
▁hyperfixated	-11.7059
▁hypersensitivity	-11.7059
▁hyperventilated	-11.7059
▁hyperverbal	-11.7059
▁hypervigilant	-11.7059
▁hypnotherapy	-11.7059
▁hypocrisy	-11.7059
▁hypocrite	-11.7059
▁hypothetical	-11.7059
▁hysterectomy	-11.7059
▁i_genuinely_want_to_get_the_covid19_vaccine_but	-11.7059
▁ib	-11.7059
▁ic	-11.7059
▁icy	-11.7059
▁idealistic	-11.7059
▁idec	-11.7059
▁identified	-11.7059
▁idiotic	-11.7059
▁idky	-11.7059
▁idol	-11.7059
▁idontwanttogoooooo	-11.7059
▁ie	-11.7059
▁ileostomy	-11.7059
▁illegal	-11.7059
▁illuminated	-11.7059
▁imaginable	-11.7059
▁imessages	-11.7059
▁imgur	-11.7059
▁imitate	-11.7059
▁immedietly	-11.7059
▁immigrant	-11.7059
▁immunity	-11.7059
▁impacting	-11.7059
▁impatient	-11.7059
▁imperfect	-11.7059
▁implied	-11.7059
▁imply	-11.7059
▁implying	-11.7059
▁impostor	-11.7059
▁improper	-11.7059
▁improv4health	-11.7059
▁inactivity	-11.7059
▁inane	-11.7059
▁inattention	-11.7059
▁inattentive	-11.7059
▁inb4	-11.7059
▁incapacitated	-11.7059
▁incarcerated	-11.7059
▁incase	-11.7059
▁incentive	-11.7059
▁inching	-11.7059
▁incision	-11.7059
▁included	-11.7059
▁includes	-11.7059
▁incoherent	-11.7059
▁incoming	-11.7059
▁incorrect	-11.7059
▁indeffinite	-11.7059
▁indefinite	-11.7059
▁indefinitely	-11.7059
▁independently	-11.7059
▁indescribable	-11.7059
▁indicated	-11.7059
▁indicator	-11.7059
▁individualist	-11.7059
▁induce	-11.7059
▁indulging	-11.7059
▁ineffective	-11.7059
▁inescapable	-11.7059
▁inexcusable	-11.7059
▁inexistant	-11.7059
▁inexperienced	-11.7059
▁inexplicably	-11.7059
▁infact	-11.7059
▁infant	-11.7059
▁infect	-11.7059
▁infinitely	-11.7059
▁infinity	-11.7059
▁inflamations	-11.7059
▁inflamed	-11.7059
▁inflammation	-11.7059
▁inflation	-11.7059
▁inflicted	-11.7059
▁inflicting	-11.7059
▁influx	-11.7059
▁inform	-11.7059
▁informal	-11.7059
▁infront	-11.7059
▁infusion	-11.7059
▁ingrained	-11.7059
▁ingredient	-11.7059
▁inhaling	-11.7059
▁inhuman	-11.7059
▁initiated	-11.7059
▁initiating	-11.7059
▁initiative	-11.7059
▁injected	-11.7059
▁injured	-11.7059
▁innovative	-11.7059
▁inparticular	-11.7059
▁inquiring	-11.7059
▁inquiry	-11.7059
▁insert	-11.7059
▁insightful	-11.7059
▁insignificant	-11.7059
▁insole	-11.7059
▁insomniac	-11.7059
▁inspected	-11.7059
▁inspector	-11.7059
▁inspired	-11.7059
▁inst	-11.7059
▁instagrams	-11.7059
▁instinctive	-11.7059
▁instructed	-11.7059
▁instructor	-11.7059
▁instrument	-11.7059
▁insulting	-11.7059
▁insurmountable	-11.7059
▁integrated	-11.7059
▁integrating	-11.7059
▁intellectual	-11.7059
▁intelligibly	-11.7059
▁intend	-11.7059
▁intended	-11.7059
▁intensely	-11.7059
▁intensified	-11.7059
▁intensifying	-11.7059
▁interbound	-11.7059
▁interferes	-11.7059
▁interim	-11.7059
▁internet_culture	-11.7059
▁interpret	-11.7059
▁interpreted	-11.7059
▁interrupted	-11.7059
▁intersect	-11.7059
▁interviewed	-11.7059
▁interviewer	-11.7059
▁intimacy	-11.7059
▁intoxicated	-11.7059
▁intricacy	-11.7059
▁intrigued	-11.7059
▁intriguing	-11.7059
▁introduced	-11.7059
▁introducing	-11.7059
▁intruding	-11.7059
▁inundated	-11.7059
▁invalid	-11.7059
▁invasion	-11.7059
▁invent	-11.7059
▁invested	-11.7059
▁invident	-11.7059
▁involed	-11.7059
▁invovled	-11.7059
▁ios_app	-11.7059
▁iossmf	-11.7059
▁iq	-11.7059
▁ir	-11.7059
▁irregular	-11.7059
▁irrelevant	-11.7059
▁irresponsible	-11.7059
▁irreversible	-11.7059
▁irrevocably	-11.7059
▁irritate	-11.7059
▁isip	-11.7059
▁isolationism	-11.7059
▁itching	-11.7059
▁ite	-11.7059
▁jab	-11.7059
▁jacked	-11.7059
▁jacking	-11.7059
▁jaded	-11.7059
▁jakes	-11.7059
▁james	-11.7059
▁jan	-11.7059
▁janeiro	-11.7059
▁janet	-11.7059
▁jaycon	-11.7059
▁jelly	-11.7059
▁jeopardy	-11.7059
▁jitter	-11.7059
▁jockeying	-11.7059
▁joe	-11.7059
▁jogged	-11.7059
▁joked	-11.7059
▁jokingly	-11.7059
▁jolt	-11.7059
▁journaled	-11.7059
▁julls	-11.7059
▁justifiably	-11.7059
▁jusy	-11.7059
▁k	-11.7059
▁kale	-11.7059
▁keenly	-11.7059
▁keeo	-11.7059
▁keepsake	-11.7059
▁kennel	-11.7059
▁keyboard	-11.7059
▁keyword	-11.7059
▁kiddos	-11.7059
▁kinakain	-11.7059
▁kinder	-11.7059
▁kindve	-11.7059
▁kingdom	-11.7059
▁kit	-11.7059
▁kitten	-11.7059
▁klonapin	-11.7059
▁klonipin	-11.7059
▁kneejerk	-11.7059
▁knifing	-11.7059
▁knocked	-11.7059
▁knocking	-11.7059
▁knoe	-11.7059
▁know_	-11.7059
▁knowledgeable	-11.7059
▁knowns	-11.7059
▁kpi	-11.7059
▁la	-11.7059
▁labeled	-11.7059
▁labixten	-11.7059
▁labor	-11.7059
▁labyrinthitis	-11.7059
▁lactose	-11.7059
▁lagging	-11.7059
▁lake	-11.7059
▁lamotrigine	-11.7059
▁landing	-11.7059
▁landlady	-11.7059
▁landmark	-11.7059
▁langage	-11.7059
▁lapse	-11.7059
▁latest	-11.7059
▁laughter	-11.7059
▁lawn	-11.7059
▁layed	-11.7059
▁ldr	-11.7059
▁leaded	-11.7059
▁leader	-11.7059
▁leaning	-11.7059
▁leaped	-11.7059
▁learner	-11.7059
▁leaved	-11.7059
▁lecturer	-11.7059
▁ledge	-11.7059
▁leech	-11.7059
▁leeching	-11.7059
▁leeway	-11.7059
▁legend	-11.7059
▁legged	-11.7059
▁legitimacy	-11.7059
▁lemme	-11.7059
▁lengthy	-11.7059
▁lens	-11.7059
▁lent	-11.7059
▁lesbian	-11.7059
▁lessen	-11.7059
▁lethargy	-11.7059
▁lettuce	-11.7059
▁leukaemia	-11.7059
▁lewd	-11.7059
▁lexepro	-11.7059
▁lexipro	-11.7059
▁lf	-11.7059
▁liar	-11.7059
▁liberal	-11.7059
▁librium	-11.7059
▁licked	-11.7059
▁lieu	-11.7059
▁lifeguard	-11.7059
▁lifeless	-11.7059
▁lifelong	-11.7059
▁lifting	-11.7059
▁lightest	-11.7059
▁lighthead	-11.7059
▁lightheadness	-11.7059
▁lighting	-11.7059
▁lightning	-11.7059
▁lightsaber	-11.7059
▁liking	-11.7059
▁limbic	-11.7059
▁limbo	-11.7059
▁limitation	-11.7059
▁lind	-11.7059
▁linger	-11.7059
▁linked	-11.7059
▁liquid	-11.7059
▁liquidy	-11.7059
▁lisiniprol	-11.7059
▁listing	-11.7059
▁listlessness	-11.7059
▁litany	-11.7059
▁liter	-11.7059
▁litterally	-11.7059
▁lll	-11.7059
▁lmaooo	-11.7059
▁lmfao	-11.7059
▁loaded	-11.7059
▁location	-11.7059
▁locjers	-11.7059
▁locker	-11.7059
▁logged	-11.7059
▁logging	-11.7059
▁logo	-11.7059
▁loke	-11.7059
▁london	-11.7059
▁loneliest	-11.7059
▁lonleyness	-11.7059
▁lonliness	-11.7059
▁loon	-11.7059
▁loooooong	-11.7059
▁looots	-11.7059
▁loophole	-11.7059
▁los	-11.7059
▁lotion	-11.7059
▁louder	-11.7059
▁lousy	-11.7059
▁loveless	-11.7059
▁lover	-11.7059
▁lowe	-11.7059
▁lowering	-11.7059
▁lowkey	-11.7059
▁loyal	-11.7059
▁lug	-11.7059
▁lumbar	-11.7059
▁lunatic	-11.7059
▁lund	-11.7059
▁lunesta	-11.7059
▁lurker	-11.7059
▁ly	-11.7059
▁lynch	-11.7059
▁m23	-11.7059
▁madman	-11.7059
▁magazine	-11.7059
▁magic	-11.7059
▁magnet	-11.7059
▁magnetic	-11.7059
▁maid	-11.7059
▁mainstream	-11.7059
▁maked	-11.7059
▁maker	-11.7059
▁malfunction	-11.7059
▁malfunctioning	-11.7059
▁malintent	-11.7059
▁malnourished	-11.7059
▁malnourishing	-11.7059
▁mama	-11.7059
▁manageable	-11.7059
▁manbaby	-11.7059
▁manchester	-11.7059
▁mandatory	-11.7059
▁manga	-11.7059
▁mania	-11.7059
▁manifested	-11.7059
▁manifestly	-11.7059
▁mantain	-11.7059
▁manteinance	-11.7059
▁manually	-11.7059
▁manufacture	-11.7059
▁manufacturing	-11.7059
▁mapansin	-11.7059
▁marijn	-11.7059
▁marine	-11.7059
▁marked	-11.7059
▁marvelous	-11.7059
▁masculine	-11.7059
▁mass	-11.7059
▁massage	-11.7059
▁masturbated	-11.7059
▁materialize	-11.7059
▁mathematics	-11.7059
▁maximum	-11.7059
▁maybey	-11.7059
▁mcdonagh	-11.7059
▁mcyt	-11.7059
▁md	-11.7059
▁mdma	-11.7059
▁meamwhile	-11.7059
▁meanest	-11.7059
▁meaninglessness	-11.7059
▁medcu	-11.7059
▁mediate	-11.7059
▁mediating	-11.7059
▁mediation	-11.7059
▁mediator	-11.7059
▁medicaid	-11.7059
▁medicament	-11.7059
▁medieval	-11.7059
▁meditating	-11.7059
▁mega	-11.7059
▁melbourne	-11.7059
▁melenials	-11.7059
▁melted	-11.7059
▁melty	-11.7059
▁memo	-11.7059
▁memorable	-11.7059
▁men	-11.7059
▁menial	-11.7059
▁menstrual	-11.7059
▁mentor	-11.7059
▁menu	-11.7059
▁mercari	-11.7059
▁mercy	-11.7059
▁merely	-11.7059
▁merger	-11.7059
▁meshed	-11.7059
▁messenger	-11.7059
▁messin	-11.7059
▁messurd	-11.7059
▁metallic	-11.7059
▁metaphor	-11.7059
▁meter	-11.7059
▁mexican	-11.7059
▁mhm	-11.7059
▁mi	-11.7059
▁mickey	-11.7059
▁microbiology	-11.7059
▁microphone	-11.7059
▁microwave	-11.7059
▁middel	-11.7059
▁middleschool	-11.7059
▁midway	-11.7059
▁midwest	-11.7059
▁mighty	-11.7059
▁milestone	-11.7059
▁military	-11.7059
▁mill	-11.7059
▁mimicking	-11.7059
▁minded	-11.7059
▁mindful	-11.7059
▁minding	-11.7059
▁mindwork	-11.7059
▁miniscule	-11.7059
▁misar	-11.7059
▁misbehaving	-11.7059
▁miscarriage	-11.7059
▁misdiagnose	-11.7059
▁misdirect	-11.7059
▁misfiring	-11.7059
▁misfortune	-11.7059
▁misheard	-11.7059
▁mismanagement	-11.7059
▁misplaced	-11.7059
▁misreading	-11.7059
▁mission	-11.7059
▁misstep	-11.7059
▁mist	-11.7059
▁mistook	-11.7059
▁mistreated	-11.7059
▁misunderstand	-11.7059
▁mitigates	-11.7059
▁mmm	-11.7059
▁moan	-11.7059
▁mocked	-11.7059
▁mocking	-11.7059
▁moderate	-11.7059
▁moderation	-11.7059
▁modern	-11.7059
▁modest	-11.7059
▁modmail	-11.7059
▁modqueue	-11.7059
▁molasses	-11.7059
▁molecular	-11.7059
▁mome	-11.7059
▁momentary	-11.7059
▁momentum	-11.7059
▁mommy	-11.7059
▁mon	-11.7059
▁monitored	-11.7059
▁monke	-11.7059
▁monotonous	-11.7059
▁monotony	-11.7059
▁monter	-11.7059
▁monthly	-11.7059
▁monumental	-11.7059
▁moping	-11.7059
▁moral	-11.7059
▁morale	-11.7059
▁morbid	-11.7059
▁morbidity	-11.7059
▁morbidly	-11.7059
▁morgan	-11.7059
▁moroseness	-11.7059
▁morphine	-11.7059
▁mortally	-11.7059
▁motel	-11.7059
▁moth	-11.7059
▁motivates	-11.7059
▁motivating	-11.7059
▁motivational	-11.7059
▁motorcycle	-11.7059
▁mouldy	-11.7059
▁mourning	-11.7059
▁mouse	-11.7059
▁moutain	-11.7059
▁mowed	-11.7059
▁mra	-11.7059
▁msg	-11.7059
▁mu	-11.7059
▁mucus	-11.7059
▁multilane	-11.7059
▁multiplayer	-11.7059
▁multitask	-11.7059
▁multitasking	-11.7059
▁multivitamin	-11.7059
▁murmur	-11.7059
▁musical	-11.7059
▁musician	-11.7059
▁mustve	-11.7059
▁mutated	-11.7059
▁mutual	-11.7059
▁mutuals	-11.7059
▁mydayis	-11.7059
▁myriad	-11.7059
▁mysekf	-11.7059
▁mysterious	-11.7059
▁n0y1us	-11.7059
▁n4hpcb	-11.7059
▁nag	-11.7059
▁nagging	-11.7059
▁nailed	-11.7059
▁naltraxone	-11.7059
▁named	-11.7059
▁nanny	-11.7059
▁naproxen	-11.7059
▁nardil	-11.7059
▁nasa	-11.7059
▁nastier	-11.7059
▁nausous	-11.7059
▁navigated	-11.7059
▁nay	-11.7059
▁nbsp	-11.7059
▁nearer	-11.7059
▁neat	-11.7059
▁neatly	-11.7059
▁necessity	-11.7059
▁needlessly	-11.7059
▁needy	-11.7059
▁neglect	-11.7059
▁neglected	-11.7059
▁neglectful	-11.7059
▁neighborly	-11.7059
▁neighbour	-11.7059
▁nelly	-11.7059
▁nephew	-11.7059
▁netflix	-11.7059
▁networking	-11.7059
▁neurodegenerative	-11.7059
▁neuronal	-11.7059
▁neuronally	-11.7059
▁neuropsychological	-11.7059
▁neurotypic	-11.7059
▁neurpsychologist	-11.7059
▁neutrality	-11.7059
▁newbie	-11.7059
▁ng	-11.7059
▁ngl	-11.7059
▁nibble	-11.7059
▁nicer	-11.7059
▁nicest	-11.7059
▁nicked	-11.7059
▁nickname	-11.7059
▁nightine	-11.7059
▁nightly	-11.7059
▁nightmarish	-11.7059
▁nightstand	-11.7059
▁nihilistic	-11.7059
▁nitrous	-11.7059
▁nofap	-11.7059
▁noggin	-11.7059
▁nomore	-11.7059
▁nomorepanic	-11.7059
▁nonexistence	-11.7059
▁nonexistent	-11.7059
▁nonjudgmental	-11.7059
▁nonsensical	-11.7059
▁nootropics	-11.7059
▁nope	-11.7059
▁noramally	-11.7059
▁normalise	-11.7059
▁normality	-11.7059
▁north	-11.7059
▁nostalgia	-11.7059
▁notably	-11.7059
▁notebook	-11.7059
▁noted	-11.7059
▁notion	-11.7059
▁nourishes	-11.7059
▁novice	-11.7059
▁np	-11.7059
▁nsfw	-11.7059
▁nuke	-11.7059
▁numbs	-11.7059
▁nurturing	-11.7059
▁nutrition	-11.7059
▁nutritional	-11.7059
▁nutritionist	-11.7059
▁nv	-11.7059
▁nzs	-11.7059
▁obesity	-11.7059
▁objectively	-11.7059
▁objectivity	-11.7059
▁obligated	-11.7059
▁obligatory	-11.7059
▁obliged	-11.7059
▁obliterated	-11.7059
▁obliteration	-11.7059
▁obscure	-11.7059
▁observing	-11.7059
▁obsessional	-11.7059
▁obtainable	-11.7059
▁occupational	-11.7059
▁occupying	-11.7059
▁occurring	-11.7059
▁ocpd	-11.7059
▁oddly	-11.7059
▁odn	-11.7059
▁offend	-11.7059
▁offended	-11.7059
▁officer	-11.7059
▁officially	-11.7059
▁offsite	-11.7059
▁ohh	-11.7059
▁ohhh	-11.7059
▁okayish	-11.7059
▁okey	-11.7059
▁ol	-11.7059
▁om	-11.7059
▁omfg	-11.7059
▁omniprozol	-11.7059
▁oncoming	-11.7059
▁oneself	-11.7059
▁ontario	-11.7059
▁ontological	-11.7059
▁onward	-11.7059
▁openner	-11.7059
▁operates	-11.7059
▁opiate	-11.7059
▁opposed	-11.7059
▁oppressive	-11.7059
▁opted	-11.7059
▁opthalmologist	-11.7059
▁optimal	-11.7059
▁optimisim	-11.7059
▁optimism	-11.7059
▁optmistic	-11.7059
▁ordering	-11.7059
▁oregon	-11.7059
▁oreo	-11.7059
▁orfidal	-11.7059
▁organisation	-11.7059
▁organised	-11.7059
▁organization	-11.7059
▁organized	-11.7059
▁organizing	-11.7059
▁orgasm	-11.7059
▁orientation	-11.7059
▁origin	-11.7059
▁orphan	-11.7059
▁orthodox	-11.7059
▁osteopathic	-11.7059
▁otherwse	-11.7059
▁otr	-11.7059
▁ought	-11.7059
▁ourself	-11.7059
▁outburst	-11.7059
▁outdated	-11.7059
▁outdoors	-11.7059
▁outlandish	-11.7059
▁outputted	-11.7059
▁outsourced	-11.7059
▁outweighs	-11.7059
▁ovary	-11.7059
▁oven	-11.7059
▁overactive	-11.7059
▁overanalyzing	-11.7059
▁overarching	-11.7059
▁overcorrected	-11.7059
▁overdid	-11.7059
▁overdoes	-11.7059
▁overdosed	-11.7059
▁overdue	-11.7059
▁overeacting	-11.7059
▁overeating	-11.7059
▁overestimated	-11.7059
▁overhyped	-11.7059
▁overlapping	-11.7059
▁overloaded	-11.7059
▁overnights	-11.7059
▁overpass	-11.7059
▁overpowering	-11.7059
▁overprescribed	-11.7059
▁overqualified	-11.7059
▁overseas	-11.7059
▁overshadows	-11.7059
▁overstimulated	-11.7059
▁overtaken	-11.7059
▁overvalued	-11.7059
▁overweighs	-11.7059
▁overwelm	-11.7059
▁overwhelms	-11.7059
▁owed	-11.7059
▁ownership	-11.7059
▁oxford	-11.7059
▁oxide	-11.7059
▁pad	-11.7059
▁padlock	-11.7059
▁painless	-11.7059
▁paint	-11.7059
▁pajama	-11.7059
▁pal	-11.7059
▁palace	-11.7059
▁palpatations	-11.7059
▁pan	-11.7059
▁pancreatic	-11.7059
▁pandemy	-11.7059
▁pander	-11.7059
▁paperwork	-11.7059
▁para	-11.7059
▁paradise	-11.7059
▁paradoxical	-11.7059
▁paralized	-11.7059
▁paraphernalia	-11.7059
▁paraphrase	-11.7059
▁paraphrasing	-11.7059
▁parasympathetic	-11.7059
▁parental	-11.7059
▁parenting	-11.7059
▁parked	-11.7059
▁paroxetine	-11.7059
▁parted	-11.7059
▁particals	-11.7059
▁participation	-11.7059
▁partly	-11.7059
▁partook	-11.7059
▁passably	-11.7059
▁passionale	-11.7059
▁paste	-11.7059
▁pastime	-11.7059
▁pat	-11.7059
▁patched	-11.7059
▁pathologist	-11.7059
▁patriarchy	-11.7059
▁payment	-11.7059
▁pcod	-11.7059
▁pcos	-11.7059
▁pd	-11.7059
▁pdf	-11.7059
▁peaked	-11.7059
▁peanut	-11.7059
▁pedophile	-11.7059
▁peek	-11.7059
▁peep	-11.7059
▁peeve	-11.7059
▁peg	-11.7059
▁peice	-11.7059
▁pencil	-11.7059
▁pensacola	-11.7059
▁pepper	-11.7059
▁pepsi	-11.7059
▁pepto	-11.7059
▁perceives	-11.7059
▁perceptual	-11.7059
▁perfectionism	-11.7059
▁perfectionist	-11.7059
▁performer	-11.7059
▁performing	-11.7059
▁permabanned	-11.7059
▁permeating	-11.7059
▁permision	-11.7059
▁permit	-11.7059
▁perpetual	-11.7059
▁persisted	-11.7059
▁persists	-11.7059
▁personsl	-11.7059
▁persuade	-11.7059
▁pervasive	-11.7059
▁pessimistic	-11.7059
▁pestered	-11.7059
▁peticularily	-11.7059
▁petition	-11.7059
▁petrifies	-11.7059
▁petrol	-11.7059
▁petted	-11.7059
▁pf	-11.7059
▁pg	-11.7059
▁phantasmagoric	-11.7059
▁pharma	-11.7059
▁pharmacist	-11.7059
▁phased	-11.7059
▁phew	-11.7059
▁philosopher	-11.7059
▁phlegm	-11.7059
▁phoenix	-11.7059
▁phony	-11.7059
▁photographing	-11.7059
▁php	-11.7059
▁phsycially	-11.7059
▁phycologists	-11.7059
▁physic	-11.7059
▁physicality	-11.7059
▁physician	-11.7059
▁piano	-11.7059
▁pic	-11.7059
▁picturing	-11.7059
▁piecing	-11.7059
▁pigeon	-11.7059
▁pigeonholed	-11.7059
▁piggybacking	-11.7059
▁piglet	-11.7059
▁pinch	-11.7059
▁pinching	-11.7059
▁ping	-11.7059
▁pinkish	-11.7059
▁pinned	-11.7059
▁pinterest	-11.7059
▁pitched	-11.7059
▁pitfall	-11.7059
▁pitying	-11.7059
▁pixie	-11.7059
▁placate	-11.7059
▁plague	-11.7059
▁plalstic	-11.7059
▁plank	-11.7059
▁plannin	-11.7059
▁plastered	-11.7059
▁platonic	-11.7059
▁plausible	-11.7059
▁plausibly	-11.7059
▁plaything	-11.7059
▁pleaded	-11.7059
▁pleasant	-11.7059
▁pleaser	-11.7059
▁pleasw	-11.7059
▁plugged	-11.7059
▁pmdd	-11.7059
▁pneumonia	-11.7059
▁podcast	-11.7059
▁podcasts	-11.7059
▁poetic	-11.7059
▁pointer	-11.7059
▁poisoning	-11.7059
▁poked	-11.7059
▁poking	-11.7059
▁polar	-11.7059
▁policing	-11.7059
▁politely	-11.7059
▁political	-11.7059
▁politics	-11.7059
▁poll	-11.7059
▁pollen	-11.7059
▁polution	-11.7059
▁pond	-11.7059
▁poo	-11.7059
▁poochy	-11.7059
▁pool	-11.7059
▁poorer	-11.7059
▁popped	-11.7059
▁popping	-11.7059
▁popsicle	-11.7059
▁populated	-11.7059
▁population	-11.7059
▁porcelain	-11.7059
▁porch	-11.7059
▁porg	-11.7059
▁portrait	-11.7059
▁portrayed	-11.7059
▁portrays	-11.7059
▁posh	-11.7059
▁positioned	-11.7059
▁positivity	-11.7059
▁posse	-11.7059
▁postgrad	-11.7059
▁postpartum	-11.7059
▁postural	-11.7059
▁potion	-11.7059
▁potter	-11.7059
▁pouring	-11.7059
▁pov	-11.7059
▁poverty	-11.7059
▁powder	-11.7059
▁powerful	-11.7059
▁powering	-11.7059
▁ppls	-11.7059
▁practitioner	-11.7059
▁precipice	-11.7059
▁precise	-11.7059
▁precisely	-11.7059
▁precursor	-11.7059
▁prednisone	-11.7059
▁prefaced	-11.7059
▁preferable	-11.7059
▁premier	-11.7059
▁premise	-11.7059
▁prentedn	-11.7059
▁prentenious	-11.7059
▁preparing	-11.7059
▁preposterously	-11.7059
▁prerequisite	-11.7059
▁presaging	-11.7059
▁preschool	-11.7059
▁prescribes	-11.7059
▁preserve	-11.7059
▁press	-11.7059
▁pressing	-11.7059
▁presssure	-11.7059
▁presumably	-11.7059
▁presume	-11.7059
▁presumed	-11.7059
▁pretended	-11.7059
▁pretense	-11.7059
▁pretentious	-11.7059
▁prettiest	-11.7059
▁preventative	-11.7059
▁prework	-11.7059
▁priceless	-11.7059
▁pricier	-11.7059
▁prick	-11.7059
▁pricking	-11.7059
▁prickly	-11.7059
▁primed	-11.7059
▁priming	-11.7059
▁primitive	-11.7059
▁prince	-11.7059
▁princess	-11.7059
▁principal	-11.7059
▁prioritise	-11.7059
▁prioritize	-11.7059
▁prism	-11.7059
▁prisoner	-11.7059
▁pristq	-11.7059
▁privacy	-11.7059
▁privilaged	-11.7059
▁privileged	-11.7059
▁prize	-11.7059
▁prn	-11.7059
▁proactive	-11.7059
▁problematic	-11.7059
▁proceded	-11.7059
▁proceeding	-11.7059
▁proceeds	-11.7059
▁processed	-11.7059
▁prochlorperazine	-11.7059
▁prod	-11.7059
▁prodded	-11.7059
▁produced	-11.7059
▁productively	-11.7059
▁profusely	-11.7059
▁prognosis	-11.7059
▁programmed	-11.7059
▁programmer	-11.7059
▁progressively	-11.7059
▁projecting	-11.7059
▁projection	-11.7059
▁promo	-11.7059
▁promote	-11.7059
▁promoted	-11.7059
▁promotion	-11.7059
▁prompt	-11.7059
▁proof	-11.7059
▁propanolol	-11.7059
▁prophecy	-11.7059
▁propranolol	-11.7059
▁prosperity	-11.7059
▁prostitute	-11.7059
▁protecting	-11.7059
▁protein	-11.7059
▁proudly	-11.7059
▁provera	-11.7059
▁providing	-11.7059
▁pseudo	-11.7059
▁psychanalist	-11.7059
▁psychatric	-11.7059
▁psychiatrictimes	-11.7059
▁psycho	-11.7059
▁psychoanalyst	-11.7059
▁psychogenic	-11.7059
▁psychologied	-11.7059
▁psychology	-11.7059
▁psychopath	-11.7059
▁psychosomatic	-11.7059
▁psychotropic	-11.7059
▁pubes	-11.7059
▁published	-11.7059
▁publishing	-11.7059
▁puff	-11.7059
▁puked	-11.7059
▁puking	-11.7059
▁pulmonologists	-11.7059
▁pulsating	-11.7059
▁pulsing	-11.7059
▁punching	-11.7059
▁puncture	-11.7059
▁punishes	-11.7059
▁pupil	-11.7059
▁purge	-11.7059
▁purposeful	-11.7059
▁purposeless	-11.7059
▁pursing	-11.7059
▁pwease	-11.7059
▁q	-11.7059
▁qualified	-11.7059
▁qualifies	-11.7059
▁qualify	-11.7059
▁quantify	-11.7059
▁quarter	-11.7059
▁quasimodo	-11.7059
▁queen	-11.7059
▁questioned	-11.7059
▁quetamine	-11.7059
▁quickbooks	-11.7059
▁quicker	-11.7059
▁quicly	-11.7059
▁quieted	-11.7059
▁quinoa	-11.7059
▁quiting	-11.7059
▁quitter	-11.7059
▁quo	-11.7059
▁quora	-11.7059
▁quotation	-11.7059
▁radiate	-11.7059
▁radiating	-11.7059
▁radiologist	-11.7059
▁radius	-11.7059
▁railing	-11.7059
▁rainbow	-11.7059
▁ramblings	-11.7059
▁rambly	-11.7059
▁ramping	-11.7059
▁ramsey	-11.7059
▁rando	-11.7059
▁rang	-11.7059
▁ranger	-11.7059
▁rank	-11.7059
▁rape	-11.7059
▁rapist	-11.7059
▁rapport	-11.7059
▁rapunzled	-11.7059
▁rarer	-11.7059
▁rat	-11.7059
▁ration	-11.7059
▁rationalised	-11.7059
▁rationalizing	-11.7059
▁rationally	-11.7059
▁ravaging	-11.7059
▁raving	-11.7059
▁raw	-11.7059
▁raynaud	-11.7059
▁razor	-11.7059
▁rdation	-11.7059
▁reacted	-11.7059
▁realistically	-11.7059
▁rear	-11.7059
▁reasonably	-11.7059
▁reassure	-11.7059
▁reate	-11.7059
▁reawakens	-11.7059
▁rebirth	-11.7059
▁reborn	-11.7059
▁rebranded	-11.7059
▁rebutted	-11.7059
▁recalling	-11.7059
▁recap	-11.7059
▁receipt	-11.7059
▁recenntly	-11.7059
▁receptive	-11.7059
▁recieve	-11.7059
▁reciting	-11.7059
▁recive	-11.7059
▁recluse	-11.7059
▁recognising	-11.7059
▁recognition	-11.7059
▁recoil	-11.7059
▁recollection	-11.7059
▁reconnect	-11.7059
▁reconsider	-11.7059
▁recorded	-11.7059
▁recovered	-11.7059
▁recovers	-11.7059
▁recreate	-11.7059
▁recreationally	-11.7059
▁redeem	-11.7059
▁redeemed	-11.7059
▁redemption	-11.7059
▁reduces	-11.7059
▁reek	-11.7059
▁referred	-11.7059
▁referring	-11.7059
▁refers	-11.7059
▁reflected	-11.7059
▁reflection	-11.7059
▁reframing	-11.7059
▁refusing	-11.7059
▁regal	-11.7059
▁regarded	-11.7059
▁regenerates	-11.7059
▁registrar	-11.7059
▁regressing	-11.7059
▁reground	-11.7059
▁rehab	-11.7059
▁rehabilitation	-11.7059
▁reherniated	-11.7059
▁reherniation	-11.7059
▁reincarnation	-11.7059
▁reinforced	-11.7059
▁reinforcement	-11.7059
▁reiterate	-11.7059
▁reject	-11.7059
▁rejecting	-11.7059
▁rejoined	-11.7059
▁rejuvenate	-11.7059
▁relapsing	-11.7059
▁relation	-11.7059
▁relaxes	-11.7059
▁relay	-11.7059
▁relearning	-11.7059
▁reliably	-11.7059
▁relies	-11.7059
▁relieve	-11.7059
▁relocate	-11.7059
▁reluctance	-11.7059
▁relying	-11.7059
▁remains	-11.7059
▁remarried	-11.7059
▁remeber	-11.7059
▁remedial	-11.7059
▁remeron	-11.7059
▁reminding	-11.7059
▁reminisce	-11.7059
▁reminiscing	-11.7059
▁remnant	-11.7059
▁removing	-11.7059
▁rendered	-11.7059
▁rene	-11.7059
▁renewed	-11.7059
▁renting	-11.7059
▁reoccurring	-11.7059
▁repaying	-11.7059
▁repercussion	-11.7059
▁repetitively	-11.7059
▁replaced	-11.7059
▁replacement	-11.7059
▁replacing	-11.7059
▁replay	-11.7059
▁repost	-11.7059
▁represent	-11.7059
▁repression	-11.7059
▁reputation	-11.7059
▁require	-11.7059
▁requisite	-11.7059
▁reread	-11.7059
▁researched	-11.7059
▁researcher	-11.7059
▁resembled	-11.7059
▁resent	-11.7059
▁resentful	-11.7059
▁reserve	-11.7059
▁reshape	-11.7059
▁residence	-11.7059
▁resistant	-11.7059
▁resisted	-11.7059
▁resonate	-11.7059
▁resort	-11.7059
▁respectable	-11.7059
▁respekt	-11.7059
▁respondin	-11.7059
▁responding	-11.7059
▁responds	-11.7059
▁responsability	-11.7059
▁responsive	-11.7059
▁restaraunts	-11.7059
▁restored	-11.7059
▁restoril	-11.7059
▁restraint	-11.7059
▁restricted	-11.7059
▁restrictive	-11.7059
▁resubmitt	-11.7059
▁resurfacing	-11.7059
▁ret	-11.7059
▁retain	-11.7059
▁retained	-11.7059
▁retaining	-11.7059
▁retake	-11.7059
▁retaking	-11.7059
▁retested	-11.7059
▁rethink	-11.7059
▁rethinking	-11.7059
▁retraced	-11.7059
▁retrained	-11.7059
▁reunion	-11.7059
▁reunited	-11.7059
▁reverse	-11.7059
▁reversed	-11.7059
▁reversible	-11.7059
▁revert	-11.7059
▁reviewing	-11.7059
▁revolt	-11.7059
▁rewind	-11.7059
▁ribbon	-11.7059
▁richer	-11.7059
▁ridiculed	-11.7059
▁righthand	-11.7059
▁rigid	-11.7059
▁ringer	-11.7059
▁rinse	-11.7059
▁rio	-11.7059
▁rip	-11.7059
▁rising	-11.7059
▁risking	-11.7059
▁ritalin	-11.7059
▁river	-11.7059
▁rm	-11.7059
▁roamed	-11.7059
▁roaming	-11.7059
▁robbed	-11.7059
▁robbery	-11.7059
▁robbin	-11.7059
▁robs	-11.7059
▁robust	-11.7059
▁rocd	-11.7059
▁rocket	-11.7059
▁rocketed	-11.7059
▁rocketing	-11.7059
▁rogaine	-11.7059
▁roleplay	-11.7059
▁rolled	-11.7059
▁roller	-11.7059
▁romanticizes	-11.7059
▁roofied	-11.7059
▁roomie	-11.7059
▁roughest	-11.7059
▁royally	-11.7059
▁rpm	-11.7059
▁rt	-11.7059
▁rubbed	-11.7059
▁rubbing	-11.7059
▁rudely	-11.7059
▁ruler	-11.7059
▁ruling	-11.7059
▁ruminate	-11.7059
▁rumination	-11.7059
▁runaway	-11.7059
▁runner	-11.7059
▁runny	-11.7059
▁rural	-11.7059
▁rustled	-11.7059
▁rusty	-11.7059
▁ruthless	-11.7059
▁rutine	-11.7059
▁ruyle	-11.7059
▁rx	-11.7059
▁sabotaging	-11.7059
▁sacrificed	-11.7059
▁sadden	-11.7059
▁saddening	-11.7059
▁sadder	-11.7059
▁saddest	-11.7059
▁saga	-11.7059
▁saint	-11.7059
▁salesperson	-11.7059
▁san	-11.7059
▁sang	-11.7059
▁sank	-11.7059
▁sarted	-11.7059
▁satan	-11.7059
▁satisfying	-11.7059
▁savage	-11.7059
▁savior	-11.7059
▁sayin	-11.7059
▁scaly	-11.7059
▁scammed	-11.7059
▁scandal	-11.7059
▁scanning	-11.7059
▁scape	-11.7059
▁scaping	-11.7059
▁scarce	-11.7059
▁scarier	-11.7059
▁scarred	-11.7059
▁scatterbrained	-11.7059
▁scented	-11.7059
▁scheme	-11.7059
▁scheming	-11.7059
▁schiz	-11.7059
▁schizo	-11.7059
▁scholar	-11.7059
▁schooled	-11.7059
▁schooler	-11.7059
▁sci	-11.7059
▁sciatica	-11.7059
▁scientist	-11.7059
▁scissors	-11.7059
▁scoff	-11.7059
▁scolarships	-11.7059
▁scolding	-11.7059
▁scooping	-11.7059
▁scouring	-11.7059
▁scout	-11.7059
▁scramble	-11.7059
▁scraped	-11.7059
▁scratched	-11.7059
▁screening	-11.7059
▁scrub	-11.7059
▁scrutinising	-11.7059
▁scrutinize	-11.7059
▁scum	-11.7059
▁sea	-11.7059
▁seam	-11.7059
▁seat	-11.7059
▁secluding	-11.7059
▁seconding	-11.7059
▁seeping	-11.7059
▁segz	-11.7059
▁selection	-11.7059
▁selfharm	-11.7059
▁selfishness	-11.7059
▁selfriges	-11.7059
▁selled	-11.7059
▁semantic	-11.7059
▁semblance	-11.7059
▁semen	-11.7059
▁sen	-11.7059
▁sends	-11.7059
▁sensitivity	-11.7059
▁sensory	-11.7059
▁sentient	-11.7059
▁sentiment	-11.7059
▁separately	-11.7059
▁separation	-11.7059
▁seperated	-11.7059
▁sequence	-11.7059
▁seratonin	-11.7059
▁serial	-11.7059
▁serodeps	-11.7059
▁serqouil	-11.7059
▁sertaline	-11.7059
▁sertralin	-11.7059
▁serum	-11.7059
▁served	-11.7059
▁servely	-11.7059
▁sesh	-11.7059
▁seventy	-11.7059
▁severance	-11.7059
▁severed	-11.7059
▁severity	-11.7059
▁shabby	-11.7059
▁shaken	-11.7059
▁shall	-11.7059
▁shallowest	-11.7059
▁shamble	-11.7059
▁sharpens	-11.7059
▁shatter	-11.7059
▁shattering	-11.7059
▁shawshank	-11.7059
▁shed	-11.7059
▁sheeesh	-11.7059
▁sheer	-11.7059
▁shelter	-11.7059
▁sheltered	-11.7059
▁sheltering	-11.7059
▁shi	-11.7059
▁shiftrunner	-11.7059
▁shimmering	-11.7059
▁shine	-11.7059
▁shining	-11.7059
▁shipping	-11.7059
▁shitbags	-11.7059
▁shite	-11.7059
▁shitfaced	-11.7059
▁shitpost	-11.7059
▁shitshow	-11.7059
▁shitted	-11.7059
▁shittttt	-11.7059
▁shiver	-11.7059
▁shlock	-11.7059
▁shocked	-11.7059
▁shoddy	-11.7059
▁shoeing	-11.7059
▁shortcoming	-11.7059
▁shouted	-11.7059
▁shouting	-11.7059
▁shove	-11.7059
▁shoved	-11.7059
▁showered	-11.7059
▁showthread	-11.7059
▁shrink	-11.7059
▁shrouding	-11.7059
▁shrug	-11.7059
▁shrugging	-11.7059
▁shtposting	-11.7059
▁shuteye	-11.7059
▁sicker	-11.7059
▁sidebar	-11.7059
▁sided	-11.7059
▁signalling	-11.7059
▁silently	-11.7059
▁sim	-11.7059
▁similair	-11.7059
▁similarly	-11.7059
▁simplistic	-11.7059
▁simplistically	-11.7059
▁simulation	-11.7059
▁simultaneous	-11.7059
▁simultaneously	-11.7059
▁sin	-11.7059
▁sings	-11.7059
▁sitrust	-11.7059
▁skate	-11.7059
▁skilled	-11.7059
▁skimmed	-11.7059
▁skipper	-11.7059
▁skirt	-11.7059
▁skull	-11.7059
▁skulll	-11.7059
▁skyline	-11.7059
▁skype	-11.7059
▁skyrocketed	-11.7059
▁slab	-11.7059
▁slacked	-11.7059
▁slackening	-11.7059
▁slamming	-11.7059
▁slapping	-11.7059
▁sleepless	-11.7059
▁sleeplessness	-11.7059
▁sleepover	-11.7059
▁slice	-11.7059
▁slicing	-11.7059
▁slob	-11.7059
▁slog	-11.7059
▁slot	-11.7059
▁slowed	-11.7059
▁slows	-11.7059
▁slumber	-11.7059
▁slung	-11.7059
▁slurred	-11.7059
▁sm	-11.7059
▁smack	-11.7059
▁smartphone	-11.7059
▁smiling	-11.7059
▁smith	-11.7059
▁smokin	-11.7059
▁smoldering	-11.7059
▁smoothy	-11.7059
▁smth	-11.7059
▁smug	-11.7059
▁snapping	-11.7059
▁sneezed	-11.7059
▁snip	-11.7059
▁snitch	-11.7059
▁snl	-11.7059
▁snor	-11.7059
▁snow_selmon	-11.7059
▁snowballed	-11.7059
▁snowballing	-11.7059
▁snowflake	-11.7059
▁snowing	-11.7059
▁snri	-11.7059
▁snris	-11.7059
▁snuck	-11.7059
▁snuffed	-11.7059
▁snuggle	-11.7059
▁soak	-11.7059
▁sob	-11.7059
▁sobbed	-11.7059
▁sociable	-11.7059
▁socialanxiety	-11.7059
▁socialization	-11.7059
▁societal	-11.7059
▁socket	-11.7059
▁sodium	-11.7059
▁sofa	-11.7059
▁soil	-11.7059
▁solace	-11.7059
▁sole	-11.7059
▁solely	-11.7059
▁solidity	-11.7059
▁solver	-11.7059
▁solves	-11.7059
▁somatic	-11.7059
▁somedays	-11.7059
▁somrthing	-11.7059
▁somthing	-11.7059
▁somtimes	-11.7059
▁songwriting	-11.7059
▁soonest	-11.7059
▁soot	-11.7059
▁soothing	-11.7059
▁sopped	-11.7059
▁soreness	-11.7059
▁sorta	-11.7059
▁soulmate	-11.7059
▁spacing	-11.7059
▁spamming	-11.7059
▁spanish	-11.7059
▁spared	-11.7059
▁sparkly	-11.7059
▁spasm	-11.7059
▁spawned	-11.7059
▁speach	-11.7059
▁speaks	-11.7059
▁specie	-11.7059
▁specify	-11.7059
▁speck	-11.7059
▁spectator	-11.7059
▁speeding	-11.7059
▁spelled	-11.7059
▁spelling	-11.7059
▁spelt	-11.7059
▁spended	-11.7059
▁sperm	-11.7059
▁spider	-11.7059
▁spill	-11.7059
▁spilled	-11.7059
▁spineless	-11.7059
▁spiraled	-11.7059
▁spiralled	-11.7059
▁spiralling	-11.7059
▁spirit	-11.7059
▁spiritual	-11.7059
▁spoilt	-11.7059
▁sponge	-11.7059
▁spontaneous	-11.7059
▁spooked	-11.7059
▁spree	-11.7059
▁sprinkler	-11.7059
▁spurt	-11.7059
▁spying	-11.7059
▁squished	-11.7059
▁srry	-11.7059
▁stabber	-11.7059
▁stabilized	-11.7059
▁stabilizing	-11.7059
▁stagnate	-11.7059
▁stain	-11.7059
▁stake	-11.7059
▁stale	-11.7059
▁stalk	-11.7059
▁stammer	-11.7059
▁stammering	-11.7059
▁stance	-11.7059
▁standalone	-11.7059
▁standby	-11.7059
▁standpoint	-11.7059
▁startling	-11.7059
▁starved	-11.7059
▁starving	-11.7059
▁static	-11.7059
▁stbxw	-11.7059
▁std	-11.7059
▁steadily	-11.7059
▁steep	-11.7059
▁stellar	-11.7059
▁stepped	-11.7059
▁stepping	-11.7059
▁stereo	-11.7059
▁stereotype	-11.7059
▁sternum	-11.7059
▁stethoscope	-11.7059
▁sticky	-11.7059
▁stiffen	-11.7059
▁stiffness	-11.7059
▁stimulate	-11.7059
▁stimulated	-11.7059
▁stimulation	-11.7059
▁sting	-11.7059
▁stipend	-11.7059
▁stir	-11.7059
▁stole	-11.7059
▁stolen	-11.7059
▁stomped	-11.7059
▁stoner	-11.7059
▁stopgap	-11.7059
▁stopp	-11.7059
▁storage	-11.7059
▁storming	-11.7059
▁storyline	-11.7059
▁straddled	-11.7059
▁strain	-11.7059
▁stranded	-11.7059
▁strangely	-11.7059
▁strangled	-11.7059
▁strap	-11.7059
▁strapped	-11.7059
▁strawberry	-11.7059
▁streetlight	-11.7059
▁strenght	-11.7059
▁stressor	-11.7059
▁stretched	-11.7059
▁stretching	-11.7059
▁strewn	-11.7059
▁striker	-11.7059
▁stringy	-11.7059
▁stripped	-11.7059
▁stripping	-11.7059
▁strive	-11.7059
▁striving	-11.7059
▁stroll	-11.7059
▁strolling	-11.7059
▁struck	-11.7059
▁structure	-11.7059
▁stubborness	-11.7059
▁stufd	-11.7059
▁stuffy	-11.7059
▁stuggle	-11.7059
▁stumble	-11.7059
▁stumbled	-11.7059
▁stunted	-11.7059
▁stupider	-11.7059
▁stupidest	-11.7059
▁stupidly	-11.7059
▁stutter	-11.7059
▁su	-11.7059
▁su1c1de	-11.7059
▁subconscious	-11.7059
▁subdue	-11.7059
▁subjective	-11.7059
▁subjectively	-11.7059
▁sublime	-11.7059
▁submission	-11.7059
▁submit	-11.7059
▁subreddits	-11.7059
▁subscribe	-11.7059
▁subsides	-11.7059
▁substantial	-11.7059
▁subtle	-11.7059
▁subwoofer	-11.7059
▁succeeded	-11.7059
▁succeeding	-11.7059
▁succes	-11.7059
▁succumbing	-11.7059
▁suceeded	-11.7059
▁sucide	-11.7059
▁sucker	-11.7059
▁sucking	-11.7059
▁sucky	-11.7059
▁sue	-11.7059
▁sued	-11.7059
▁sufder	-11.7059
▁suffocate	-11.7059
▁suffocated	-11.7059
▁suffocates	-11.7059
▁suggery	-11.7059
▁suggerys	-11.7059
▁suicidality	-11.7059
▁sulpiride	-11.7059
▁summarize	-11.7059
▁summarized	-11.7059
▁summertime	-11.7059
▁summit	-11.7059
▁summons	-11.7059
▁sunglass	-11.7059
▁sunk	-11.7059
▁sunken	-11.7059
▁sunlight	-11.7059
▁sunny	-11.7059
▁sunod	-11.7059
▁sunset	-11.7059
▁sunshine	-11.7059
▁superficial	-11.7059
▁supersonic	-11.7059
▁supervision	-11.7059
▁supportively	-11.7059
▁surge	-11.7059
▁surname	-11.7059
▁surpassing	-11.7059
▁surprising	-11.7059
▁surreal	-11.7059
▁surrender	-11.7059
▁surroundings	-11.7059
▁sus	-11.7059
▁susceptible	-11.7059
▁suspect	-11.7059
▁suspended	-11.7059
▁suspicious	-11.7059
▁sustain	-11.7059
▁sustained	-11.7059
▁sustaining	-11.7059
▁swam	-11.7059
▁swap	-11.7059
▁swapped	-11.7059
▁swaying	-11.7059
▁sweared	-11.7059
▁swinging	-11.7059
▁swipe	-11.7059
▁swirl	-11.7059
▁sword	-11.7059
▁swung	-11.7059
▁symptos	-11.7059
▁sync	-11.7059
▁syringe	-11.7059
▁syrup	-11.7059
▁systematically	-11.7059
▁t1	-11.7059
▁tackle	-11.7059
▁taiwan	-11.7059
▁takeout	-11.7059
▁talented	-11.7059
▁talentless	-11.7059
▁taller	-11.7059
▁tangent	-11.7059
▁tap	-11.7059
▁tapering	-11.7059
▁taping	-11.7059
▁targeted	-11.7059
▁tarnished	-11.7059
▁tasting	-11.7059
▁tat	-11.7059
▁taunting	-11.7059
▁tcas	-11.7059
▁teaching	-11.7059
▁teard	-11.7059
▁teariness	-11.7059
▁teary	-11.7059
▁technical	-11.7059
▁technically	-11.7059
▁teeter	-11.7059
▁teleport	-11.7059
▁teleworking	-11.7059
▁temazepam	-11.7059
▁temesta	-11.7059
▁tempered	-11.7059
▁temple	-11.7059
▁tenant	-11.7059
▁tenderness	-11.7059
▁tending	-11.7059
▁tendon	-11.7059
▁tensity	-11.7059
▁tenuously	-11.7059
▁terapist	-11.7059
▁terrain	-11.7059
▁terrifyingly	-11.7059
▁terrrifying	-11.7059
▁testify	-11.7059
▁tetanus	-11.7059
▁tether	-11.7059
▁tethered	-11.7059
▁tge	-11.7059
▁tha	-11.7059
▁thanking	-11.7059
▁thanksgiving	-11.7059
▁thankyou	-11.7059
▁thd	-11.7059
▁theater	-11.7059
▁theirkids	-11.7059
▁themself	-11.7059
▁theorising	-11.7059
▁theorist	-11.7059
▁theorize	-11.7059
▁therapeutic	-11.7059
▁thers	-11.7059
▁thesis	-11.7059
▁theyre	-11.7059
▁thickest	-11.7059
▁thinner	-11.7059
▁thinning	-11.7059
▁thirsty	-11.7059
▁thorough	-11.7059
▁thoroughly	-11.7059
▁thorugh	-11.7059
▁thoughtful	-11.7059
▁thoughtfully	-11.7059
▁threaten	-11.7059
▁threatining	-11.7059
▁threatment	-11.7059
▁thrifting	-11.7059
▁thrive	-11.7059
▁throb	-11.7059
▁thruth	-11.7059
▁tht	-11.7059
▁thud	-11.7059
▁thumbnail	-11.7059
▁thwarted	-11.7059
▁tia	-11.7059
▁ticked	-11.7059
▁ticket	-11.7059
▁ticking	-11.7059
▁tidying	-11.7059
▁tik	-11.7059
▁tiktok	-11.7059
▁tiktoks	-11.7059
▁timed	-11.7059
▁timely	-11.7059
▁timer	-11.7059
▁tincture	-11.7059
▁tiniest	-11.7059
▁tinnitus	-11.7059
▁tmi	-11.7059
▁tmr	-11.7059
▁toaster	-11.7059
▁toks	-11.7059
▁tolerable	-11.7059
▁tolerated	-11.7059
▁tolerating	-11.7059
▁tolstoy	-11.7059
▁tommorow	-11.7059
▁tommy	-11.7059
▁toned	-11.7059
▁tonsil	-11.7059
▁tonus	-11.7059
▁toothpaste	-11.7059
▁torchlight	-11.7059
▁tore	-11.7059
▁torn	-11.7059
▁toronto	-11.7059
▁tortilla	-11.7059
▁torturer	-11.7059
▁totalled	-11.7059
▁totter	-11.7059
▁tougher	-11.7059
▁toughness	-11.7059
▁toughst	-11.7059
▁towed	-11.7059
▁towel	-11.7059
▁toyota	-11.7059
▁tracing	-11.7059
▁tracking	-11.7059
▁traction	-11.7059
▁traded	-11.7059
▁tradesman	-11.7059
▁tragedy	-11.7059
▁transcranial_magnetic_stimulation	-11.7059
▁transexuality	-11.7059
▁transfer	-11.7059
▁transfered	-11.7059
▁transitioning	-11.7059
▁translated	-11.7059
▁translates	-11.7059
▁translating	-11.7059
▁transparency	-11.7059
▁transport	-11.7059
▁transportation	-11.7059
▁trap	-11.7059
▁trashy	-11.7059
▁traumatised	-11.7059
▁traumatising	-11.7059
▁traumatize	-11.7059
▁traumatizing	-11.7059
▁traveled	-11.7059
▁travelled	-11.7059
▁trazodone	-11.7059
▁tread	-11.7059
▁trek	-11.7059
▁trembly	-11.7059
▁trickling	-11.7059
▁tricky	-11.7059
▁trintellix	-11.7059
▁tripled	-11.7059
▁tripping	-11.7059
▁trite	-11.7059
▁troath	-11.7059
▁trooper	-11.7059
▁tropic	-11.7059
▁trotted	-11.7059
▁trouser	-11.7059
▁truck	-11.7059
▁trudge	-11.7059
▁trudging	-11.7059
▁truest	-11.7059
▁trully	-11.7059
▁trumatized	-11.7059
▁trump	-11.7059
▁trumpism	-11.7059
▁trusted	-11.7059
▁tuff	-11.7059
▁tugged	-11.7059
▁tuition	-11.7059
▁tulsi	-11.7059
▁tuned	-11.7059
▁turbulence	-11.7059
▁turmoil	-11.7059
▁turtle	-11.7059
▁twain	-11.7059
▁twinge	-11.7059
▁twisting	-11.7059
▁twitchy	-11.7059
▁uck	-11.7059
▁ughh	-11.7059
▁uhh	-11.7059
▁uke	-11.7059
▁ultimate	-11.7059
▁ummm	-11.7059
▁unacceptable	-11.7059
▁unadulterated	-11.7059
▁unashamedly	-11.7059
▁unassailable	-11.7059
▁unbalanced	-11.7059
▁unbeknownst	-11.7059
▁unbiased	-11.7059
▁unbound	-11.7059
▁uncalled	-11.7059
▁uncommon	-11.7059
▁unconcern	-11.7059
▁unconcerned	-11.7059
▁unconditional	-11.7059
▁unconfident	-11.7059
▁uncontrolled	-11.7059
▁und	-11.7059
▁underachievement	-11.7059
▁undergraduate	-11.7059
▁underneath	-11.7059
▁undeserving	-11.7059
▁undesirable	-11.7059
▁unduly	-11.7059
▁uneducated	-11.7059
▁unequivocally	-11.7059
▁unexpected	-11.7059
▁unexplainably	-11.7059
▁unexplained	-11.7059
▁unfamiliar	-11.7059
▁unfiltered	-11.7059
▁unfinished	-11.7059
▁unfollowed	-11.7059
▁unforeseen	-11.7059
▁unheard	-11.7059
▁uniform	-11.7059
▁uninspiring	-11.7059
▁unintentionally	-11.7059
▁unity	-11.7059
▁universally	-11.7059
▁uniwersity	-11.7059
▁unjustifiably	-11.7059
▁unkind	-11.7059
▁unkown	-11.7059
▁unleashed	-11.7059
▁unlikable	-11.7059
▁unlikely	-11.7059
▁unlocked	-11.7059
▁unlovable	-11.7059
▁unloyal	-11.7059
▁unmade	-11.7059
▁unmanageable	-11.7059
▁unnecessarily	-11.7059
▁unnecessary	-11.7059
▁unnessesary	-11.7059
▁unorganised	-11.7059
▁unpacking	-11.7059
▁unpopular	-11.7059
▁unprepared	-11.7059
▁unproductive	-11.7059
▁unreal	-11.7059
▁unrelated	-11.7059
▁unrelenting	-11.7059
▁unremarkable	-11.7059
▁unremitting	-11.7059
▁unresponsive	-11.7059
▁unromantic	-11.7059
▁unsatisfying	-11.7059
▁unseasoned	-11.7059
▁unstressed	-11.7059
▁unsweetened	-11.7059
▁untested	-11.7059
▁unto	-11.7059
▁untouch	-11.7059
▁untrue	-11.7059
▁unttill	-11.7059
▁unwilling	-11.7059
▁unwillingly	-11.7059
▁unwise	-11.7059
▁unworthiness	-11.7059
▁upbeat	-11.7059
▁update	-11.7059
▁upload	-11.7059
▁uploaded	-11.7059
▁uploading	-11.7059
▁upped	-11.7059
▁upsetting	-11.7059
▁upstate	-11.7059
▁upvote	-11.7059
▁upvots	-11.7059
▁upward	-11.7059
▁ure	-11.7059
▁usage	-11.7059
▁usefull	-11.7059
▁username	-11.7059
▁uso	-11.7059
▁usseles	-11.7059
▁uti	-11.7059
▁utility	-11.7059
▁utm_campaign	-11.7059
▁utm_content	-11.7059
▁utm_name	-11.7059
▁utmost	-11.7059
▁utterly	-11.7059
▁uve	-11.7059
▁vaca	-11.7059
▁vacuum	-11.7059
▁vacuumed	-11.7059
▁vagrant	-11.7059
▁vain	-11.7059
▁valdoxan	-11.7059
▁valerian	-11.7059
▁validate	-11.7059
▁valium	-11.7059
▁vape	-11.7059
▁variety	-11.7059
▁vast	-11.7059
▁vastly	-11.7059
▁veen	-11.7059
▁vegetative	-11.7059
▁veggie	-11.7059
▁vehemently	-11.7059
▁venmo	-11.7059
▁verdant	-11.7059
▁verify	-11.7059
▁versus	-11.7059
▁vest	-11.7059
▁vestige	-11.7059
▁veterinary	-11.7059
▁viable	-11.7059
▁vibrant	-11.7059
▁victimizing	-11.7059
▁videogamer	-11.7059
▁videogaming	-11.7059
▁viewed	-11.7059
▁vigilant	-11.7059
▁vile	-11.7059
▁viola	-11.7059
▁violate	-11.7059
▁violently	-11.7059
▁violin	-11.7059
▁vip	-11.7059
▁virginity	-11.7059
▁visual	-11.7059
▁visualizing	-11.7059
▁vital	-11.7059
▁vitals	-11.7059
▁vividly	-11.7059
▁vocabulary	-11.7059
▁vocal	-11.7059
▁vocational	-11.7059
▁voicing	-11.7059
▁volcanic	-11.7059
▁volcano	-11.7059
▁volume	-11.7059
▁voluntarily	-11.7059
▁volunteer	-11.7059
▁vortex	-11.7059
▁vortioxetine	-11.7059
▁vu	-11.7059
▁vulnerably	-11.7059
▁vyvanse	-11.7059
▁waaaaay	-11.7059
▁wageslave	-11.7059
▁waistband	-11.7059
▁waiter	-11.7059
▁waitlisted	-11.7059
▁waitstaff	-11.7059
▁wajt	-11.7059
▁wakeful	-11.7059
▁wakeup	-11.7059
▁wallowing	-11.7059
▁wallpaper	-11.7059
▁wanders	-11.7059
▁wane	-11.7059
▁waned	-11.7059
▁wanne	-11.7059
▁warms	-11.7059
▁warmth	-11.7059
▁warn	-11.7059
▁warrant	-11.7059
▁warranty	-11.7059
▁washed	-11.7059
▁washer	-11.7059
▁wasteful	-11.7059
▁waster	-11.7059
▁watered	-11.7059
▁watering	-11.7059
▁watery	-11.7059
▁wavered	-11.7059
▁wax	-11.7059
▁waxed	-11.7059
▁wazoo	-11.7059
▁wbc	-11.7059
▁weaker	-11.7059
▁wealth	-11.7059
▁wealthy	-11.7059
▁wean	-11.7059
▁weaning	-11.7059
▁weapon	-11.7059
