▁like	-4.15829
<s>	0
</s>	0
<unk>	0
▁wa	-4.19582
▁feel	-4.22662
▁anxiety	-4.61568
▁get	-4.64074
▁know	-4.66223
▁time	-4.79146
▁want	-4.83049
▁even	-4.88677
▁life	-4.97858
▁day	-4.99214
▁really	-4.99311
▁year	-5.08501
▁thing	-5.10554
▁people	-5.20173
▁think	-5.26626
▁ha	-5.27657
▁one	-5.28961
▁go	-5.34353
▁make	-5.34492
▁would	-5.34631
▁friend	-5.37448
▁help	-5.38021
▁going	-5.40641
▁much	-5.43029
▁something	-5.50231
▁never	-5.52033
▁feeling	-5.52198
▁thought	-5.537
▁work	-5.57119
▁back	-5.62845
▁anyone	-5.6377
▁got	-5.67365
▁always	-5.69902
▁still	-5.71095
▁anything	-5.71295
▁also	-5.74969
▁bad	-5.75386
▁job	-5.75804
▁could	-5.79216
▁way	-5.79216
▁good	-5.81854
▁depression	-5.82973
▁take	-5.82973
▁_	-5.85021
▁every	-5.86177
▁getting	-5.86644
▁need	-5.87347
▁since	-5.88055
▁someone	-5.8853
▁month	-5.89969
▁better	-5.91184
▁week	-5.91674
▁everything	-5.93409
▁started	-5.93911
▁say	-5.94667
▁last	-5.96972
▁school	-5.96972
▁attack	-6.03945
▁see	-6.04502
▁lot	-6.04782
▁point	-6.05909
▁try	-6.10251
▁else	-6.11442
▁first	-6.12042
▁anxious	-6.12344
▁panic	-6.14791
▁family	-6.15101
▁anymore	-6.15412
▁hate	-6.15724
▁right	-6.16037
▁person	-6.17935
▁around	-6.18577
▁nothing	-6.19546
▁ever	-6.21845
▁talk	-6.22178
▁trying	-6.22178
▁long	-6.22511
▁well	-6.22511
▁felt	-6.23858
▁tell	-6.23858
▁hard	-6.2488
▁thinking	-6.25223
▁everyone	-6.25568
▁im	-6.27658
▁keep	-6.2872
▁away	-6.29077
▁made	-6.29435
▁able	-6.29794
▁stop	-6.30516
▁new	-6.31976
▁said	-6.32344
▁come	-6.33831
▁start	-6.34583
▁love	-6.34961
▁worse	-6.3534
▁2	-6.35721
▁find	-6.36488
▁past	-6.36873
▁ago	-6.39613
▁told	-6.39613
▁actually	-6.41213
▁doe	-6.41213
▁end	-6.41213
▁maybe	-6.42839
▁alone	-6.43662
▁went	-6.44076
▁though	-6.44909
▁sometimes	-6.45329
▁sleep	-6.46173
▁live	-6.47024
▁home	-6.47452
▁sure	-6.47452
▁night	-6.47882
▁give	-6.48314
▁little	-6.48748
▁parent	-6.49621
▁look	-6.50061
▁scared	-6.50061
▁happy	-6.50946
▁almost	-6.51839
▁care	-6.51839
▁today	-6.52288
▁reason	-6.53193
▁problem	-6.54106
▁best	-6.54566
▁tried	-6.54566
▁hour	-6.55958
▁many	-6.55958
▁health	-6.56427
▁mental	-6.56427
▁pain	-6.56427
▁two	-6.58322
▁enough	-6.58802
▁mind	-6.58802
▁cry	-6.60255
▁without	-6.60255
▁fucking	-6.60744
▁body	-6.61729
▁head	-6.62724
▁shit	-6.62724
▁taking	-6.63729
▁therapy	-6.64744
▁depressed	-6.6577
▁done	-6.66287
▁issue	-6.66287
▁medication	-6.66287
▁post	-6.66287
▁wanted	-6.66806
▁doctor	-6.67853
▁self	-6.67853
▁3	-6.68912
▁fear	-6.68912
▁making	-6.68912
▁place	-6.68912
▁experience	-6.71062
▁another	-6.72155
▁hope	-6.72155
▁tired	-6.72706
▁wrong	-6.7326
▁normal	-6.73817
▁pretty	-6.73817
▁used	-6.74941
▁relationship	-6.75507
▁heart	-6.76077
▁wish	-6.76077
▁dont	-6.7665
▁let	-6.77227
▁guy	-6.80159
▁social	-6.80159
▁working	-6.80159
▁advice	-6.80756
▁house	-6.80756
▁med	-6.82569
▁put	-6.82569
▁either	-6.83181
▁left	-6.85038
▁talking	-6.85665
▁please	-6.86931
▁understand	-6.8757
▁high	-6.88213
▁symptom	-6.88213
▁next	-6.88861
▁recently	-6.88861
▁whole	-6.88861
▁living	-6.89512
▁lost	-6.89512
▁part	-6.89512
▁cause	-6.90828
▁etc	-6.90828
▁bed	-6.91492
▁hurt	-6.93513
▁kind	-6.93513
▁might	-6.93513
▁probably	-6.93513
▁happened	-6.94195
▁world	-6.94195
▁already	-6.94882
▁amp	-6.94882
▁die	-6.96271
▁old	-6.96973
▁bit	-6.99108
▁took	-6.99108
▁sick	-6.9983
▁couple	-7.00558
▁brain	-7.0129
▁finally	-7.0129
▁mom	-7.0129
▁real	-7.0129
▁side	-7.02028
▁fine	-7.02772
▁sorry	-7.02772
▁stay	-7.02772
▁seems	-7.03521
▁situation	-7.03521
▁mean	-7.04276
▁due	-7.05036
▁literally	-7.05036
▁call	-7.05802
▁looking	-7.05802
▁moment	-7.05802
▁sad	-7.06575
▁constantly	-7.07353
▁therapist	-7.07353
▁4	-7.08137
▁college	-7.08137
▁5	-7.08928
▁covid	-7.08928
▁least	-7.09724
▁leave	-7.10528
▁stuff	-7.10528
▁afraid	-7.12154
▁different	-7.12154
▁guess	-7.12154
▁honestly	-7.12154
▁yet	-7.12154
▁room	-7.12977
▁found	-7.13807
▁okay	-7.14643
▁u	-7.14643
▁gonna	-7.15487
▁saying	-7.15487
▁change	-7.18063
▁happen	-7.18063
▁remember	-7.18063
▁eat	-7.19817
▁matter	-7.19817
▁worst	-7.19817
▁completely	-7.20706
▁fuck	-7.20706
▁money	-7.20706
▁read	-7.20706
▁seem	-7.20706
▁others	-7.21603
▁close	-7.22508
▁everyday	-7.22508
▁second	-7.22508
▁came	-7.23421
▁effect	-7.23421
▁minute	-7.23421
▁diagnosed	-7.24343
▁ask	-7.25273
▁gone	-7.25273
▁starting	-7.25273
▁weird	-7.25273
▁class	-7.26212
▁usually	-7.26212
▁great	-7.2716
▁morning	-7.2716
▁struggling	-7.2716
▁worried	-7.2716
▁gotten	-7.28117
▁stress	-7.29083
▁worry	-7.29083
▁basically	-7.30059
▁kid	-7.30059
▁may	-7.30059
▁question	-7.30059
▁together	-7.30059
▁dad	-7.31044
▁hit	-7.31044
▁stupid	-7.31044
▁1	-7.32039
▁idea	-7.32039
▁kill	-7.33044
▁future	-7.34059
▁telling	-7.34059
▁break	-7.35085
▁wanna	-7.35085
▁big	-7.36121
▁control	-7.36121
▁helped	-7.36121
▁deal	-7.37168
▁asked	-7.38226
▁cant	-7.38226
▁face	-7.38226
▁idk	-7.38226
▁sound	-7.38226
▁10	-7.39296
▁barely	-7.39296
▁far	-7.39296
▁grade	-7.39296
▁thank	-7.39296
▁mother	-7.40377
▁needed	-7.40377
▁become	-7.4147
▁hand	-7.4147
▁soon	-7.4147
▁currently	-7.42575
▁stopped	-7.42575
▁eating	-7.43692
▁full	-7.44822
▁game	-7.44822
▁thanks	-7.44822
▁half	-7.45965
▁phone	-7.45965
▁sense	-7.45965
▁chest	-7.47121
▁later	-7.47121
▁outside	-7.47121
▁suicidal	-7.47121
▁coming	-7.48291
▁especially	-7.48291
▁girl	-7.48291
▁reading	-7.48291
▁support	-7.48291
▁believe	-7.49474
▁energy	-7.49474
▁fact	-7.49474
▁food	-7.49474
▁super	-7.50672
▁test	-7.50672
▁death	-7.51884
▁hear	-7.51884
▁stuck	-7.51884
▁wake	-7.51884
▁6	-7.53111
▁crazy	-7.53111
▁decided	-7.53111
▁disorder	-7.53111
▁online	-7.53111
▁psychiatrist	-7.53111
▁severe	-7.54353
▁called	-7.55611
▁eye	-7.55611
▁open	-7.55611
▁pay	-7.55611
▁seeing	-7.55611
▁suck	-7.55611
▁use	-7.55611
▁word	-7.55611
▁ended	-7.56885
▁extremely	-7.56885
▁happens	-7.56885
▁low	-7.58175
▁move	-7.58175
▁state	-7.58175
▁tip	-7.58175
▁x200b	-7.58175
▁calm	-7.59482
▁cut	-7.59482
▁gave	-7.59482
▁girlfriend	-7.59482
▁inside	-7.59482
▁nice	-7.59482
▁often	-7.59482
▁struggle	-7.59482
▁turn	-7.59482
▁emotion	-7.60807
▁focus	-7.60807
▁le	-7.60807
▁negative	-7.62149
▁car	-7.6351
▁hell	-7.6351
▁hi	-7.6351
▁suicide	-7.6351
▁worked	-7.6351
▁course	-7.64889
▁instead	-7.64889
▁single	-7.64889
▁sister	-7.64889
▁age	-7.66288
▁breathing	-7.66288
▁conversation	-7.66288
▁dead	-7.66288
▁group	-7.66288
▁kinda	-7.66288
▁plan	-7.66288
▁terrible	-7.66288
▁whenever	-7.66288
▁asking	-7.67706
▁video	-7.67706
▁walk	-7.67706
▁daily	-7.69145
▁dealing	-7.69145
▁however	-7.69145
▁weight	-7.69145
▁hey	-7.70605
▁terrified	-7.70605
▁watching	-7.70605
▁horrible	-7.72087
▁share	-7.72087
▁suffer	-7.72087
▁20	-7.7359
▁motivation	-7.7359
▁quite	-7.7359
▁show	-7.7359
▁small	-7.7359
▁study	-7.7359
▁yesterday	-7.7359
▁awful	-7.75117
▁fight	-7.75117
▁nobody	-7.75117
▁noticed	-7.75117
▁partner	-7.75117
▁physical	-7.75117
▁sit	-7.75117
▁absolutely	-7.76667
▁child	-7.76667
▁eventually	-7.76667
▁man	-7.76667
▁mentally	-7.76667
▁reddit	-7.76667
▁story	-7.76667
▁happening	-7.78242
▁miss	-7.78242
▁nervous	-7.78242
▁seen	-7.78242
▁tomorrow	-7.78242
▁trigger	-7.78242
▁drive	-7.79842
▁fall	-7.79842
▁fun	-7.79842
▁ive	-7.79842
▁longer	-7.79842
▁ok	-7.79842
▁pandemic	-7.79842
▁stomach	-7.79842
▁stressed	-7.79842
▁wondering	-7.79842
▁30	-7.81468
▁possible	-7.81468
▁suffering	-7.81468
▁whatever	-7.81468
▁answer	-7.83121
▁anyway	-7.83121
▁blood	-7.83121
▁chance	-7.83121
▁early	-7.83121
▁free	-7.83121
▁hold	-7.83121
▁lately	-7.83121
▁pill	-7.83121
▁saw	-7.83121
▁similar	-7.83121
▁three	-7.83121
▁wanting	-7.83121
▁cannot	-7.84802
▁empty	-7.84802
▁entire	-7.84802
▁given	-7.84802
▁knew	-7.84802
▁rest	-7.84802
▁giving	-7.86512
▁late	-7.86512
▁lose	-7.86512
▁rather	-7.86512
▁taken	-7.86512
▁truly	-7.86512
▁writing	-7.86512
▁8	-7.88251
▁brother	-7.88251
▁difficult	-7.88251
▁dose	-7.88251
▁fast	-7.88251
▁fix	-7.88251
▁healthy	-7.88251
▁kept	-7.88251
▁music	-7.88251
▁top	-7.88251
▁water	-7.88251
▁appointment	-7.90021
▁boyfriend	-7.90021
▁constant	-7.90021
▁deep	-7.90021
▁episode	-7.90021
▁prescribed	-7.90021
▁sort	-7.90021
▁write	-7.90021
▁broke	-7.91822
▁enjoy	-7.91822
▁forward	-7.91822
▁helpful	-7.91822
▁mood	-7.91822
▁sleeping	-7.91822
▁oh	-7.93657
▁play	-7.93657
▁level	-7.95527
▁lonely	-7.95527
▁losing	-7.95527
▁supposed	-7.95527
▁god	-7.97431
▁met	-7.97431
▁sitting	-7.97431
▁step	-7.97431
▁worth	-7.97431
▁experienced	-7.99373
▁handle	-7.99373
▁hello	-7.99373
▁hospital	-7.99373
▁human	-7.99373
▁loved	-7.99373
▁quit	-7.99373
▁term	-7.99373
▁watch	-7.99373
▁caused	-8.01353
▁comfortable	-8.01353
▁dream	-8.01353
▁fucked	-8.01353
▁message	-8.01353
▁moved	-8.01353
▁notice	-8.01353
▁related	-8.01353
▁short	-8.01353
▁angry	-8.03374
▁attention	-8.03374
▁behind	-8.03374
▁definitely	-8.03374
▁dog	-8.03374
▁drink	-8.03374
▁exercise	-8.03374
▁happiness	-8.03374
▁mostly	-8.03374
▁physically	-8.03374
▁playing	-8.03374
▁pressure	-8.03374
▁seriously	-8.03374
▁spend	-8.03374
▁breathe	-8.05436
▁country	-8.05436
▁except	-8.05436
▁forget	-8.05436
▁must	-8.05436
▁ocd	-8.05436
▁option	-8.05436
▁run	-8.05436
▁speak	-8.05436
▁spent	-8.05436
▁uncomfortable	-8.05436
▁waiting	-8.05436
▁case	-8.07541
▁despite	-8.07541
▁general	-8.07541
▁helping	-8.07541
▁huge	-8.07541
▁illness	-8.07541
▁knowing	-8.07541
▁posting	-8.07541
▁although	-8.09692
▁breath	-8.09692
▁comment	-8.09692
▁date	-8.09692
▁easy	-8.09692
▁example	-8.09692
▁front	-8.09692
▁pas	-8.09692
▁several	-8.09692
▁talked	-8.09692
▁type	-8.09692
▁yes	-8.09692
▁antidepressant	-8.1189
▁became	-8.1189
▁cope	-8.1189
▁emotional	-8.1189
▁explain	-8.1189
▁father	-8.1189
▁important	-8.1189
▁moving	-8.1189
▁numb	-8.1189
▁realize	-8.1189
▁safe	-8.1189
▁semester	-8.1189
▁wait	-8.1189
▁door	-8.14137
▁driving	-8.14137
▁learn	-8.14137
▁listen	-8.14137
▁lol	-8.14137
▁middle	-8.14137
▁period	-8.14137
▁seemed	-8.14137
▁suddenly	-8.14137
▁voice	-8.14137
▁act	-8.16436
▁alive	-8.16436
▁bring	-8.16436
▁drinking	-8.16436
▁drug	-8.16436
▁dying	-8.16436
▁http	-8.16436
▁lack	-8.16436
▁managed	-8.16436
▁random	-8.16436
▁realized	-8.16436
▁simple	-8.16436
▁university	-8.16436
▁whether	-8.16436
▁woke	-8.16436
▁avoid	-8.18789
▁book	-8.18789
▁choice	-8.18789
▁company	-8.18789
▁contact	-8.18789
▁exhausted	-8.18789
▁forever	-8.18789
▁genuinely	-8.18789
▁leaving	-8.18789
▁meet	-8.18789
▁reality	-8.18789
▁result	-8.18789
▁running	-8.18789
▁somehow	-8.18789
▁strong	-8.18789
▁student	-8.18789
▁worrying	-8.18789
▁young	-8.18789
▁attempt	-8.21199
▁cold	-8.21199
▁guilty	-8.21199
▁heard	-8.21199
▁joke	-8.21199
▁leg	-8.21199
▁manage	-8.21199
▁mistake	-8.21199
▁passed	-8.21199
▁sent	-8.21199
▁text	-8.21199
▁turned	-8.21199
▁along	-8.23668
▁apart	-8.23668
▁birthday	-8.23668
▁busy	-8.23668
▁career	-8.23668
▁check	-8.23668
▁deserve	-8.23668
▁dumb	-8.23668
▁event	-8.23668
▁hole	-8.23668
▁mad	-8.23668
▁mine	-8.23668
▁miserable	-8.23668
▁positive	-8.23668
▁shaking	-8.23668
▁sign	-8.23668
▁straight	-8.23668
▁summer	-8.23668
▁towards	-8.23668
▁trust	-8.23668
▁upset	-8.23668
▁burden	-8.262
▁fault	-8.262
▁listening	-8.262
▁major	-8.262
▁none	-8.262
▁push	-8.262
▁serious	-8.262
▁shitty	-8.262
▁simply	-8.262
▁stand	-8.262
▁triggered	-8.262
▁using	-8.262
▁vaccine	-8.262
▁15	-8.28797
▁amount	-8.28797
▁continue	-8.28797
▁exactly	-8.28797
▁figure	-8.28797
▁finding	-8.28797
▁fit	-8.28797
▁form	-8.28797
▁husband	-8.28797
▁lie	-8.28797
▁movie	-8.28797
▁older	-8.28797
▁personal	-8.28797
▁present	-8.28797
▁useless	-8.28797
▁adult	-8.31464
▁asleep	-8.31464
▁aware	-8.31464
▁certain	-8.31464
▁effort	-8.31464
▁er	-8.31464
▁escape	-8.31464
▁gad	-8.31464
▁imagine	-8.31464
▁immediately	-8.31464
▁incredibly	-8.31464
▁killing	-8.31464
▁medical	-8.31464
▁memory	-8.31464
▁mess	-8.31464
▁nausea	-8.31464
▁paranoid	-8.31464
▁reach	-8.31464
▁relax	-8.31464
▁slowly	-8.31464
▁tonight	-8.31464
▁tough	-8.31464
▁true	-8.31464
▁unable	-8.31464
▁yeah	-8.31464
▁anybody	-8.34204
▁appreciated	-8.34204
▁dark	-8.34204
▁experiencing	-8.34204
▁finish	-8.34204
▁fully	-8.34204
▁hang	-8.34204
▁hoping	-8.34204
▁lead	-8.34204
▁looked	-8.34204
▁multiple	-8.34204
▁near	-8.34204
▁proud	-8.34204
▁shut	-8.34204
▁throughout	-8.34204
▁twice	-8.34204
▁within	-8.34204
▁16	-8.37021
▁24	-8.37021
▁area	-8.37021
▁causing	-8.37021
▁confidence	-8.37021
▁damn	-8.37021
▁died	-8.37021
▁excited	-8.37021
▁force	-8.37021
▁hair	-8.37021
▁interest	-8.37021
▁process	-8.37021
▁response	-8.37021
▁skill	-8.37021
▁skin	-8.37021
▁space	-8.37021
▁task	-8.37021
▁toxic	-8.37021
▁treat	-8.37021
▁waking	-8.37021
▁zoloft	-8.37021
▁becoming	-8.3992
▁breakdown	-8.3992
▁cycle	-8.3992
▁exam	-8.3992
▁function	-8.3992
▁hobby	-8.3992
▁ill	-8.3992
▁normally	-8.3992
▁personality	-8.3992
▁quickly	-8.3992
▁relate	-8.3992
▁stressful	-8.3992
▁teacher	-8.3992
▁tear	-8.3992
▁weak	-8.3992
▁wonder	-8.3992
▁actual	-8.42905
▁amazing	-8.42905
▁anger	-8.42905
▁annoying	-8.42905
▁app	-8.42905
▁arm	-8.42905
▁began	-8.42905
▁bos	-8.42905
▁cat	-8.42905
▁extreme	-8.42905
▁failed	-8.42905
▁foot	-8.42905
▁harm	-8.42905
▁name	-8.42905
▁offer	-8.42905
▁office	-8.42905
▁overwhelmed	-8.42905
▁selfish	-8.42905
▁set	-8.42905
▁slow	-8.42905
▁teeth	-8.42905
▁unfortunately	-8.42905
▁walking	-8.42905
▁waste	-8.42905
▁weekend	-8.42905
▁wife	-8.42905
▁anyways	-8.45982
▁appreciate	-8.45982
▁childhood	-8.45982
▁comfort	-8.45982
▁decision	-8.45982
▁degree	-8.45982
▁depressive	-8.45982
▁describe	-8.45982
▁fake	-8.45982
▁lexapro	-8.45982
▁loss	-8.45982
▁return	-8.45982
▁somewhere	-8.45982
▁sub	-8.45982
▁throat	-8.45982
▁18	-8.49157
▁adhd	-8.49157
▁alcohol	-8.49157
▁apartment	-8.49157
▁cancer	-8.49157
▁changed	-8.49157
▁detail	-8.49157
▁diagnosis	-8.49157
▁exist	-8.49157
▁harder	-8.49157
▁hopefully	-8.49157
▁including	-8.49157
▁interested	-8.49157
▁keeping	-8.49157
▁lazy	-8.49157
▁meant	-8.49157
▁overcome	-8.49157
▁painful	-8.49157
▁peace	-8.49157
▁piece	-8.49157
▁psychologist	-8.49157
▁ready	-8.49157
▁sensation	-8.49157
▁smile	-8.49157
▁system	-8.49157
▁trouble	-8.49157
▁truth	-8.49157
▁understanding	-8.49157
▁younger	-8.49157
▁anti	-8.52436
▁bc	-8.52436
▁bother	-8.52436
▁calling	-8.52436
▁common	-8.52436
▁cried	-8.52436
▁dr	-8.52436
▁emptypost	-8.52436
▁fighting	-8.52436
▁interview	-8.52436
▁intrusive	-8.52436
▁laugh	-8.52436
▁medicine	-8.52436
▁meeting	-8.52436
▁missed	-8.52436
▁order	-8.52436
▁professional	-8.52436
▁putting	-8.52436
▁sadness	-8.52436
▁shower	-8.52436
▁subreddit	-8.52436
▁thats	-8.52436
▁usual	-8.52436
▁2020	-8.55826
▁abusive	-8.55826
▁across	-8.55826
▁badly	-8.55826
▁bunch	-8.55826
▁confused	-8.55826
▁dread	-8.55826
▁edit	-8.55826
▁emotionally	-8.55826
▁falling	-8.55826
▁goal	-8.55826
▁headache	-8.55826
▁honest	-8.55826
▁improve	-8.55826
▁lay	-8.55826
▁letting	-8.55826
▁light	-8.55826
▁lockdown	-8.55826
▁member	-8.55826
▁nowhere	-8.55826
▁overthinking	-8.55826
▁session	-8.55826
▁shot	-8.55826
▁spiral	-8.55826
▁studying	-8.55826
▁tho	-8.55826
▁treatment	-8.55826
▁worthless	-8.55826
▁beat	-8.59335
▁community	-8.59335
▁coping	-8.59335
▁dealt	-8.59335
▁easier	-8.59335
▁ex	-8.59335
▁excuse	-8.59335
▁failure	-8.59335
▁final	-8.59335
▁freaking	-8.59335
▁guilt	-8.59335
▁habit	-8.59335
▁ignore	-8.59335
▁known	-8.59335
▁liked	-8.59335
▁mouth	-8.59335
▁perfect	-8.59335
▁purpose	-8.59335
▁r	-8.59335
▁rate	-8.59335
▁shake	-8.59335
▁soul	-8.59335
▁specific	-8.59335
▁title	-8.59335
▁trapped	-8.59335
▁woman	-8.59335
▁21	-8.62972
▁accept	-8.62972
▁begin	-8.62972
▁beginning	-8.62972
▁born	-8.62972
▁broken	-8.62972
▁complete	-8.62972
▁condition	-8.62972
▁confident	-8.62972
▁considering	-8.62972
▁dating	-8.62972
▁everytime	-8.62972
▁forgot	-8.62972
▁gym	-8.62972
▁impossible	-8.62972
▁intense	-8.62972
▁luck	-8.62972
▁nightmare	-8.62972
▁obviously	-8.62972
▁per	-8.62972
▁plus	-8.62972
▁racing	-8.62972
▁rough	-8.62972
▁son	-8.62972
▁ssri	-8.62972
▁struggled	-8.62972
▁unless	-8.62972
▁vent	-8.62972
▁50	-8.66746
▁affect	-8.66746
▁allowed	-8.66746
▁blame	-8.66746
▁conscious	-8.66746
▁current	-8.66746
▁fat	-8.66746
▁friendship	-8.66746
▁hated	-8.66746
▁internet	-8.66746
▁likely	-8.66746
▁lower	-8.66746
▁manager	-8.66746
▁mg	-8.66746
▁noise	-8.66746
▁pick	-8.66746
▁progress	-8.66746
▁regret	-8.66746
▁scary	-8.66746
▁sibling	-8.66746
▁solution	-8.66746
▁speaking	-8.66746
▁urge	-8.66746
▁visit	-8.66746
▁alright	-8.70668
▁anywhere	-8.70668
▁breaking	-8.70668
▁difference	-8.70668
▁doubt	-8.70668
▁easily	-8.70668
▁email	-8.70668
▁english	-8.70668
▁fail	-8.70668
▁fell	-8.70668
▁forced	-8.70668
▁funny	-8.70668
▁lying	-8.70668
▁male	-8.70668
▁mask	-8.70668
▁nearly	-8.70668
▁overall	-8.70668
▁practice	-8.70668
▁quiet	-8.70668
▁reaction	-8.70668
▁save	-8.70668
▁scare	-8.70668
▁store	-8.70668
▁suffered	-8.70668
▁supportive	-8.70668
▁throw	-8.70668
▁till	-8.70668
▁topic	-8.70668
▁touch	-8.70668
▁trauma	-8.70668
▁wall	-8.70668
▁accepted	-8.7475
▁account	-8.7475
▁awkward	-8.7475
▁baby	-8.7475
▁beyond	-8.7475
▁clear	-8.7475
▁consider	-8.7475
▁desire	-8.7475
▁didnt	-8.7475
▁failing	-8.7475
▁freak	-8.7475
▁gain	-8.7475
▁hurting	-8.7475
▁insane	-8.7475
▁loud	-8.7475
▁mention	-8.7475
▁mentioned	-8.7475
▁messed	-8.7475
▁panicking	-8.7475
▁passing	-8.7475
▁patient	-8.7475
▁prescription	-8.7475
▁rarely	-8.7475
▁smoking	-8.7475
▁staying	-8.7475
▁youtube	-8.7475
▁12	-8.79006
▁22	-8.79006
▁23	-8.79006
▁advance	-8.79006
▁apparently	-8.79006
▁besides	-8.79006
▁city	-8.79006
▁com	-8.79006
▁cuz	-8.79006
▁earlier	-8.79006
▁expect	-8.79006
▁google	-8.79006
▁greatly	-8.79006
▁information	-8.79006
▁interaction	-8.79006
▁joy	-8.79006
▁learned	-8.79006
▁main	-8.79006
▁medium	-8.79006
▁missing	-8.79006
▁mum	-8.79006
▁possibly	-8.79006
▁productive	-8.79006
▁project	-8.79006
▁risk	-8.79006
▁smoke	-8.79006
▁society	-8.79006
▁trip	-8.79006
▁ugly	-8.79006
▁25	-8.83452
▁ability	-8.83452
▁argument	-8.83452
▁bill	-8.83452
▁caught	-8.83452
▁embarrassed	-8.83452
▁ending	-8.83452
▁everybody	-8.83452
▁existence	-8.83452
▁expecting	-8.83452
▁extra	-8.83452
▁growing	-8.83452
▁hearing	-8.83452
▁heavy	-8.83452
▁judge	-8.83452
▁learning	-8.83452
▁lived	-8.83452
▁muscle	-8.83452
▁poor	-8.83452
▁rant	-8.83452
▁relief	-8.83452
▁sex	-8.83452
▁somewhat	-8.83452
▁song	-8.83452
▁spot	-8.83452
▁successful	-8.83452
▁throwing	-8.83452
▁totally	-8.83452
▁uni	-8.83452
▁weed	-8.83452
▁withdrawal	-8.83452
▁wonderful	-8.83452
▁xanax	-8.83452
▁100	-8.88104
▁11	-8.88104
▁action	-8.88104
▁add	-8.88104
▁afford	-8.88104
▁assignment	-8.88104
▁building	-8.88104
▁buy	-8.88104
▁caring	-8.88104
▁cbt	-8.88104
▁clean	-8.88104
▁clothes	-8.88104
▁commit	-8.88104
▁computer	-8.88104
▁context	-8.88104
▁convinced	-8.88104
▁cutting	-8.88104
▁developed	-8.88104
▁dizzy	-8.88104
▁doc	-8.88104
▁finger	-8.88104
▁following	-8.88104
▁four	-8.88104
▁frustrated	-8.88104
▁generally	-8.88104
▁mid	-8.88104
▁numbness	-8.88104
▁opportunity	-8.88104
▁overwhelming	-8.88104
▁potential	-8.88104
▁seek	-8.88104
▁site	-8.88104
▁smart	-8.88104
▁stable	-8.88104
▁stayed	-8.88104
▁suggestion	-8.88104
▁ton	-8.88104
▁wellbutrin	-8.88104
▁abuse	-8.92983
▁assume	-8.92983
▁black	-8.92983
▁bottom	-8.92983
▁brought	-8.92983
▁build	-8.92983
▁caffeine	-8.92983
▁chronic	-8.92983
▁clearly	-8.92983
▁considered	-8.92983
▁crap	-8.92983
▁field	-8.92983
▁filled	-8.92983
▁functioning	-8.92983
▁grew	-8.92983
▁hanging	-8.92983
▁hide	-8.92983
▁hot	-8.92983
▁infection	-8.92983
▁insurance	-8.92983
▁irrational	-8.92983
▁list	-8.92983
▁mild	-8.92983
▁opening	-8.92983
▁opinion	-8.92983
▁personally	-8.92983
▁pound	-8.92983
▁public	-8.92983
▁ran	-8.92983
▁reply	-8.92983
▁rid	-8.92983
▁rn	-8.92983
▁ruin	-8.92983
▁september	-8.92983
▁specifically	-8.92983
▁success	-8.92983
▁sudden	-8.92983
▁suggested	-8.92983
▁various	-8.92983
▁view	-8.92983
▁violent	-8.92983
▁wear	-8.92983
▁14	-8.98112
▁aspect	-8.98112
▁background	-8.98112
▁bathroom	-8.98112
▁bottle	-8.98112
▁bullshit	-8.98112
▁catch	-8.98112
▁checked	-8.98112
▁choose	-8.98112
▁compared	-8.98112
▁connect	-8.98112
▁deeper	-8.98112
▁depressant	-8.98112
▁dosage	-8.98112
▁drop	-8.98112
▁dropped	-8.98112
▁hopeless	-8.98112
▁line	-8.98112
▁mode	-8.98112
▁neck	-8.98112
▁note	-8.98112
▁pm	-8.98112
▁posted	-8.98112
▁pretend	-8.98112
▁properly	-8.98112
▁ptsd	-8.98112
▁restaurant	-8.98112
▁road	-8.98112
▁rude	-8.98112
▁schedule	-8.98112
▁scream	-8.98112
▁shift	-8.98112
▁strange	-8.98112
▁surgery	-8.98112
▁treated	-8.98112
▁wasting	-8.98112
▁www	-8.98112
▁13	-9.03519
▁absolute	-9.03519
▁acting	-9.03519
▁allow	-9.03519
▁art	-9.03519
▁battle	-9.03519
▁bf	-9.03519
▁bipolar	-9.03519
▁boring	-9.03519
▁brings	-9.03519
▁co	-9.03519
▁courage	-9.03519
▁cover	-9.03519
▁crippling	-9.03519
▁disease	-9.03519
▁distract	-9.03519
▁drained	-9.03519
▁edge	-9.03519
▁everywhere	-9.03519
▁express	-9.03519
▁f	-9.03519
▁fair	-9.03519
▁graduate	-9.03519
▁grateful	-9.03519
▁hardly	-9.03519
▁history	-9.03519
▁image	-9.03519
▁laying	-9.03519
▁managing	-9.03519
▁meaning	-9.03519
▁method	-9.03519
▁nail	-9.03519
▁nauseous	-9.03519
▁nerve	-9.03519
▁opposite	-9.03519
▁paid	-9.03519
▁party	-9.03519
▁pathetic	-9.03519
▁planned	-9.03519
▁pointless	-9.03519
▁pull	-9.03519
▁responsibility	-9.03519
▁responsible	-9.03519
▁routine	-9.03519
▁rule	-9.03519
▁sat	-9.03519
▁sentence	-9.03519
▁shoulder	-9.03519
▁somebody	-9.03519
▁tl	-9.03519
▁wasted	-9.03519
▁worker	-9.03519
▁wrote	-9.03519
▁yelled	-9.03519
▁admit	-9.09234
▁apologize	-9.09234
▁april	-9.09234
▁ate	-9.09234
▁aunt	-9.09234
▁based	-9.09234
▁bought	-9.09234
▁burn	-9.09234
▁card	-9.09234
▁changing	-9.09234
▁chat	-9.09234
▁crisis	-9.09234
▁daughter	-9.09234
▁dentist	-9.09234
▁depressing	-9.09234
▁dinner	-9.09234
▁distance	-9.09234
▁dry	-9.09234
▁ear	-9.09234
▁fill	-9.09234
▁floor	-9.09234
▁follow	-9.09234
▁fresh	-9.09234
▁frustrating	-9.09234
▁gf	-9.09234
▁haha	-9.09234
▁hungry	-9.09234
▁increase	-9.09234
▁january	-9.09234
▁loneliness	-9.09234
▁loving	-9.09234
▁lucky	-9.09234
▁majority	-9.09234
▁march	-9.09234
▁married	-9.09234
▁massive	-9.09234
▁mechanism	-9.09234
▁non	-9.09234
▁nurse	-9.09234
▁odd	-9.09234
▁onto	-9.09234
▁opened	-9.09234
▁p	-9.09234
▁planning	-9.09234
▁position	-9.09234
▁previous	-9.09234
▁quick	-9.09234
▁regarding	-9.09234
▁rock	-9.09234
▁roof	-9.09234
▁rush	-9.09234
▁send	-9.09234
▁sensitive	-9.09234
▁staring	-9.09234
▁stick	-9.09234
▁stranger	-9.09234
▁switched	-9.09234
▁tend	-9.09234
▁tense	-9.09234
▁tv	-9.09234
▁vacation	-9.09234
▁value	-9.09234
▁wearing	-9.09234
▁willing	-9.09234
▁zero	-9.09234
▁0	-9.15297
▁accepting	-9.15297
▁anytime	-9.15297
▁aside	-9.15297
▁ball	-9.15297
▁beautiful	-9.15297
▁bored	-9.15297
▁bye	-9.15297
▁chore	-9.15297
▁closer	-9.15297
▁concerned	-9.15297
▁content	-9.15297
▁creative	-9.15297
▁e	-9.15297
▁embarrassing	-9.15297
▁environment	-9.15297
▁focusing	-9.15297
▁frequently	-9.15297
▁ghost	-9.15297
▁hug	-9.15297
▁id	-9.15297
▁ignored	-9.15297
▁insecurity	-9.15297
▁instantly	-9.15297
▁large	-9.15297
▁mainly	-9.15297
▁monday	-9.15297
▁october	-9.15297
▁paper	-9.15297
▁particularly	-9.15297
▁picture	-9.15297
▁program	-9.15297
▁pushed	-9.15297
▁reaching	-9.15297
▁react	-9.15297
▁realised	-9.15297
▁recent	-9.15297
▁research	-9.15297
▁saving	-9.15297
▁sexual	-9.15297
▁shy	-9.15297
▁socially	-9.15297
▁source	-9.15297
▁spiraling	-9.15297
▁strength	-9.15297
▁syndrome	-9.15297
▁tested	-9.15297
▁tingling	-9.15297
▁turning	-9.15297
▁typing	-9.15297
▁walked	-9.15297
▁welcome	-9.15297
▁wont	-9.15297
▁yell	-9.15297
▁yelling	-9.15297
▁access	-9.21751
▁accident	-9.21751
▁actively	-9.21751
▁affecting	-9.21751
▁air	-9.21751
▁appetite	-9.21751
▁application	-9.21751
▁asshole	-9.21751
▁b	-9.21751
▁benefit	-9.21751
▁bitch	-9.21751
▁camera	-9.21751
▁closest	-9.21751
▁crush	-9.21751
▁curious	-9.21751
▁disappointment	-9.21751
▁disgusting	-9.21751
▁distraction	-9.21751
▁dizziness	-9.21751
▁effective	-9.21751
▁exact	-9.21751
▁explained	-9.21751
▁faith	-9.21751
▁faking	-9.21751
▁fiance	-9.21751
▁fired	-9.21751
▁flat	-9.21751
▁flight	-9.21751
▁followed	-9.21751
▁gained	-9.21751
▁grow	-9.21751
▁hating	-9.21751
▁heavily	-9.21751
▁held	-9.21751
▁holding	-9.21751
▁insult	-9.21751
▁isnt	-9.21751
▁isolated	-9.21751
▁judged	-9.21751
▁kick	-9.21751
▁laughing	-9.21751
▁law	-9.21751
▁math	-9.21751
▁mile	-9.21751
▁otherwise	-9.21751
▁passion	-9.21751
▁perfectly	-9.21751
▁psych	-9.21751
▁randomly	-9.21751
▁refuse	-9.21751
▁repeat	-9.21751
▁shaky	-9.21751
▁showing	-9.21751
▁silent	-9.21751
▁slightly	-9.21751
▁stressing	-9.21751
▁sunday	-9.21751
▁survive	-9.21751
▁taste	-9.21751
▁teen	-9.21751
▁thousand	-9.21751
▁travel	-9.21751
▁ache	-9.2865
▁active	-9.2865
▁addicted	-9.2865
▁ahead	-9.2865
▁animal	-9.2865
▁applying	-9.2865
▁august	-9.2865
▁average	-9.2865
▁believing	-9.2865
▁bigger	-9.2865
▁biggest	-9.2865
▁bringing	-9.2865
▁bullied	-9.2865
▁character	-9.2865
▁checking	-9.2865
▁closed	-9.2865
▁connection	-9.2865
▁cost	-9.2865
▁coworkers	-9.2865
▁danger	-9.2865
▁debt	-9.2865
▁deeply	-9.2865
▁enjoyed	-9.2865
▁figured	-9.2865
▁finished	-9.2865
▁focused	-9.2865
▁friday	-9.2865
▁halfway	-9.2865
▁higher	-9.2865
▁idiot	-9.2865
▁letter	-9.2865
▁loop	-9.2865
▁meditation	-9.2865
▁motivated	-9.2865
▁noticing	-9.2865
▁obsessing	-9.2865
▁pissed	-9.2865
▁played	-9.2865
▁private	-9.2865
▁recognize	-9.2865
▁regular	-9.2865
▁respect	-9.2865
▁root	-9.2865
▁scenario	-9.2865
▁screaming	-9.2865
▁series	-9.2865
▁significant	-9.2865
▁silence	-9.2865
▁sore	-9.2865
▁stopping	-9.2865
▁stronger	-9.2865
▁texted	-9.2865
▁tightness	-9.2865
▁toll	-9.2865
▁track	-9.2865
▁triggering	-9.2865
▁unbearable	-9.2865
▁understands	-9.2865
▁vaccinated	-9.2865
▁zone	-9.2865
▁1st	-9.36061
▁2nd	-9.36061
▁5mg	-9.36061
▁activity	-9.36061
▁af	-9.36061
▁ashamed	-9.36061
▁attempted	-9.36061
▁autism	-9.36061
▁available	-9.36061
▁awareness	-9.36061
▁becomes	-9.36061
▁bedroom	-9.36061
▁behavior	-9.36061
▁bothering	-9.36061
▁brush	-9.36061
▁built	-9.36061
▁business	-9.36061
▁buying	-9.36061
▁c	-9.36061
▁center	-9.36061
▁convince	-9.36061
▁couch	-9.36061
▁counselor	-9.36061
▁counter	-9.36061
▁cousin	-9.36061
▁desperate	-9.36061
▁destroyed	-9.36061
▁difficulty	-9.36061
▁dressed	-9.36061
▁ease	-9.36061
▁endless	-9.36061
▁esteem	-9.36061
▁fire	-9.36061
▁fog	-9.36061
▁glad	-9.36061
▁graduated	-9.36061
▁grandma	-9.36061
▁hiding	-9.36061
▁hr	-9.36061
▁increased	-9.36061
▁insomnia	-9.36061
▁interesting	-9.36061
▁irritated	-9.36061
▁j	-9.36061
▁knee	-9.36061
▁language	-9.36061
▁lesson	-9.36061
▁limited	-9.36061
▁loser	-9.36061
▁luckily	-9.36061
▁marfans	-9.36061
▁meal	-9.36061
▁monster	-9.36061
▁naturally	-9.36061
▁paranoia	-9.36061
▁pop	-9.36061
▁power	-9.36061
▁recommended	-9.36061
▁recovery	-9.36061
▁relaxed	-9.36061
▁religion	-9.36061
▁requires	-9.36061
▁role	-9.36061
▁roommate	-9.36061
▁sale	-9.36061
▁seeking	-9.36061
▁sending	-9.36061
▁service	-9.36061
▁shame	-9.36061
▁spending	-9.36061
▁sport	-9.36061
▁stroke	-9.36061
▁sun	-9.36061
▁surrounded	-9.36061
▁sweating	-9.36061
▁tall	-9.36061
▁tooth	-9.36061
▁total	-9.36061
▁town	-9.36061
▁upon	-9.36061
▁v	-9.36061
▁watched	-9.36061
▁wave	-9.36061
▁win	-9.36061
▁wound	-9.36061
▁40	-9.44065
▁abused	-9.44065
▁assessment	-9.44065
▁autistic	-9.44065
▁believed	-9.44065
▁brief	-9.44065
▁carry	-9.44065
▁circle	-9.44065
▁concentrate	-9.44065
▁concern	-9.44065
▁cool	-9.44065
▁create	-9.44065
▁cure	-9.44065
▁customer	-9.44065
▁damage	-9.44065
▁deadline	-9.44065
▁debilitating	-9.44065
▁decent	-9.44065
▁desperately	-9.44065
▁destroy	-9.44065
▁direction	-9.44065
▁disappointed	-9.44065
▁doom	-9.44065
▁drain	-9.44065
▁drove	-9.44065
▁drowning	-9.44065
▁education	-9.44065
▁encouragement	-9.44065
▁enjoying	-9.44065
▁exhausting	-9.44065
▁expectation	-9.44065
▁fairly	-9.44065
▁false	-9.44065
▁faster	-9.44065
▁fever	-9.44065
▁financial	-9.44065
▁five	-9.44065
▁generalized	-9.44065
▁genuine	-9.44065
▁graduation	-9.44065
▁hardest	-9.44065
▁harming	-9.44065
▁heal	-9.44065
▁heat	-9.44065
▁homeless	-9.44065
▁industry	-9.44065
▁isolation	-9.44065
▁journey	-9.44065
▁juli	-9.44065
▁june	-9.44065
▁leading	-9.44065
▁leaf	-9.44065
▁local	-9.44065
▁logic	-9.44065
▁mark	-9.44065
▁minor	-9.44065
▁mirror	-9.44065
▁news	-9.44065
▁number	-9.44065
▁obvious	-9.44065
▁perspective	-9.44065
▁procedure	-9.44065
▁pushing	-9.44065
▁quality	-9.44065
▁questioning	-9.44065
▁raised	-9.44065
▁reached	-9.44065
▁regard	-9.44065
▁respond	-9.44065
▁ruined	-9.44065
▁ruining	-9.44065
▁scar	-9.44065
▁screw	-9.44065
▁silly	-9.44065
▁six	-9.44065
▁slept	-9.44065
▁socializing	-9.44065
▁solve	-9.44065
▁standing	-9.44065
▁street	-9.44065
▁surface	-9.44065
▁surprise	-9.44065
▁taper	-9.44065
▁tension	-9.44065
▁thankfully	-9.44065
▁therefore	-9.44065
▁third	-9.44065
▁thread	-9.44065
▁tight	-9.44065
▁tldr	-9.44065
▁training	-9.44065
▁understood	-9.44065
▁unemployed	-9.44065
▁vision	-9.44065
▁x	-9.44065
▁00	-9.52766
▁3rd	-9.52766
▁accomplish	-9.52766
▁affected	-9.52766
▁afterwards	-9.52766
▁appearance	-9.52766
▁attacked	-9.52766
▁attracted	-9.52766
▁avoiding	-9.52766
▁basic	-9.52766
▁beating	-9.52766
▁bird	-9.52766
▁bothered	-9.52766
▁cared	-9.52766
▁client	-9.52766
▁clue	-9.52766
▁coffee	-9.52766
▁communication	-9.52766
▁conflict	-9.52766
▁correct	-9.52766
▁counseling	-9.52766
▁cute	-9.52766
▁decide	-9.52766
▁disappear	-9.52766
▁fatigue	-9.52766
▁february	-9.52766
▁folk	-9.52766
▁friendly	-9.52766
▁gabapentin	-9.52766
▁gift	-9.52766
▁gotta	-9.52766
▁grammar	-9.52766
▁grandfather	-9.52766
▁gut	-9.52766
▁hatred	-9.52766
▁homework	-9.52766
▁ignoring	-9.52766
▁impact	-9.52766
▁impending	-9.52766
▁incident	-9.52766
▁jealous	-9.52766
▁kicked	-9.52766
▁klonopin	-9.52766
▁knowledge	-9.52766
▁literal	-9.52766
▁lunch	-9.52766
▁master	-9.52766
▁meantime	-9.52766
▁minimum	-9.52766
▁nasty	-9.52766
▁natural	-9.52766
▁neither	-9.52766
▁nose	-9.52766
▁overthink	-9.52766
▁palpitation	-9.52766
▁paying	-9.52766
▁phobia	-9.52766
▁picked	-9.52766
▁porn	-9.52766
▁prior	-9.52766
▁proper	-9.52766
▁prove	-9.52766
▁quarantine	-9.52766
▁quitting	-9.52766
▁realizing	-9.52766
▁receive	-9.52766
▁received	-9.52766
▁rely	-9.52766
▁scrolling	-9.52766
▁se	-9.52766
▁semi	-9.52766
▁severely	-9.52766
▁sh	-9.52766
▁special	-9.52766
▁subject	-9.52766
▁suppose	-9.52766
▁swear	-9.52766
▁team	-9.52766
▁temporary	-9.52766
▁tendency	-9.52766
▁terribly	-9.52766
▁terrifying	-9.52766
▁texting	-9.52766
▁touching	-9.52766
▁train	-9.52766
▁unhappy	-9.52766
▁unit	-9.52766
▁universe	-9.52766
▁venting	-9.52766
▁verge	-9.52766
▁version	-9.52766
▁vulnerable	-9.52766
▁w	-9.52766
▁wreck	-9.52766
▁written	-9.52766
▁10mg	-9.62297
▁2021	-9.62297
▁academic	-9.62297
▁accidentally	-9.62297
▁according	-9.62297
▁adrenaline	-9.62297
▁approach	-9.62297
▁apps	-9.62297
▁ativan	-9.62297
▁attitude	-9.62297
▁bear	-9.62297
▁begging	-9.62297
▁bite	-9.62297
▁blue	-9.62297
▁boy	-9.62297
▁btw	-9.62297
▁burst	-9.62297
▁buspar	-9.62297
▁capable	-9.62297
▁cheated	-9.62297
▁chemical	-9.62297
▁cleaning	-9.62297
▁cognitive	-9.62297
▁commitment	-9.62297
▁complaining	-9.62297
▁conclusion	-9.62297
▁consistently	-9.62297
▁consuming	-9.62297
▁continued	-9.62297
▁count	-9.62297
▁coworker	-9.62297
▁crawl	-9.62297
▁darkness	-9.62297
▁derealization	-9.62297
▁disability	-9.62297
▁dreading	-9.62297
▁dude	-9.62297
▁earth	-9.62297
▁existential	-9.62297
▁explaining	-9.62297
▁fallen	-9.62297
▁forcing	-9.62297
▁forgotten	-9.62297
▁gaming	-9.62297
▁garbage	-9.62297
▁glass	-9.62297
▁gosh	-9.62297
▁graduating	-9.62297
▁grandmother	-9.62297
▁havent	-9.62297
▁highly	-9.62297
▁ideation	-9.62297
▁impacted	-9.62297
▁imposter	-9.62297
▁increasing	-9.62297
▁introvert	-9.62297
▁jake	-9.62297
▁killed	-9.62297
▁kitchen	-9.62297
▁knock	-9.62297
▁led	-9.62297
▁loose	-9.62297
▁lowest	-9.62297
▁lung	-9.62297
▁marry	-9.62297
▁meaningless	-9.62297
▁min	-9.62297
▁misery	-9.62297
▁necessary	-9.62297
▁needing	-9.62297
▁offered	-9.62297
▁official	-9.62297
▁paragraph	-9.62297
▁particular	-9.62297
▁pet	-9.62297
▁pity	-9.62297
▁pleasure	-9.62297
▁pregnant	-9.62297
▁pretending	-9.62297
▁pulled	-9.62297
▁rare	-9.62297
▁reassurance	-9.62297
▁religious	-9.62297
▁ridiculous	-9.62297
▁scan	-9.62297
▁screen	-9.62297
▁seizure	-9.62297
▁setting	-9.62297
▁shell	-9.62297
▁shock	-9.62297
▁sigh	-9.62297
▁snap	-9.62297
▁sober	-9.62297
▁sooner	-9.62297
▁speed	-9.62297
▁split	-9.62297
▁stage	-9.62297
▁statement	-9.62297
▁sweat	-9.62297
▁target	-9.62297
▁tbh	-9.62297
▁technique	-9.62297
▁ten	-9.62297
▁toe	-9.62297
▁toilet	-9.62297
▁traumatic	-9.62297
▁trick	-9.62297
▁tuesday	-9.62297
▁unconscious	-9.62297
▁void	-9.62297
▁ward	-9.62297
▁warning	-9.62297
▁whats	-9.62297
▁wind	-9.62297
▁wishing	-9.62297
▁workout	-9.62297
▁acknowledge	-9.72833
▁acted	-9.72833
▁allergic	-9.72833
▁alot	-9.72833
▁annoyed	-9.72833
▁appeared	-9.72833
▁article	-9.72833
▁asian	-9.72833
▁awake	-9.72833
▁balance	-9.72833
▁bare	-9.72833
▁basis	-9.72833
▁bearable	-9.72833
▁blocked	-9.72833
▁blown	-9.72833
▁bond	-9.72833
▁box	-9.72833
▁bright	-9.72833
▁burning	-9.72833
▁cbd	-9.72833
▁certainly	-9.72833
▁chill	-9.72833
▁colleague	-9.72833
▁combat	-9.72833
▁combination	-9.72833
▁committed	-9.72833
▁complain	-9.72833
▁complaint	-9.72833
▁complicated	-9.72833
▁concept	-9.72833
▁confusing	-9.72833
▁cooking	-9.72833
▁created	-9.72833
▁credit	-9.72833
▁depend	-9.72833
▁described	-9.72833
▁destroying	-9.72833
▁directly	-9.72833
▁discus	-9.72833
▁distant	-9.72833
▁divorced	-9.72833
▁doesnt	-9.72833
▁downhill	-9.72833
▁dramatic	-9.72833
▁dropping	-9.72833
▁effexor	-9.72833
▁employee	-9.72833
▁enter	-9.72833
▁entirely	-9.72833
▁evening	-9.72833
▁existing	-9.72833
▁faced	-9.72833
▁female	-9.72833
▁freedom	-9.72833
▁goodbye	-9.72833
▁gp	-9.72833
▁gt	-9.72833
▁guessing	-9.72833
▁hyper	-9.72833
▁ideal	-9.72833
▁improvement	-9.72833
▁increasingly	-9.72833
▁insecure	-9.72833
▁iv	-9.72833
▁joking	-9.72833
▁jump	-9.72833
▁junior	-9.72833
▁knot	-9.72833
▁lasted	-9.72833
▁laughed	-9.72833
▁license	-9.72833
▁lip	-9.72833
▁load	-9.72833
▁locked	-9.72833
▁machine	-9.72833
▁match	-9.72833
▁midnight	-9.72833
▁million	-9.72833
▁mindfulness	-9.72833
▁moderator	-9.72833
▁nature	-9.72833
▁needle	-9.72833
▁nowadays	-9.72833
▁ob	-9.72833
▁occasion	-9.72833
▁occasionally	-9.72833
▁overweight	-9.72833
▁parking	-9.72833
▁pass	-9.72833
▁path	-9.72833
▁permanent	-9.72833
▁photo	-9.72833
▁piling	-9.72833
▁plenty	-9.72833
▁possibility	-9.72833
▁pre	-9.72833
▁provide	-9.72833
▁prozac	-9.72833
▁pursue	-9.72833
▁pussy	-9.72833
▁raise	-9.72833
▁recommend	-9.72833
▁rejection	-9.72833
▁relatively	-9.72833
▁remark	-9.72833
▁rich	-9.72833
▁round	-9.72833
▁saved	-9.72833
▁scholarship	-9.72833
▁science	-9.72833
▁sharing	-9.72833
▁shattered	-9.72833
▁shes	-9.72833
▁shirt	-9.72833
▁shortness	-9.72833
▁shout	-9.72833
▁significantly	-9.72833
▁size	-9.72833
▁sobbing	-9.72833
▁socialize	-9.72833
▁spark	-9.72833
▁spread	-9.72833
▁storm	-9.72833
▁supplement	-9.72833
▁sweet	-9.72833
▁taught	-9.72833
▁tea	-9.72833
▁threatened	-9.72833
▁threw	-9.72833
▁thru	-9.72833
▁thursday	-9.72833
▁torture	-9.72833
▁trash	-9.72833
▁twitch	-9.72833
▁ultimately	-9.72833
▁uncle	-9.72833
▁undiagnosed	-9.72833
▁unmotivated	-9.72833
▁unsure	-9.72833
▁vet	-9.72833
▁victim	-9.72833
▁warm	-9.72833
▁wise	-9.72833
▁wondered	-9.72833
▁45	-9.84612
▁80	-9.84612
▁added	-9.84612
▁adventure	-9.84612
▁affirmation	-9.84612
▁afternoon	-9.84612
▁agree	-9.84612
▁agreed	-9.84612
▁alternative	-9.84612
▁ambition	-9.84612
▁anime	-9.84612
▁apologized	-9.84612
▁apology	-9.84612
▁apply	-9.84612
▁attractive	-9.84612
▁awesome	-9.84612
▁bag	-9.84612
▁bath	-9.84612
▁begged	-9.84612
▁benzo	-9.84612
▁birth	-9.84612
▁blank	-9.84612
▁blanket	-9.84612
▁blind	-9.84612
▁block	-9.84612
▁bone	-9.84612
▁booked	-9.84612
▁boost	-9.84612
▁bout	-9.84612
▁bpd	-9.84612
▁cardiologist	-9.84612
▁celexa	-9.84612
▁chanel	-9.84612
▁cleaned	-9.84612
▁clinical	-9.84612
▁communicate	-9.84612
▁continues	-9.84612
▁countless	-9.84612
▁crushing	-9.84612
▁cymbalta	-9.84612
▁develop	-9.84612
▁differently	-9.84612
▁disaster	-9.84612
▁distracted	-9.84612
▁dos	-9.84612
▁drank	-9.84612
▁draw	-9.84612
▁driver	-9.84612
▁drunk	-9.84612
▁emergency	-9.84612
▁emetophobia	-9.84612
▁emptiness	-9.84612
▁enjoyment	-9.84612
▁essentially	-9.84612
▁existed	-9.84612
▁explains	-9.84612
▁faint	-9.84612
▁fantasy	-9.84612
▁former	-9.84612
▁freaked	-9.84612
▁functional	-9.84612
▁grocery	-9.84612
▁ground	-9.84612
▁helper	-9.84612
▁highschool	-9.84612
▁hitting	-9.84612
▁hopeful	-9.84612
▁hospitalized	-9.84612
▁identify	-9.84612
▁info	-9.84612
▁insight	-9.84612
▁internship	-9.84612
▁invited	-9.84612
▁involved	-9.84612
▁jaw	-9.84612
▁joined	-9.84612
▁jumping	-9.84612
▁lamictal	-9.84612
▁limit	-9.84612
▁logical	-9.84612
▁messaged	-9.84612
▁mindset	-9.84612
▁mirtazapine	-9.84612
▁model	-9.84612
▁mri	-9.84612
▁necessarily	-9.84612
▁negativity	-9.84612
▁neighbor	-9.84612
▁neighborhood	-9.84612
▁november	-9.84612
▁op	-9.84612
▁org	-9.84612
▁originally	-9.84612
▁overreacting	-9.84612
▁oxygen	-9.84612
▁panicked	-9.84612
▁park	-9.84612
▁pattern	-9.84612
▁pcp	-9.84612
▁pfizer	-9.84612
▁pile	-9.84612
▁pit	-9.84612
▁planet	-9.84612
▁plate	-9.84612
▁police	-9.84612
▁prepared	-9.84612
▁primary	-9.84612
▁promise	-9.84612
▁pulling	-9.84612
▁pure	-9.84612
▁rambling	-9.84612
▁reasonable	-9.84612
▁receptionist	-9.84612
▁record	-9.84612
▁recover	-9.84612
▁recovering	-9.84612
▁red	-9.84612
▁reduced	-9.84612
▁refused	-9.84612
▁rejected	-9.84612
▁remind	-9.84612
▁rent	-9.84612
▁resource	-9.84612
▁rut	-9.84612
▁sample	-9.84612
▁screwed	-9.84612
▁searching	-9.84612
▁shop	-9.84612
▁skinny	-9.84612
▁slight	-9.84612
▁snack	-9.84612
▁spare	-9.84612
▁spell	-9.84612
▁stabbing	-9.84612
▁succeed	-9.84612
▁surely	-9.84612
▁teach	-9.84612
▁teenager	-9.84612
▁threat	-9.84612
▁thrown	-9.84612
▁tiring	-9.84612
▁touched	-9.84612
▁trained	-9.84612
▁treating	-9.84612
▁twenty	-9.84612
▁typical	-9.84612
▁uk	-9.84612
▁ups	-9.84612
▁ur	-9.84612
▁vegetable	-9.84612
▁vitamin	-9.84612
▁wage	-9.84612
▁wash	-9.84612
▁wedding	-9.84612
▁wherever	-9.84612
▁whose	-9.84612
▁winter	-9.84612
▁25mg	-9.97965
▁4th	-9.97965
▁abandoned	-9.97965
▁accomplishment	-9.97965
▁ad	-9.97965
▁addiction	-9.97965
▁advise	-9.97965
▁agency	-9.97965
▁agoraphobia	-9.97965
▁answered	-9.97965
▁apathetic	-9.97965
▁appear	-9.97965
▁assuming	-9.97965
▁attached	-9.97965
▁award	-9.97965
▁awhile	-9.97965
▁bank	-9.97965
▁bat	-9.97965
▁behaviour	-9.97965
▁belief	-9.97965
▁belong	-9.97965
▁benzos	-9.97965
▁bitter	-9.97965
▁blah	-9.97965
▁blamed	-9.97965
▁blur	-9.97965
▁burnt	-9.97965
▁cancel	-9.97965
▁casual	-9.97965
▁cheer	-9.97965
▁chose	-9.97965
▁christmas	-9.97965
▁cigarette	-9.97965
▁citalopram	-9.97965
▁classmate	-9.97965
▁click	-9.97965
▁compare	-9.97965
▁complex	-9.97965
▁conspiracy	-9.97965
▁continuing	-9.97965
▁controlled	-9.97965
▁core	-9.97965
▁coward	-9.97965
▁crack	-9.97965
▁culture	-9.97965
▁december	-9.97965
▁demanding	-9.97965
▁demon	-9.97965
▁diet	-9.97965
▁discord	-9.97965
▁discussion	-9.97965
▁downright	-9.97965
▁dozen	-9.97965
▁draining	-9.97965
▁ekg	-9.97965
▁elsewhere	-9.97965
▁excessive	-9.97965
▁exercising	-9.97965
▁expensive	-9.97965
▁explanation	-9.97965
▁exposed	-9.97965
▁factor	-9.97965
▁familiar	-9.97965
▁favorite	-9.97965
▁feed	-9.97965
▁flu	-9.97965
▁flying	-9.97965
▁frankly	-9.97965
▁frozen	-9.97965
▁gap	-9.97965
▁garden	-9.97965
▁gas	-9.97965
▁gpa	-9.97965
▁green	-9.97965
▁grief	-9.97965
▁grown	-9.97965
▁guidance	-9.97965
▁heck	-9.97965
▁helpless	-9.97965
▁hesitant	-9.97965
▁hire	-9.97965
▁hiv	-9.97965
▁horribly	-9.97965
▁hundred	-9.97965
▁ice	-9.97965
▁idek	-9.97965
▁ik	-9.97965
▁include	-9.97965
▁income	-9.97965
▁independent	-9.97965
▁inner	-9.97965
▁instagram	-9.97965
▁investing	-9.97965
▁invite	-9.97965
▁irl	-9.97965
▁irritable	-9.97965
▁itch	-9.97965
▁join	-9.97965
▁journal	-9.97965
▁junk	-9.97965
▁l	-9.97965
▁land	-9.97965
▁latter	-9.97965
▁libido	-9.97965
▁lied	-9.97965
▁link	-9.97965
▁lock	-9.97965
▁logically	-9.97965
▁maintain	-9.97965
▁management	-9.97965
▁manifest	-9.97965
▁marriage	-9.97965
▁measure	-9.97965
▁medicated	-9.97965
▁messing	-9.97965
▁mixed	-9.97965
▁monitor	-9.97965
▁negatively	-9.97965
▁nothingness	-9.97965
▁numerous	-9.97965
▁odor	-9.97965
▁outcome	-9.97965
▁package	-9.97965
▁palm	-9.97965
▁peaceful	-9.97965
▁perform	-9.97965
▁perhaps	-9.97965
▁phase	-9.97965
▁picking	-9.97965
▁practically	-9.97965
▁pray	-9.97965
▁presentation	-9.97965
▁prevent	-9.97965
▁previously	-9.97965
▁product	-9.97965
▁promised	-9.97965
▁psychological	-9.97965
▁puppy	-9.97965
▁quote	-9.97965
▁rabies	-9.97965
▁race	-9.97965
▁rage	-9.97965
▁realise	-9.97965
▁refill	-9.97965
▁regardless	-9.97965
▁regularly	-9.97965
▁relieved	-9.97965
▁remedy	-9.97965
▁reminds	-9.97965
▁remove	-9.97965
▁replaying	-9.97965
▁replied	-9.97965
▁request	-9.97965
▁rescue	-9.97965
▁ride	-9.97965
▁ring	-9.97965
▁salary	-9.97965
▁scratch	-9.97965
▁screamed	-9.97965
▁secret	-9.97965
▁selling	-9.97965
▁separate	-9.97965
▁sertraline	-9.97965
▁server	-9.97965
▁sexually	-9.97965
▁sharp	-9.97965
▁shooting	-9.97965
▁showed	-9.97965
▁sight	-9.97965
▁sinus	-9.97965
▁slip	-9.97965
▁slowing	-9.97965
▁someday	-9.97965
▁spam	-9.97965
▁speech	-9.97965
▁spoke	-9.97965
▁stare	-9.97965
▁stood	-9.97965
▁strategy	-9.97965
▁strongly	-9.97965
▁substance	-9.97965
▁sucked	-9.97965
▁suffers	-9.97965
▁surprised	-9.97965
▁survival	-9.97965
▁survived	-9.97965
▁swing	-9.97965
▁switch	-9.97965
▁tech	-9.97965
▁thus	-9.97965
▁til	-9.97965
▁tinder	-9.97965
▁tiny	-9.97965
▁tissue	-9.97965
▁tone	-9.97965
▁tool	-9.97965
▁tremor	-9.97965
▁turkey	-9.97965
▁tw	-9.97965
▁twitching	-9.97965
▁typically	-9.97965
▁unhealthy	-9.97965
▁upper	-9.97965
▁useful	-9.97965
▁via	-9.97965
▁vibe	-9.97965
▁victory	-9.97965
▁vomit	-9.97965
▁website	-9.97965
▁whatsoever	-9.97965
▁white	-9.97965
▁wtf	-9.97965
▁yellow	-9.97965
▁000	-10.1338
▁150	-10.1338
▁15mg	-10.1338
▁28	-10.1338
▁abilify	-10.1338
▁achieve	-10.1338
▁acid	-10.1338
▁additional	-10.1338
▁address	-10.1338
▁advantage	-10.1338
▁aggressive	-10.1338
▁allowing	-10.1338
▁annoys	-10.1338
▁ap	-10.1338
▁apparent	-10.1338
▁apple	-10.1338
▁asap	-10.1338
▁assistance	-10.1338
▁assumption	-10.1338
▁atleast	-10.1338
▁attend	-10.1338
▁autopilot	-10.1338
▁avoided	-10.1338
▁bartender	-10.1338
▁beforehand	-10.1338
▁benadryl	-10.1338
▁blaming	-10.1338
▁bleak	-10.1338
▁blocking	-10.1338
▁boom	-10.1338
▁boss	-10.1338
▁bpm	-10.1338
▁brave	-10.1338
▁breakfast	-10.1338
▁breakup	-10.1338
▁bridge	-10.1338
▁browsing	-10.1338
▁brushing	-10.1338
▁bullet	-10.1338
▁button	-10.1338
▁cage	-10.1338
▁capacity	-10.1338
▁celebration	-10.1338
▁chaos	-10.1338
▁clinic	-10.1338
▁clock	-10.1338
▁clot	-10.1338
▁club	-10.1338
▁comforting	-10.1338
▁comprehend	-10.1338
▁confronted	-10.1338
▁connected	-10.1338
▁consciousness	-10.1338
▁consistent	-10.1338
▁continuously	-10.1338
▁convincing	-10.1338
▁couldnt	-10.1338
▁cream	-10.1338
▁crippled	-10.1338
▁crushed	-10.1338
▁dance	-10.1338
▁debating	-10.1338
▁deed	-10.1338
▁deleted	-10.1338
▁despise	-10.1338
▁detached	-10.1338
▁determined	-10.1338
▁devastated	-10.1338
▁digging	-10.1338
▁discussing	-10.1338
▁dismissed	-10.1338
▁dollar	-10.1338
▁doomed	-10.1338
▁double	-10.1338
▁drama	-10.1338
▁dysfunctional	-10.1338
▁earn	-10.1338
▁eaten	-10.1338
▁ect	-10.1338
▁employer	-10.1338
▁error	-10.1338
▁evidence	-10.1338
▁excitement	-10.1338
▁exists	-10.1338
▁expose	-10.1338
▁exposure	-10.1338
▁expressing	-10.1338
▁extent	-10.1338
▁facade	-10.1338
▁facility	-10.1338
▁facing	-10.1338
▁factory	-10.1338
▁famous	-10.1338
▁fan	-10.1338
▁fatigued	-10.1338
▁feedback	-10.1338
▁film	-10.1338
▁flare	-10.1338
▁flaw	-10.1338
▁foggy	-10.1338
▁forgive	-10.1338
▁freeze	-10.1338
▁frequent	-10.1338
▁frustration	-10.1338
▁gay	-10.1338
▁gle	-10.1338
▁goddamn	-10.1338
▁government	-10.1338
▁grad	-10.1338
▁gross	-10.1338
▁gun	-10.1338
▁hangout	-10.1338
▁happier	-10.1338
▁healthcare	-10.1338
▁highway	-10.1338
▁honor	-10.1338
▁horror	-10.1338
▁identifying	-10.1338
▁identity	-10.1338
▁ignorant	-10.1338
▁immense	-10.1338
▁inability	-10.1338
▁incredible	-10.1338
▁indeed	-10.1338
▁infected	-10.1338
▁injury	-10.1338
▁innocent	-10.1338
▁interact	-10.1338
▁irrationally	-10.1338
▁judging	-10.1338
▁jumped	-10.1338
▁knife	-10.1338
▁label	-10.1338
▁laid	-10.1338
▁laptop	-10.1338
▁lastly	-10.1338
▁layer	-10.1338
▁legal	-10.1338
▁legitimately	-10.1338
▁lightheaded	-10.1338
▁lil	-10.1338
▁loan	-10.1338
▁loudly	-10.1338
▁lt	-10.1338
▁lu	-10.1338
▁mall	-10.1338
▁meaningful	-10.1338
▁meditate	-10.1338
▁messaging	-10.1338
▁minimal	-10.1338
▁mobile	-10.1338
▁moon	-10.1338
▁motion	-10.1338
▁muster	-10.1338
▁niece	-10.1338
▁norm	-10.1338
▁notebook	-10.1338
▁numbing	-10.1338
▁object	-10.1338
▁obsession	-10.1338
▁obsessive	-10.1338
▁occasional	-10.1338
▁odds	-10.1338
▁offmychest	-10.1338
▁optimistic	-10.1338
▁original	-10.1338
▁outsider	-10.1338
▁overdose	-10.1338
▁page	-10.1338
▁pant	-10.1338
▁participate	-10.1338
▁passionate	-10.1338
▁passive	-10.1338
▁pause	-10.1338
▁peak	-10.1338
▁petty	-10.1338
▁phd	-10.1338
▁policy	-10.1338
▁poop	-10.1338
▁popular	-10.1338
▁potentially	-10.1338
▁pounding	-10.1338
▁preface	-10.1338
▁prepare	-10.1338
▁prison	-10.1338
▁processing	-10.1338
▁provided	-10.1338
▁psychiatric	-10.1338
▁pulse	-10.1338
▁punch	-10.1338
▁purchase	-10.1338
▁pursuing	-10.1338
▁ramble	-10.1338
▁ranting	-10.1338
▁ray	-10.1338
▁realization	-10.1338
▁reflux	-10.1338
▁relapse	-10.1338
▁relaxing	-10.1338
▁remembering	-10.1338
▁reminder	-10.1338
▁repeated	-10.1338
▁repeatedly	-10.1338
▁report	-10.1338
▁reported	-10.1338
▁respectful	-10.1338
▁responded	-10.1338
▁retail	-10.1338
▁returned	-10.1338
▁rolling	-10.1338
▁romantic	-10.1338
▁rose	-10.1338
▁route	-10.1338
▁row	-10.1338
▁ruminating	-10.1338
▁rv	-10.1338
▁safer	-10.1338
▁safety	-10.1338
▁scalp	-10.1338
▁scene	-10.1338
▁scheduled	-10.1338
▁schizophrenia	-10.1338
▁score	-10.1338
▁season	-10.1338
▁shopping	-10.1338
▁shuts	-10.1338
▁shutting	-10.1338
▁signed	-10.1338
▁sinking	-10.1338
▁skip	-10.1338
▁sky	-10.1338
▁sold	-10.1338
▁spectrum	-10.1338
▁spin	-10.1338
▁spoken	-10.1338
▁spring	-10.1338
▁square	-10.1338
▁steal	-10.1338
▁stem	-10.1338
▁string	-10.1338
▁subsided	-10.1338
▁sufferer	-10.1338
▁sugar	-10.1338
▁suggest	-10.1338
▁sum	-10.1338
▁survey	-10.1338
▁talent	-10.1338
▁tax	-10.1338
▁temperature	-10.1338
▁terror	-10.1338
▁theory	-10.1338
▁thriving	-10.1338
▁trade	-10.1338
▁trans	-10.1338
▁traveling	-10.1338
▁uncertainty	-10.1338
▁uncontrollably	-10.1338
▁ungrateful	-10.1338
▁valid	-10.1338
▁venlafaxine	-10.1338
▁virtual	-10.1338
▁virus	-10.1338
▁visited	-10.1338
▁vomiting	-10.1338
▁waited	-10.1338
▁weekly	-10.1338
▁wiki	-10.1338
▁willpower	-10.1338
▁window	-10.1338
▁wisdom	-10.1338
▁wood	-10.1338
▁worn	-10.1338
▁worsened	-10.1338
▁wow	-10.1338
▁wrist	-10.1338
▁yawn	-10.1338
▁zombie	-10.1338
▁150mg	-10.3161
▁1mg	-10.3161
▁2018	-10.3161
▁20mg	-10.3161
▁26	-10.3161
▁34	-10.3161
▁35	-10.3161
▁abdomen	-10.3161
▁abt	-10.3161
▁accomplished	-10.3161
▁acute	-10.3161
▁adderall	-10.3161
▁adding	-10.3161
▁addition	-10.3161
▁admitted	-10.3161
▁adopted	-10.3161
▁allergy	-10.3161
▁allows	-10.3161
▁ambulance	-10.3161
▁among	-10.3161
▁appears	-10.3161
▁arrived	-10.3161
▁asks	-10.3161
▁assumed	-10.3161
▁asthma	-10.3161
▁attending	-10.3161
▁balanced	-10.3161
▁band	-10.3161
▁bar	-10.3161
▁bass	-10.3161
▁behavioral	-10.3161
▁bomb	-10.3161
▁bound	-10.3161
▁bowel	-10.3161
▁brand	-10.3161
▁brilliant	-10.3161
▁bug	-10.3161
▁bump	-10.3161
▁burned	-10.3161
▁bus	-10.3161
▁butt	-10.3161
▁calmed	-10.3161
▁careful	-10.3161
▁carrying	-10.3161
▁cashier	-10.3161
▁casually	-10.3161
▁cautious	-10.3161
▁ceiling	-10.3161
▁challenge	-10.3161
▁cheese	-10.3161
▁choking	-10.3161
▁ck	-10.3161
▁clarity	-10.3161
▁classroom	-10.3161
▁closely	-10.3161
▁cloud	-10.3161
▁collapse	-10.3161
▁concentration	-10.3161
▁concrete	-10.3161
▁concussion	-10.3161
▁confrontation	-10.3161
▁connecting	-10.3161
▁consequence	-10.3161
▁consume	-10.3161
▁contribute	-10.3161
▁cook	-10.3161
▁corner	-10.3161
▁costume	-10.3161
▁counsellor	-10.3161
▁court	-10.3161
▁cptsd	-10.3161
▁crawling	-10.3161
▁creep	-10.3161
▁creeping	-10.3161
▁cross	-10.3161
▁cruel	-10.3161
▁ct	-10.3161
▁curl	-10.3161
▁damaged	-10.3161
▁dangerous	-10.3161
▁de	-10.3161
▁decade	-10.3161
▁deciding	-10.3161
▁delay	-10.3161
▁delete	-10.3161
▁dense	-10.3161
▁description	-10.3161
▁deserves	-10.3161
▁developing	-10.3161
▁diagnose	-10.3161
▁diary	-10.3161
▁dick	-10.3161
▁dirty	-10.3161
▁disappointing	-10.3161
▁disconnected	-10.3161
▁discovered	-10.3161
▁dismiss	-10.3161
▁distracting	-10.3161
▁divorce	-10.3161
▁document	-10.3161
▁dot	-10.3161
▁downstairs	-10.3161
▁dreadful	-10.3161
▁dull	-10.3161
▁dumped	-10.3161
▁dunno	-10.3161
▁dust	-10.3161
▁duty	-10.3161
▁dy	-10.3161
▁eight	-10.3161
▁elderly	-10.3161
▁employment	-10.3161
▁enemy	-10.3161
▁enjoyable	-10.3161
▁escitalopram	-10.3161
▁essay	-10.3161
▁ethic	-10.3161
▁excruciating	-10.3161
▁exhale	-10.3161
▁experiment	-10.3161
▁explode	-10.3161
▁expressed	-10.3161
▁external	-10.3161
▁fantastic	-10.3161
▁favor	-10.3161
▁fed	-10.3161
▁fellow	-10.3161
▁filling	-10.3161
▁finance	-10.3161
▁finishing	-10.3161
▁fixed	-10.3161
▁flair	-10.3161
▁flared	-10.3161
▁flow	-10.3161
▁fool	-10.3161
▁foreign	-10.3161
▁fortunate	-10.3161
▁fortunately	-10.3161
▁fragile	-10.3161
▁freshman	-10.3161
▁froze	-10.3161
▁funeral	-10.3161
▁g	-10.3161
▁ghosted	-10.3161
▁googling	-10.3161
▁grab	-10.3161
▁grabbed	-10.3161
▁gradually	-10.3161
▁grudge	-10.3161
▁guard	-10.3161
▁happily	-10.3161
▁healing	-10.3161
▁heartbeat	-10.3161
▁heartbreak	-10.3161
▁hip	-10.3161
▁hopelessness	-10.3161
▁hormone	-10.3161
▁hotel	-10.3161
▁hotline	-10.3161
▁household	-10.3161
▁humiliated	-10.3161
▁hurtful	-10.3161
▁hydroxyzine	-10.3161
▁hydroxzine	-10.3161
▁hypochondria	-10.3161
▁imagining	-10.3161
▁immediate	-10.3161
▁immensely	-10.3161
▁improved	-10.3161
▁improving	-10.3161
▁impulse	-10.3161
▁incapable	-10.3161
▁indifference	-10.3161
▁induced	-10.3161
▁inducing	-10.3161
▁inflammation	-10.3161
▁input	-10.3161
▁insisted	-10.3161
▁instance	-10.3161
▁instant	-10.3161
▁intake	-10.3161
▁intention	-10.3161
▁intentionally	-10.3161
▁introverted	-10.3161
▁invalidate	-10.3161
▁ish	-10.3161
▁isolating	-10.3161
▁item	-10.3161
▁jealousy	-10.3161
▁jerk	-10.3161
▁joint	-10.3161
▁judgment	-10.3161
▁juice	-10.3161
▁july	-10.3161
▁key	-10.3161
▁lady	-10.3161
▁landed	-10.3161
▁lasting	-10.3161
▁laundry	-10.3161
▁lecture	-10.3161
▁legit	-10.3161
▁lift	-10.3161
▁lighter	-10.3161
▁listened	-10.3161
▁lmao	-10.3161
▁longest	-10.3161
▁loosing	-10.3161
▁market	-10.3161
▁mate	-10.3161
▁max	-10.3161
▁mediocre	-10.3161
▁meltdown	-10.3161
▁men	-10.3161
▁metal	-10.3161
▁midst	-10.3161
▁midterm	-10.3161
▁migraine	-10.3161
▁military	-10.3161
▁mindlessly	-10.3161
▁miracle	-10.3161
▁misdiagnosed	-10.3161
▁mix	-10.3161
▁motivate	-10.3161
▁movement	-10.3161
▁n	-10.3161
▁naked	-10.3161
▁narcissistic	-10.3161
▁native	-10.3161
▁neurotypical	-10.3161
▁nighttime	-10.3161
▁notification	-10.3161
▁nursing	-10.3161
▁objectively	-10.3161
▁outfit	-10.3161
▁owe	-10.3161
▁pacing	-10.3161
▁pair	-10.3161
▁panicky	-10.3161
▁partying	-10.3161
▁paxil	-10.3161
▁peer	-10.3161
▁perceived	-10.3161
▁perception	-10.3161
▁pharmacy	-10.3161
▁piss	-10.3161
▁platform	-10.3161
▁praying	-10.3161
▁prefer	-10.3161
▁presence	-10.3161
▁pristiq	-10.3161
▁promising	-10.3161
▁psychotic	-10.3161
▁qualified	-10.3161
▁rabbit	-10.3161
▁rational	-10.3161
▁reacting	-10.3161
▁reacts	-10.3161
▁realisation	-10.3161
▁recommending	-10.3161
▁reducing	-10.3161
▁reflect	-10.3161
▁reflecting	-10.3161
▁relative	-10.3161
▁release	-10.3161
▁remaining	-10.3161
▁reminded	-10.3161
▁remote	-10.3161
▁remotely	-10.3161
▁repeating	-10.3161
▁replace	-10.3161
▁required	-10.3161
▁restart	-10.3161
▁resume	-10.3161
▁returning	-10.3161
▁ridiculously	-10.3161
▁ripped	-10.3161
▁rise	-10.3161
▁robot	-10.3161
▁romantically	-10.3161
▁salad	-10.3161
▁sand	-10.3161
▁sarah	-10.3161
▁schoolwork	-10.3161
▁scratching	-10.3161
▁search	-10.3161
▁section	-10.3161
▁security	-10.3161
▁seemingly	-10.3161
▁sell	-10.3161
▁serve	-10.3161
▁serving	-10.3161
▁settle	-10.3161
▁sheet	-10.3161
▁shelf	-10.3161
▁shortly	-10.3161
▁shouldnt	-10.3161
▁showering	-10.3161
▁sickness	-10.3161
▁simplest	-10.3161
▁sits	-10.3161
▁sleepy	-10.3161
▁slightest	-10.3161
▁slipped	-10.3161
▁slipping	-10.3161
▁snapped	-10.3161
▁soft	-10.3161
▁solid	-10.3161
▁solved	-10.3161
▁sometime	-10.3161
▁sought	-10.3161
▁sounded	-10.3161
▁span	-10.3161
▁spoiled	-10.3161
▁stab	-10.3161
▁staff	-10.3161
▁standard	-10.3161
▁star	-10.3161
▁stated	-10.3161
▁status	-10.3161
▁sticking	-10.3161
▁stretch	-10.3161
▁subconsciously	-10.3161
▁suicidewatch	-10.3161
▁suit	-10.3161
▁supervisor	-10.3161
▁surgeon	-10.3161
▁surrounding	-10.3161
▁swallow	-10.3161
▁swollen	-10.3161
▁table	-10.3161
▁tank	-10.3161
▁tearing	-10.3161
▁temper	-10.3161
▁thin	-10.3161
▁tingly	-10.3161
▁tornado	-10.3161
▁toward	-10.3161
▁trait	-10.3161
▁transferred	-10.3161
▁traumatized	-10.3161
▁trivial	-10.3161
▁truthfully	-10.3161
▁twisted	-10.3161
▁typed	-10.3161
▁ugh	-10.3161
▁ultrasound	-10.3161
▁un	-10.3161
▁unknown	-10.3161
▁unlike	-10.3161
▁unlucky	-10.3161
▁unpleasant	-10.3161
▁unrealistic	-10.3161
▁untill	-10.3161
▁untreated	-10.3161
▁unwanted	-10.3161
▁validation	-10.3161
▁vanished	-10.3161
▁verbally	-10.3161
▁violence	-10.3161
▁wander	-10.3161
▁weakness	-10.3161
▁weather	-10.3161
▁whilst	-10.3161
▁wide	-10.3161
▁worsening	-10.3161
▁yep	-10.3161
▁180	-10.5393
▁18f	-10.5393
▁21f	-10.5393
▁300mg	-10.5393
▁30mg	-10.5393
▁31	-10.5393
▁40mg	-10.5393
▁6th	-10.5393
▁8th	-10.5393
▁abandonment	-10.5393
▁accurate	-10.5393
▁adam	-10.5393
▁adjusting	-10.5393
▁advised	-10.5393
▁afterlife	-10.5393
▁agitated	-10.5393
▁aid	-10.5393
▁albeit	-10.5393
▁alcoholic	-10.5393
▁alert	-10.5393
▁alleviate	-10.5393
▁alongside	-10.5393
▁amazon	-10.5393
▁america	-10.5393
▁amt	-10.5393
▁android	-10.5393
▁ankle	-10.5393
▁answering	-10.5393
▁antibiotic	-10.5393
▁aorta	-10.5393
▁applied	-10.5393
▁appropriate	-10.5393
▁arise	-10.5393
▁arrogant	-10.5393
▁aspergers	-10.5393
▁aspiration	-10.5393
▁assure	-10.5393
▁atm	-10.5393
▁attachment	-10.5393
▁automatically	-10.5393
▁avail	-10.5393
▁bachelor	-10.5393
▁backyard	-10.5393
▁bacteria	-10.5393
▁balding	-10.5393
▁baseline	-10.5393
▁battling	-10.5393
▁bet	-10.5393
▁binge	-10.5393
▁blow	-10.5393
▁board	-10.5393
▁bob	-10.5393
▁booking	-10.5393
▁bottled	-10.5393
▁bounced	-10.5393
▁boundary	-10.5393
▁bp	-10.5393
▁brat	-10.5393
▁brushed	-10.5393
▁bubble	-10.5393
▁buddy	-10.5393
▁bumble	-10.5393
▁bumped	-10.5393
▁buspirone	-10.5393
▁camp	-10.5393
▁canal	-10.5393
▁caretaker	-10.5393
▁cash	-10.5393
▁celebrate	-10.5393
▁certified	-10.5393
▁chapter	-10.5393
▁charge	-10.5393
▁charity	-10.5393
▁chart	-10.5393
▁chew	-10.5393
▁chilling	-10.5393
▁choosing	-10.5393
▁christ	-10.5393
▁claim	-10.5393
▁clash	-10.5393
▁cleared	-10.5393
▁clonazepam	-10.5393
▁closing	-10.5393
▁coach	-10.5393
▁coincidence	-10.5393
▁color	-10.5393
▁commented	-10.5393
▁communicating	-10.5393
▁comparison	-10.5393
▁compete	-10.5393
▁condescending	-10.5393
▁consumed	-10.5393
▁contemplating	-10.5393
▁contract	-10.5393
▁controlling	-10.5393
▁cop	-10.5393
▁correctly	-10.5393
▁county	-10.5393
▁crappy	-10.5393
▁crash	-10.5393
▁craving	-10.5393
▁creating	-10.5393
▁creativity	-10.5393
▁creator	-10.5393
▁critical	-10.5393
▁crohn	-10.5393
▁crossed	-10.5393
▁crypto	-10.5393
▁cuddle	-10.5393
▁cup	-10.5393
▁cured	-10.5393
▁dated	-10.5393
▁daytime	-10.5393
▁decency	-10.5393
▁decline	-10.5393
▁deepest	-10.5393
▁defeated	-10.5393
▁define	-10.5393
▁definition	-10.5393
▁denial	-10.5393
▁dependent	-10.5393
▁depression1	-10.5393
▁describing	-10.5393
▁destructive	-10.5393
▁development	-10.5393
▁differentiate	-10.5393
▁direct	-10.5393
▁director	-10.5393
▁disappeared	-10.5393
▁discouraged	-10.5393
▁disgust	-10.5393
▁disgusted	-10.5393
▁dish	-10.5393
▁dislike	-10.5393
▁disposable	-10.5393
▁disregard	-10.5393
▁dissociating	-10.5393
▁distorted	-10.5393
▁distress	-10.5393
▁dm	-10.5393
▁downward	-10.5393
▁drawing	-10.5393
▁dreaded	-10.5393
▁dropout	-10.5393
▁dyspnea	-10.5393
▁easiest	-10.5393
▁echocardiogram	-10.5393
▁edible	-10.5393
▁effortless	-10.5393
▁egg	-10.5393
▁elementary	-10.5393
▁embarrassment	-10.5393
▁emotionless	-10.5393
▁encounter	-10.5393
▁endure	-10.5393
▁entertainment	-10.5393
▁entrance	-10.5393
▁entry	-10.5393
▁established	-10.5393
▁evaluating	-10.5393
▁evaluation	-10.5393
▁evil	-10.5393
▁evrything	-10.5393
▁exaggerating	-10.5393
▁expects	-10.5393
▁eyelash	-10.5393
▁facebook	-10.5393
▁fade	-10.5393
▁fading	-10.5393
▁fb	-10.5393
▁feared	-10.5393
▁fee	-10.5393
▁fixing	-10.5393
▁flame	-10.5393
▁flash	-10.5393
▁flower	-10.5393
▁flowing	-10.5393
▁fluoxetine	-10.5393
▁fly	-10.5393
▁fomo	-10.5393
▁fond	-10.5393
▁forth	-10.5393
▁forum	-10.5393
▁france	-10.5393
▁fruit	-10.5393
▁fuckin	-10.5393
▁fulfill	-10.5393
▁fulfilling	-10.5393
▁fuzzy	-10.5393
▁gaslighting	-10.5393
▁gentle	-10.5393
▁gloomy	-10.5393
▁googled	-10.5393
▁granted	-10.5393
▁grasp	-10.5393
▁greedy	-10.5393
▁grip	-10.5393
▁growth	-10.5393
▁guideline	-10.5393
▁h	-10.5393
▁hallucination	-10.5393
▁handful	-10.5393
▁hangover	-10.5393
▁harmed	-10.5393
▁haunting	-10.5393
▁heartbroken	-10.5393
▁heaven	-10.5393
▁height	-10.5393
▁hero	-10.5393
▁highest	-10.5393
▁hike	-10.5393
▁hive	-10.5393
▁holiday	-10.5393
▁hollow	-10.5393
▁horrendous	-10.5393
▁hospitalization	-10.5393
▁humanity	-10.5393
▁humor	-10.5393
▁hung	-10.5393
▁hygiene	-10.5393
▁hypocrite	-10.5393
▁iam	-10.5393
▁ibs	-10.5393
▁icu	-10.5393
▁illusion	-10.5393
▁imaginary	-10.5393
▁imbalance	-10.5393
▁immune	-10.5393
▁inappropriate	-10.5393
▁inbox	-10.5393
▁includes	-10.5393
▁incompetent	-10.5393
▁inconvenience	-10.5393
▁india	-10.5393
▁individual	-10.5393
▁inevitable	-10.5393
▁influence	-10.5393
▁instinct	-10.5393
▁intelligent	-10.5393
▁interviewed	-10.5393
▁invest	-10.5393
▁invisible	-10.5393
▁involve	-10.5393
▁iphones	-10.5393
▁irritability	-10.5393
▁itchy	-10.5393
▁jasmine	-10.5393
▁jittery	-10.5393
▁journaling	-10.5393
▁judgement	-10.5393
▁judgmental	-10.5393
▁ka	-10.5393
▁kicking	-10.5393
▁kidding	-10.5393
▁killer	-10.5393
▁kindly	-10.5393
▁kindness	-10.5393
▁lb	-10.5393
▁length	-10.5393
▁lifestyle	-10.5393
▁lightheadedness	-10.5393
▁limb	-10.5393
▁loathing	-10.5393
▁lowered	-10.5393
▁lurking	-10.5393
▁mac	-10.5393
▁manageable	-10.5393
▁manipulative	-10.5393
▁manner	-10.5393
▁marketing	-10.5393
▁material	-10.5393
▁meat	-10.5393
▁meh	-10.5393
▁meme	-10.5393
▁mere	-10.5393
▁mertazapine	-10.5393
▁minecraft	-10.5393
▁misunderstood	-10.5393
▁mundane	-10.5393
▁murder	-10.5393
▁mute	-10.5393
▁nervousness	-10.5393
▁nonetheless	-10.5393
▁noon	-10.5393
▁normalcy	-10.5393
▁nut	-10.5393
▁objective	-10.5393
▁obsessed	-10.5393
▁occupied	-10.5393
▁ocean	-10.5393
▁ofc	-10.5393
▁oil	-10.5393
▁operation	-10.5393
▁ops	-10.5393
▁organ	-10.5393
▁outgoing	-10.5393
▁outlet	-10.5393
▁outright	-10.5393
▁outta	-10.5393
▁overly	-10.5393
▁overtime	-10.5393
▁owner	-10.5393
▁pack	-10.5393
▁painting	-10.5393
▁panick	-10.5393
▁paycheck	-10.5393
▁performance	-10.5393
▁persist	-10.5393
▁persistent	-10.5393
▁philosophy	-10.5393
▁pizza	-10.5393
▁plain	-10.5393
▁plane	-10.5393
▁plastic	-10.5393
▁plea	-10.5393
▁pleaded	-10.5393
▁pls	-10.5393
▁polite	-10.5393
▁poorly	-10.5393
▁portal	-10.5393
▁pot	-10.5393
▁ppl	-10.5393
▁praised	-10.5393
▁predictable	-10.5393
▁pregnancy	-10.5393
▁preparing	-10.5393
▁prescribe	-10.5393
▁pressuring	-10.5393
▁preventing	-10.5393
▁prevents	-10.5393
▁pride	-10.5393
▁priority	-10.5393
▁privately	-10.5393
▁privilege	-10.5393
▁privileged	-10.5393
▁procrastinate	-10.5393
▁procrastination	-10.5393
▁prof	-10.5393
▁professor	-10.5393
▁psychiatry	-10.5393
▁psychologically	-10.5393
▁puke	-10.5393
▁punish	-10.5393
▁purely	-10.5393
▁pushy	-10.5393
▁raising	-10.5393
▁raped	-10.5393
▁rationally	-10.5393
▁realistically	-10.5393
▁reasoning	-10.5393
▁recall	-10.5393
▁recommendation	-10.5393
▁recurring	-10.5393
▁reduce	-10.5393
▁reference	-10.5393
▁referral	-10.5393
▁regain	-10.5393
▁regretting	-10.5393
▁relaxation	-10.5393
▁remain	-10.5393
▁remembered	-10.5393
▁remorse	-10.5393
▁replying	-10.5393
▁repressed	-10.5393
▁reset	-10.5393
▁resilient	-10.5393
▁resolution	-10.5393
▁restroom	-10.5393
▁resulting	-10.5393
▁rib	-10.5393
▁ringing	-10.5393
▁rot	-10.5393
▁rotten	-10.5393
▁rub	-10.5393
▁sadly	-10.5393
▁sake	-10.5393
▁saturday	-10.5393
▁scaring	-10.5393
▁secondary	-10.5393
▁senior	-10.5393
▁separated	-10.5393
▁seroquel	-10.5393
▁serotonin	-10.5393
▁seven	-10.5393
▁shallow	-10.5393
▁shape	-10.5393
▁shared	-10.5393
▁shoot	-10.5393
▁shutdown	-10.5393
▁sing	-10.5393
▁skipped	-10.5393
▁skyrocket	-10.5393
▁slammed	-10.5393
▁slump	-10.5393
▁smell	-10.5393
▁smiled	-10.5393
▁snd	-10.5393
▁socialising	-10.5393
▁software	-10.5393
▁sounding	-10.5393
▁spaced	-10.5393
▁spite	-10.5393
▁starve	-10.5393
▁steroid	-10.5393
▁stimulus	-10.5393
▁stream	-10.5393
▁strung	-10.5393
▁stubborn	-10.5393
▁studied	-10.5393
▁submitted	-10.5393
▁submitting	-10.5393
▁subsequently	-10.5393
▁successfully	-10.5393
▁suggests	-10.5393
▁superior	-10.5393
▁supported	-10.5393
▁surprisingly	-10.5393
▁surviving	-10.5393
▁sweaty	-10.5393
▁swelling	-10.5393
▁switching	-10.5393
▁sympathy	-10.5393
▁tablet	-10.5393
▁tantrum	-10.5393
▁tapering	-10.5393
▁teenage	-10.5393
▁temporarily	-10.5393
▁tends	-10.5393
▁terrifies	-10.5393
▁tf	-10.5393
▁thankful	-10.5393
▁thigh	-10.5393
▁threatening	-10.5393
▁throwaway	-10.5393
▁thyroid	-10.5393
▁tie	-10.5393
▁tied	-10.5393
▁tiktok	-10.5393
▁tire	-10.5393
▁tiredness	-10.5393
▁tolerance	-10.5393
▁tracker	-10.5393
▁traffic	-10.5393
▁travelling	-10.5393
▁tree	-10.5393
▁tremendously	-10.5393
▁truck	-10.5393
▁trusting	-10.5393
▁tummy	-10.5393
▁typo	-10.5393
▁uh	-10.5393
▁unattractive	-10.5393
▁underage	-10.5393
▁underlying	-10.5393
▁undermine	-10.5393
▁uneasy	-10.5393
▁unemployment	-10.5393
▁unsafe	-10.5393
▁unstable	-10.5393
▁unstoppable	-10.5393
▁user	-10.5393
▁utm	-10.5393
▁utter	-10.5393
▁valued	-10.5393
▁vanish	-10.5393
▁vaping	-10.5393
▁vertigo	-10.5393
▁vicious	-10.5393
▁virgin	-10.5393
▁visiting	-10.5393
▁warned	-10.5393
▁wasnt	-10.5393
▁weirdly	-10.5393
▁welding	-10.5393
▁wfh	-10.5393
▁whereas	-10.5393
▁witnessed	-10.5393
▁worthwhile	-10.5393
▁worthy	-10.5393
▁wrap	-10.5393
▁yard	-10.5393
▁yawning	-10.5393
▁yay	-10.5393
▁yo	-10.5393
▁yoga	-10.5393
▁zoom	-10.5393
▁00am	-10.8269
▁11pm	-10.8269
▁140	-10.8269
▁2000	-10.8269
▁23f	-10.8269
▁23m	-10.8269
▁24m	-10.8269
▁25f	-10.8269
▁2mg	-10.8269
▁3am	-10.8269
▁500	-10.8269
▁5th	-10.8269
▁60	-10.8269
▁6am	-10.8269
▁abaissement	-10.8269
▁abandon	-10.8269
▁absent	-10.8269
▁absorbed	-10.8269
▁ac	-10.8269
▁academically	-10.8269
▁acceptable	-10.8269
▁accounting	-10.8269
▁accumulated	-10.8269
▁achieved	-10.8269
▁achievement	-10.8269
▁adequate	-10.8269
▁admission	-10.8269
▁adulthood	-10.8269
▁advil	-10.8269
▁affection	-10.8269
▁aftermath	-10.8269
▁afterward	-10.8269
▁airport	-10.8269
▁aisle	-10.8269
▁ala	-10.8269
▁album	-10.8269
▁alien	-10.8269
▁alternate	-10.8269
▁ambitious	-10.8269
▁amends	-10.8269
▁analyze	-10.8269
▁anonymously	-10.8269
▁antihistamine	-10.8269
▁anxiousness	-10.8269
▁anyresume	-10.8269
▁appearing	-10.8269
▁apprentice	-10.8269
▁arguing	-10.8269
▁arrive	-10.8269
▁articulate	-10.8269
▁ass	-10.8269
▁assistant	-10.8269
▁assured	-10.8269
▁attract	-10.8269
▁badass	-10.8269
▁baking	-10.8269
▁barrier	-10.8269
▁basketball	-10.8269
▁battled	-10.8269
▁beach	-10.8269
▁bearing	-10.8269
▁beauty	-10.8269
▁becouse	-10.8269
▁begun	-10.8269
▁behave	-10.8269
▁behavioural	-10.8269
▁belly	-10.8269
▁belongs	-10.8269
▁bent	-10.8269
▁benzodiazepine	-10.8269
▁beta	-10.8269
▁betrayed	-10.8269
▁bettering	-10.8269
▁bin	-10.8269
▁bio	-10.8269
▁biological	-10.8269
▁biology	-10.8269
▁bla	-10.8269
▁blacked	-10.8269
▁blade	-10.8269
▁bleed	-10.8269
▁bleeding	-10.8269
▁blink	-10.8269
▁blocker	-10.8269
▁blueberry	-10.8269
▁blurry	-10.8269
▁booze	-10.8269
▁boredom	-10.8269
▁bowl	-10.8269
▁breast	-10.8269
▁breathed	-10.8269
▁breeze	-10.8269
▁brick	-10.8269
▁brighter	-10.8269
▁brink	-10.8269
▁bruh	-10.8269
▁bully	-10.8269
▁bupropion	-10.8269
▁burdening	-10.8269
▁burger	-10.8269
▁burnout	-10.8269
▁buzz	-10.8269
▁cake	-10.8269
▁california	-10.8269
▁calmer	-10.8269
▁campus	-10.8269
▁canceled	-10.8269
▁cancelled	-10.8269
▁candle	-10.8269
▁candy	-10.8269
▁carbon	-10.8269
▁carried	-10.8269
▁category	-10.8269
▁cathartic	-10.8269
▁centered	-10.8269
▁central	-10.8269
▁chain	-10.8269
▁challenging	-10.8269
▁characteristic	-10.8269
▁charged	-10.8269
▁chase	-10.8269
▁chatter	-10.8269
▁checkup	-10.8269
▁chemistry	-10.8269
▁chocolate	-10.8269
▁christian	-10.8269
▁church	-10.8269
▁cipralex	-10.8269
▁claimed	-10.8269
▁clarify	-10.8269
▁claw	-10.8269
▁clearing	-10.8269
▁clench	-10.8269
▁clerk	-10.8269
▁clever	-10.8269
▁clinging	-10.8269
▁closure	-10.8269
▁coding	-10.8269
▁cognitively	-10.8269
▁coherent	-10.8269
▁collect	-10.8269
▁comfy	-10.8269
▁comma	-10.8269
▁committing	-10.8269
▁communicated	-10.8269
▁comparing	-10.8269
▁compassion	-10.8269
▁competition	-10.8269
▁competitive	-10.8269
▁complacent	-10.8269
▁complication	-10.8269
▁concentrating	-10.8269
▁concerning	-10.8269
▁confessed	-10.8269
▁confirm	-10.8269
▁consciously	-10.8269
▁consent	-10.8269
▁consists	-10.8269
▁consultation	-10.8269
▁contacted	-10.8269
▁contacting	-10.8269
▁contained	-10.8269
▁contrary	-10.8269
▁convulsing	-10.8269
▁cooped	-10.8269
▁cough	-10.8269
▁counselling	-10.8269
▁cp	-10.8269
▁cramp	-10.8269
▁cramped	-10.8269
▁crashed	-10.8269
▁crave	-10.8269
▁crime	-10.8269
▁cringe	-10.8269
▁criticize	-10.8269
▁crowded	-10.8269
▁crumbled	-10.8269
▁crutch	-10.8269
▁curled	-10.8269
▁cursed	-10.8269
▁cursing	-10.8269
▁damned	-10.8269
▁dancing	-10.8269
▁dang	-10.8269
▁dare	-10.8269
▁darkest	-10.8269
▁daunting	-10.8269
▁deaf	-10.8269
▁decaf	-10.8269
▁declining	-10.8269
▁dedicated	-10.8269
▁defend	-10.8269
▁defense	-10.8269
▁delusion	-10.8269
▁delusional	-10.8269
▁denied	-10.8269
▁deny	-10.8269
▁depending	-10.8269
▁depends	-10.8269
▁depersonalization	-10.8269
▁deprecating	-10.8269
▁depth	-10.8269
▁deserved	-10.8269
▁deserving	-10.8269
▁desk	-10.8269
▁despair	-10.8269
▁determine	-10.8269
▁diabetes	-10.8269
▁diarrhea	-10.8269
▁dig	-10.8269
▁dilemma	-10.8269
▁directed	-10.8269
▁dirt	-10.8269
▁disabled	-10.8269
▁disappoint	-10.8269
▁discovering	-10.8269
▁discovery	-10.8269
▁disgrace	-10.8269
▁disoriented	-10.8269
▁disowned	-10.8269
▁dissociation	-10.8269
▁distressing	-10.8269
▁district	-10.8269
▁ditched	-10.8269
▁divert	-10.8269
▁doll	-10.8269
▁dominant	-10.8269
▁donut	-10.8269
▁doubled	-10.8269
▁doubting	-10.8269
▁draft	-10.8269
▁dragged	-10.8269
▁dragging	-10.8269
▁drastically	-10.8269
▁dress	-10.8269
▁drifting	-10.8269
▁driven	-10.8269
▁dug	-10.8269
▁dumbest	-10.8269
▁dwell	-10.8269
▁earning	-10.8269
▁ed	-10.8269
▁editing	-10.8269
▁effectively	-10.8269
▁eh	-10.8269
▁elbow	-10.8269
▁electronics	-10.8269
▁emailed	-10.8269
▁embrace	-10.8269
▁emo	-10.8269
▁empathetic	-10.8269
▁empathy	-10.8269
▁employed	-10.8269
▁en	-10.8269
▁encouraged	-10.8269
▁encouraging	-10.8269
▁endured	-10.8269
▁engage	-10.8269
▁engagement	-10.8269
▁engineer	-10.8269
▁enhanced	-10.8269
▁ent	-10.8269
▁entertaining	-10.8269
▁enthusiasm	-10.8269
▁entrusted	-10.8269
▁equal	-10.8269
▁equipment	-10.8269
▁errand	-10.8269
▁essence	-10.8269
▁evaluated	-10.8269
▁excellent	-10.8269
▁exception	-10.8269
▁exceptionally	-10.8269
▁excess	-10.8269
▁exchange	-10.8269
▁exciting	-10.8269
▁existent	-10.8269
▁expected	-10.8269
▁expense	-10.8269
▁expire	-10.8269
▁exploring	-10.8269
▁extended	-10.8269
▁extrovert	-10.8269
▁eyelid	-10.8269
▁faded	-10.8269
▁fate	-10.8269
▁favour	-10.8269
▁feeding	-10.8269
▁fetal	-10.8269
▁fidgeting	-10.8269
▁fifteen	-10.8269
▁filing	-10.8269
▁financially	-10.8269
▁fishing	-10.8269
▁fixated	-10.8269
▁flag	-10.8269
▁fleeting	-10.8269
▁flew	-10.8269
▁flirt	-10.8269
▁florida	-10.8269
▁football	-10.8269
▁forgetting	-10.8269
▁formal	-10.8269
▁formally	-10.8269
▁formed	-10.8269
▁fought	-10.8269
▁fourth	-10.8269
▁fraud	-10.8269
▁freeway	-10.8269
▁freshly	-10.8269
▁frightening	-10.8269
▁fume	-10.8269
▁fundraising	-10.8269
▁funk	-10.8269
▁furloughed	-10.8269
▁gaining	-10.8269
▁gather	-10.8269
▁generalised	-10.8269
▁gentleness	-10.8269
▁gerd	-10.8269
▁gig	-10.8269
▁giggling	-10.8269
▁globe	-10.8269
▁goodnight	-10.8269
▁grand	-10.8269
▁grandparent	-10.8269
▁greatest	-10.8269
▁grieving	-10.8269
▁groggy	-10.8269
▁guaranteed	-10.8269
▁halcion	-10.8269
▁hallway	-10.8269
▁handed	-10.8269
▁handling	-10.8269
▁happiest	-10.8269
▁harshly	-10.8269
▁hat	-10.8269
▁headed	-10.8269
▁headphone	-10.8269
▁headspace	-10.8269
▁healed	-10.8269
▁healthier	-10.8269
▁healthily	-10.8269
▁heavier	-10.8269
▁heightened	-10.8269
▁hence	-10.8269
▁hermit	-10.8269
▁hiking	-10.8269
▁hired	-10.8269
▁honesty	-10.8269
▁hood	-10.8269
▁hoped	-10.8269
▁horrified	-10.8269
▁housemate	-10.8269
▁housing	-10.8269
▁html	-10.8269
▁humble	-10.8269
▁hyperventilating	-10.8269
▁ideally	-10.8269
▁identified	-10.8269
▁ig	-10.8269
▁imagined	-10.8269
▁immersive	-10.8269
▁imo	-10.8269
▁impulsive	-10.8269
▁inadequate	-10.8269
▁inch	-10.8269
▁incorrectly	-10.8269
▁inevitably	-10.8269
▁infinite	-10.8269
▁influenced	-10.8269
▁informed	-10.8269
▁ing	-10.8269
▁inhale	-10.8269
▁initially	-10.8269
▁insanely	-10.8269
▁inspiration	-10.8269
▁intelligence	-10.8269
▁intensity	-10.8269
▁intent	-10.8269
▁interacting	-10.8269
▁interfering	-10.8269
▁internal	-10.8269
▁introduce	-10.8269
▁introduction	-10.8269
▁inverse	-10.8269
▁investigate	-10.8269
▁involves	-10.8269
▁ironic	-10.8269
▁ironically	-10.8269
▁isolate	-10.8269
▁iyo	-10.8269
▁jack	-10.8269
▁jacket	-10.8269
▁jean	-10.8269
▁jumbled	-10.8269
▁jumpy	-10.8269
▁jung	-10.8269
▁jury	-10.8269
▁justified	-10.8269
▁ketamine	-10.8269
▁kiss	-10.8269
▁lane	-10.8269
▁lashed	-10.8269
▁laziness	-10.8269
▁leak	-10.8269
▁learnt	-10.8269
▁lessened	-10.8269
▁lethargic	-10.8269
▁leukemia	-10.8269
▁library	-10.8269
▁lifelong	-10.8269
▁lifted	-10.8269
▁linked	-10.8269
▁listed	-10.8269
▁litteraly	-10.8269
▁loathe	-10.8269
▁locking	-10.8269
▁lonlyness	-10.8269
▁looming	-10.8269
▁lottery	-10.8269
▁loudness	-10.8269
▁lsd	-10.8269
▁lump	-10.8269
▁magic	-10.8269
▁magnesium	-10.8269
▁magnus	-10.8269
▁mailto	-10.8269
▁maintained	-10.8269
▁maintaining	-10.8269
▁mam	-10.8269
▁manic	-10.8269
▁manifestation	-10.8269
▁manifesting	-10.8269
▁manipulate	-10.8269
▁maoi	-10.8269
▁masculine	-10.8269
▁mattered	-10.8269
▁mdd	-10.8269
▁melatonin	-10.8269
▁messy	-10.8269
▁mike	-10.8269
▁mildly	-10.8269
▁miller	-10.8269
▁mini	-10.8269
▁miserably	-10.8269
▁mobility	-10.8269
▁moderna	-10.8269
▁moody	-10.8269
▁moreover	-10.8269
▁moreso	-10.8269
▁narrative	-10.8269
▁nearby	-10.8269
▁net	-10.8269
▁neurological	-10.8269
▁newly	-10.8269
▁nickname	-10.8269
▁nine	-10.8269
▁nofap	-10.8269
▁numbed	-10.8269
▁nyc	-10.8269
▁obese	-10.8269
▁obligation	-10.8269
▁observation	-10.8269
▁obsessively	-10.8269
▁obstacle	-10.8269
▁obtain	-10.8269
▁obtained	-10.8269
▁occurred	-10.8269
▁occurrence	-10.8269
▁offline	-10.8269
▁oldest	-10.8269
▁omg	-10.8269
▁ongoing	-10.8269
▁onset	-10.8269
▁openly	-10.8269
▁optometrist	-10.8269
▁oral	-10.8269
▁ordered	-10.8269
▁organise	-10.8269
▁organised	-10.8269
▁outcast	-10.8269
▁overcame	-10.8269
▁overload	-10.8269
▁pace	-10.8269
▁paralyzed	-10.8269
▁paralyzing	-10.8269
▁partially	-10.8269
▁passenger	-10.8269
▁passively	-10.8269
▁patch	-10.8269
▁patience	-10.8269
▁pb	-10.8269
▁pc	-10.8269
▁peacefully	-10.8269
▁pee	-10.8269
▁perceive	-10.8269
▁peripheral	-10.8269
▁photography	-10.8269
▁picnic	-10.8269
▁piled	-10.8269
▁pillow	-10.8269
▁pin	-10.8269
▁pitch	-10.8269
▁placebo	-10.8269
▁placed	-10.8269
▁plagued	-10.8269
▁plant	-10.8269
▁pocd	-10.8269
▁pocket	-10.8269
▁poem	-10.8269
▁political	-10.8269
▁portion	-10.8269
▁powerful	-10.8269
▁praise	-10.8269
▁prayed	-10.8269
▁precious	-10.8269
▁predicted	-10.8269
▁prescribing	-10.8269
▁pressed	-10.8269
▁pressured	-10.8269
▁presume	-10.8269
▁prevented	-10.8269
▁primarily	-10.8269
▁problematic	-10.8269
▁proceeded	-10.8269
▁procrastinating	-10.8269
▁produce	-10.8269
▁professionally	-10.8269
▁profit	-10.8269
▁prolonged	-10.8269
▁prominent	-10.8269
▁prone	-10.8269
▁property	-10.8269
▁propranolol	-10.8269
▁prospect	-10.8269
▁protect	-10.8269
▁proved	-10.8269
▁provider	-10.8269
▁psyche	-10.8269
▁psychology	-10.8269
▁psychosis	-10.8269
▁puberty	-10.8269
▁puppet	-10.8269
▁purple	-10.8269
▁qualification	-10.8269
▁queasy	-10.8269
▁questionnaire	-10.8269
▁quiz	-10.8269
▁radio	-10.8269
▁rapidly	-10.8269
▁realising	-10.8269
▁realistic	-10.8269
▁realy	-10.8269
▁receiving	-10.8269
▁recognized	-10.8269
▁recording	-10.8269
▁recovered	-10.8269
▁refreshed	-10.8269
▁regimen	-10.8269
▁register	-10.8269
▁regression	-10.8269
▁rejecting	-10.8269
▁released	-10.8269
▁relieve	-10.8269
▁relive	-10.8269
▁removed	-10.8269
▁replaced	-10.8269
▁replay	-10.8269
▁reschedule	-10.8269
▁researched	-10.8269
▁resolve	-10.8269
▁resort	-10.8269
▁responder	-10.8269
▁resting	-10.8269
▁restless	-10.8269
▁restriction	-10.8269
▁resulted	-10.8269
▁retarded	-10.8269
▁retirement	-10.8269
▁review	-10.8269
▁revolves	-10.8269
▁ridden	-10.8269
▁rising	-10.8269
▁roll	-10.8269
▁rooted	-10.8269
▁rope	-10.8269
▁rotting	-10.8269
▁roughly	-10.8269
▁rubber	-10.8269
▁rumor	-10.8269
▁rural	-10.8269
▁rushing	-10.8269
▁sabotage	-10.8269
▁sabotaging	-10.8269
▁saddest	-10.8269
▁safely	-10.8269
▁saliva	-10.8269
▁salvage	-10.8269
▁salvation	-10.8269
▁san	-10.8269
▁sandwich	-10.8269
▁sane	-10.8269
▁sanity	-10.8269
▁satisfaction	-10.8269
▁satisfied	-10.8269
▁scheduling	-10.8269
▁script	-10.8269
▁scroll	-10.8269
▁scrutiny	-10.8269
▁seasonal	-10.8269
▁seeker	-10.8269
▁seeming	-10.8269
▁separation	-10.8269
▁setback	-10.8269
▁settled	-10.8269
▁sexuality	-10.8269
▁shameful	-10.8269
▁shelter	-10.8269
▁shivering	-10.8269
▁shoe	-10.8269
▁shook	-10.8269
▁shorter	-10.8269
▁shouted	-10.8269
▁showered	-10.8269
▁simulation	-10.8269
▁singing	-10.8269
▁sink	-10.8269
▁sip	-10.8269
▁sitcom	-10.8269
▁slap	-10.8269
▁slave	-10.8269
▁slaving	-10.8269
▁sleeve	-10.8269
▁slower	-10.8269
▁smallest	-10.8269
▁smarter	-10.8269
▁smiling	-10.8269
▁smoked	-10.8269
▁sneeze	-10.8269
▁socialise	-10.8269
▁soda	-10.8269
▁soo	-10.8269
▁sooo	-10.8269
▁sooooo	-10.8269
▁soothe	-10.8269
▁sorrow	-10.8269
▁south	-10.8269
▁southern	-10.8269
▁speaker	-10.8269
▁specialist	-10.8269
▁specially	-10.8269
▁specie	-10.8269
▁spends	-10.8269
▁spike	-10.8269
▁spinning	-10.8269
▁spit	-10.8269
▁spray	-10.8269
▁squeeze	-10.8269
▁stability	-10.8269
▁stabilizer	-10.8269
▁stadium	-10.8269
▁stall	-10.8269
▁startle	-10.8269
▁stating	-10.8269
▁stemmed	-10.8269
▁stiff	-10.8269
▁stock	-10.8269
▁stool	-10.8269
▁storage	-10.8269
▁straightened	-10.8269
▁stray	-10.8269
▁strengthen	-10.8269
▁strict	-10.8269
▁stricture	-10.8269
▁strike	-10.8269
▁strongest	-10.8269
▁structure	-10.8269
▁studio	-10.8269
▁stuttering	-10.8269
▁style	-10.8269
▁suboxone	-10.8269
▁subside	-10.8269
▁sucking	-10.8269
▁sufficient	-10.8269
▁suffocating	-10.8269
▁supporting	-10.8269
▁suppress	-10.8269
▁surroundings	-10.8269
▁swallowing	-10.8269
▁sway	-10.8269
▁swore	-10.8269
▁tab	-10.8269
▁tad	-10.8269
▁talkative	-10.8269
▁tattoo	-10.8269
▁taxing	-10.8269
▁technical	-10.8269
▁ted	-10.8269
▁tender	-10.8269
▁testing	-10.8269
▁texas	-10.8269
▁thc	-10.8269
▁theft	-10.8269
▁theme	-10.8269
▁thick	-10.8269
▁thrilled	-10.8269
▁thrive	-10.8269
▁thumbnail	-10.8269
▁tic	-10.8269
▁ticket	-10.8269
▁tightly	-10.8269
▁toddler	-10.8269
▁toughest	-10.8269
▁toxicity	-10.8269
▁traditional	-10.8269
▁transition	-10.8269
▁transphobic	-10.8269
▁trazadone	-10.8269
▁treading	-10.8269
▁trial	-10.8269
▁trichotillomania	-10.8269
▁tumor	-10.8269
▁twelve	-10.8269
▁ty	-10.8269
▁unaware	-10.8269
▁unbelievably	-10.8269
▁unconditionally	-10.8269
▁unconsciously	-10.8269
▁uncontrollable	-10.8269
▁undergrad	-10.8269
▁unfair	-10.8269
▁unfortunate	-10.8269
▁unreasonable	-10.8269
▁unwell	-10.8269
▁upcoming	-10.8269
▁upside	-10.8269
▁urgent	-10.8269
▁uti	-10.8269
▁utm_medium	-10.8269
▁utm_source	-10.8269
▁vague	-10.8269
▁vehicle	-10.8269
▁violation	-10.8269
▁virtually	-10.8269
▁visa	-10.8269
▁wallet	-10.8269
▁war	-10.8269
▁wary	-10.8269
▁weaker	-10.8269
▁wednesday	-10.8269
▁weigh	-10.8269
▁weighed	-10.8269
▁welp	-10.8269
▁wheel	-10.8269
▁whirlwind	-10.8269
▁whoever	-10.8269
▁wierd	-10.8269
▁wikipedia	-10.8269
▁wild	-10.8269
▁wire	-10.8269
▁wished	-10.8269
▁witness	-10.8269
▁woozy	-10.8269
▁workplace	-10.8269
▁worsen	-10.8269
▁wrapped	-10.8269
▁writes	-10.8269
▁xbox	-10.8269
▁xvideos	-10.8269
▁ya	-10.8269
▁yea	-10.8269
▁yearly	-10.8269
▁youngest	-10.8269
▁1000	-11.2324
▁10am	-11.2324
▁10pm	-11.2324
▁10th	-11.2324
▁10x	-11.2324
▁130	-11.2324
▁13f	-11.2324
▁143	-11.2324
▁14f	-11.2324
▁20kg	-11.2324
▁21m	-11.2324
▁21st	-11.2324
▁24th	-11.2324
▁2pm	-11.2324
▁300	-11.2324
▁3000	-11.2324
▁30ish	-11.2324
▁33	-11.2324
▁3a4	-11.2324
▁3mg	-11.2324
▁3x	-11.2324
▁4262bd60	-11.2324
▁4pm	-11.2324
▁50mg	-11.2324
▁5am	-11.2324
▁60mg	-11.2324
▁64	-11.2324
▁80bpm	-11.2324
▁8pm	-11.2324
▁_petition	-11.2324
▁aa	-11.2324
▁aaaaaaa	-11.2324
▁abdominal	-11.2324
▁abnormal	-11.2324
▁abomination	-11.2324
▁abroad	-11.2324
▁abruptly	-11.2324
▁absorbing	-11.2324
▁absurd	-11.2324
▁abuser	-11.2324
▁abusing	-11.2324
▁abysmal	-11.2324
▁acc	-11.2324
▁acceptance	-11.2324
▁accepts	-11.2324
▁accommodate	-11.2324
▁accommodation	-11.2324
▁accompanied	-11.2324
▁accomplishing	-11.2324
▁accused	-11.2324
▁accusing	-11.2324
▁accustomed	-11.2324
▁aching	-11.2324
▁acne	-11.2324
▁acquaintance	-11.2324
▁activism	-11.2324
▁actress	-11.2324
▁adapt	-11.2324
▁adapting	-11.2324
▁adderal	-11.2324
▁addict	-11.2324
▁additionally	-11.2324
▁administration	-11.2324
▁admiration	-11.2324
▁admittedly	-11.2324
▁admitting	-11.2324
▁adore	-11.2324
▁advanced	-11.2324
▁advisor	-11.2324
▁aesthetic	-11.2324
▁affluent	-11.2324
▁affordable	-11.2324
▁afloat	-11.2324
▁aged	-11.2324
▁agony	-11.2324
▁agriculture	-11.2324
▁aha	-11.2324
▁aim	-11.2324
▁aka	-11.2324
▁al	-11.2324
▁alarm	-11.2324
▁alarming	-11.2324
▁alienated	-11.2324
▁alley	-11.2324
▁allocate	-11.2324
▁allot	-11.2324
▁aloof	-11.2324
▁altered	-11.2324
▁amd	-11.2324
▁american	-11.2324
▁amitriptyline	-11.2324
▁amongst	-11.2324
▁amped	-11.2324
▁amplified	-11.2324
▁amplifies	-11.2324
▁amygdala	-11.2324
▁analogy	-11.2324
▁analyzing	-11.2324
▁anaphylaxis	-11.2324
▁anchor	-11.2324
▁angel	-11.2324
▁aninjusticemag	-11.2324
▁announced	-11.2324
▁anonymity	-11.2324
▁antagonize	-11.2324
▁antonio	-11.2324
▁apologetic	-11.2324
▁appreciation	-11.2324
▁approached	-11.2324
▁approved	-11.2324
▁appt	-11.2324
▁arent	-11.2324
▁argue	-11.2324
▁armed	-11.2324
▁army	-11.2324
▁arranged	-11.2324
▁arrangement	-11.2324
▁arrested	-11.2324
▁artery	-11.2324
▁artist	-11.2324
▁asd	-11.2324
▁asshat	-11.2324
▁assigned	-11.2324
▁associated	-11.2324
▁aswell	-11.2324
▁ati	-11.2324
▁attach	-11.2324
▁attempting	-11.2324
▁aussie	-11.2324
▁authentic	-11.2324
▁authoritative	-11.2324
▁autoimmune	-11.2324
▁availability	-11.2324
▁aversion	-11.2324
▁avocado	-11.2324
▁avoidance	-11.2324
▁awe	-11.2324
▁b12	-11.2324
▁ba	-11.2324
▁babbling	-11.2324
▁backed	-11.2324
▁backpack	-11.2324
▁backstory	-11.2324
▁baker	-11.2324
▁bakery	-11.2324
▁bald	-11.2324
▁bam	-11.2324
▁banned	-11.2324
▁barbie	-11.2324
▁basket	-11.2324
▁bcs	-11.2324
▁bean	-11.2324
▁beard	-11.2324
▁becuase	-11.2324
▁beef	-11.2324
▁beer	-11.2324
▁belonging	-11.2324
▁beneficial	-11.2324
▁beqause	-11.2324
▁biased	-11.2324
▁billion	-11.2324
▁biting	-11.2324
▁bitten	-11.2324
▁blackness	-11.2324
▁blanking	-11.2324
▁blessed	-11.2324
▁blinking	-11.2324
▁bloody	-11.2324
▁blushing	-11.2324
▁bodily	-11.2324
▁bodyimage	-11.2324
▁bombard	-11.2324
▁bombarded	-11.2324
▁bonus	-11.2324
▁borderline	-11.2324
▁bore	-11.2324
▁bottling	-11.2324
▁brag	-11.2324
▁brainwashed	-11.2324
▁breather	-11.2324
▁brew	-11.2324
▁brown	-11.2324
▁bubbling	-11.2324
▁bubbly	-11.2324
▁buck	-11.2324
▁bull	-11.2324
▁bullying	-11.2324
▁bum	-11.2324
▁buried	-11.2324
▁burying	-11.2324
▁bust	-11.2324
▁butterfly	-11.2324
▁buzzing	-11.2324
▁ca	-11.2324
▁cabinet	-11.2324
▁calendar	-11.2324
▁calf	-11.2324
▁caller	-11.2324
▁calmly	-11.2324
▁calorie	-11.2324
▁canada	-11.2324
▁cancelling	-11.2324
▁cannabis	-11.2324
▁capability	-11.2324
▁capitalism	-11.2324
▁cartoon	-11.2324
▁cast	-11.2324
▁castle	-11.2324
▁cater	-11.2324
▁causality	-11.2324
▁cavity	-11.2324
▁cease	-11.2324
▁celebrating	-11.2324
▁cemented	-11.2324
▁chair	-11.2324
▁challenged	-11.2324
▁chased	-11.2324
▁chatty	-11.2324
▁cheaper	-11.2324
▁cheat	-11.2324
▁cheating	-11.2324
▁cheek	-11.2324
▁cheesy	-11.2324
▁chemo	-11.2324
▁cherry	-11.2324
▁chewbacca	-11.2324
▁chicken	-11.2324
▁childish	-11.2324
▁chin	-11.2324
▁chlonazapam	-11.2324
▁chosen	-11.2324
▁chunk	-11.2324
▁churning	-11.2324
▁circled	-11.2324
▁circumstance	-11.2324
▁civilized	-11.2324
▁clammy	-11.2324
▁classic	-11.2324
▁clearer	-11.2324
▁cliche	-11.2324
▁clientele	-11.2324
▁cliff	-11.2324
▁clipper	-11.2324
▁clockwork	-11.2324
▁clothing	-11.2324
▁clown	-11.2324
▁clueless	-11.2324
▁co2	-11.2324
▁coat	-11.2324
▁codependent	-11.2324
▁cognition	-11.2324
▁colitis	-11.2324
▁collection	-11.2324
▁colonoscopy	-11.2324
▁colour	-11.2324
▁combined	-11.2324
▁comeback	-11.2324
▁comedian	-11.2324
▁command	-11.2324
▁commits	-11.2324
▁committee	-11.2324
▁commonality	-11.2324
▁compensation	-11.2324
▁completing	-11.2324
▁compliment	-11.2324
▁compose	-11.2324
▁comprehension	-11.2324
▁compulsion	-11.2324
▁compulsive	-11.2324
▁compulsively	-11.2324
▁concluded	-11.2324
▁concur	-11.2324
▁conditional	-11.2324
▁conditioned	-11.2324
▁conducting	-11.2324
▁confidential	-11.2324
▁confirmation	-11.2324
▁confusion	-11.2324
▁conquer	-11.2324
▁conservative	-11.2324
▁consideration	-11.2324
▁consist	-11.2324
▁constipated	-11.2324
▁consulted	-11.2324
▁consumes	-11.2324
▁consumption	-11.2324
▁contemplated	-11.2324
▁contest	-11.2324
▁continually	-11.2324
▁contrast	-11.2324
▁contributing	-11.2324
▁copy	-11.2324
▁copylink	-11.2324
▁coronavirus	-11.2324
▁corpse	-11.2324
▁correlation	-11.2324
▁corsage	-11.2324
▁coughing	-11.2324
▁counting	-11.2324
▁covered	-11.2324
▁cowardice	-11.2324
▁coz	-11.2324
▁cozy	-11.2324
▁cracker	-11.2324
▁crashing	-11.2324
▁crate	-11.2324
▁criminal	-11.2324
▁criticizing	-11.2324
▁crp	-11.2324
▁cruelty	-11.2324
▁crumbling	-11.2324
▁cu	-11.2324
▁cuddled	-11.2324
▁cue	-11.2324
▁currency	-11.2324
▁curse	-11.2324
▁cursor	-11.2324
▁custody	-11.2324
▁cw	-11.2324
▁cycling	-11.2324
▁da3225tu	-11.2324
▁dam	-11.2324
▁dancer	-11.2324
▁david	-11.2324
▁davis	-11.2324
▁daze	-11.2324
▁deadly	-11.2324
▁dear	-11.2324
▁decrease	-11.2324
▁decreased	-11.2324
▁dedicate	-11.2324
▁defeat	-11.2324
▁deferred	-11.2324
▁deficit	-11.2324
▁defies	-11.2324
▁deja	-11.2324
▁deleting	-11.2324
▁deliver	-11.2324
▁demand	-11.2324
▁democrat	-11.2324
▁dental	-11.2324
▁deodorant	-11.2324
▁department	-11.2324
▁depreciating	-11.2324
▁depress	-11.2324
▁depresses	-11.2324
▁deprivation	-11.2324
▁design	-11.2324
▁designer	-11.2324
▁desirable	-11.2324
▁desperation	-11.2324
▁destroys	-11.2324
▁detailed	-11.2324
▁deteriorating	-11.2324
▁detox	-11.2324
▁devastating	-11.2324
▁developer	-11.2324
▁device	-11.2324
▁devil	-11.2324
▁diabetic	-11.2324
▁diagnosing	-11.2324
▁diaphragm	-11.2324
▁diego	-11.2324
▁digital	-11.2324
▁dioxide	-11.2324
▁dip	-11.2324
▁dire	-11.2324
▁disabling	-11.2324
▁disappears	-11.2324
▁disc	-11.2324
▁disclosed	-11.2324
▁disclosure	-11.2324
▁discover	-11.2324
▁disliked	-11.2324
▁dismissive	-11.2324
▁disordered	-11.2324
▁disregarded	-11.2324
▁disrespected	-11.2324
▁disrespectful	-11.2324
▁dissapeared	-11.2324
▁dissapoint	-11.2324
▁dissappeared	-11.2324
▁dissipated	-11.2324
▁dissociate	-11.2324
▁dissociated	-11.2324
▁distancing	-11.2324
▁distinguish	-11.2324
▁ditch	-11.2324
▁dive	-11.2324
▁dming	-11.2324
▁documentary	-11.2324
▁doens	-11.2324
▁domestic	-11.2324
▁domino	-11.2324
▁dorm	-11.2324
▁doubling	-11.2324
▁downer	-11.2324
▁download	-11.2324
▁downloaded	-11.2324
▁downvotes	-11.2324
▁dragon	-11.2324
▁drawn	-11.2324
▁dreaming	-11.2324
▁dressing	-11.2324
▁drifted	-11.2324
▁drowsy	-11.2324
▁drum	-11.2324
▁du	-11.2324
▁dulled	-11.2324
▁dumbass	-11.2324
▁dumbed	-11.2324
▁dump	-11.2324
▁dwelling	-11.2324
▁dysfunction	-11.2324
▁dysmorphia	-11.2324
▁eachother	-11.2324
▁earliest	-11.2324
▁earned	-11.2324
▁earphone	-11.2324
▁eased	-11.2324
▁easter	-11.2324
▁eats	-11.2324
▁ecg	-11.2324
▁echo	-11.2324
▁edu	-11.2324
▁educated	-11.2324
▁eerily	-11.2324
▁effected	-11.2324
▁effecting	-11.2324
▁effexeor	-11.2324
▁eg	-11.2324
▁eggshell	-11.2324
▁electric	-11.2324
▁electricity	-11.2324
▁elevate	-11.2324
▁elevated	-11.2324
▁emphasise	-11.2324
▁encephalitis	-11.2324
▁encourage	-11.2324
▁endlessly	-11.2324
▁endodontist	-11.2324
▁endorphin	-11.2324
▁enduring	-11.2324
▁energetic	-11.2324
▁engaged	-11.2324
▁engine	-11.2324
▁engineering	-11.2324
▁englisch	-11.2324
▁enroll	-11.2324
▁entered	-11.2324
▁enters	-11.2324
▁entirety	-11.2324
▁envious	-11.2324
▁environmental	-11.2324
▁equipped	-11.2324
▁escalate	-11.2324
▁escrow	-11.2324
▁essential	-11.2324
▁eternal	-11.2324
▁eternally	-11.2324
▁everday	-11.2324
▁evicted	-11.2324
▁exacerbated	-11.2324
▁exaggeration	-11.2324
▁exceeding	-11.2324
▁exceedingly	-11.2324
▁excessively	-11.2324
▁excite	-11.2324
▁exhaustion	-11.2324
▁exited	-11.2324
▁experimenting	-11.2324
▁expert	-11.2324
▁exploded	-11.2324
▁explore	-11.2324
▁ext	-11.2324
▁extension	-11.2324
▁externally	-11.2324
▁eyed	-11.2324
▁eyeing	-11.2324
▁fails	-11.2324
▁familiy	-11.2324
▁farewell	-11.2324
▁fashion	-11.2324
▁fathom	-11.2324
▁fatty	-11.2324
▁favourite	-11.2324
▁fck	-11.2324
▁fdzw	-11.2324
▁fearing	-11.2324
▁feather	-11.2324
▁feature	-11.2324
▁feb	-11.2324
▁feminime	-11.2324
▁feminine	-11.2324
▁fetzima	-11.2324
▁fewer	-11.2324
▁fictional	-11.2324
▁fifth	-11.2324
▁fighter	-11.2324
▁figuring	-11.2324
▁finn	-11.2324
▁firing	-11.2324
▁firmly	-11.2324
▁fish	-11.2324
▁fist	-11.2324
▁fixate	-11.2324
▁flareups	-11.2324
▁flashing	-11.2324
▁flesh	-11.2324
▁flirting	-11.2324
▁floater	-11.2324
▁flood	-11.2324
▁fluctuates	-11.2324
▁fo	-11.2324
▁follower	-11.2324
▁fooled	-11.2324
▁forcefully	-11.2324
▁forearm	-11.2324
▁forehead	-11.2324
▁format	-11.2324
▁fortnight	-11.2324
▁fountain	-11.2324
▁fr	-11.2324
▁frame	-11.2324
▁freely	-11.2324
▁french	-11.2324
▁frickin	-11.2324
▁fridge	-11.2324
▁friendzoned	-11.2324
▁frightened	-11.2324
▁fucker	-11.2324
▁fuel	-11.2324
▁fueled	-11.2324
▁fullest	-11.2324
▁fuming	-11.2324
▁fund	-11.2324
▁furniture	-11.2324
▁futile	-11.2324
▁fxxking	-11.2324
▁fyi	-11.2324
▁gag	-11.2324
▁gagging	-11.2324
▁gait	-11.2324
▁gal	-11.2324
▁galaxy	-11.2324
▁gambler	-11.2324
▁gaping	-11.2324
▁garage	-11.2324
▁gasp	-11.2324
▁gastritis	-11.2324
▁gaze	-11.2324
▁generating	-11.2324
▁generous	-11.2324
▁genetic	-11.2324
▁genius	-11.2324
▁gently	-11.2324
▁georgia	-11.2324
▁gesture	-11.2324
▁ghosting	-11.2324
▁giant	-11.2324
▁gifted	-11.2324
▁glance	-11.2324
▁gland	-11.2324
▁global	-11.2324
▁globus	-11.2324
▁glove	-11.2324
▁goodwill	-11.2324
▁goof	-11.2324
▁gordon	-11.2324
▁gorgeous	-11.2324
▁gossip	-11.2324
▁grammatical	-11.2324
▁grandpa	-11.2324
▁grant	-11.2324
▁grave	-11.2324
▁gravitate	-11.2324
▁gray	-11.2324
▁greeting	-11.2324
▁grey	-11.2324
▁grieve	-11.2324
▁grind	-11.2324
▁grinding	-11.2324
▁grounding	-11.2324
▁groupchat	-11.2324
▁grumpy	-11.2324
▁guessed	-11.2324
▁guide	-11.2324
▁guitar	-11.2324
▁gum	-11.2324
▁gunna	-11.2324
▁gutter	-11.2324
▁hack	-11.2324
▁hail	-11.2324
▁haircut	-11.2324
▁hall	-11.2324
▁hampered	-11.2324
▁handicapped	-11.2324
▁happend	-11.2324
▁harmful	-11.2324
▁harrassed	-11.2324
▁harsh	-11.2324
▁hassle	-11.2324
▁haunt	-11.2324
▁havnt	-11.2324
▁hazy	-11.2324
▁heading	-11.2324
▁heals	-11.2324
▁hears	-11.2324
▁heartbreaking	-11.2324
▁heaviness	-11.2324
▁heaving	-11.2324
▁hehe	-11.2324
▁hella	-11.2324
▁hemeopathy	-11.2324
▁herbal	-11.2324
▁hernia	-11.2324
▁herniated	-11.2324
▁heyy	-11.2324
▁hierarchy	-11.2324
▁hilarious	-11.2324
▁hill	-11.2324
▁hinder	-11.2324
▁hint	-11.2324
▁hiring	-11.2324
▁hiya	-11.2324
▁hm	-11.2324
▁hmm	-11.2324
▁hoarse	-11.2324
▁holed	-11.2324
▁holter	-11.2324
▁homebody	-11.2324
▁homelessness	-11.2324
▁homeopathy	-11.2324
▁hometown	-11.2324
▁hopping	-11.2324
▁horrid	-11.2324
▁horse	-11.2324
▁humour	-11.2324
▁hunger	-11.2324
▁hunt	-11.2324
▁hurted	-11.2324
▁hybrid	-11.2324
▁hydrated	-11.2324
▁hyperventilate	-11.2324
▁hypnotherapy	-11.2324
▁hypochondriac	-11.2324
▁hypocrisy	-11.2324
▁iced	-11.2324
▁idealistic	-11.2324
▁identical	-11.2324
▁ignores	-11.2324
▁ijfnaupe	-11.2324
▁illogical	-11.2324
▁ilnesses	-11.2324
▁imagination	-11.2324
▁imaging	-11.2324
▁immature	-11.2324
▁impactful	-11.2324
▁impaired	-11.2324
▁implies	-11.2324
▁importantly	-11.2324
▁impression	-11.2324
▁impromptu	-11.2324
▁improv	-11.2324
▁improves	-11.2324
▁inauthentic	-11.2324
▁included	-11.2324
▁incoherent	-11.2324
▁inconsolable	-11.2324
▁inconvenient	-11.2324
▁indecision	-11.2324
▁indefinite	-11.2324
▁indicate	-11.2324
▁inexperienced	-11.2324
▁infact	-11.2324
▁inferiority	-11.2324
▁inflation	-11.2324
▁inflict	-11.2324
▁inherently	-11.2324
▁inimical	-11.2324
▁initial	-11.2324
▁initiate	-11.2324
▁innate	-11.2324
▁innocence	-11.2324
▁insignificant	-11.2324
▁insist	-11.2324
▁insists	-11.2324
▁inspection	-11.2324
▁inspire	-11.2324
▁insta	-11.2324
▁instruction	-11.2324
▁instructor	-11.2324
▁insulin	-11.2324
▁intellectual	-11.2324
▁intellectually	-11.2324
▁intended	-11.2324
▁intensely	-11.2324
▁interferes	-11.2324
▁intermittent	-11.2324
▁internally	-11.2324
▁international	-11.2324
▁interpretation	-11.2324
▁interruption	-11.2324
▁interviewer	-11.2324
▁intestine	-11.2324
▁intimate	-11.2324
▁intimidating	-11.2324
▁introversion	-11.2324
▁invalidating	-11.2324
▁invitation	-11.2324
▁involuntary	-11.2324
▁irony	-11.2324
▁itching	-11.2324
▁jaded	-11.2324
▁jail	-11.2324
▁james	-11.2324
▁japan	-11.2324
▁jeopardy	-11.2324
▁jerking	-11.2324
▁jitteriness	-11.2324
▁jobless	-11.2324
▁johnson	-11.2324
▁joyless	-11.2324
▁justifiably	-11.2324
▁karma	-11.2324
▁keen	-11.2324
▁kicker	-11.2324
▁kidnap	-11.2324
▁kidnapped	-11.2324
▁kindergarten	-11.2324
▁kissed	-11.2324
▁kit	-11.2324
▁km	-11.2324
▁knocked	-11.2324
▁kylo	-11.2324
▁labor	-11.2324
▁labored	-11.2324
▁lagging	-11.2324
▁lame	-11.2324
▁landlord	-11.2324
▁lang	-11.2324
▁lap	-11.2324
▁larger	-11.2324
▁lash	-11.2324
▁ldrs	-11.2324
▁leadership	-11.2324
▁lean	-11.2324
▁leap	-11.2324
▁lease	-11.2324
▁leash	-11.2324
▁leeching	-11.2324
▁legitimate	-11.2324
▁lexipro	-11.2324
▁lgbt	-11.2324
▁lgbtq	-11.2324
▁lifetime	-11.2324
▁lightly	-11.2324
▁linden	-11.2324
▁linear	-11.2324
▁lined	-11.2324
▁lingering	-11.2324
▁lingers	-11.2324
▁lining	-11.2324
▁lipstick	-11.2324
▁liquid	-11.2324
▁listens	-11.2324
▁listing	-11.2324
▁liver	-11.2324
▁located	-11.2324
▁logging	-11.2324
▁lorazepam	-11.2324
▁lord	-11.2324
▁loses	-11.2324
▁louder	-11.2324
▁lovely	-11.2324
▁lucid	-11.2324
▁lymph	-11.2324
▁lyric	-11.2324
▁machado	-11.2324
▁magical	-11.2324
▁magically	-11.2324
▁mail	-11.2324
▁makeup	-11.2324
▁mandatory	-11.2324
▁manga	-11.2324
▁manifested	-11.2324
▁manipulation	-11.2324
▁marathon	-11.2324
▁marceline	-11.2324
▁massively	-11.2324
▁masturbating	-11.2324
▁matching	-11.2324
▁mathematics	-11.2324
▁mattress	-11.2324
▁maxed	-11.2324
▁meaninglessness	-11.2324
▁meanwhile	-11.2324
▁mechanic	-11.2324
▁medicating	-11.2324
▁menace	-11.2324
▁mentality	-11.2324
▁mentor	-11.2324
▁metally	-11.2324
▁mh	-11.2324
▁micro	-11.2324
▁midday	-11.2324
▁milk	-11.2324
▁minded	-11.2324
▁mindless	-11.2324
▁minimize	-11.2324
▁minus	-11.2324
▁mishap	-11.2324
▁misunderstand	-11.2324
▁misunderstanding	-11.2324
▁ml	-11.2324
▁mo	-11.2324
▁mock	-11.2324
▁mod	-11.2324
▁moderately	-11.2324
▁modern	-11.2324
▁moisturising	-11.2324
▁monotone	-11.2324
▁monthly	-11.2324
▁mortgage	-11.2324
▁motherly	-11.2324
▁mountain	-11.2324
▁mouthwash	-11.2324
▁mr	-11.2324
▁mud	-11.2324
▁multiplayer	-11.2324
▁na	-11.2324
▁nailed	-11.2324
▁nakakapagod	-11.2324
▁naman	-11.2324
▁named	-11.2324
▁nap	-11.2324
▁narcissist	-11.2324
▁narcolepsy	-11.2324
▁national	-11.2324
▁nd	-11.2324
▁necessity	-11.2324
▁needlessly	-11.2324
▁needy	-11.2324
▁neglecting	-11.2324
▁nerd	-11.2324
▁nest	-11.2324
▁netflix	-11.2324
▁network	-11.2324
▁neurologist	-11.2324
▁neurosis	-11.2324
▁neutral	-11.2324
▁nevada	-11.2324
▁newer	-11.2324
▁nh	-11.2324
▁nicely	-11.2324
▁nicest	-11.2324
▁nicotine	-11.2324
▁niveau	-11.2324
▁nodded	-11.2324
▁node	-11.2324
▁nonsense	-11.2324
▁nonsensical	-11.2324
▁nonstop	-11.2324
▁noone	-11.2324
▁noticeable	-11.2324
▁novel	-11.2324
▁nutrient	-11.2324
▁oblivion	-11.2324
▁occupy	-11.2324
▁occur	-11.2324
▁oddly	-11.2324
▁offering	-11.2324
▁officially	-11.2324
▁olanzapine	-11.2324
▁ontario	-11.2324
▁operate	-11.2324
▁opposed	-11.2324
▁optional	-11.2324
▁orange	-11.2324
▁ordinary	-11.2324
▁organising	-11.2324
▁organization	-11.2324
▁organized	-11.2324
▁orgasm	-11.2324
▁outdoor	-11.2324
▁outing	-11.2324
▁outweighs	-11.2324
▁overanalyzing	-11.2324
▁overbearing	-11.2324
▁overcoming	-11.2324
▁overdosed	-11.2324
▁overdramatise	-11.2324
▁overeacting	-11.2324
▁overnight	-11.2324
▁overwhelm	-11.2324
▁oxycodone	-11.2324
▁oxymeter	-11.2324
▁paced	-11.2324
▁packaging	-11.2324
▁packed	-11.2324
▁packing	-11.2324
▁painfully	-11.2324
▁painkiller	-11.2324
▁painless	-11.2324
▁paint	-11.2324
▁painted	-11.2324
▁paired	-11.2324
▁pajama	-11.2324
▁pale	-11.2324
▁paperwork	-11.2324
▁parallel	-11.2324
▁parasite	-11.2324
▁parenting	-11.2324
▁parked	-11.2324
▁partake	-11.2324
▁participant	-11.2324
▁participation	-11.2324
▁pcr	-11.2324
▁peel	-11.2324
▁peep	-11.2324
▁penis	-11.2324
▁penny	-11.2324
▁percent	-11.2324
▁percentage	-11.2324
▁perceptive	-11.2324
▁perfectionism	-11.2324
▁performed	-11.2324
▁performing	-11.2324
▁pericoronitis	-11.2324
▁permanently	-11.2324
▁persona	-11.2324
▁petal	-11.2324
▁petrified	-11.2324
▁phased	-11.2324
▁phenomenon	-11.2324
▁phlegm	-11.2324
▁phoning	-11.2324
▁phony	-11.2324
▁photograph	-11.2324
▁phrase	-11.2324
▁phrasing	-11.2324
▁physician	-11.2324
▁picturing	-11.2324
▁pinching	-11.2324
▁pink	-11.2324
▁pinpoint	-11.2324
▁pinworm	-11.2324
▁plaque	-11.2324
▁plastered	-11.2324
▁playlist	-11.2324
▁pleasant	-11.2324
▁pleasing	-11.2324
▁plot	-11.2324
▁pmo	-11.2324
▁podcasts	-11.2324
▁pointed	-11.2324
▁pointing	-11.2324
▁poisoning	-11.2324
▁poke	-11.2324
▁popped	-11.2324
▁population	-11.2324
▁pore	-11.2324
▁portfolio	-11.2324
▁portrays	-11.2324
▁pose	-11.2324
▁positively	-11.2324
▁possession	-11.2324
▁poster	-11.2324
▁posture	-11.2324
▁pouch	-11.2324
▁pour	-11.2324
▁poured	-11.2324
▁poverty	-11.2324
▁powerless	-11.2324
▁practical	-11.2324
▁premise	-11.2324
▁prepares	-11.2324
▁preschool	-11.2324
▁press	-11.2324
▁prestigious	-11.2324
▁price	-11.2324
▁prime	-11.2324
▁prisoner	-11.2324
▁private_contact	-11.2324
▁pro	-11.2324
▁probation	-11.2324
▁proceed	-11.2324
▁procrastinator	-11.2324
▁produced	-11.2324
▁production	-11.2324
▁profession	-11.2324
▁professionnal	-11.2324
▁profile	-11.2324
▁profound	-11.2324
▁programmer	-11.2324
▁progressing	-11.2324
▁projecting	-11.2324
▁promoted	-11.2324
▁promotion	-11.2324
▁promptly	-11.2324
▁propelling	-11.2324
▁proposed	-11.2324
▁prospective	-11.2324
▁protected	-11.2324
▁protecting	-11.2324
▁protection	-11.2324
▁protracted	-11.2324
▁proven	-11.2324
▁provides	-11.2324
▁proving	-11.2324
▁pseudo	-11.2324
▁psychic	-11.2324
▁psychosomatic	-11.2324
▁psyciatrist	-11.2324
▁pt	-11.2324
▁publicly	-11.2324
▁publish	-11.2324
▁pump	-11.2324
▁punched	-11.2324
▁punctuation	-11.2324
▁punished	-11.2324
▁purposeful	-11.2324
▁purposely	-11.2324
▁purse	-11.2324
▁pursuit	-11.2324
▁quantity	-11.2324
▁quarter	-11.2324
▁queen	-11.2324
▁questionable	-11.2324
▁quetiapine	-11.2324
▁queue	-11.2324
▁quits	-11.2324
▁rabid	-11.2324
▁racking	-11.2324
▁rail	-11.2324
▁rain	-11.2324
▁raining	-11.2324
▁ramblings	-11.2324
▁ramp	-11.2324
▁ramping	-11.2324
▁range	-11.2324
▁rapid	-11.2324
▁rash	-11.2324
▁rat	-11.2324
▁reassure	-11.2324
▁reassuring	-11.2324
▁reciprocated	-11.2324
▁reckless	-11.2324
▁recognise	-11.2324
▁reconnected	-11.2324
▁recruiter	-11.2324
▁reddish	-11.2324
▁redditor	-11.2324
▁redirect	-11.2324
▁redo	-11.2324
▁refer	-11.2324
▁reflects	-11.2324
▁reflex	-11.2324
▁refusing	-11.2324
▁regaining	-11.2324
▁registered	-11.2324
▁regretful	-11.2324
▁regretted	-11.2324
▁regulation	-11.2324
▁reinstated	-11.2324
▁reinstating	-11.2324
▁relapsing	-11.2324
▁relates	-11.2324
▁relation	-11.2324
▁releasing	-11.2324
▁relevant	-11.2324
▁reliable	-11.2324
▁reliving	-11.2324
▁reluctant	-11.2324
▁remained	-11.2324
▁remeron	-11.2324
▁remission	-11.2324
▁removal	-11.2324
▁removing	-11.2324
▁ren	-11.2324
▁repay	-11.2324
▁repetitive	-11.2324
▁representative	-11.2324
▁repulsive	-11.2324
▁reputation	-11.2324
▁require	-11.2324
▁requirement	-11.2324
▁reselling	-11.2324
▁resent	-11.2324
▁resentment	-11.2324
▁residential	-11.2324
▁residual	-11.2324
▁resist	-11.2324
▁resistance	-11.2324
▁resistant	-11.2324
▁resisting	-11.2324
▁respiratory	-11.2324
▁restlessness	-11.2324
▁restore	-11.2324
▁restricted	-11.2324
▁revealed	-11.2324
▁revert	-11.2324
▁revise	-11.2324
▁revolve	-11.2324
▁riddled	-11.2324
▁riding	-11.2324
▁righteous	-11.2324
▁rip	-11.2324
▁rly	-11.2324
▁roadblock	-11.2324
▁robbed	-11.2324
▁robbery	-11.2324
▁robin	-11.2324
▁rolled	-11.2324
▁rollercoaster	-11.2324
▁romance	-11.2324
▁rota	-11.2324
▁ruled	-11.2324
▁rumour	-11.2324
▁runny	-11.2324
▁rupture	-11.2324
▁rushed	-11.2324
▁s8mwbi	-11.2324
▁sa	-11.2324
▁sacrifice	-11.2324
▁salt	-11.2324
▁sarcasm	-11.2324
▁scarier	-11.2324
▁scariest	-11.2324
▁scheme	-11.2324
▁scientifically	-11.2324
▁scoop	-11.2324
▁scooping	-11.2324
▁scraping	-11.2324
▁screwing	-11.2324
▁scripted	-11.2324
▁scum	-11.2324
▁searched	-11.2324
▁seat	-11.2324
▁sec	-11.2324
▁secretly	-11.2324
▁secure	-11.2324
▁seize	-11.2324
▁selfharm	-11.2324
▁seller	-11.2324
▁seminar	-11.2324
▁semster	-11.2324
▁sensitivity	-11.2324
▁sensory	-11.2324
▁settling	-11.2324
▁shade	-11.2324
▁shadow	-11.2324
▁shamed	-11.2324
▁share_petition	-11.2324
▁shatter	-11.2324
▁shaved	-11.2324
▁shaving	-11.2324
▁sheep	-11.2324
▁shi	-11.2324
▁shifting	-11.2324
▁shining	-11.2324
▁shiny	-11.2324
▁ship	-11.2324
▁shitting	-11.2324
▁shocked	-11.2324
▁shocking	-11.2324
▁shortest	-11.2324
▁shown	-11.2324
▁sickening	-11.2324
▁sicker	-11.2324
▁sideline	-11.2324
▁sidewalk	-11.2324
▁sighing	-11.2324
▁silhouette	-11.2324
▁silver	-11.2324
▁similarly	-11.2324
▁sin	-11.2324
▁situational	-11.2324
▁sixteen	-11.2324
▁sketchy	-11.2324
▁skilled	-11.2324
▁skull	-11.2324
▁skype	-11.2324
▁sl	-11.2324
▁slack	-11.2324
▁slapped	-11.2324
▁slavery	-11.2324
▁sleepover	-11.2324
▁sliced	-11.2324
▁slim	-11.2324
▁slog	-11.2324
▁slumber	-11.2324
▁smaller	-11.2324
▁smash	-11.2324
▁smashing	-11.2324
▁smelling	-11.2324
▁smiley	-11.2324
▁smoker	-11.2324
▁smooth	-11.2324
▁snapchat	-11.2324
▁snow	-11.2324
▁snris	-11.2324
▁sob	-11.2324
▁soccer	-11.2324
▁sociable	-11.2324
▁sociopathic	-11.2324
▁soften	-11.2324
▁solidarity	-11.2324
▁solo	-11.2324
▁somethings	-11.2324
▁soooo	-11.2324
▁soothing	-11.2324
▁sophomore	-11.2324
▁sorta	-11.2324
▁sorting	-11.2324
▁sour	-11.2324
▁specify	-11.2324
▁spilled	-11.2324
▁spiralling	-11.2324
▁spiritual	-11.2324
▁spontaneous	-11.2324
▁spotlight	-11.2324
▁spurt	-11.2324
▁squad	-11.2324
▁squared	-11.2324
▁stabbed	-11.2324
▁stain	-11.2324
▁stair	-11.2324
▁stake	-11.2324
▁stalking	-11.2324
▁stamen	-11.2324
▁stamping	-11.2324
▁stared	-11.2324
▁static	-11.2324
▁stellar	-11.2324
▁stepping	-11.2324
▁stfu	-11.2324
▁stimulant	-11.2324
▁stimulate	-11.2324
▁stimulation	-11.2324
▁stolen	-11.2324
▁stoned	-11.2324
▁stored	-11.2324
▁strand	-11.2324
▁strangled	-11.2324
▁streaming	-11.2324
▁stretched	-11.2324
▁striving	-11.2324
▁struck	-11.2324
▁stupidly	-11.2324
▁stuttered	-11.2324
▁subconscious	-11.2324
▁subreddits	-11.2324
▁substitute	-11.2324
▁subtly	-11.2324
▁subway	-11.2324
▁succeeded	-11.2324
▁succesful	-11.2324
▁suffocation	-11.2324
▁suggesting	-11.2324
▁suitable	-11.2324
▁summary	-11.2324
▁supply	-11.2324
▁suppressed	-11.2324
▁surpress	-11.2324
▁survivingantidepressants	-11.2324
▁survivor	-11.2324
▁sushi	-11.2324
▁suspected	-11.2324
▁suspended	-11.2324
▁sustainable	-11.2324
▁sv	-11.2324
▁swab	-11.2324
▁swimming	-11.2324
▁swirling	-11.2324
▁swiss	-11.2324
▁tachycardia	-11.2324
▁tackle	-11.2324
▁taco	-11.2324
▁taller	-11.2324
▁tangent	-11.2324
▁tapered	-11.2324
▁targeting	-11.2324
▁teary	-11.2324
▁telephone	-11.2324
▁temp	-11.2324
▁temptation	-11.2324
▁tensing	-11.2324
▁territory	-11.2324
▁testosterone	-11.2324
▁textbook	-11.2324
▁thanking	-11.2324
▁theoretically	-11.2324
▁therapy_	-11.2324
▁thereby	-11.2324
▁theyre	-11.2324
▁thinning	-11.2324
▁thrash	-11.2324
▁throbbing	-11.2324
▁tia	-11.2324
▁tick	-11.2324
▁tidy	-11.2324
▁tighten	-11.2324
▁tiktoks	-11.2324
▁tile	-11.2324
▁timed	-11.2324
▁timer	-11.2324
▁timing	-11.2324
▁tingle	-11.2324
▁tinted	-11.2324
▁tm	-11.2324
▁toenail	-11.2324
▁tolerable	-11.2324
▁tolerate	-11.2324
▁tongue	-11.2324
▁topamax	-11.2324
▁torment	-11.2324
▁toronto	-11.2324
▁torso	-11.2324
▁tortured	-11.2324
▁torwards	-11.2324
▁tossed	-11.2324
▁tossing	-11.2324
▁tought	-11.2324
▁trace	-11.2324
▁trading	-11.2324
▁tragedy	-11.2324
▁trainee	-11.2324
▁trainer	-11.2324
▁transcranial	-11.2324
▁trashed	-11.2324
▁traumatize	-11.2324
▁traumatizing	-11.2324
▁trembly	-11.2324
▁trend	-11.2324
▁troubled	-11.2324
▁trough	-11.2324
▁tryna	-11.2324
▁tumbler	-11.2324
▁tumblr	-11.2324
▁tumour	-11.2324
▁tunnel	-11.2324
▁twin	-11.2324
▁twisting	-11.2324
▁twitter	-11.2324
▁tylenol	-11.2324
▁uc	-11.2324
▁ucsd	-11.2324
▁ultimate	-11.2324
▁unbeknownst	-11.2324
▁understandable	-11.2324
▁underweight	-11.2324
▁unexplained	-11.2324
▁unfairness	-11.2324
▁unfamiliar	-11.2324
▁unfit	-11.2324
▁unfulfilled	-11.2324
▁unfulfilling	-11.2324
▁unhappiness	-11.2324
▁unheard	-11.2324
▁unhelpful	-11.2324
▁unintentionally	-11.2324
▁uninterested	-11.2324
▁unknowingly	-11.2324
▁unlikely	-11.2324
▁unloveable	-11.2324
▁unloved	-11.2324
▁unmedicated	-11.2324
▁unmoved	-11.2324
▁unnecessarily	-11.2324
▁unpack	-11.2324
▁unproductive	-11.2324
▁unprofessional	-11.2324
▁unregulated	-11.2324
▁unrelated	-11.2324
▁unrolled	-11.2324
▁untrue	-11.2324
▁unusual	-11.2324
▁unwilling	-11.2324
▁upbringing	-11.2324
▁updated	-11.2324
▁uploaded	-11.2324
▁uploading	-11.2324
▁upped	-11.2324
▁upping	-11.2324
▁upstairs	-11.2324
▁upward	-11.2324
▁urine	-11.2324
▁us	-11.2324
▁validate	-11.2324
▁valuable	-11.2324
▁vampire	-11.2324
▁van	-11.2324
▁vapes	-11.2324
▁variety	-11.2324
▁vega	-11.2324
▁vegan	-11.2324
▁veil	-11.2324
▁vein	-11.2324
▁vented	-11.2324
▁verbal	-11.2324
▁verified	-11.2324
▁viable	-11.2324
▁vibration	-11.2324
▁vic	-11.2324
▁vicodin	-11.2324
▁viewing	-11.2324
▁virginity	-11.2324
▁vit	-11.2324
▁vivid	-11.2324
▁voicemail	-11.2324
▁voluntary	-11.2324
▁voted	-11.2324
▁vow	-11.2324
▁vu	-11.2324
▁waist	-11.2324
▁waitress	-11.2324
▁wallow	-11.2324
▁wandering	-11.2324
▁wane	-11.2324
▁warehouse	-11.2324
▁washed	-11.2324
▁washer	-11.2324
▁washing	-11.2324
▁wealthy	-11.2324
▁weaning	-11.2324
▁web	-11.2324
▁webcam	-11.2324
▁weepy	-11.2324
▁weighing	-11.2324
▁weighs	-11.2324
▁weightlifting	-11.2324
▁weirdest	-11.2324
▁weirdo	-11.2324
▁wept	-11.2324
▁wet	-11.2324
▁whack	-11.2324
▁whatnot	-11.2324
▁whim	-11.2324
▁whine	-11.2324
▁whiny	-11.2324
▁whiskey	-11.2324
▁wholeheartedly	-11.2324
▁wifi	-11.2324
▁williams	-11.2324
▁wine	-11.2324
▁wing	-11.2324
▁witch	-11.2324
▁witchcraft	-11.2324
▁withdraw	-11.2324
▁withdrawing	-11.2324
▁withdrawls	-11.2324
▁withered	-11.2324
▁woken	-11.2324
▁woohoo	-11.2324
▁worded	-11.2324
▁wore	-11.2324
▁workbook	-11.2324
▁worm	-11.2324
▁worsens	-11.2324
▁worship	-11.2324
▁wrapping	-11.2324
▁wrecking	-11.2324
▁wretched	-11.2324
▁writer	-11.2324
▁ww3	-11.2324
▁xl	-11.2324
▁yall	-11.2324
▁yan	-11.2324
▁yanked	-11.2324
▁yearning	-11.2324
▁yk	-11.2324
▁yknow	-11.2324
▁ykw	-11.2324
▁yoke	-11.2324
▁york	-11.2324
▁youre	-11.2324
▁youth	-11.2324
▁youtu	-11.2324
▁yr	-11.2324
▁z	-11.2324
▁zap	-11.2324
▁02	-11.9256
▁03am	-11.9256
▁04	-11.9256
▁06	-11.9256
▁08	-11.9256
▁10000	-11.9256
▁1000mph	-11.9256
▁100k	-11.9256
▁100th	-11.9256
▁102	-11.9256
▁10bpm	-11.9256
▁10ish	-11.9256
▁10kg	-11.9256
▁112	-11.9256
▁118kg	-11.9256
▁11am	-11.9256
▁11th	-11.9256
▁120	-11.9256
▁124p	-11.9256
▁125	-11.9256
▁128	-11.9256
▁12hr	-11.9256
▁12hrs	-11.9256
▁12ish	-11.9256
▁12mg	-11.9256
▁12yo	-11.9256
▁1300	-11.9256
▁138	-11.9256
▁140mph	-11.9256
▁14th	-11.9256
▁1500	-11.9256
▁15m	-11.9256
▁15mins	-11.9256
▁160	-11.9256
▁161	-11.9256
▁162	-11.9256
▁16m	-11.9256
▁16th	-11.9256
▁18m	-11.9256
▁18th	-11.9256
▁1am	-11.9256
▁1mm	-11.9256
▁200	-11.9256
▁2005	-11.9256
▁2006	-11.9256
▁200mg	-11.9256
▁2011	-11.9256
▁2014	-11.9256
▁2015	-11.9256
▁2016	-11.9256
▁2022	-11.9256
▁20f	-11.9256
▁20lbs	-11.9256
▁20th	-11.9256
▁20x	-11.9256
▁20years	-11.9256
▁20yrs	-11.9256
▁210	-11.9256
▁22m	-11.9256
▁22yo	-11.9256
▁23cm	-11.9256
▁24h	-11.9256
▁2500	-11.9256
▁255	-11.9256
▁25_rule_	-11.9256
▁25unweighted	-11.9256
▁2600	-11.9256
▁260pounds	-11.9256
▁28f	-11.9256
▁28years	-11.9256
▁2am	-11.9256
▁2appkoq	-11.9256
▁2x	-11.9256
▁30f	-11.9256
▁30lbs	-11.9256
▁30pm	-11.9256
▁321	-11.9256
▁32f	-11.9256
▁32m	-11.9256
▁32yo	-11.9256
▁330	-11.9256
▁33m	-11.9256
▁342	-11.9256
▁34y	-11.9256
▁38	-11.9256
▁38m	-11.9256
▁3ish	-11.9256
▁3mgs	-11.9256
▁3months	-11.9256
▁3y	-11.9256
▁400	-11.9256
▁41	-11.9256
▁44	-11.9256
▁4am	-11.9256
▁4x	-11.9256
▁50am	-11.9256
▁50k	-11.9256
▁51k	-11.9256
▁530am	-11.9256
▁54321	-11.9256
▁5f	-11.9256
▁5hours	-11.9256
▁5hrs	-11.9256
▁5in	-11.9256
▁5ish	-11.9256
▁5k	-11.9256
▁5minutes	-11.9256
▁5pm	-11.9256
▁6000mg	-11.9256
▁60km	-11.9256
▁65	-11.9256
▁6pm	-11.9256
▁6yrs	-11.9256
▁800	-11.9256
▁82	-11.9256
▁858	-11.9256
▁85bpm	-11.9256
▁88	-11.9256
▁8yo	-11.9256
▁8yrs	-11.9256
▁_____	-11.9256
▁_acceptance	-11.9256
▁_campaign	-11.9256
▁_cognitive	-11.9256
▁_content	-11.9256
▁_decaf_	-11.9256
▁_deep	-11.9256
▁_en	-11.9256
▁_everything	-11.9256
▁_i	-11.9256
▁_magnetic	-11.9256
▁_medium	-11.9256
▁_meds_	-11.9256
▁_moyvi	-11.9256
▁_o	-11.9256
▁_sharecopy	-11.9256
▁_source	-11.9256
▁_stimulation	-11.9256
▁_this_	-11.9256
▁_tpost	-11.9256
▁_tposting	-11.9256
▁_xkma	-11.9256
▁_xkma_moyvi	-11.9256
▁aaaaaaaaa	-11.9256
▁aah	-11.9256
▁ab	-11.9256
▁abc	-11.9256
▁abit	-11.9256
▁aborted	-11.9256
▁abrupt	-11.9256
▁absorb	-11.9256
▁abstinence	-11.9256
▁abstract	-11.9256
▁abundantly	-11.9256
▁abyss	-11.9256
▁acacia	-11.9256
▁academia	-11.9256
▁accelerated	-11.9256
▁accented	-11.9256
▁accentuate	-11.9256
▁acceptancecommitment	-11.9256
▁accidently	-11.9256
▁accompanies	-11.9256
▁accompany	-11.9256
▁accord	-11.9256
▁accumulate	-11.9256
▁accumulation	-11.9256
▁aced	-11.9256
▁ached	-11.9256
▁achieving	-11.9256
▁achy	-11.9256
▁acidity	-11.9256
▁acknowledgement	-11.9256
▁acquire	-11.9256
▁acrosd	-11.9256
▁acrossthe	-11.9256
▁activated	-11.9256
▁activation	-11.9256
▁actor	-11.9256
▁actovities	-11.9256
▁acussing	-11.9256
▁adamant	-11.9256
▁adamantly	-11.9256
▁adapted	-11.9256
▁adaptive	-11.9256
▁adaptogens	-11.9256
▁addicting	-11.9256
▁addictive	-11.9256
▁addressed	-11.9256
▁adequately	-11.9256
▁aderall	-11.9256
▁adjust	-11.9256
▁adjuster	-11.9256
▁adjustment	-11.9256
▁admin	-11.9256
▁administer	-11.9256
▁admire	-11.9256
▁admired	-11.9256
▁adopt	-11.9256
▁adopts	-11.9256
▁adorable	-11.9256
▁adored	-11.9256
▁adores	-11.9256
▁adrenalin	-11.9256
▁adresses	-11.9256
▁adrift	-11.9256
▁adverse	-11.9256
▁advertises	-11.9256
▁advertising	-11.9256
▁advocate	-11.9256
▁advocating	-11.9256
▁afflicts	-11.9256
▁aforementioned	-11.9256
▁african	-11.9256
▁againts	-11.9256
▁aggravate	-11.9256
▁aggressively	-11.9256
▁aggrevated	-11.9256
▁agitation	-11.9256
▁agreeing	-11.9256
▁agreement	-11.9256
▁ah	-11.9256
▁ahah	-11.9256
▁ahold	-11.9256
▁ahsbxkxmskzhdjxbxbgd	-11.9256
▁aight	-11.9256
▁aimed	-11.9256
▁aiming	-11.9256
▁aimless	-11.9256
▁aimlessly	-11.9256
▁airbnbs	-11.9256
▁airplane	-11.9256
▁airpods	-11.9256
▁ak	-11.9256
▁alarmed	-11.9256
▁alcholism	-11.9256
▁alcoholism	-11.9256
▁alienating	-11.9256
▁aligned	-11.9256
▁allegedly	-11.9256
▁allll	-11.9256
▁allowance	-11.9256
▁aloneness	-11.9256
▁alphabet	-11.9256
▁alseep	-11.9256
▁alt	-11.9256
▁altern	-11.9256
▁alternately	-11.9256
▁alternating	-11.9256
▁altho	-11.9256
▁altough	-11.9256
▁alward	-11.9256
▁amazingly	-11.9256
▁ambiental	-11.9256
▁amicable	-11.9256
▁amidst	-11.9256
▁amitryptaline	-11.9256
▁amphetamine	-11.9256
▁amused	-11.9256
▁amusing	-11.9256
▁anal	-11.9256
▁analogously	-11.9256
▁analysing	-11.9256
▁analysis	-11.9256
▁ananya	-11.9256
▁anaphylactic	-11.9256
▁android_app	-11.9256
▁anecdotal	-11.9256
▁anecdotally	-11.9256
▁anecdote	-11.9256
▁anemia	-11.9256
▁anesthesia	-11.9256
▁angeles	-11.9256
▁angery	-11.9256
▁angle	-11.9256
▁angst	-11.9256
▁anniversary	-11.9256
▁annotated	-11.9256
▁announcement	-11.9256
▁annoy	-11.9256
▁annual	-11.9256
▁anonymous	-11.9256
▁ant	-11.9256
▁antagonistic	-11.9256
▁antic	-11.9256
▁anticipation	-11.9256
▁anticipatory	-11.9256
▁antiepelectic	-11.9256
▁antiperspirant	-11.9256
▁antipsychotic	-11.9256
▁antipyschotic	-11.9256
▁antiseptic	-11.9256
▁antisocial	-11.9256
▁anxeties	-11.9256
▁anxiolytic	-11.9256
▁anxoius	-11.9256
▁anyresumes	-11.9256
▁apendicitis	-11.9256
▁apnea	-11.9256
▁apointment	-11.9256
▁apologise	-11.9256
▁apologizing	-11.9256
▁appeal	-11.9256
▁appealing	-11.9256
▁apperantly	-11.9256
▁appereance	-11.9256
▁applies	-11.9256
▁appreciates	-11.9256
▁appreciating	-11.9256
▁apprehended	-11.9256
▁apprehensive	-11.9256
▁apprenticeship	-11.9256
▁approachable	-11.9256
▁approaching	-11.9256
▁appropriately	-11.9256
▁approximately	-11.9256
▁archive	-11.9256
▁arguably	-11.9256
▁argued	-11.9256
▁arises	-11.9256
▁arising	-11.9256
▁arkansas	-11.9256
▁armpit	-11.9256
▁arogent	-11.9256
▁arranging	-11.9256
▁array	-11.9256
▁arrest	-11.9256
▁arrgh	-11.9256
▁arrival	-11.9256
▁arrives	-11.9256
▁arsed	-11.9256
▁arsenal	-11.9256
▁arte	-11.9256
▁artistic	-11.9256
▁artwork	-11.9256
▁ascendency	-11.9256
▁asf	-11.9256
▁ash	-11.9256
▁ashwaghanda	-11.9256
▁asmr	-11.9256
▁asn	-11.9256
▁aspire	-11.9256
▁assault	-11.9256
▁assaulted	-11.9256
▁assed	-11.9256
▁assessor	-11.9256
▁assing	-11.9256
▁assist	-11.9256
▁assisted	-11.9256
▁associate	-11.9256
▁asst	-11.9256
▁assualt	-11.9256
▁assurance	-11.9256
▁assures	-11.9256
▁asylum	-11.9256
▁athlete	-11.9256
▁athletic	-11.9256
▁atleaset	-11.9256
▁atmosphere	-11.9256
▁atp	-11.9256
▁atrophy	-11.9256
▁attacking	-11.9256
▁attacs	-11.9256
▁attended	-11.9256
▁attentive	-11.9256
▁attick	-11.9256
▁attributed	-11.9256
▁atypical	-11.9256
▁audacity	-11.9256
▁audible	-11.9256
▁audio	-11.9256
▁audit	-11.9256
▁auditory	-11.9256
▁augment	-11.9256
▁authentically	-11.9256
▁author	-11.9256
▁authority	-11.9256
▁authorization	-11.9256
▁autocompassion	-11.9256
▁automated	-11.9256
▁automatic	-11.9256
▁automation	-11.9256
▁autonomy	-11.9256
▁averaging	-11.9256
▁averse	-11.9256
▁avoidant	-11.9256
▁avpd	-11.9256
▁await	-11.9256
▁awaiting	-11.9256
▁awakens	-11.9256
▁aways	-11.9256
▁awfully	-11.9256
▁awkwardly	-11.9256
▁awkwardness	-11.9256
▁ay	-11.9256
▁ayahuasca	-11.9256
▁baba	-11.9256
▁babble	-11.9256
▁babyface	-11.9256
▁baccalaureate	-11.9256
▁backing	-11.9256
▁backrub	-11.9256
▁backtracking	-11.9256
▁backup	-11.9256
▁backward	-11.9256
▁backwards	-11.9256
▁baclofen	-11.9256
▁badge	-11.9256
▁badger	-11.9256
▁bahay	-11.9256
▁bail	-11.9256
▁bait	-11.9256
▁baked	-11.9256
▁bakit	-11.9256
▁baldness	-11.9256
▁balled	-11.9256
▁balloon	-11.9256
▁banana	-11.9256
▁bandage	-11.9256
▁bandaid	-11.9256
▁bandcamp	-11.9256
▁bandersnatch	-11.9256
▁bang	-11.9256
▁banner	-11.9256
▁banter	-11.9256
▁barbaric	-11.9256
▁barbecue	-11.9256
▁barber	-11.9256
▁barbiturate	-11.9256
▁bareable	-11.9256
▁barista	-11.9256
▁barium	-11.9256
▁bark	-11.9256
▁barked	-11.9256
▁barley	-11.9256
▁barometric	-11.9256
▁barrage	-11.9256
▁base	-11.9256
▁baseball	-11.9256
▁basement	-11.9256
▁bashed	-11.9256
▁bashing	-11.9256
▁basicly	-11.9256
▁bastard	-11.9256
▁batch	-11.9256
▁batchmates	-11.9256
▁bathe	-11.9256
▁batshit	-11.9256
▁battery	-11.9256
▁bawling	-11.9256
▁bay	-11.9256
▁bbq	-11.9256
▁bcst	-11.9256
▁bdd	-11.9256
▁bead	-11.9256
▁beak	-11.9256
▁beast	-11.9256
▁beaten	-11.9256
▁beautifully	-11.9256
▁becaause	-11.9256
▁bedding	-11.9256
▁bedridden	-11.9256
▁bedrock	-11.9256
▁bedsheets	-11.9256
▁bedtime	-11.9256
▁beecause	-11.9256
▁beeing	-11.9256
▁beeping	-11.9256
▁befriend	-11.9256
▁befriended	-11.9256
▁befuddle	-11.9256
▁beg	-11.9256
▁beginner	-11.9256
▁behalf	-11.9256
▁behaving	-11.9256
▁beleive	-11.9256
▁believer	-11.9256
▁belittle	-11.9256
▁belittled	-11.9256
▁belive	-11.9256
▁belonged	-11.9256
▁bending	-11.9256
▁beneath	-11.9256
▁benificial	-11.9256
▁benjamin	-11.9256
▁berated	-11.9256
▁bereable	-11.9256
▁bereavement	-11.9256
▁bested	-11.9256
▁bestfriend	-11.9256
▁bestfriends	-11.9256
▁bestie	-11.9256
▁betrail	-11.9256
▁betray	-11.9256
▁betrayal	-11.9256
▁bff	-11.9256
▁bias	-11.9256
▁bible	-11.9256
▁bicycle	-11.9256
▁bid	-11.9256
▁bigoted	-11.9256
▁bike	-11.9256
▁bile	-11.9256
▁billed	-11.9256
▁billionth	-11.9256
▁bings	-11.9256
▁bipolarism	-11.9256
▁bisexual	-11.9256
▁bispurone	-11.9256
▁biter	-11.9256
▁bitterness	-11.9256
▁bizarre	-11.9256
▁blabbering	-11.9256
▁blackburn	-11.9256
▁bladder	-11.9256
▁blandest	-11.9256
▁blanked	-11.9256
▁blankly	-11.9256
▁blaring	-11.9256
▁blast	-11.9256
▁bled	-11.9256
▁blend	-11.9256
▁blending	-11.9256
▁bless	-11.9256
▁blessing	-11.9256
▁blew	-11.9256
▁blindsided	-11.9256
▁bliss	-11.9256
▁blister	-11.9256
▁bloating	-11.9256
▁blob	-11.9256
▁blockade	-11.9256
▁blockage	-11.9256
▁blog	-11.9256
▁blooded	-11.9256
▁bloom	-11.9256
▁blossom	-11.9256
▁blotchy	-11.9256
▁blouse	-11.9256
▁blowing	-11.9256
▁blowjob	-11.9256
▁bluntly	-11.9256
▁bmi	-11.9256
▁bmo	-11.9256
▁boast	-11.9256
▁boat	-11.9256
▁bodied	-11.9256
▁bodyache	-11.9256
▁boiling	-11.9256
▁bojack	-11.9256
▁bollock	-11.9256
▁bolster	-11.9256
▁bombing	-11.9256
▁bonding	-11.9256
▁bookshelf	-11.9256
▁boosted	-11.9256
▁boot	-11.9256
▁bosse	-11.9256
▁botched	-11.9256
▁bothersome	-11.9256
▁bottemless	-11.9256
▁bottomless	-11.9256
▁boulder	-11.9256
▁bour	-11.9256
▁bow	-11.9256
▁bowtie	-11.9256
▁boxer	-11.9256
▁brace	-11.9256
▁brad	-11.9256
▁bragging	-11.9256
▁braindead	-11.9256
▁brainwash	-11.9256
▁braking	-11.9256
▁branch	-11.9256
▁brandon	-11.9256
▁bratty	-11.9256
▁bread	-11.9256
▁breakthrough	-11.9256
▁breathes	-11.9256
▁breathing_	-11.9256
▁breathless	-11.9256
▁breathtaking	-11.9256
▁bref	-11.9256
▁brian	-11.9256
▁briefly	-11.9256
▁brighten	-11.9256
▁brightest	-11.9256
▁brilliance	-11.9256
▁brittle	-11.9256
▁bro	-11.9256
▁broad	-11.9256
▁brooklyn	-11.9256
▁bros	-11.9256
▁browse	-11.9256
▁bruise	-11.9256
▁bruising	-11.9256
▁brunt	-11.9256
▁brutal	-11.9256
▁bsed	-11.9256
▁bsomething	-11.9256
▁btc	-11.9256
▁bu	-11.9256
▁bublineess	-11.9256
▁budgeting	-11.9256
▁buff	-11.9256
▁bugged	-11.9256
▁bugging	-11.9256
▁buildup	-11.9256
▁bulging	-11.9256
▁bulldog	-11.9256
▁bumbling	-11.9256
▁bummed	-11.9256
▁bummer	-11.9256
▁bumpy	-11.9256
▁bunting	-11.9256
▁bur	-11.9256
▁burdened	-11.9256
▁burdensome	-11.9256
▁burial	-11.9256
▁bursting	-11.9256
▁bury	-11.9256
▁bush	-11.9256
▁busier	-11.9256
▁busprione	-11.9256
▁bustling	-11.9256
▁buyin	-11.9256
▁buzzed	-11.9256
▁buzzfeed	-11.9256
▁bv	-11.9256
▁cabin	-11.9256
▁cable	-11.9256
▁calculate	-11.9256
▁calculator	-11.9256
▁calisthenics	-11.9256
▁calmers	-11.9256
▁calming	-11.9256
▁calmness	-11.9256
▁cam	-11.9256
▁campaign	-11.9256
▁camping	-11.9256
▁canceling	-11.9256
▁candidate	-11.9256
▁candidly	-11.9256
▁cannabinoid	-11.9256
▁canyon	-11.9256
▁capsule	-11.9256
▁captain	-11.9256
▁captcha	-11.9256
▁carbs	-11.9256
▁carefree	-11.9256
▁carefully	-11.9256
▁caregiver	-11.9256
▁carl	-11.9256
▁carpal	-11.9256
▁carpe	-11.9256
▁carpentry	-11.9256
▁carpet	-11.9256
▁carpeted	-11.9256
▁carrier	-11.9256
▁cartilage	-11.9256
▁cartoony	-11.9256
▁cascade	-11.9256
▁cassian	-11.9256
▁casuing	-11.9256
▁cataloging	-11.9256
▁catastrophic	-11.9256
▁catastrophizing	-11.9256
▁catching	-11.9256
▁catfish	-11.9256
▁catfished	-11.9256
▁catharsis	-11.9256
▁catharticism	-11.9256
▁causevme	-11.9256
▁cave	-11.9256
▁caved	-11.9256
▁cba	-11.9256
▁ceased	-11.9256
▁celebrated	-11.9256
▁celebrity	-11.9256
▁celiac	-11.9256
▁cell	-11.9256
▁censentually	-11.9256
▁ceo	-11.9256
▁cereal	-11.9256
▁certainty	-11.9256
▁certificate	-11.9256
▁cf	-11.9256
▁chained	-11.9256
▁chameleon	-11.9256
▁changer	-11.9256
▁channel	-11.9256
▁chaotic	-11.9256
▁chapped	-11.9256
▁charade	-11.9256
▁charcoal	-11.9256
▁charger	-11.9256
▁charisma	-11.9256
▁charismatic	-11.9256
▁charleston	-11.9256
▁chasing	-11.9256
▁chastising	-11.9256
▁chatted	-11.9256
▁chattering	-11.9256
▁chatting	-11.9256
▁chavy	-11.9256
▁cheap	-11.9256
▁cheaply	-11.9256
▁cheesed	-11.9256
▁chemically	-11.9256
▁cherish	-11.9256
▁cherished	-11.9256
▁chewy	-11.9256
▁chicago	-11.9256
▁chick	-11.9256
▁chickened	-11.9256
▁childlike	-11.9256
▁chilled	-11.9256
▁chime	-11.9256
▁china	-11.9256
▁chinese	-11.9256
▁chipped	-11.9256
▁chipper	-11.9256
▁chirped	-11.9256
▁chirping	-11.9256
▁chit	-11.9256
▁chock	-11.9256
▁choke	-11.9256
▁chronically	-11.9256
▁chuck	-11.9256
▁chugging	-11.9256
▁chummy	-11.9256
▁cicada	-11.9256
▁cico	-11.9256
▁cidal	-11.9256
▁cigs	-11.9256
▁cinco	-11.9256
▁cindy	-11.9256
▁cinematography	-11.9256
▁circling	-11.9256
▁circuiting	-11.9256
▁circuitry	-11.9256
▁circulating	-11.9256
▁circulation	-11.9256
▁circus	-11.9256
▁cited	-11.9256
▁citizenship	-11.9256
▁civic	-11.9256
▁cked	-11.9256
▁cl	-11.9256
▁clad	-11.9256
▁claiming	-11.9256
▁clarifying	-11.9256
▁clasp	-11.9256
▁class8s	-11.9256
▁cleanliness	-11.9256
▁cleanup	-11.9256
▁clearance	-11.9256
▁cleft	-11.9256
▁clenched	-11.9256
▁clenching	-11.9256
▁clg	-11.9256
▁clickbait	-11.9256
▁clicked	-11.9256
▁climbing	-11.9256
▁cling	-11.9256
▁clip	-11.9256
▁clog	-11.9256
▁clonaxepam	-11.9256
▁clonazipam	-11.9256
▁clonidine	-11.9256
▁clonopin	-11.9256
▁closet	-11.9256
▁closeted	-11.9256
▁cloth	-11.9256
▁clotiazepam	-11.9256
▁clouding	-11.9256
▁clued	-11.9256
▁cluster	-11.9256
▁clutching	-11.9256
▁clutter	-11.9256
▁cmon	-11.9256
▁cnn	-11.9256
▁coached	-11.9256
▁coaching	-11.9256
▁coast	-11.9256
▁cocaine	-11.9256
▁cockatiel	-11.9256
▁codependency	-11.9256
▁cofe	-11.9256
▁cognizant	-11.9256
▁coherently	-11.9256
▁cohesive	-11.9256
▁cohort	-11.9256
▁coin	-11.9256
▁coincidentally	-11.9256
▁coincides	-11.9256
▁coke	-11.9256
▁cola	-11.9256
▁coldest	-11.9256
▁coleagues	-11.9256
▁collapsed	-11.9256
▁collected	-11.9256
▁collective	-11.9256
▁collegue	-11.9256
▁coma	-11.9256
▁comb	-11.9256
▁combo	-11.9256
▁comepete	-11.9256
▁comfortably	-11.9256
▁comforted	-11.9256
▁commended	-11.9256
▁commenting	-11.9256
▁comming	-11.9256
▁commiseration	-11.9256
▁commission	-11.9256
▁commiting	-11.9256
▁commonly	-11.9256
▁commotion	-11.9256
▁communist	-11.9256
▁comorbid	-11.9256
▁companionship	-11.9256
▁compassionate	-11.9256
▁compatible	-11.9256
▁compatiblism	-11.9256
▁compelled	-11.9256
▁compensate	-11.9256
▁compensated	-11.9256
▁compensating	-11.9256
▁competent	-11.9256
▁compilation	-11.9256
▁compile	-11.9256
▁complains	-11.9256
▁complement	-11.9256
▁complicating	-11.9256
▁complimented	-11.9256
▁compny	-11.9256
▁component	-11.9256
▁composed	-11.9256
▁composure	-11.9256
▁comprehensive	-11.9256
▁compressed	-11.9256
▁compressing	-11.9256
▁comprises	-11.9256
▁computational	-11.9256
▁comrade	-11.9256
▁con	-11.9256
▁conceive	-11.9256
▁concepted	-11.9256
▁conceptually	-11.9256
▁conclude	-11.9256
▁concoction	-11.9256
▁condo	-11.9256
▁conducive	-11.9256
▁conduct	-11.9256
▁confession	-11.9256
▁confided	-11.9256
▁confiding	-11.9256
▁confined	-11.9256
▁confines	-11.9256
▁confirmed	-11.9256
▁confirms	-11.9256
▁conformity	-11.9256
▁confort	-11.9256
▁confounded	-11.9256
▁confront	-11.9256
▁confusa	-11.9256
▁confuse	-11.9256
▁confusedly	-11.9256
▁congratulate	-11.9256
▁congratulated	-11.9256
▁congratulating	-11.9256
▁congregating	-11.9256
▁conjures	-11.9256
▁conscience	-11.9256
▁consented	-11.9256
▁consequential	-11.9256
▁consequently	-11.9256
▁considerable	-11.9256
▁considerably	-11.9256
▁considerate	-11.9256
▁considers	-11.9256
▁consolation	-11.9256
▁consoling	-11.9256
▁constanlty	-11.9256
▁construction	-11.9256
▁consultant	-11.9256
▁consults	-11.9256
▁consumerism	-11.9256
▁containing	-11.9256
▁contains	-11.9256
▁contemplate	-11.9256
▁contemplation	-11.9256
▁contempt	-11.9256
▁contented	-11.9256
▁continent	-11.9256
▁continuous	-11.9256
▁contraceptive	-11.9256
▁contracted	-11.9256
▁contradicting	-11.9256
▁contributed	-11.9256
▁contributes	-11.9256
▁contribution	-11.9256
▁controll	-11.9256
▁controller	-11.9256
▁contuniue	-11.9256
▁convalescensing	-11.9256
▁conveniently	-11.9256
▁conversational	-11.9256
▁converse	-11.9256
▁conversion	-11.9256
▁converted	-11.9256
▁convinces	-11.9256
▁convulsion	-11.9256
▁cooked	-11.9256
▁cooldown	-11.9256
▁coop	-11.9256
▁cooperate	-11.9256
▁cooperating	-11.9256
▁coordinator	-11.9256
▁copd	-11.9256
▁copious	-11.9256
▁corinne	-11.9256
▁corolla	-11.9256
▁corona	-11.9256
▁corralled	-11.9256
▁correction	-11.9256
▁correlate	-11.9256
▁correlated	-11.9256
▁corresponding	-11.9256
▁corresponds	-11.9256
▁corsodyl	-11.9256
▁cortisol	-11.9256
▁cortizone	-11.9256
▁cosmic	-11.9256
▁cosmos	-11.9256
▁costly	-11.9256
▁costochondritis	-11.9256
▁coughed	-11.9256
▁couldve	-11.9256
▁counsious	-11.9256
▁counted	-11.9256
▁counteract	-11.9256
▁counteracts	-11.9256
▁countess	-11.9256
▁coupd	-11.9256
▁coupled	-11.9256
▁coursework	-11.9256
▁courtroom	-11.9256
▁cow	-11.9256
▁crackdown	-11.9256
▁cracked	-11.9256
▁crackpot	-11.9256
▁craigslist	-11.9256
▁cram	-11.9256
▁cramping	-11.9256
▁craved	-11.9256
▁crawled	-11.9256
▁creates	-11.9256
▁creature	-11.9256
▁credibility	-11.9256
▁crept	-11.9256
▁cricket	-11.9256
▁crier	-11.9256
▁cringing	-11.9256
▁cringy	-11.9256
▁criterion	-11.9256
▁criticism	-11.9256
▁criticized	-11.9256
▁crm	-11.9256
▁crown	-11.9256
▁cruelest	-11.9256
▁crumble	-11.9256
▁crumple	-11.9256
▁crunch	-11.9256
▁crusty	-11.9256
▁csgo	-11.9256
▁csncer	-11.9256
▁cte	-11.9256
▁cubicle	-11.9256
▁culminated	-11.9256
▁culprit	-11.9256
▁cultivating	-11.9256
▁cummerbund	-11.9256
▁cunt	-11.9256
▁cupboard	-11.9256
▁cupcake	-11.9256
▁cupid	-11.9256
▁curating	-11.9256
▁curator	-11.9256
▁curdling	-11.9256
▁curtain	-11.9256
▁curvier	-11.9256
▁cushion	-11.9256
▁cushy	-11.9256
▁custom	-11.9256
▁cutaneous	-11.9256
▁cutesy	-11.9256
▁cv	-11.9256
▁cyanide	-11.9256
▁cyclical	-11.9256
▁cyst	-11.9256
▁d3	-11.9256
▁dab	-11.9256
▁dabbing	-11.9256
▁dae	-11.9256
▁damaging	-11.9256
▁damit	-11.9256
▁dana	-11.9256
▁danced	-11.9256
▁dangerously	-11.9256
▁danielle	-11.9256
▁darken	-11.9256
▁darker	-11.9256
▁darknet	-11.9256
▁darting	-11.9256
▁data	-11.9256
▁daw	-11.9256
▁dawned	-11.9256
▁daycare	-11.9256
▁daydream	-11.9256
▁daydreaming	-11.9256
▁daylight	-11.9256
▁dazed	-11.9256
▁dea	-11.9256
▁deadlier	-11.9256
▁deafening	-11.9256
▁dealer	-11.9256
▁dealership	-11.9256
▁dearly	-11.9256
▁deathbed	-11.9256
▁deathly	-11.9256
▁debbie	-11.9256
▁debilitated	-11.9256
▁debunk	-11.9256
▁deceitful	-11.9256
▁deceive	-11.9256
▁deceived	-11.9256
▁decently	-11.9256
▁deceptive	-11.9256
▁decipher	-11.9256
▁deconstruct	-11.9256
▁decor	-11.9256
▁dedepress	-11.9256
▁dedicating	-11.9256
▁deemed	-11.9256
▁deems	-11.9256
▁defeating	-11.9256
▁defecate	-11.9256
▁defecating	-11.9256
▁defect	-11.9256
▁defective	-11.9256
▁defencesive	-11.9256
▁defended	-11.9256
▁defensive	-11.9256
▁defiantly	-11.9256
▁deficiency	-11.9256
▁deficient	-11.9256
▁defines	-11.9256
▁definetely	-11.9256
▁definite	-11.9256
▁definitively	-11.9256
▁deflect	-11.9256
▁defo	-11.9256
▁defy	-11.9256
▁degenerate	-11.9256
▁degenerative	-11.9256
▁degrade	-11.9256
▁degraded	-11.9256
▁dehumanizing	-11.9256
▁dehydrate	-11.9256
▁delayed	-11.9256
▁deleterious	-11.9256
▁deliberate	-11.9256
▁deliberately	-11.9256
▁delicate	-11.9256
▁delightful	-11.9256
▁delirious	-11.9256
▁delirium	-11.9256
▁delivered	-11.9256
▁delude	-11.9256
▁deluge	-11.9256
▁delve	-11.9256
▁delving	-11.9256
▁demanded	-11.9256
▁demeanor	-11.9256
▁democracy	-11.9256
▁demonstrate	-11.9256
▁demotivated	-11.9256
▁demotivating	-11.9256
▁dent	-11.9256
▁dented	-11.9256
▁dentistry	-11.9256
▁denying	-11.9256
▁dependency	-11.9256
▁depersonalisation	-11.9256
▁depersonalize	-11.9256
▁depersonalizing	-11.9256
▁depict	-11.9256
▁depiction	-11.9256
▁depleted	-11.9256
▁deploying	-11.9256
▁depo	-11.9256
▁deposit	-11.9256
▁depot	-11.9256
▁deppresion	-11.9256
▁depresion	-11.9256
▁depressents	-11.9256
▁deprived	-11.9256
▁depthless	-11.9256
▁derailed	-11.9256
▁derealisation	-11.9256
▁derives	-11.9256
▁dermatologist	-11.9256
▁descartes	-11.9256
▁descends	-11.9256
▁descision	-11.9256
▁describes	-11.9256
▁desired	-11.9256
▁despondency	-11.9256
▁dessert	-11.9256
▁destination	-11.9256
▁destined	-11.9256
▁destiny	-11.9256
▁destruction	-11.9256
▁desvenlafaxine	-11.9256
▁detailing	-11.9256
▁detect	-11.9256
▁detected	-11.9256
▁detector	-11.9256
▁deteriorate	-11.9256
▁deteriorates	-11.9256
▁determination	-11.9256
▁determinism	-11.9256
▁deterring	-11.9256
▁detoxing	-11.9256
▁detriment	-11.9256
▁detrimental	-11.9256
▁detritus	-11.9256
▁devastate	-11.9256
▁developper	-11.9256
▁deviant	-11.9256
▁devise	-11.9256
▁devolve	-11.9256
▁devolved	-11.9256
▁devote	-11.9256
▁devour	-11.9256
▁devout	-11.9256
▁dexterous	-11.9256
▁diabolical	-11.9256
▁diagnostic	-11.9256
▁diagnostics	-11.9256
▁diaphragmatic	-11.9256
▁diazepam	-11.9256
▁dice	-11.9256
▁dicey	-11.9256
▁dicked	-11.9256
▁dickhead	-11.9256
▁dieing	-11.9256
▁diem	-11.9256
▁dietary	-11.9256
▁dieted	-11.9256
▁differ	-11.9256
▁dificult	-11.9256
▁digestion	-11.9256
▁digestive	-11.9256
▁digit	-11.9256
▁dignity	-11.9256
▁dilaudid	-11.9256
▁diminish	-11.9256
▁diminished	-11.9256
▁ding	-11.9256
▁dining	-11.9256
▁diploma	-11.9256
▁dir	-11.9256
▁disagreement	-11.9256
▁disappearing	-11.9256
▁disarray	-11.9256
▁disbelief	-11.9256
▁discharge	-11.9256
▁discharged	-11.9256
▁discipline	-11.9256
▁disciplined	-11.9256
▁disclaimer	-11.9256
▁discomfort	-11.9256
▁disconnecting	-11.9256
▁disconneted	-11.9256
▁discontinuation	-11.9256
▁discontinue	-11.9256
▁discontinued	-11.9256
▁discourage	-11.9256
▁discouragement	-11.9256
▁discourages	-11.9256
▁discouraging	-11.9256
▁discrediting	-11.9256
▁discust	-11.9256
▁disdain	-11.9256
▁diseased	-11.9256
▁disengaged	-11.9256
▁disfunctional	-11.9256
▁disguise	-11.9256
▁disheartening	-11.9256
▁dishwasher	-11.9256
▁disintegrating	-11.9256
▁disjointed	-11.9256
▁disliking	-11.9256
▁dismissal	-11.9256
▁dismissing	-11.9256
▁disobedient	-11.9256
▁disorganized	-11.9256
▁disorientation	-11.9256
▁disparaging	-11.9256
▁dispense	-11.9256
▁displayed	-11.9256
▁displeasure	-11.9256
▁disproportionately	-11.9256
▁disprove	-11.9256
▁disrupts	-11.9256
▁dissability	-11.9256
▁dissapointed	-11.9256
▁dissapoints	-11.9256
▁dissappear	-11.9256
▁dissatisfaction	-11.9256
▁dissection	-11.9256
▁dissipate	-11.9256
▁dissolve	-11.9256
▁dissonance	-11.9256
▁distanced	-11.9256
▁distinct	-11.9256
▁distinction	-11.9256
▁distort	-11.9256
▁distraught	-11.9256
▁distressed	-11.9256
▁distrust	-11.9256
▁disturb	-11.9256
▁disturbance	-11.9256
▁disturbed	-11.9256
▁disturbing	-11.9256
▁disturbs	-11.9256
▁ditching	-11.9256
▁diva	-11.9256
▁diver	-11.9256
▁divide	-11.9256
▁divine	-11.9256
▁diving	-11.9256
▁division	-11.9256
▁dizzyness	-11.9256
▁dj	-11.9256
▁dl	-11.9256
▁dlc	-11.9256
▁dmv	-11.9256
▁documented	-11.9256
▁dodged	-11.9256
▁dodging	-11.9256
▁dodgy	-11.9256
▁dogecoin	-11.9256
▁dogshit	-11.9256
▁doi	-11.9256
▁dominated	-11.9256
▁dominating	-11.9256
▁donate	-11.9256
▁donated	-11.9256
▁donating	-11.9256
▁donor	-11.9256
▁doodle	-11.9256
▁doomscroll	-11.9256
▁doomsday	-11.9256
▁doooo	-11.9256
▁doorknob	-11.9256
▁doorway	-11.9256
▁dopamine	-11.9256
▁doped	-11.9256
▁dopey	-11.9256
▁dorky	-11.9256
▁dosent	-11.9256
▁doublechecking	-11.9256
▁downgrade	-11.9256
▁downplay	-11.9256
▁downplaying	-11.9256
▁downside	-11.9256
▁downtown	-11.9256
▁dp	-11.9256
▁dramamine	-11.9256
▁dramatically	-11.9256
▁drawer	-11.9256
▁drawl	-11.9256
▁dreamed	-11.9256
▁dreamt	-11.9256
▁dredging	-11.9256
▁drenched	-11.9256
▁drew	-11.9256
▁drift	-11.9256
▁drill	-11.9256
▁drilled	-11.9256
▁drilling	-11.9256
▁driveway	-11.9256
▁drone	-11.9256
▁drool	-11.9256
▁drooping	-11.9256
▁drown	-11.9256
▁drowned	-11.9256
▁drowns	-11.9256
▁drs	-11.9256
▁drudgery	-11.9256
▁drugstore	-11.9256
▁drunkard	-11.9256
▁dsm	-11.9256
▁duct	-11.9256
▁duh	-11.9256
▁dumbells	-11.9256
▁dumber	-11.9256
▁dumbfounded	-11.9256
▁dumbfuck	-11.9256
▁dumping	-11.9256
▁dumpster	-11.9256
▁dunkin	-11.9256
▁duo	-11.9256
▁dusty	-11.9256
▁dwindling	-11.9256
▁dx	-11.9256
▁dyeing	-11.9256
▁dyslexic	-11.9256
▁dysthimia	-11.9256
▁dysthymia	-11.9256
▁eager	-11.9256
▁eagled	-11.9256
▁eardrum	-11.9256
▁earnestly	-11.9256
▁earnings	-11.9256
▁ebay	-11.9256
▁ebb	-11.9256
▁ecc	-11.9256
▁economical	-11.9256
▁economy	-11.9256
▁eczema	-11.9256
▁edgy	-11.9256
▁educate	-11.9256
▁educational	-11.9256
▁eff	-11.9256
▁effeminate	-11.9256
▁efffects	-11.9256
▁efilism	-11.9256
▁eggar	-11.9256
▁egk	-11.9256
▁eglonyl	-11.9256
▁egocentric	-11.9256
▁eighth	-11.9256
▁ejaculating	-11.9256
▁el	-11.9256
▁electrical	-11.9256
▁electroconvulsive	-11.9256
▁electronic	-11.9256
▁element	-11.9256
▁elephant	-11.9256
▁eleventh	-11.9256
▁elicits	-11.9256
▁eligible	-11.9256
▁eliminate	-11.9256
▁elliot	-11.9256
▁em	-11.9256
▁embarased	-11.9256
▁embarass	-11.9256
▁embarassed	-11.9256
▁embarisning	-11.9256
▁embarrass	-11.9256
▁embarrasses	-11.9256
▁embarssing	-11.9256
▁embedded	-11.9256
▁embracing	-11.9256
▁emdr	-11.9256
▁emily	-11.9256
▁emoji	-11.9256
▁emojis	-11.9256
▁empanadas	-11.9256
▁empathiic	-11.9256
▁emphasize	-11.9256
▁empirical	-11.9256
▁empowered	-11.9256
▁emptied	-11.9256
▁emptyness	-11.9256
▁enable	-11.9256
▁enabled	-11.9256
▁enabling	-11.9256
▁enact	-11.9256
▁enagie	-11.9256
▁enclose	-11.9256
▁encountered	-11.9256
▁endangering	-11.9256
▁endometriosis	-11.9256
▁endopsychic	-11.9256
▁endorse	-11.9256
▁enegy	-11.9256
▁energized	-11.9256
▁enforce	-11.9256
▁eng	-11.9256
▁engaging	-11.9256
▁england	-11.9256
▁engrained	-11.9256
▁engraved	-11.9256
▁enjoys	-11.9256
▁enlighten	-11.9256
▁enlightened	-11.9256
▁enlightenment	-11.9256
▁enormous	-11.9256
▁enormously	-11.9256
▁enquired	-11.9256
▁enrichment	-11.9256
▁enrolled	-11.9256
▁ensued	-11.9256
▁entail	-11.9256
▁entering	-11.9256
▁enthusiastic	-11.9256
▁entitled	-11.9256
▁entrepreneur	-11.9256
▁enunciated	-11.9256
▁envisioned	-11.9256
▁envy	-11.9256
▁envying	-11.9256
▁epidemic	-11.9256
▁epilepsy	-11.9256
▁equate	-11.9256
▁equation	-11.9256
▁era	-11.9256
▁erase	-11.9256
▁erectile	-11.9256
▁erosion	-11.9256
▁erupt	-11.9256
▁erupting	-11.9256
▁escalated	-11.9256
▁escalating	-11.9256
▁escaped	-11.9256
▁escaping	-11.9256
▁escapism	-11.9256
▁escapist	-11.9256
▁essentaily	-11.9256
▁essentia	-11.9256
▁est	-11.9256
▁estate	-11.9256
▁estimate	-11.9256
▁estranged	-11.9256
▁et	-11.9256
▁etcetera	-11.9256
▁eternity	-11.9256
▁ethical	-11.9256
▁etsy	-11.9256
▁euphoric	-11.9256
▁europe	-11.9256
▁evaluate	-11.9256
▁evangelical	-11.9256
▁evaporating	-11.9256
▁eve	-11.9256
▁eventuality	-11.9256
▁eventualy	-11.9256
▁everithig	-11.9256
▁everydays	-11.9256
▁everyones	-11.9256
▁everythings	-11.9256
▁evey	-11.9256
▁eveyones	-11.9256
▁eveything	-11.9256
▁eviction	-11.9256
▁evidenced	-11.9256
▁evident	-11.9256
▁evolution	-11.9256
▁evolve	-11.9256
▁eww	-11.9256
▁exagerated	-11.9256
▁exaggerated	-11.9256
▁examen	-11.9256
▁excel	-11.9256
▁excell	-11.9256
▁excelled	-11.9256
▁excites	-11.9256
▁excluded	-11.9256
▁exclusive	-11.9256
▁exclusively	-11.9256
▁excusing	-11.9256
▁exemplary	-11.9256
▁exemple	-11.9256
▁exercised	-11.9256
▁exercisig	-11.9256
▁exert	-11.9256
▁exhaustive	-11.9256
▁exhuasted	-11.9256
▁exiled	-11.9256
▁existance	-11.9256
▁existentialism	-11.9256
▁exit	-11.9256
▁expained	-11.9256
▁expand	-11.9256
▁expanding	-11.9256
▁expanse	-11.9256
▁expecially	-11.9256
▁expeditiously	-11.9256
▁expelled	-11.9256
▁experiances	-11.9256
▁experienc	-11.9256
▁expired	-11.9256
▁explanantion	-11.9256
▁explicitly	-11.9256
▁exploding	-11.9256
▁exploit	-11.9256
▁exploited	-11.9256
▁explosion	-11.9256
▁explosive	-11.9256
▁exponentially	-11.9256
▁expressionless	-11.9256
▁extends	-11.9256
▁extinct	-11.9256
▁extracted	-11.9256
▁extraction	-11.9256
▁extraordinarily	-11.9256
▁extraterrestrial	-11.9256
▁extroversion	-11.9256
▁exuberance	-11.9256
▁eyebrow	-11.9256
▁f24	-11.9256
▁fabricate	-11.9256
▁faceless	-11.9256
▁facet	-11.9256
▁facial	-11.9256
▁faction	-11.9256
▁failling	-11.9256
▁faining	-11.9256
▁fainting	-11.9256
▁fairness	-11.9256
▁fairy	-11.9256
▁faithfully	-11.9256
▁fallout	-11.9256
▁falsely	-11.9256
▁fam	-11.9256
▁fancy	-11.9256
▁fantasizing	-11.9256
▁fascinates	-11.9256
▁fastest	-11.9256
▁fasting	-11.9256
▁fastworward	-11.9256
▁fav	-11.9256
▁fbs	-11.9256
▁fearful	-11.9256
▁feasible	-11.9256
▁federal	-11.9256
▁feeble	-11.9256
▁feeeeel	-11.9256
▁feelingd	-11.9256
▁feign	-11.9256
▁feld	-11.9256
▁felony	-11.9256
▁fent	-11.9256
▁fermented	-11.9256
▁fester	-11.9256
▁fetish	-11.9256
▁feverish	-11.9256
▁ffs	-11.9256
▁fi	-11.9256
▁fiancee	-11.9256
▁fib	-11.9256
▁fiber	-11.9256
▁fidget	-11.9256
▁fiercely	-11.9256
▁file	-11.9256
▁filed	-11.9256
▁filmed	-11.9256
▁filter	-11.9256
▁filthy	-11.9256
▁finacial	-11.9256
▁finality	-11.9256
▁finasteride	-11.9256
▁fingertip	-11.9256
▁firefighter	-11.9256
▁firework	-11.9256
▁firm	-11.9256
▁firstly	-11.9256
▁fischer	-11.9256
▁fistula	-11.9256
▁fitbit	-11.9256
▁fitness	-11.9256
▁fitted	-11.9256
▁fitter	-11.9256
▁fixable	-11.9256
▁fk	-11.9256
▁fl	-11.9256
▁flaired	-11.9256
▁flaked	-11.9256
▁flashy	-11.9256
▁flatters	-11.9256
▁flavor	-11.9256
▁flawed	-11.9256
▁flea	-11.9256
▁flexeril	-11.9256
▁flexibility	-11.9256
▁flick	-11.9256
▁flipped	-11.9256
▁flipping	-11.9256
▁flirted	-11.9256
▁flirty	-11.9256
▁float	-11.9256
▁floating	-11.9256
▁flooded	-11.9256
▁flooding	-11.9256
▁floral	-11.9256
▁flossing	-11.9256
▁flourishing	-11.9256
▁fluanxol	-11.9256
▁fluctuate	-11.9256
▁fluctuation	-11.9256
▁fluent	-11.9256
▁fluid	-11.9256
▁flunking	-11.9256
▁flush	-11.9256
▁flushing	-11.9256
▁flutter	-11.9256
▁fluttering	-11.9256
▁fml	-11.9256
▁fobia	-11.9256
▁fogged	-11.9256
▁fold	-11.9256
▁foliage	-11.9256
▁follows	-11.9256
▁followup	-11.9256
▁font	-11.9256
▁footstep	-11.9256
▁forbid	-11.9256
▁forceful	-11.9256
▁forcible	-11.9256
▁fore	-11.9256
▁forensic	-11.9256
▁forest	-11.9256
▁forested	-11.9256
▁foreveralone	-11.9256
▁forgave	-11.9256
▁forgetful	-11.9256
▁forgetfulness	-11.9256
▁forgets	-11.9256
▁forgiveable	-11.9256
▁forgiven	-11.9256
▁forgiveness	-11.9256
▁forgivness	-11.9256
▁formatted	-11.9256
▁formatting	-11.9256
▁forming	-11.9256
▁formulate	-11.9256
▁forreal	-11.9256
▁fose	-11.9256
▁fostering	-11.9256
▁foward	-11.9256
▁fraction	-11.9256
▁fracture	-11.9256
▁fractured	-11.9256
▁fraid	-11.9256
▁franchise	-11.9256
▁francisco	-11.9256
▁frantically	-11.9256
▁frat	-11.9256
▁fraying	-11.9256
▁freakouts	-11.9256
▁freelance	-11.9256
▁freezer	-11.9256
▁freezing	-11.9256
▁freind	-11.9256
▁freinds	-11.9256
▁frequents	-11.9256
▁fretting	-11.9256
▁friggin	-11.9256
▁fright	-11.9256
▁fron	-11.9256
▁frowing	-11.9256
▁frowned	-11.9256
▁frugal	-11.9256
▁fruitful	-11.9256
▁frumpy	-11.9256
▁frustrates	-11.9256
▁frustratingly	-11.9256
▁fryer	-11.9256
▁fucin	-11.9256
▁fuckinv	-11.9256
▁fuckkkk	-11.9256
▁fuckkkkkk	-11.9256
▁fuelled	-11.9256
▁fukin	-11.9256
▁fulfilled	-11.9256
▁fulfillment	-11.9256
▁functionally	-11.9256
▁fundamental	-11.9256
▁funniest	-11.9256
▁fur	-11.9256
▁furious	-11.9256
▁furthering	-11.9256
▁futility	-11.9256
▁fuuuuuuuuuuuuuuuuuuuuuuuuuuuuuuuuuuuuuuuuuuuuuuuuuuuuuuuuuuuuuuuuuuuuuuuuuuuuuuuuuuuuuuuuuuuuuuuuuuuuuuuuuuuuuuuuuuuuuuuuuuuuuuuuuuuuuuuuuuuuuuuuuuuuuuuuuuuuuuuuuuuuuuuuuuuuuuuuuuuuuuuuuuuk	-11.9256
▁fuzziness	-11.9256
▁fwb	-11.9256
▁fx	-11.9256
▁gaba	-11.9256
▁gamble	-11.9256
▁gamers	-11.9256
▁gamming	-11.9256
▁gardening	-11.9256
▁gaslight	-11.9256
▁gasping	-11.9256
▁gastric	-11.9256
▁gate	-11.9256
▁gated	-11.9256
▁gatekeep	-11.9256
▁gateway	-11.9256
▁gathering	-11.9256
▁gawd	-11.9256
▁gazillion	-11.9256
▁gd	-11.9256
▁gear	-11.9256
▁gee	-11.9256
▁gel	-11.9256
▁gen	-11.9256
▁gender	-11.9256
▁generation	-11.9256
▁generic	-11.9256
▁generosity	-11.9256
▁generously	-11.9256
▁genetics	-11.9256
▁geniunely	-11.9256
▁genshin	-11.9256
▁gentleman	-11.9256
▁geographically	-11.9256
▁geopolitical	-11.9256
▁germ	-11.9256
▁german	-11.9256
▁germany	-11.9256
▁gettinf	-11.9256
▁getup	-11.9256
▁ghb	-11.9256
▁gibberish	-11.9256
▁gice	-11.9256
▁giddiness	-11.9256
▁giddy	-11.9256
▁giftcard	-11.9256
▁giftcards	-11.9256
▁gigantic	-11.9256
▁giggle	-11.9256
▁gingivitis	-11.9256
▁girlfirend	-11.9256
▁girth	-11.9256
▁gladly	-11.9256
▁glam	-11.9256
▁glamour	-11.9256
▁glancing	-11.9256
▁glare	-11.9256
▁glimpse	-11.9256
▁gloomiest	-11.9256
▁glorified	-11.9256
▁glorify	-11.9256
▁glorious	-11.9256
▁glued	-11.9256
▁gnaw	-11.9256
▁gnawing	-11.9256
▁goddamnit	-11.9256
▁gold	-11.9256
▁goldendoodle	-11.9256
▁goner	-11.9256
▁gong	-11.9256
▁goodness	-11.9256
▁goofed	-11.9256
▁gop	-11.9256
▁gorilla	-11.9256
▁gov	-11.9256
▁grabbing	-11.9256
▁grace	-11.9256
▁grain	-11.9256
▁gramatical	-11.9256
▁grandchild	-11.9256
▁graph	-11.9256
▁grapple	-11.9256
▁grasping	-11.9256
▁grass	-11.9256
▁gratitude	-11.9256
▁gravely	-11.9256
▁gravity	-11.9256
▁gravy	-11.9256
▁greasy	-11.9256
▁greece	-11.9256
▁greediness	-11.9256
▁greet	-11.9256
▁greeted	-11.9256
▁grid	-11.9256
▁grim	-11.9256
▁grimaced	-11.9256
▁grinded	-11.9256
▁grit	-11.9256
▁grossly	-11.9256
▁grotesque	-11.9256
▁grounded	-11.9256
▁guarantee	-11.9256
▁guardian	-11.9256
▁gull	-11.9256
▁gummies	-11.9256
▁gurgling	-11.9256
▁gust	-11.9256
▁guus	-11.9256
▁hah	-11.9256
▁hahaha	-11.9256
▁hahahahahaha	-11.9256
▁hahahahahahahahahahahahaha	-11.9256
▁hai	-11.9256
▁hairdresser	-11.9256
▁hairline	-11.9256
▁halloween	-11.9256
▁hallucinate	-11.9256
▁halt	-11.9256
▁halter	-11.9256
▁halve	-11.9256
▁halved	-11.9256
▁hammer	-11.9256
▁hamster	-11.9256
▁handicap	-11.9256
▁handing	-11.9256
▁handled	-11.9256
▁handshake	-11.9256
▁handsome	-11.9256
▁hanged	-11.9256
▁hangnail	-11.9256
▁harass	-11.9256
▁harassed	-11.9256
▁harasses	-11.9256
▁harassment	-11.9256
▁harbor	-11.9256
▁harbour	-11.9256
▁hardcore	-11.9256
▁hardened	-11.9256
▁hardship	-11.9256
▁hardware	-11.9256
▁hardworking	-11.9256
▁harlequin	-11.9256
▁harmfulness	-11.9256
▁harry	-11.9256
▁hatefully	-11.9256
▁hauler	-11.9256
▁hauling	-11.9256
▁havers	-11.9256
▁havoc	-11.9256
▁haze	-11.9256
▁headeache	-11.9256
▁healthiest	-11.9256
▁heap	-11.9256
▁hearning	-11.9256
▁heartburn	-11.9256
▁hearted	-11.9256
▁heartless	-11.9256
▁heated	-11.9256
▁heist	-11.9256
▁helath	-11.9256
▁hellbent	-11.9256
▁hellish	-11.9256
▁hellopoetry	-11.9256
▁help_me_pick_please	-11.9256
▁helplesness	-11.9256
▁helplessness	-11.9256
▁hemorrhagic	-11.9256
▁hemorrhoid	-11.9256
▁hereditary	-11.9256
▁heroic	-11.9256
▁hesistating	-11.9256
▁hesitate	-11.9256
▁heuristic	-11.9256
▁heve	-11.9256
▁hhah	-11.9256
▁hiatal	-11.9256
▁hid	-11.9256
▁hidden	-11.9256
▁hideous	-11.9256
▁highlight	-11.9256
▁highlighted	-11.9256
▁highschooling	-11.9256
▁hii	-11.9256
▁hijack	-11.9256
▁hiked	-11.9256
▁himym	-11.9256
▁hindering	-11.9256
▁hindsight	-11.9256
▁hipster	-11.9256
▁hirsutism	-11.9256
▁hitman	-11.9256
▁hl	-11.9256
▁hoff	-11.9256
▁holder	-11.9256
▁holler	-11.9256
▁hollowly	-11.9256
▁holy	-11.9256
▁holyyyyy	-11.9256
▁homely	-11.9256
▁homepathic	-11.9256
▁homeschooled	-11.9256
▁homesickness	-11.9256
▁hominid	-11.9256
▁homophobe	-11.9256
▁homosexual	-11.9256
▁honda	-11.9256
▁honey	-11.9256
▁hoody	-11.9256
▁hooking	-11.9256
▁hooray	-11.9256
▁hopped	-11.9256
▁horizontal	-11.9256
▁hormonal	-11.9256
▁horny	-11.9256
▁horoscope	-11.9256
▁horrific	-11.9256
▁horrifies	-11.9256
▁hospice	-11.9256
▁hospitalised	-11.9256
▁hospitalize	-11.9256
▁host	-11.9256
▁hostile	-11.9256
▁hostility	-11.9256
▁hotlines	-11.9256
▁hourglass	-11.9256
▁hourly	-11.9256
▁hovered	-11.9256
▁hovering	-11.9256
▁hovers	-11.9256
▁hovever	-11.9256
▁hp	-11.9256
▁hpe	-11.9256
▁hpv	-11.9256
▁hugged	-11.9256
▁hugging	-11.9256
▁hugo	-11.9256
▁huh	-11.9256
▁humanly	-11.9256
▁humbling	-11.9256
▁humbly	-11.9256
▁humidifier	-11.9256
▁humidity	-11.9256
▁humiliating	-11.9256
▁humiliation	-11.9256
▁hun	-11.9256
▁hungover	-11.9256
▁hungrier	-11.9256
▁hunting	-11.9256
▁hurhur	-11.9256
▁hurling	-11.9256
▁hurricane	-11.9256
▁hvac	-11.9256
▁hw	-11.9256
▁hydrochloride	-11.9256
▁hydroxezine	-11.9256
▁hydroxyzene	-11.9256
▁hygienist	-11.9256
▁hyped	-11.9256
▁hyperarousal	-11.9256
▁hyperemesis	-11.9256
▁hyperfixated	-11.9256
▁hypersensitivity	-11.9256
▁hypersomnia	-11.9256
▁hyperventilated	-11.9256
▁hyperverbal	-11.9256
▁hypervigilant	-11.9256
▁hypothetical	-11.9256
▁hysterectomy	-11.9256
▁ib	-11.9256
▁ibuprofen	-11.9256
▁ic	-11.9256
▁icy	-11.9256
▁idec	-11.9256
▁idiotic	-11.9256
▁idky	-11.9256
▁idol	-11.9256
▁idontwanttogoooooo	-11.9256
▁ie	-11.9256
▁iffy	-11.9256
▁ignorance	-11.9256
▁ileostomy	-11.9256
▁illegal	-11.9256
▁illuminated	-11.9256
▁imaginable	-11.9256
▁imbalanced	-11.9256
▁imessages	-11.9256
▁imgur	-11.9256
▁imitate	-11.9256
▁imma	-11.9256
▁immedietly	-11.9256
▁immerse	-11.9256
▁immigrant	-11.9256
▁immunity	-11.9256
▁immunocompromised	-11.9256
▁impacting	-11.9256
▁impatient	-11.9256
▁imperfect	-11.9256
▁imperfection	-11.9256
▁implied	-11.9256
▁imply	-11.9256
▁implying	-11.9256
▁imposed	-11.9256
▁impostor	-11.9256
▁impotent	-11.9256
▁impressed	-11.9256
▁improper	-11.9256
▁improv4health	-11.9256
▁impulsively	-11.9256
▁impurity	-11.9256
▁inaction	-11.9256
▁inactivity	-11.9256
▁inane	-11.9256
▁inattention	-11.9256
▁inattentive	-11.9256
▁inb4	-11.9256
▁inbetween	-11.9256
▁incapacitated	-11.9256
▁incarcerated	-11.9256
▁incase	-11.9256
▁incentive	-11.9256
▁incessantly	-11.9256
▁inching	-11.9256
▁incision	-11.9256
▁incoming	-11.9256
▁inconsiderate	-11.9256
▁inconsistent	-11.9256
▁incorrect	-11.9256
▁incurable	-11.9256
▁indeffinite	-11.9256
▁indefinitely	-11.9256
▁independence	-11.9256
▁independently	-11.9256
▁indescribable	-11.9256
▁indicated	-11.9256
▁indicator	-11.9256
▁indigestion	-11.9256
▁individualist	-11.9256
▁induce	-11.9256
▁indulging	-11.9256
▁ineffective	-11.9256
▁inescapable	-11.9256
▁inexcusable	-11.9256
▁inexistant	-11.9256
▁inexplicably	-11.9256
▁infant	-11.9256
▁infect	-11.9256
▁infinitely	-11.9256
▁infinity	-11.9256
▁inflamations	-11.9256
▁inflamed	-11.9256
▁inflicted	-11.9256
▁inflicting	-11.9256
▁influx	-11.9256
▁inform	-11.9256
▁informal	-11.9256
▁informative	-11.9256
▁infrequent	-11.9256
▁infront	-11.9256
▁infusion	-11.9256
▁ingesting	-11.9256
▁ingrained	-11.9256
▁ingredient	-11.9256
▁inhaling	-11.9256
▁inherit	-11.9256
▁inhertitance	-11.9256
▁inhuman	-11.9256
▁initiated	-11.9256
▁initiating	-11.9256
▁initiative	-11.9256
▁injected	-11.9256
▁injured	-11.9256
▁inlove	-11.9256
▁innovative	-11.9256
▁inparticular	-11.9256
▁inpatient	-11.9256
▁inquiring	-11.9256
▁inquiry	-11.9256
▁inquisition	-11.9256
▁insanity	-11.9256
▁insensitive	-11.9256
▁insert	-11.9256
▁insightful	-11.9256
▁insole	-11.9256
▁insomniac	-11.9256
▁inspected	-11.9256
▁inspector	-11.9256
▁inspired	-11.9256
▁inst	-11.9256
▁instability	-11.9256
▁instagrams	-11.9256
▁instinctive	-11.9256
▁instructed	-11.9256
▁instrument	-11.9256
▁insulted	-11.9256
▁insulting	-11.9256
▁insurmountable	-11.9256
▁integrated	-11.9256
▁integrating	-11.9256
▁intelligibly	-11.9256
▁intend	-11.9256
▁intensified	-11.9256
▁intensifying	-11.9256
▁interactivity	-11.9256
▁interbound	-11.9256
▁interim	-11.9256
▁internalising	-11.9256
▁internet_culture	-11.9256
▁interpret	-11.9256
▁interpreted	-11.9256
▁interrupted	-11.9256
▁intersect	-11.9256
▁intervention	-11.9256
▁interviewing	-11.9256
▁intimacy	-11.9256
▁intolerable	-11.9256
▁intoxicated	-11.9256
▁intricacy	-11.9256
▁intrigued	-11.9256
▁intriguing	-11.9256
▁introduced	-11.9256
▁introducing	-11.9256
▁intruding	-11.9256
▁inundated	-11.9256
▁invalid	-11.9256
▁invasion	-11.9256
▁invent	-11.9256
▁invested	-11.9256
▁invident	-11.9256
▁involed	-11.9256
▁invovled	-11.9256
▁ios_app	-11.9256
▁iossmf	-11.9256
▁iq	-11.9256
▁ir	-11.9256
▁irb	-11.9256
▁irregular	-11.9256
▁irrelevant	-11.9256
▁irresponsible	-11.9256
▁irretrievably	-11.9256
▁irreversible	-11.9256
▁irrevocably	-11.9256
▁irritate	-11.9256
▁irritates	-11.9256
▁irritating	-11.9256
▁isip	-11.9256
▁isolationism	-11.9256
▁italian	-11.9256
▁ite	-11.9256
▁jab	-11.9256
▁jackass	-11.9256
▁jacked	-11.9256
▁jacking	-11.9256
▁jakes	-11.9256
▁jammed	-11.9256
▁jan	-11.9256
▁janeiro	-11.9256
▁janet	-11.9256
▁jarring	-11.9256
▁jaycon	-11.9256
▁jehovas	-11.9256
▁jelly	-11.9256
▁jeopardised	-11.9256
▁jesus	-11.9256
▁jitter	-11.9256
▁jockeying	-11.9256
▁joe	-11.9256
▁jogged	-11.9256
▁joked	-11.9256
▁jokingly	-11.9256
▁jolt	-11.9256
▁journaled	-11.9256
▁joyful	-11.9256
▁julls	-11.9256
▁jumper	-11.9256
▁jungle	-11.9256
▁jusy	-11.9256
▁juvie	-11.9256
▁k	-11.9256
▁kale	-11.9256
▁keenly	-11.9256
▁keeo	-11.9256
▁keepsake	-11.9256
▁kennel	-11.9256
▁keyboard	-11.9256
▁keyword	-11.9256
▁kickass	-11.9256
▁kiddos	-11.9256
▁kin	-11.9256
▁kinakain	-11.9256
▁kinder	-11.9256
▁kindve	-11.9256
▁kingdom	-11.9256
▁kitten	-11.9256
▁klonapin	-11.9256
▁klonipin	-11.9256
▁kneejerk	-11.9256
▁knifing	-11.9256
▁knocking	-11.9256
▁knoe	-11.9256
▁know_	-11.9256
▁knowingly	-11.9256
▁knowledgeable	-11.9256
▁knowns	-11.9256
▁kpi	-11.9256
▁la	-11.9256
▁labeled	-11.9256
▁labixten	-11.9256
▁labyrinthitis	-11.9256
▁lactose	-11.9256
▁lake	-11.9256
▁lamotrigine	-11.9256
▁lancashire	-11.9256
▁landing	-11.9256
▁landlady	-11.9256
▁landmark	-11.9256
▁landscaping	-11.9256
▁langage	-11.9256
▁lapse	-11.9256
▁largely	-11.9256
▁latch	-11.9256
▁latching	-11.9256
▁latest	-11.9256
▁laughter	-11.9256
▁lawn	-11.9256
▁layed	-11.9256
▁ldr	-11.9256
▁leaded	-11.9256
▁leader	-11.9256
▁leaning	-11.9256
▁leaped	-11.9256
▁learner	-11.9256
▁leaved	-11.9256
▁lecturer	-11.9256
▁ledge	-11.9256
▁leech	-11.9256
▁leeway	-11.9256
▁legally	-11.9256
▁legend	-11.9256
▁legged	-11.9256
▁legging	-11.9256
▁legitimacy	-11.9256
▁lemme	-11.9256
▁lend	-11.9256
▁lengthy	-11.9256
▁lens	-11.9256
▁lent	-11.9256
▁lesbian	-11.9256
▁lessen	-11.9256
▁lethal	-11.9256
▁lethargy	-11.9256
▁lettuce	-11.9256
▁leukaemia	-11.9256
▁leveling	-11.9256
▁lewd	-11.9256
▁lexepro	-11.9256
▁lf	-11.9256
▁liar	-11.9256
▁liberal	-11.9256
▁librium	-11.9256
▁licensed	-11.9256
▁licked	-11.9256
▁lieu	-11.9256
▁lifeguard	-11.9256
▁lifeless	-11.9256
▁lifeline	-11.9256
▁lifespan	-11.9256
▁lifting	-11.9256
▁lightest	-11.9256
▁lighthead	-11.9256
▁lightheadness	-11.9256
▁lighting	-11.9256
▁lightning	-11.9256
▁lightsaber	-11.9256
▁liking	-11.9256
▁limbic	-11.9256
▁limbo	-11.9256
▁limitation	-11.9256
▁lind	-11.9256
▁linger	-11.9256
▁liquidy	-11.9256
▁lisiniprol	-11.9256
▁listener	-11.9256
▁listlessness	-11.9256
▁lit	-11.9256
▁litany	-11.9256
▁liter	-11.9256
▁litrally	-11.9256
▁litterally	-11.9256
▁littlest	-11.9256
▁lively	-11.9256
▁lll	-11.9256
▁lmaooo	-11.9256
▁lmfao	-11.9256
▁loaded	-11.9256
▁location	-11.9256
▁locjers	-11.9256
▁locker	-11.9256
▁log	-11.9256
▁logged	-11.9256
▁logo	-11.9256
▁loke	-11.9256
▁london	-11.9256
▁lonelier	-11.9256
▁loneliest	-11.9256
▁lonley	-11.9256
▁lonleyness	-11.9256
▁lonlinees	-11.9256
▁lonliness	-11.9256
▁loon	-11.9256
▁loooooong	-11.9256
▁looots	-11.9256
▁loophole	-11.9256
▁los	-11.9256
▁lotion	-11.9256
▁lousy	-11.9256
▁loveless	-11.9256
▁lovelife	-11.9256
▁lover	-11.9256
▁lowe	-11.9256
▁lowering	-11.9256
▁lowkey	-11.9256
▁lowtide	-11.9256
▁loyal	-11.9256
▁lr	-11.9256
▁lug	-11.9256
▁lumbar	-11.9256
▁lunatic	-11.9256
▁lund	-11.9256
▁lunesta	-11.9256
▁lurker	-11.9256
▁ly	-11.9256
▁lynch	-11.9256
▁lyrica	-11.9256
▁m23	-11.9256
▁maddening	-11.9256
▁madman	-11.9256
▁magazine	-11.9256
▁magnet	-11.9256
▁magnetic	-11.9256
▁magnificent	-11.9256
▁maid	-11.9256
▁mainstream	-11.9256
▁maintenance	-11.9256
▁majorly	-11.9256
▁maked	-11.9256
▁maker	-11.9256
▁malfunction	-11.9256
▁malfunctioning	-11.9256
▁malintent	-11.9256
▁malnourished	-11.9256
▁malnourishing	-11.9256
▁mama	-11.9256
▁manages	-11.9256
▁manbaby	-11.9256
▁manchester	-11.9256
▁mania	-11.9256
▁manifestly	-11.9256
▁manipulated	-11.9256
▁mantain	-11.9256
▁manteinance	-11.9256
▁manually	-11.9256
▁manufacture	-11.9256
▁manufacturing	-11.9256
▁mapansin	-11.9256
▁mapping	-11.9256
▁marijn	-11.9256
▁marine	-11.9256
▁marked	-11.9256
▁marvelous	-11.9256
▁mary	-11.9256
▁mason	-11.9256
▁mass	-11.9256
▁massage	-11.9256
▁mastered	-11.9256
▁mastery	-11.9256
▁masturbate	-11.9256
▁masturbated	-11.9256
▁masturbation	-11.9256
▁materialize	-11.9256
▁mature	-11.9256
▁maxer	-11.9256
▁maximum	-11.9256
▁maybey	-11.9256
▁mayo	-11.9256
▁mcdonagh	-11.9256
▁mcyt	-11.9256
▁md	-11.9256
▁mdma	-11.9256
▁meamwhile	-11.9256
▁meanest	-11.9256
▁meaningfulness	-11.9256
▁medcu	-11.9256
▁mediate	-11.9256
▁mediating	-11.9256
▁mediation	-11.9256
▁mediator	-11.9256
▁medicaid	-11.9256
▁medicament	-11.9256
▁medicate	-11.9256
▁medieval	-11.9256
▁meditating	-11.9256
▁mega	-11.9256
▁melbourne	-11.9256
▁melenials	-11.9256
▁melt	-11.9256
▁melted	-11.9256
▁melty	-11.9256
▁memo	-11.9256
▁memorable	-11.9256
▁menial	-11.9256
▁menstrual	-11.9256
▁menu	-11.9256
▁mercari	-11.9256
▁merciless	-11.9256
▁mercy	-11.9256
▁merely	-11.9256
▁merger	-11.9256
▁merit	-11.9256
▁meshed	-11.9256
▁messenger	-11.9256
▁messin	-11.9256
▁messurd	-11.9256
▁metacognition	-11.9256
▁metallic	-11.9256
▁metaphor	-11.9256
▁meter	-11.9256
▁mexican	-11.9256
▁mgr	-11.9256
▁mhm	-11.9256
▁mi	-11.9256
▁mickey	-11.9256
▁microbiology	-11.9256
▁microphone	-11.9256
▁microwave	-11.9256
▁middel	-11.9256
▁middleschool	-11.9256
▁midodrine	-11.9256
▁midway	-11.9256
▁midwest	-11.9256
▁mighty	-11.9256
▁milder	-11.9256
▁milestone	-11.9256
▁mill	-11.9256
▁millionth	-11.9256
▁mimicking	-11.9256
▁mindful	-11.9256
▁minding	-11.9256
▁mindwork	-11.9256
▁miniscule	-11.9256
▁minority	-11.9256
▁mire	-11.9256
▁misar	-11.9256
▁misbehaving	-11.9256
▁miscarriage	-11.9256
▁misdiagnose	-11.9256
▁misdirect	-11.9256
▁misfiring	-11.9256
▁misfortune	-11.9256
▁misheard	-11.9256
▁misinterpreted	-11.9256
▁mislead	-11.9256
▁misleading	-11.9256
▁mismanagement	-11.9256
▁misplace	-11.9256
▁misplaced	-11.9256
▁misread	-11.9256
▁misreading	-11.9256
▁mission	-11.9256
▁misstep	-11.9256
▁mist	-11.9256
▁mistook	-11.9256
▁mistreated	-11.9256
▁mitigates	-11.9256
▁mmm	-11.9256
▁mnghgnmngh	-11.9256
▁moan	-11.9256
▁moaning	-11.9256
▁mob	-11.9256
▁mocked	-11.9256
▁mocking	-11.9256
▁modeling	-11.9256
▁moderate	-11.9256
▁moderation	-11.9256
▁modest	-11.9256
▁modmail	-11.9256
▁modqueue	-11.9256
▁mogul	-11.9256
▁mojar	-11.9256
▁molasses	-11.9256
▁molecular	-11.9256
▁mome	-11.9256
▁momentary	-11.9256
▁momentum	-11.9256
▁mommy	-11.9256
▁mon	-11.9256
▁mondo	-11.9256
▁monitored	-11.9256
▁monke	-11.9256
▁monotonous	-11.9256
▁monotony	-11.9256
▁monoxide	-11.9256
▁monter	-11.9256
▁monumental	-11.9256
▁moping	-11.9256
▁moral	-11.9256
▁morale	-11.9256
▁morality	-11.9256
▁morally	-11.9256
▁morbid	-11.9256
▁morbidity	-11.9256
▁morbidly	-11.9256
▁morgan	-11.9256
▁moroseness	-11.9256
▁morphine	-11.9256
▁mortally	-11.9256
▁motel	-11.9256
▁moth	-11.9256
▁motivates	-11.9256
▁motivating	-11.9256
▁motivational	-11.9256
▁motive	-11.9256
▁motorcycle	-11.9256
▁motto	-11.9256
▁mouldy	-11.9256
▁mourning	-11.9256
▁mouse	-11.9256
▁moutain	-11.9256
▁mowed	-11.9256
▁mra	-11.9256
▁msg	-11.9256
▁mt	-11.9256
▁mu	-11.9256
▁mucus	-11.9256
▁multilane	-11.9256
▁multitask	-11.9256
▁multitasking	-11.9256
▁multivitamin	-11.9256
▁mumbling	-11.9256
▁murderous	-11.9256
▁murmur	-11.9256
▁museum	-11.9256
▁musical	-11.9256
▁musician	-11.9256
▁mustache	-11.9256
▁mustve	-11.9256
▁mutated	-11.9256
▁mutism	-11.9256
▁mutual	-11.9256
▁mutuals	-11.9256
▁mydayis	-11.9256
▁myriad	-11.9256
▁mysekf	-11.9256
▁mysterious	-11.9256
▁myth	-11.9256
▁n0y1us	-11.9256
▁n4hpcb	-11.9256
▁nag	-11.9256
▁nagging	-11.9256
▁naive	-11.9256
▁naively	-11.9256
▁naltraxone	-11.9256
▁nanny	-11.9256
▁naproxen	-11.9256
▁nardil	-11.9256
▁nasa	-11.9256
▁nastier	-11.9256
▁nausous	-11.9256
▁navigate	-11.9256
▁navigated	-11.9256
▁nay	-11.9256
▁nazi	-11.9256
▁nbsp	-11.9256
▁nearer	-11.9256
▁nearest	-11.9256
▁neat	-11.9256
▁neatly	-11.9256
▁neglect	-11.9256
▁neglected	-11.9256
▁neglectful	-11.9256
▁neighborly	-11.9256
▁neighbour	-11.9256
▁nelly	-11.9256
▁neo	-11.9256
▁nephew	-11.9256
▁networking	-11.9256
▁neural	-11.9256
▁neurodegenerative	-11.9256
▁neurofeedback	-11.9256
▁neurology	-11.9256
▁neuronal	-11.9256
▁neuronally	-11.9256
▁neuropsychological	-11.9256
▁neurotypic	-11.9256
▁neurpsychologist	-11.9256
▁neutrality	-11.9256
▁newbie	-11.9256
▁nf	-11.9256
▁nfnqrtvs8g24ancw6	-11.9256
▁ng	-11.9256
▁ngl	-11.9256
▁nibble	-11.9256
▁nicer	-11.9256
▁nicked	-11.9256
▁nightine	-11.9256
▁nightly	-11.9256
▁nightmarish	-11.9256
▁nightshifts	-11.9256
▁nightstand	-11.9256
▁nihilistic	-11.9256
▁nitrous	-11.9256
▁nod	-11.9256
▁noggin	-11.9256
▁noisy	-11.9256
▁nomore	-11.9256
▁nomorepanic	-11.9256
▁nonexistence	-11.9256
▁nonexistent	-11.9256
▁nonjudgmental	-11.9256
▁noose	-11.9256
▁nootropics	-11.9256
▁nope	-11.9256
▁noramally	-11.9256
▁normalise	-11.9256
▁normality	-11.9256
▁north	-11.9256
▁nostalgia	-11.9256
▁notably	-11.9256
▁noted	-11.9256
▁notion	-11.9256
▁nots	-11.9256
▁nourishes	-11.9256
▁novice	-11.9256
▁noving	-11.9256
▁np	-11.9256
▁nsfw	-11.9256
▁nth	-11.9256
▁nugget	-11.9256
▁nuke	-11.9256
▁numbs	-11.9256
▁nurturing	-11.9256
▁nutrition	-11.9256
▁nutritional	-11.9256
▁nutritionist	-11.9256
▁nv	-11.9256
▁nzs	-11.9256
▁obesity	-11.9256
▁objectifying	-11.9256
▁objectivity	-11.9256
▁obligated	-11.9256
▁obligatory	-11.9256
▁obliged	-11.9256
▁obliterated	-11.9256
▁obliteration	-11.9256
▁obscure	-11.9256
▁observing	-11.9256
▁obsessional	-11.9256
▁obtainable	-11.9256
▁occupational	-11.9256
▁occupying	-11.9256
▁occurring	-11.9256
▁ocpd	-11.9256
▁odn	-11.9256
▁offence	-11.9256
▁offend	-11.9256
▁offended	-11.9256
▁officer	-11.9256
▁offsite	-11.9256
▁ohh	-11.9256
▁ohhh	-11.9256
▁okayish	-11.9256
▁okey	-11.9256
▁ol	-11.9256
▁om	-11.9256
▁omfg	-11.9256
▁omniprozol	-11.9256
▁oncoming	-11.9256
▁oneself	-11.9256
▁ontological	-11.9256
▁onward	-11.9256
▁ooze	-11.9256
▁openner	-11.9256
▁operates	-11.9256
▁opiate	-11.9256
▁oppressive	-11.9256
▁opted	-11.9256
▁opthalmologist	-11.9256
▁optimal	-11.9256
▁optimisim	-11.9256
▁optimism	-11.9256
▁optmistic	-11.9256
▁ordeal	-11.9256
▁ordering	-11.9256
▁oregon	-11.9256
▁oreo	-11.9256
▁orfidal	-11.9256
▁organisation	-11.9256
▁organizing	-11.9256
▁orientation	-11.9256
▁oriented	-11.9256
▁origin	-11.9256
▁orphan	-11.9256
▁orthodox	-11.9256
▁orthopedic	-11.9256
▁osteopathic	-11.9256
▁otherwse	-11.9256
▁otr	-11.9256
▁ou	-11.9256
▁ought	-11.9256
▁ourself	-11.9256
▁ourselfs	-11.9256
▁outburst	-11.9256
▁outburts	-11.9256
▁outdated	-11.9256
▁outdoors	-11.9256
▁outed	-11.9256
▁outlandish	-11.9256
▁outputted	-11.9256
▁outset	-11.9256
▁outsourced	-11.9256
▁ovary	-11.9256
▁oven	-11.9256
▁overactive	-11.9256
▁overanalyze	-11.9256
▁overanalyzed	-11.9256
▁overarching	-11.9256
▁overcommitted	-11.9256
▁overcorrected	-11.9256
▁overdid	-11.9256
▁overdoes	-11.9256
▁overdrive	-11.9256
▁overdue	-11.9256
▁overeating	-11.9256
▁overestimated	-11.9256
▁overheard	-11.9256
▁overhyped	-11.9256
▁overlapping	-11.9256
▁overloaded	-11.9256
▁overnights	-11.9256
▁overpass	-11.9256
▁overpowering	-11.9256
▁overprescribed	-11.9256
▁overqualified	-11.9256
▁overseas	-11.9256
▁overshadows	-11.9256
▁oversleep	-11.9256
▁overslept	-11.9256
▁overstimulated	-11.9256
▁overtaken	-11.9256
▁overused	-11.9256
▁overvalued	-11.9256
▁overweighs	-11.9256
▁overwelm	-11.9256
▁overwhelms	-11.9256
▁overworked	-11.9256
▁owed	-11.9256
▁ownership	-11.9256
▁owning	-11.9256
▁oxford	-11.9256
▁oxide	-11.9256
▁pad	-11.9256
▁padlock	-11.9256
▁painstakingly	-11.9256
▁pal	-11.9256
▁palace	-11.9256
▁palpatations	-11.9256
▁pan	-11.9256
▁pancreatic	-11.9256
▁pandemy	-11.9256
▁pander	-11.9256
▁pap	-11.9256
▁para	-11.9256
▁parade	-11.9256
▁paradise	-11.9256
▁paradoxical	-11.9256
▁paralized	-11.9256
▁paraphernalia	-11.9256
▁paraphrase	-11.9256
▁paraphrasing	-11.9256
▁parasympathetic	-11.9256
▁parental	-11.9256
▁parkinson	-11.9256
▁paroxetine	-11.9256
▁parted	-11.9256
▁particals	-11.9256
▁partly	-11.9256
▁partook	-11.9256
▁passably	-11.9256
▁passionale	-11.9256
▁paste	-11.9256
▁pastime	-11.9256
▁pat	-11.9256
▁patched	-11.9256
▁pathologist	-11.9256
▁patriarchy	-11.9256
▁payed	-11.9256
▁payment	-11.9256
▁paypal	-11.9256
▁pcod	-11.9256
▁pcos	-11.9256
▁pd	-11.9256
▁pdf	-11.9256
▁peaked	-11.9256
▁peanut	-11.9256
▁pedophile	-11.9256
▁peek	-11.9256
▁peering	-11.9256
▁peeve	-11.9256
▁peg	-11.9256
▁peice	-11.9256
▁pen	-11.9256
▁pencil	-11.9256
▁pensacola	-11.9256
▁pep	-11.9256
▁pepper	-11.9256
▁pepsi	-11.9256
▁pepto	-11.9256
▁perceives	-11.9256
▁perceptual	-11.9256
▁perfectionist	-11.9256
▁performer	-11.9256
▁permabanned	-11.9256
▁permeating	-11.9256
▁permision	-11.9256
▁permission	-11.9256
▁permit	-11.9256
▁perpetual	-11.9256
▁perse	-11.9256
▁persisted	-11.9256
▁persists	-11.9256
▁personsl	-11.9256
▁perspire	-11.9256
▁persuade	-11.9256
▁pervasive	-11.9256
▁pessimistic	-11.9256
▁pestered	-11.9256
▁peticularily	-11.9256
▁petition	-11.9256
▁petrifies	-11.9256
▁petrol	-11.9256
▁petted	-11.9256
▁pf	-11.9256
▁pg	-11.9256
▁phantasmagoric	-11.9256
▁phantom	-11.9256
▁pharma	-11.9256
▁pharmacist	-11.9256
▁phew	-11.9256
▁philosopher	-11.9256
▁philosophical	-11.9256
▁phoenix	-11.9256
▁phoniness	-11.9256
▁photographer	-11.9256
▁photographing	-11.9256
▁php	-11.9256
▁phsycially	-11.9256
▁phycologists	-11.9256
▁physic	-11.9256
▁physicality	-11.9256
▁piano	-11.9256
▁pic	-11.9256
▁pieced	-11.9256
▁piecing	-11.9256
▁pigeon	-11.9256
▁pigeonholed	-11.9256
▁piggybacking	-11.9256
▁piglet	-11.9256
▁pinch	-11.9256
▁ping	-11.9256
▁pinkish	-11.9256
▁pinned	-11.9256
▁pinterest	-11.9256
▁pitched	-11.9256
▁pitfall	-11.9256
▁pitying	-11.9256
▁pixie	-11.9256
▁placate	-11.9256
▁plague	-11.9256
▁plalstic	-11.9256
▁plank	-11.9256
▁plannin	-11.9256
▁platonic	-11.9256
▁plausible	-11.9256
▁plausibly	-11.9256
▁player	-11.9256
▁plaything	-11.9256
▁pleads	-11.9256
▁pleaser	-11.9256
▁pleasw	-11.9256
▁plotting	-11.9256
▁plugged	-11.9256
▁plywood	-11.9256
▁pmdd	-11.9256
▁pnemonia	-11.9256
▁pneumonia	-11.9256
▁podcast	-11.9256
▁podcaster	-11.9256
▁poetic	-11.9256
▁pointer	-11.9256
▁poked	-11.9256
▁poking	-11.9256
▁polar	-11.9256
▁policing	-11.9256
▁politely	-11.9256
▁politics	-11.9256
▁poll	-11.9256
▁pollen	-11.9256
▁polution	-11.9256
▁pond	-11.9256
▁poo	-11.9256
▁poochy	-11.9256
▁pool	-11.9256
▁poorer	-11.9256
▁popcorn	-11.9256
▁popping	-11.9256
▁popsicle	-11.9256
▁populated	-11.9256
▁porcelain	-11.9256
▁porch	-11.9256
▁porg	-11.9256
▁portrait	-11.9256
▁portrayed	-11.9256
▁posh	-11.9256
▁positioned	-11.9256
▁positivity	-11.9256
▁posse	-11.9256
▁possessive	-11.9256
▁postgrad	-11.9256
▁postpartum	-11.9256
▁postural	-11.9256
▁potato	-11.9256
▁potatoe	-11.9256
▁potency	-11.9256
▁potent	-11.9256
▁potion	-11.9256
▁potter	-11.9256
▁pouring	-11.9256
▁pov	-11.9256
▁powder	-11.9256
▁powering	-11.9256
▁ppls	-11.9256
▁practitioner	-11.9256
▁prayer	-11.9256
▁precaution	-11.9256
▁precieve	-11.9256
▁precipice	-11.9256
▁precise	-11.9256
▁precisely	-11.9256
▁precursor	-11.9256
▁predicament	-11.9256
▁prednisone	-11.9256
▁preety	-11.9256
▁prefaced	-11.9256
▁preferable	-11.9256
▁preferred	-11.9256
▁pregabalin	-11.9256
▁prematurely	-11.9256
▁premier	-11.9256
▁prentedn	-11.9256
▁prentenious	-11.9256
▁preposterously	-11.9256
▁prerequisite	-11.9256
▁presaging	-11.9256
▁prescribes	-11.9256
▁presently	-11.9256
▁preserve	-11.9256
▁pressing	-11.9256
▁presssure	-11.9256
▁presumably	-11.9256
▁presumed	-11.9256
▁pretended	-11.9256
▁pretense	-11.9256
▁pretentious	-11.9256
▁prettiest	-11.9256
▁preventable	-11.9256
▁preventative	-11.9256
▁prevention	-11.9256
▁prework	-11.9256
▁priceless	-11.9256
▁pricier	-11.9256
▁prick	-11.9256
▁pricking	-11.9256
▁prickly	-11.9256
▁primed	-11.9256
▁priming	-11.9256
▁primitive	-11.9256
▁prince	-11.9256
▁princess	-11.9256
▁principal	-11.9256
▁prioritise	-11.9256
▁prioritize	-11.9256
▁prism	-11.9256
▁pristq	-11.9256
▁privacy	-11.9256
▁priveleged	-11.9256
▁privilaged	-11.9256
▁prize	-11.9256
▁prn	-11.9256
▁proactive	-11.9256
▁probability	-11.9256
▁probaply	-11.9256
▁proceded	-11.9256
▁proceeding	-11.9256
▁proceeds	-11.9256
▁processed	-11.9256
▁prochlorperazine	-11.9256
▁procreating	-11.9256
▁prod	-11.9256
▁prodded	-11.9256
▁productively	-11.9256
▁proffessional	-11.9256
▁profiting	-11.9256
▁profusely	-11.9256
▁prognosis	-11.9256
▁programmed	-11.9256
▁programming	-11.9256
▁progressed	-11.9256
▁progressively	-11.9256
▁projection	-11.9256
▁promo	-11.9256
▁promote	-11.9256
▁promotes	-11.9256
▁prompt	-11.9256
▁proof	-11.9256
▁proofreading	-11.9256
▁propanolol	-11.9256
▁prophecy	-11.9256
▁prosperity	-11.9256
▁prostitute	-11.9256
▁protein	-11.9256
▁proudest	-11.9256
▁proudly	-11.9256
▁provera	-11.9256
▁providing	-11.9256
▁psy	-11.9256
▁psyanin	-11.9256
▁psychanalist	-11.9256
▁psychatric	-11.9256
▁psychiatrictimes	-11.9256
▁psycho	-11.9256
▁psychoanalyst	-11.9256
▁psychogenic	-11.9256
▁psychologied	-11.9256
▁psychopath	-11.9256
▁psychopharmaca	-11.9256
▁psychotropic	-11.9256
▁pubes	-11.9256
▁published	-11.9256
▁publishing	-11.9256
▁puff	-11.9256
▁puked	-11.9256
▁puking	-11.9256
▁pulmonologists	-11.9256
▁pulsating	-11.9256
▁pulsing	-11.9256
▁punching	-11.9256
▁punctual	-11.9256
▁puncture	-11.9256
▁punishes	-11.9256
▁pupil	-11.9256
▁purchased	-11.9256
▁purge	-11.9256
▁purist	-11.9256
▁purposeless	-11.9256
▁pursing	-11.9256
▁pwease	-11.9256
▁q	-11.9256
▁qualifies	-11.9256
▁qualify	-11.9256
▁quantify	-11.9256
▁quasimodo	-11.9256
▁quentin	-11.9256
▁quest	-11.9256
▁questioned	-11.9256
▁quetamine	-11.9256
▁quickbooks	-11.9256
▁quicker	-11.9256
▁quicly	-11.9256
▁quieted	-11.9256
▁quinoa	-11.9256
▁quiting	-11.9256
▁quitter	-11.9256
▁quo	-11.9256
▁quora	-11.9256
▁quotation	-11.9256
▁racist	-11.9256
▁radar	-11.9256
▁radiate	-11.9256
▁radiating	-11.9256
▁radiologist	-11.9256
▁radius	-11.9256
▁railing	-11.9256
▁rainbow	-11.9256
▁rainy	-11.9256
▁rambly	-11.9256
▁ramsey	-11.9256
▁rando	-11.9256
▁rang	-11.9256
▁ranged	-11.9256
▁ranger	-11.9256
▁rank	-11.9256
▁ranking	-11.9256
▁ranty	-11.9256
▁rap	-11.9256
▁rape	-11.9256
▁rapist	-11.9256
▁rapport	-11.9256
▁rapunzled	-11.9256
▁rarer	-11.9256
▁ration	-11.9256
▁rationalised	-11.9256
▁rationality	-11.9256
▁rationalizing	-11.9256
▁ravaging	-11.9256
▁raving	-11.9256
▁raw	-11.9256
▁raynaud	-11.9256
▁razor	-11.9256
▁rdation	-11.9256
▁reacted	-11.9256
▁reader	-11.9256
▁realizes	-11.9256
▁realm	-11.9256
▁rear	-11.9256
▁rearing	-11.9256
▁reasonably	-11.9256
▁reassess	-11.9256
▁reate	-11.9256
▁reawakens	-11.9256
▁rebirth	-11.9256
▁reborn	-11.9256
▁rebounded	-11.9256
▁rebranded	-11.9256
▁rebutted	-11.9256
▁recalling	-11.9256
▁recap	-11.9256
▁receipt	-11.9256
▁recenntly	-11.9256
▁receptive	-11.9256
▁recieve	-11.9256
▁recipe	-11.9256
▁reciting	-11.9256
▁recive	-11.9256
▁recluse	-11.9256
▁recognised	-11.9256
▁recognising	-11.9256
▁recognition	-11.9256
▁recoil	-11.9256
▁recollection	-11.9256
▁reconcile	-11.9256
▁reconnect	-11.9256
▁reconsider	-11.9256
▁recorded	-11.9256
▁recovers	-11.9256
▁recreate	-11.9256
▁recreationally	-11.9256
▁recruiting	-11.9256
▁redeem	-11.9256
▁redeemable	-11.9256
▁redeemed	-11.9256
▁redemption	-11.9256
▁reduces	-11.9256
▁reduction	-11.9256
▁reek	-11.9256
▁referred	-11.9256
▁referring	-11.9256
▁refers	-11.9256
▁reflected	-11.9256
▁reflection	-11.9256
▁reframing	-11.9256
▁refreshing	-11.9256
▁regal	-11.9256
▁regarded	-11.9256
▁regenerates	-11.9256
▁registrar	-11.9256
▁registration	-11.9256
▁regressing	-11.9256
▁reground	-11.9256
▁regularity	-11.9256
▁regulating	-11.9256
▁rehab	-11.9256
▁rehabilitation	-11.9256
▁reherniated	-11.9256
▁reherniation	-11.9256
▁reincarnation	-11.9256
▁reinforced	-11.9256
▁reinforcement	-11.9256
▁reiterate	-11.9256
▁reject	-11.9256
▁rejoined	-11.9256
▁rejuvenate	-11.9256
▁relatable	-11.9256
▁relaxes	-11.9256
▁relay	-11.9256
▁relearning	-11.9256
▁relentless	-11.9256
▁reliably	-11.9256
▁relies	-11.9256
▁relocate	-11.9256
▁reluctance	-11.9256
▁relying	-11.9256
▁remains	-11.9256
▁remarried	-11.9256
▁remeber	-11.9256
▁remedial	-11.9256
▁reminding	-11.9256
▁reminisce	-11.9256
▁reminiscing	-11.9256
▁remnant	-11.9256
▁rendered	-11.9256
▁rene	-11.9256
▁renewed	-11.9256
▁renovation	-11.9256
▁rental	-11.9256
▁renting	-11.9256
▁reoccurring	-11.9256
▁repaired	-11.9256
▁repaying	-11.9256
▁repercussion	-11.9256
▁repetitively	-11.9256
▁rephrase	-11.9256
▁replacement	-11.9256
▁replacing	-11.9256
